{"version":"1.0","truncation":null,"padding":null,"added_tokens":[{"id":0,"special":true,"content":"</s>","single_word":false,"lstrip":false,"rstrip":false,"normalized":false},{"id":1,"special":true,"content":"<pad>","single_word":false,"lstrip":false,"rstrip":false,"normalized":false}],"normalizer":null,"pre_tokenizer":{"type":"ByteLevel","add_prefix_space":false,"trim_offsets":true},"post_processor":{"type":"ByteLevel","add_prefix_space":true,"trim_offsets":false},"decoder":{"type":"ByteLevel","add_prefix_space":true,"trim_offsets":true},"model":{"dropout":null,"unk_token":null,"continuing_subword_prefix":null,"end_of_word_suffix":null,"fuse_unk":false,"vocab":{"</s>":0,"<pad>":1,"!":2,"\"":3,"#":4,"$":5,"%":6,"&":7,"'":8,"(":9,")":10,"*":11,"+":12,",":13,"-":14,".":15,"/":16,"0":17,"1":18,"2":19,"3":20,"4":21,"5":22,"6":23,"7":24,"8":25,"9":26,":":27,";":28,"<":29,"=":30,">":31,"?":32,"@":33,"A":34,"B":35,"C":36,"D":37,"E":38,"F":39,"G":40,"H":41,"I":42,"J":43,"K":44,"L":45,"M":46,"N":47,"O":48,"P":49,"Q":50,"R":51,"S":52,"T":53,"U":54,"V":55,"W":56,"X":57,"Y":58,"Z":59,"[":60,"\\":61,"]":62,"^":63,"_":64,"`":65,"a":66,"b":67,"c":68,"d":69,"e":70,"f":71,"g":72,"h":73,"i":74,"j":75,"k":76,"l":77,"m":78,"n":79,"o":80,"p":81,"q":82,"r":83,"s":84,"t":85,"u":86,"v":87,"w":88,"x":89,"y":90,"z":91,"{":92,"|":93,"}":94,"~":95,"¡":96,"¢":97,"£":98,"¤":99,"¥":100,"¦":101,"§":102,"¨":103,"©":104,"ª":105,"«":106,"¬":107,"®":108,"¯":109,"°":110,"±":111,"²":112,"³":113,"´":114,"µ":115,"¶":116,"·":117,"¸":118,"¹":119,"º":120,"»":121,"¼":122,"½":123,"¾":124,"¿":125,"À":126,"Á":127,"Â":128,"Ã":129,"Ä":130,"Å":131,"Æ":132,"Ç":133,"È":134,"É":135,"Ê":136,"Ë":137,"Ì":138,"Í":139,"Î":140,"Ï":141,"Ð":142,"Ñ":143,"Ò":144,"Ó":145,"Ô":146,"Õ":147,"Ö":148,"×":149,"Ø":150,"Ù":151,"Ú":152,"Û":153,"Ü":154,"Ý":155,"Þ":156,"ß":157,"à":158,"á":159,"â":160,"ã":161,"ä":162,"å":163,"æ":164,"ç":165,"è":166,"é":167,"ê":168,"ë":169,"ì":170,"í":171,"î":172,"ï":173,"ð":174,"ñ":175,"ò":176,"ó":177,"ô":178,"õ":179,"ö":180,"÷":181,"ø":182,"ù":183,"ú":184,"û":185,"ü":186,"ý":187,"þ":188,"ÿ":189,"Ā":190,"ā":191,"Ă":192,"ă":193,"Ą":194,"ą":195,"Ć":196,"ć":197,"Ĉ":198,"ĉ":199,"Ċ":200,"ċ":201,"Č":202,"č":203,"Ď":204,"ď":205,"Đ":206,"đ":207,"Ē":208,"ē":209,"Ĕ":210,"ĕ":211,"Ė":212,"ė":213,"Ę":214,"ę":215,"Ě":216,"ě":217,"Ĝ":218,"ĝ":219,"Ğ":220,"ğ":221,"Ġ":222,"ġ":223,"Ģ":224,"ģ":225,"Ĥ":226,"ĥ":227,"Ħ":228,"ħ":229,"Ĩ":230,"ĩ":231,"Ī":232,"ī":233,"Ĭ":234,"ĭ":235,"Į":236,"į":237,"İ":238,"ı":239,"Ĳ":240,"ĳ":241,"Ĵ":242,"ĵ":243,"Ķ":244,"ķ":245,"ĸ":246,"Ĺ":247,"ĺ":248,"Ļ":249,"ļ":250,"Ľ":251,"ľ":252,"Ŀ":253,"ŀ":254,"Ł":255,"ł":256,"Ń":257,"!!":258,"!!!!":259,"!!!!!!!!":260,"``":261,"!!!!!!!!!!!!!!!!":262,"!!!!!!!!!!!!":263,"do":264,"up":265,"wn":266,"down":267,"!!!":268,"!!!!!!!!!!!!!!!!!!!!!!!!!!!!":269,"````":270,"!!!!!!!!!":271,"!!!!!!!":272,"!!!!!!!!!!":273,"!!!!!!!!!!!":274,"!!!!!!":275,"```":276,"!!!!!":277,"aa":278,"!!!!!!!!!!!!!":279,"!!!!!!!!!!!!!!":280,"!!!!!!!!!!!!!!!":281,"11":282,"22":283,"00":284,"__":285,"16":286,"09":287,"26":288,"04":289,"18":290,"14":291,"08":292,"27":293,"19":294,"23":295,"03":296,"07":297,"17":298,"24":299,"05":300,"20":301,"02":302,"25":303,"06":304,"10":305,"13":306,"15":307,"12":308,"01":309,"21":310,"````````":311,"`_":312,"aaaa":313,"`````":314,"!!!!!!!!!!!!!!!!!":315,"_`":316,"``````":317,"`^":318,"^`":319,"]`":320,"!!!!!!!!!!!!!!!!!!":321,"[`":322,"```````":323,"`]":324,"aaa":325,"`[":326,"\\`":327,"`\\":328,"``^":329,"]``":330,"``]":331,"^``":332,"[``":333,"_``":334,"!!!!!!!!!!!!!!!!!!!":335,"AA":336,"\\``":337,"____":338,"``[":339,"``_":340,"``\\":341,"`````````":342,"\"!!!!!!!!!":343,"\"!!!!!!!!":344,"#!!!!!!!!!":345,"#!!!!!!!!":346,"aaA":347,"!!!!!!!\"":348,"\"!!!!!!":349,"!!!!!!!!!!\"":350,"aaaaaaaa":351,"\"!!!!!!!":352,"66":353,"___":354,"\"!!!!!!!!!!":355,"!!!!!!!!\"":356,"!!!!!!!!!\"":357,"#!!!!!!!":358,"\"!!!!!":359,"$!!!!!!!!":360,"!!!!!!!!!#":361,"$!!!!!!!":362,"KK":363,"#!!!!!!":364,"!!!!!!!!#":365,"``````````":366,"!!!!!!!!!!#":367,"$!!!!!!!!!":368,"(!!!!!!!!":369,"&!!!!!!!!":370,"!!!!!!!!!!!\"":371,"!!!!!!!#":372,"#!!!!!!!!!!":373,"`?":374,"aaP":375,"&!!!!!!!":376,"```^":377,"$!!!!!!":378,"`=":379,"`@":380,"%!!!!!!!!":381,"(!!!!!!!!!":382,"!!!!!!\"":383,"`>":384,"%!!!!!!!!!":385,"&!!!!!!!!!":386,"%!!!!!!!":387,"]```":388,"?`":389,"$!!!!!!!!!!":390,"!!!!!!!!%":391,"\"!!!!":392,"#!!!!!":393,"=`":394,"\"!!!!!!!!!!!":395,"!!!!!!!!$":396,"!!!!!!!!&":397,"?``":398,"!!!!!!!!!!!#":399,"```````````":400,"'!!!!!!!":401,"`_`_":402,"!!!!!!!!!$":403,"^```":404,"!!!!!!!!!!$":405,"!!!!!!#":406,"!!!!!!!!!!!!!!!!!!!!":407,"CC":408,"!!!!!!!!!%":409,"!!!!!!!!!&":410,"!!!!!!!%":411,"!!!!!!!!!!!!\"":412,"`<":413,"!!!!!!!$":414,"``>":415,"[```":416,"==":417,"'!!!!!!!!":418,"&!!!!!!":419,"%!!!!!!!!!!":420,">`":421,"$!!!!!":422,"``<":423,"%!!!!!!":424,"@`":425,"<`":426,"_```":427,"\\```":428,"II":429,"#!!!!!!!!!!!":430,"(!!!!!!!":431,"``=":432,"aP":433,"FF":434,";`":435,"//":436,"&!!!!!!!!!!":437,"DD":438,"``:":439,"``;":440,"(!!!!!!!!!!":441,"$!!!!!!!!!!!":442,"!!!!!!!!!!%":443,"!!!!!\"":444,"`;":445,"``?":446,"!!!!!!!!'":447,"EE":448,"!!!!!!!!!!&":449,"!!!!!!$":450,"RR":451,"!!!!!!!!!!!$":452,"PP":453,"aA":454,"\"!!!":455,"`:":456,"!!!!!!!!!(":457,"!!!!!!!!!'":458,"#!!!!":459,"=``":460,"!!!!!!!!(":461,"!!!!!!!!!!!!#":462,"!!!!!!!!!!!%":463,"'!!!!!!!!!":464,"``@":465,"+!!!!!!!!":466,"!!!!!!!&":467,"'!!!!!!":468,",,":469,"[[":470,"SS":471,"GG":472,"WW":473,"*!!!!!!!!":474,"ZZ":475,"(!!!!!!!!!!!":476,"<<":477,"(!!!!!!":478,":`":479,"%!!!!!!!!!!!":480,"!!!!!!!'":481,";``":482,"!!!!!!!!!!(":483,"$!!!!":484,"!!!!!!%":485,":``":486,"%!!!!!":487,"*!!!!!!!":488,"*!!!!!!!!!":489,"/``":490,"+!!!!!!!!!":491,"'!!!!!!!!!!":492,"!!!!!#":493,"!!!!!!!!!!!&":494,"YY":495,"+!!!!!!!":496,"((":497,"```[":498,"```]":499,"````````````":500,")!!!!!!!":501,"&!!!!!":502,"aaaA":503,">``":504,"(!!!!!":505,"BB":506,"!!!!!!!!!!'":507,"!!!!!!!*":508,"-!!!!!!!!!":509,"!!!!!!!!!!!!%":510,"!!!!!!!!!)":511,"<``":512,"`____":513,"!!!!!!!!!!!!$":514,"'!!!!!!!!!!!":515,"#!!!":516,")!!!!!!!!":517,">>":518,"aK":519,"\"!!":520,"!!!!!!!!!!!!!\"":521,"!!!!!!!(":522,"!!!!!!!!)":523,"&!!!!!!!!!!!":524,"*!!!!!!":525,"@``":526,"--":527,"aaaP":528,"!!!!!!!!!!!!'":529,"!!!!!!!!+":530,"!!!!!!!!!!!!!#":531,"+!!!!!!!!!!":532,"-!!!!!!!!":533,"!!!!!!!!!*":534,"!!!!!!!!!!*":535,")!!!!!!!!!":536,"*!!!!!!!!!!":537,"-!!!!!!!":538,"!!!!!!!!!!!'":539,"%!!!!":540,"```\\":541,"&!!!!":542,"!!!!!!!!*":543,",!!!!!!!!":544,"/!!!!!!!!!":545,"\"!":546,"HH":547,"```_":548,"]]":549,")!!!!!!":550,"-!!!!!!!!!!":551,"\"!!!!!!!!!!!!":552,"(!!!!":553,"!!!!!!!!!!!(":554,"/!!!!!!!!":555,"!!!!!!!!!!!!&":556,"!!!!!!!!!+":557,"99":558,"!!!!!$":559,".!!!!!!!!":560,"!!!!!!!!!!!!(":561,"!!!!!!!!-":562,"VV":563,"@@":564,"''":565,"#!!!!!!!!!!!!":566,"::":567,"++":568,"!!!!!!!!!,":569,"$!!!":570,"`__":571,"**":572,"!!!!!!&":573,"+!!!!!!!!!!!":574,"!!!!!!'":575,";;":576,"MM":577,"!!!!!!!!!!+":578,"_`_":579,"XX":580,"aY":581,"))":582,"#!!":583,"'!!!!!":584,"^^":585,")!!!!!!!!!!":586,",!!!!!!!!!":587,"!!!!!!!!!!!*":588,"!!!!!!!-":589,"&&":590,".!!!!!!!":591,"Paaaa":592,"!!!!!!!)":593,"!!!!!!(":594,"!!!!!!!!!!)":595,"!!!!!!!!!!!+":596,"!!!!!%":597,"/!!!!!!!":598,"!!!!!!!!!!!!!(":599,"!!!!!!*":600,"!!!!!!!!!-":601,"/!!!!!!!!!!":602,"^````":603,"#!":604,"_````":605,"+!!!!!!":606,"]````":607,"??":608,"Aaaaa":609,"!!!!!!!!!!-":610,"*!!!!!":611,"-!!!!!!":612,"(!!!!!!!!!!!!":613,",!!!!!!!":614,"!!!!!!!!!!!-":615,"88":616,"&!!!":617,"!!!!\"":618,",``":619,"!!!!!!!+":620,".!!!!!!!!!":621,"!!!!!!!!/":622,"!!!!!!!!!!!!!%":623,"!!!!!!!!!!!!+":624,"TT":625,"!!!!!!!!!!!!!$":626,",!!!!!!!!!!":627,"aR":628,"!!!!!!!!!/":629,")!!!!!":630,"$!!":631,"*!!!!!!!!!!!":632,"-!!!!!!!!!!!":633,"OO":634,"/!!!!!!":635,"!!!!!!!!!!!)":636,"!!!!!!!!!!!!!!\"":637,"\\\\":638,"%!!!":639,"/!!!!!":640,"$!!!!!!!!!!!!":641,"(!!!":642,"!\"":643,"!!!!!!!!,":644,"!!!!!!!!!!!!!!#":645,"NN":646,"!!!!!!!!!.":647,"%%":648,".!!!!!!":649,"!!!!!!!!!!!!-":650,"!!!!!!!!!!!!!+":651,"[````":652,",!!!!!!!!!!!":653,"'!!!!":654,"/!!!!!!!!!!!":655,"!!!!!!!!!!!!*":656,"Aaa":657,".!!!!!!!!!!":658,"QQ":659,",!!!!!!":660,",!!!!!":661,"UU":662,"\"!!!!!!!!!!!!!":663,"!!!!!!!!!!,":664,"+!!!!!":665,"___`":666,"!!!!!!!/":667,"!!!!!!!!.":668,"\\````":669,"&!!!!!!!!!!!!":670,"%!!!!!!!!!!!!":671,"!!!!!!)":672,"!!!!!!!!!!/":673,"33":674,"!!!!!&":675,"$!":676,"77":677,"44":678,"'!!!":679,"!!\"":680,"LL":681,"!!!!!!!!!!!!!!$":682,"!!!!!!!!!!!!)":683,"+!!!!!!!!!!!!":684,"!!!!!!!!!!!!!&":685,"!!!!!'":686,"##":687,"Ka":688,")!!!!!!!!!!!":689,"$$":690,"!!!!!(":691,"/!!!!":692,"#!!!!!!!!!!!!!":693,"/!!!!!!!!!!!!":694,"!!!!!!+":695,"!!!!!!!!!!!!!'":696,"!!!!!!!.":697,")!!!!":698,".!!!!!!!!!!!":699,"!!!!!!!,":700,"`````````````":701,"-!!!!!":702,",!!!!":703,"!!!!!!!!!!!!!!!\"":704,"Pa":705,"!!!!!!!!!!!!/":706,"%!!":707,"AaaA":708,"&!!":709,"+!!!!":710,"(!!":711,"%!":712,"!!!!!!-":713,"&!":714,"!!!!!!!!!!.":715,"*!!!!":716,"!!!!!!!!!!!/":717,"!!!!!!,":718,"'!!!!!!!!!!!!":719,"````^":720,"..":721,"!!!!!!!!!!!,":722,"!!!!!*":723,"!!!!!!/":724,"!!!!!!!!!!!!!!%":725,"!!!!!!!!!!!!!-":726,"-!!!!":727,"!!!!!!!!!!!!!)":728,"!!!\"":729,"!!!!!!!!!!!!!!!#":730,"Paa":731,"$!!!!!!!!!!!!!":732,"\"\"":733,"55":734,"JJ":735,"^_":736,"!!!!!!!!!!!!!!&":737,"(!":738,"!!!!!!!!!!!!,":739,"!!!!!!!!!!!!!!'":740,"!!!!!!!!!!!!!!(":741,"!!!!#":742,"*!!!":743,"&!!!!!!!!!!!!!":744,"!!!!!!!!!!!!!!!$":745,"(!!!!!!!!!!!!!":746,"````[":747,")!!!!!!!!!!!!":748,"Ya":749,"````]":750,"!!!!!)":751,"_^":752,"`````^":753,",!!!!!!!!!!!!":754,"!!!!$":755,"!!!!!!!!!!!.":756,"+!!!":757,"!!!!!!!!!!!!!*":758,"'!!":759,".!!!!!!!!!!!!":760,"````_":761,"*!!!!!!!!!!!!":762,"<```":763,"-!!!!!!!!!!!!":764,".!!!!!":765,"!!!!!!.":766,"'!":767,"!!!!!!!!!!!!!/":768,"!!!!!-":769,"/!!!":770,"%!!!!!!!!!!!!!":771,"```>":772,"!!!!!!!!!!!!!!!%":773,"!!!!!+":774,"\"!!!!!!!!!!!!!!":775,"!!!!!!!!!!!!!!!&":776,"````\\":777,"!!!!!!!!!!!!!!-":778,")!!!":779,"-!!!":780,"!!!!!!!!!!!!!!+":781,"!!#":782,"```<":783,"``````````````":784,"!!!!!!!!!!!!!!)":785,"_]":786,"!!!!!!!!!!!!!.":787,"`````]":788,"Ra":789,"```=":790,"!#":791,"!!!!%":792,"!!!!!!!!!!!!!,":793,"!!!!!!!!!!!!!!!!\"":794,"!!!!!!!!!!!!!!!'":795,"!!!!!!!!!!!!!!*":796,"!!!!!!!!!!!!.":797,"Aaaa":798,"!!!!!,":799,"`___":800,"!!!#":801,"?```":802,"AP":803,"/!!!!!!!!!!!!!":804,";```":805,";!!!!!!!!":806,"!!!!&":807,"!!!!!/":808,"`````[":809,"!!!!!!!!!!!!!!!(":810,"$!!!!!!!!!!!!!!":811,"!!!!!!!!!=":812,"!!!!!!!!=":813,",!!!":814,"*!!":815,"#!!!!!!!!!!!!!!":816,"+!!":817,"]_":818,"`````\\":819,"!!!!(":820,"'!!!!!!!!!!!!!":821,"]^":822,"!!!!!!!!!!!!!!!!!!!!!":823,":!!!!!!!!":824,"!$":825,"!!!!!!!!!!=":826,"Da":827,"!!!!'":828,"=!!!!!!!!":829,"\\_":830,">```":831,".!!!!":832,"!%":833,"+!!!!!!!!!!!!!":834,"!!!!!!!!!!!!!!!!#":835,"AAAA":836,"_[":837,"-!!!!!!!!!!!!!":838,"!!!!!!!=":839,"``````^":840,"!!!!!!!!:":841,"```?":842,"!!!!!!!!!!!!!!!!%":843,"!!!!!!!!!!!!!!!-":844,")!!!!!!!!!!!!!":845,"=!!!!!!!!!":846,"!!!!!!!!!!!!!!!*":847,"!!!!!!!!!!!!!!/":848,")!!":849,";!!!!!!!!!":850,"!!!!!!!:":851,"Za":852,"KY":853,"!!!!!!!!!!!!!!.":854,"-!!":855,"!&":856,"=!!!!!!!":857,"!!!$":858,"[_":859,";!!!!!!!":860,"&!!!!!!!!!!!!!!":861,"``````_":862,"!!!!!!!!!!!!!!!!$":863,":!!!!!!!!!":864,"]`````":865,"!!!!!!!!!!:":866,"``````]":867,"!!!!!!!!;":868,"!!!!!!!!!!!!!!!+":869,"_\\":870,"!!!!!!!!!;":871,"```@":872,"/!!":873,"!!!!!!!!!!!!!!,":874,"[^":875,"`````_":876,"Aaaaaaaaa":877,"=!!!!!!!!!!":878,"^]":879,":!!!!!!!":880,"*!!!!!!!!!!!!!":881,",!!":882,"!!!!!!!!!!!!!!!!&":883,"PaaA":884,"AaaP":885,"^`````":886,"@```":887,"Paaa":888,"+!":889,"!!!%":890,"(!!!!!!!!!!!!!!":891,"%!!!!!!!!!!!!!!":892,"!!!!*":893,"!!!!!!!!!:":894,",!!!!!!!!!!!!!":895,"!!!!!!!!!!!=":896,"'!!!!!!!!!!!!!!":897,"?!!!!!!!!":898,"_`````":899,"[`````":900,":!!!!!!!!!!":901,"PaaP":902,"!!!!!.":903,">!!!!!!!!":904,"\"!!!!!!!!!!!!!!!":905,"!!!!!!:":906,".!!!":907,"\\^":908,"!!!!!!!!!!;":909,"YK":910,"!!!!)":911,"*!":912,"!!!!!!!!!!!!!!!!(":913,"!!!!!!!!!!!!!!!)":914,";!!!!!!":915,"!!!!!!!!?":916,"?!!!!!!!!!":917,"!!!!!!!!!?":918,"Aa":919,";!!!!!!!!!!":920,"!!!!-":921,"=!!!!!!":922,"!!!!!!!!!<":923,"]``````":924,"aV":925,":!!!!!!":926,"!!!!+":927,"\\`````":928,"[`[":929,"aD":930,"`_`":931,"][":932,">!!!!!!!!!":933,"!!$":934,"]````````":935,"!!&":936,"!!!(":937,"!!!!!!!!!!?":938,"@!!!!!!!!!!":939,"+!!!!!!!!!!!!!!":940,"-!!!!!!!!!!!!!!":941,"!!!&":942,"!!!!!!!;":943,"!!!!!!!!!!!:":944,"<!!!!!!!!!!":945,"__`":946,"!!%":947,"!(":948,"?!!!!!!!":949,"^\\":950,"_`^":951,"<!!!!!!!!":952,"<!!!!!!!!!!!":953,"^``````":954,"]`^":955,"<!!!!!!!!!":956,"aT":957,"Paaaaaaaa":958,"!!!!!!!!@":959,"```````^":960,"!!!!!``":961,"!!!!!!!@":962,"!!!!!!!!!!!!!!!!'":963,".!!!!!!!!!!!!!":964,"[``````":965,"AaA":966,"aX":967,"PaP":968,"<!!!!!!!":969,"^````````":970,"!!!!!!!!<":971,"!!!!!!=":972,"!!!!!!!!!!!!!!!/":973,"#!!!!!!!!!!!!!!!":974,")!":975,"!!!!!!!!!!!!!!!,":976,"!!!!!!!!!!!!!!!.":977,"```````]":978,"666":979,"_````````":980,";!!!!!!!!!!!":981,"^`_":982,"aaK":983,"^`^":984,"!!!!!!!!!!!!=":985,"!!!!!!!!!!!!!!!!*":986,"/!":987,"!!!!!!!!!>":988,"!!!!!!!!!!!!!<":989,"!!!'":990,"aZ":991,"*!!!!!!!!!!!!!!":992,"!!!!!!!!!!!!!!!!+":993,"!!!!!!!!!!!!!!!!-":994,"^`]":995,"!!!!!!!!!@":996,"!!!!!!!!!!<":997,"-!":998,"!!!!!!!!!!!!!!!!!\"":999,">!!!!!!!":1000,"_``````":1001,"/!!!!!!!!!!!!!!":1002,"@!!!!!!!!!":1003,"aW":1004,"AAA":1005,")!!!!!!!!!!!!!!":1006,"!!!!!!!?":1007,"!!!!,":1008,"=!!!!!!!!!!!":1009,":!!!!!":1010,"!!!!/":1011,"<!!!!!!":1012,"!!!!!!!!!!!!!!!!!#":1013,"!!!!!!;":1014,"!!!!!!!!!!!!:":1015,"$!!!!!!!!!!!!!!!":1016,"[]":1017,"^[":1018,"!!!!!!!!!!!!@":1019,"aN":1020,"!!!!!!!!!!!!!!!!)":1021,"!!!!!!!!!!!!!!!!!%":1022,"!!'":1023,"!!(":1024,">!!!!!!!!!!":1025,"!!!!!!!<":1026,"@!!!!!!":1027,"_`]":1028,"!!!!!!!!!!!@":1029,"Qa":1030,":!!!!!!!!!!!":1031,"`_`_`_`_":1032,"@!!!!!!!":1033,"aaY":1034,"=!!!!!":1035,"aU":1036,",!":1037,"\\``````":1038,"!!!!!!!!>":1039,"]`_":1040,"!!!*":1041,"```````````````":1042,"!!!!!!!!!!!?":1043,"!!!+":1044,"?!!!!!!!!!!":1045,"!!!!!!!!!!>":1046,"]`]":1047,"!!!!!!>":1048,"PA":1049,"_`[":1050,"@!!!!!!!!":1051,"aF":1052,"!!!!!!!!!!!<":1053,"!!!!!!!>":1054,"_`____":1055,"[`^":1056,"!!!!!:":1057,",!!!!!!!!!!!!!!":1058,"!!!!!!!!!!!!<":1059,"__`_":1060,";!!!!!":1061,"[````````":1062,"aaaaa":1063,"!!!!!!!!!!@":1064,"\\]":1065,"^`[":1066,"?!!!!!!":1067,"```````_":1068,"\\`_":1069,"&!!!!!!!!!!!!!!!":1070,"AaP":1071,"!!!-":1072,"ZA":1073,"aaR":1074,"PaA":1075,"!!!!!=":1076,"DY":1077,"KR":1078,"]\\":1079,"!!!!!```":1080,"!!!!!!!!!!!;":1081,"!'":1082,"AV":1083,"``````[":1084,"!!+":1085,"(!!!!!!!!!!!!!!!":1086,"@!!!!!!!!!!!":1087,"%!!!!!!!!!!!!!!!":1088,">!!!!!!":1089,"``!!!":1090,"[\\":1091,"!!!!!!!!!!!!!!!!!&":1092,"``````\\":1093,"!!!!!!!!!!!>":1094,"!!!!!!!!!!!!!!!!/":1095,"YR":1096,"_`__":1097,"Sa":1098,"BZ":1099,"Na":1100,"!!!!!!!!!!!!!!!!!$":1101,"aaaaA":1102,"^`\\":1103,";!!!!!!!!!!!!":1104,"[`\\":1105,"```````[":1106,"YA":1107,"_`\\":1108,"CCC":1109,"!!!!!!<":1110,"\\`^":1111,"!!!!.":1112,"=!!!!!!!!!!!!":1113,"!+":1114,"``!!!!!!!!!":1115,"``!!!!":1116,".!!":1117,"XC":1118,"AaaaA":1119,"Wa":1120,":!!!!!!!!!!!!":1121,"AZ":1122,"'!!!!!!!!!!!!!!!":1123,"!!!!!!!!!!!!!=":1124,"!!!)":1125,"YZ":1126,"!!!!!!!!!!!!!!!!,":1127,"?!!!!!!!!!!!":1128,"VA":1129,"\\`]":1130,"!!!!!!@":1131,"AaaaP":1132,"``<!!!!!!!!!!!":1133,"\\[":1134,"<!!!!!":1135,"!!!!!!?":1136,"aL":1137,"!*":1138,"^```````":1139,"aaD":1140,"===":1141,"RY":1142,"]```````":1143,"@!!!!!":1144,"__`____":1145,"!!!!!!!!!!!!;":1146,"!!!!!!!!!!!!!!!!!(":1147,"\\`\\":1148,"]`[":1149,"\\````````":1150,"[`]":1151,"[`_":1152,"!!*":1153,"!)":1154,"KKK":1155,"ZB":1156,"!!!!!!!!!!!!!!!!!'":1157,"``!!!!!!!!":1158,"III":1159,"FFF":1160,":!!!!":1161,"/`":1162,"!!!!!!!!!!!!!;":1163,"]`\\":1164,"<!!!!!!!!!!!!":1165,"!!)":1166,"AY":1167,"6666":1168,"aQ":1169,"SX":1170,"ZC":1171,"!!!!!!!!!!!!!!=":1172,"IX":1173,"ZY":1174,"````````````````":1175,"EEE":1176,"\\`[":1177,"_```````":1178,";!!!!":1179,"!!!!!!!!!!!!>":1180,"!!!!!!!!!!!!!!!!!)":1181,"-``":1182,"XY":1183,"!!!!!!!!!!!!!!!!.":1184,"!!!!!;":1185,"!!!!!!!!!!!!!!!!!+":1186,"+!!!!!!!!!!!!!!!":1187,"___`____":1188,">!!!!!":1189,"WZ":1190,"=!!!!":1191,"ZE":1192,"!!!!!!!!!!!!?":1193,"///":1194,"!!!!!!!!!!!!!:":1195,"-!!!!!!!!!!!!!!!":1196,"!!!!!<":1197,"*!!!!!!!!!!!!!!!":1198,"aO":1199,"CZ":1200,">!!!!!!!!!!!":1201,"Ha":1202,"ZI":1203,"ZW":1204,"-`":1205,"!!!/":1206,"aaaaP":1207,"`>!!!!!!!!!":1208,"!!!,":1209,"!!!!!!!!!!!!!@":1210,"YX":1211,"Va":1212,".!":1213,"65":1214,"RRR":1215,"PaaaP":1216,"YD":1217,"ZD":1218,"<<<":1219,":!!!!!!!!!!!!!":1220,"VY":1221,"``!!!!!!!!!!!!!":1222,",,,":1223,"?!!!!!!!!!!!!":1224,"aaaaaa":1225,"YI":1226,"!!!!!>":1227,"`=!!!!!!!!!":1228,"DDD":1229,"``>!!!!!!!!!":1230,"#!!!!!!!!!!!!!!!!":1231,"PaaaA":1232,"```!!!!":1233,"ZU":1234,"[```````":1235,"`=!!!!!!!!!!":1236,"?!!!!!":1237,"ZX":1238,"`>!!!!!!!!!!":1239,"aE":1240,"KKKK":1241,"BV":1242,"GGG":1243,".`":1244,"/!!!!!!!!!!!!!!!":1245,",!!!!!!!!!!!!!!!":1246,"EZ":1247,"`?!!!!!!!!!":1248,"!!!!!!!!!!!!!!:":1249,"QF":1250,"`?!!!!!!!!":1251,"\\```````":1252,",`":1253,"\"!!!!!!!!!!!!!!!!":1254,"!!-":1255,"YV":1256,"PPP":1257,"UZ":1258,"WWW":1259,"QZ":1260,"SI":1261,"SZ":1262,".!!!!!!!!!!!!!!":1263,"XZ":1264,"!!!!!!!!!!!!!?":1265,";!!!!!!!!!!!!!":1266,"!!!!!!!!!!!!!!!:":1267,"<!!!!":1268,"UA":1269,"RK":1270,"CX":1271,"UW":1272,"`=!!!!!!!!":1273,"!!!!!!!!!!!!!!!=":1274,"ZK":1275,"aS":1276,"aC":1277,"DV":1278,"TZ":1279,"````````^":1280,"_``_":1281,"!!!!!!!!!!!!!!!!!!#":1282,"=!!!!!!!!!!!!!":1283,"!!!!!!!!!!!!!>":1284,"!!!!!!!!!!!!!!``":1285,">>>":1286,")!!!!!!!!!!!!!!!":1287,"OZ":1288,"WV":1289,"``;!!!!!!!!":1290,"!!!!!!!!!!!!!!;":1291,"Ta":1292,"BBB":1293,"AU":1294,"!!!!``":1295,"999":1296,"FY":1297,"ZT":1298,"!!!!!!!!!!!!!!!!!*":1299,"!!!!!!!!!!!!!<`":1300,"ZM":1301,"1111":1302,"`@!!!!!!!!!!":1303,"ZR":1304,"!!!!:":1305,"```````\\":1306,":!!!":1307,"XI":1308,"====":1309,"(((":1310,"Kaa":1311,"La":1312,"ZV":1313,"@!!!!!!!!!!!!":1314,"WY":1315,"^``^":1316,"!-":1317,"MMM":1318,"ZO":1319,"aH":1320,"XS":1321,"aaaaaaa":1322,"DZ":1323,"HHH":1324,"%!!!!!!!!!!!!!!!!":1325,"RX":1326,"WB":1327,"XA":1328,"!!!.":1329,"VQ":1330,"ZH":1331,"@@@":1332,">!!!!":1333,"?!!!!":1334,"aG":1335,"!!!!!!!!!!!!/``":1336,"`<!!!!!!!!!!!":1337,"ZQ":1338,"!!!!!@":1339,"(!!!!!!!!!!!!!!!!":1340,"ZF":1341,"!!!!!!!!!!!!!!!!!!\"":1342,"GV":1343,"!!!!!?":1344,"SV":1345,"YC":1346,"YW":1347,"!!/":1348,";;;":1349,"aI":1350,">!!!!!!!!!!!!":1351,"APaaaa":1352,"SSSS":1353,"`@!!!!!!!!!!!":1354,"DW":1355,"ZG":1356,"WC":1357,"!!!!!!!*``":1358,"Ma":1359,"IY":1360,"VC":1361,"[``[":1362,"_``]":1363,"``>!!!!!!!!":1364,"---":1365,"ZS":1366,"=!!!":1367,"TX":1368,"YB":1369,"`>!!!!!!!!":1370,"`____`____":1371,"XU":1372,"]``^":1373,"!!!!!!!!!!!!!!?":1374,"BW":1375,"__`__":1376,"!!,":1377,"`<!!!!!!!!!!!!":1378,"YU":1379,":::":1380,"IZ":1381,"aM":1382,"````````_":1383,"=```":1384,"PZ":1385,"XR":1386,"!!!!!!!!!!!!!!!!!!!!!!":1387,"``=!!!!!!!!":1388,"////":1389,"!!.":1390,"LY":1391,"````````]":1392,"!!!!!!!!!!!!!!!!!,":1393,"$!!!!!!!!!!!!!!!!":1394,"AX":1395,"HZ":1396,"CCCC":1397,"!!!!!!!!!!!!!!!!!-":1398,"[[[":1399,")))":1400,"QV":1401,"222":1402,"!!!!!!!!!!!!!``":1403,"SD":1404,"````````[":1405,"!!!!!!!!!!!!!!!!!!%":1406,"aJ":1407,"``;!!!!!!!!!":1408,"AT":1409,"NX":1410,"YE":1411,"^``_":1412,"`?!!!!!!!!!!":1413,";!!!":1414,"RZ":1415,"DX":1416,"``=!!!!!!!":1417,"^``]":1418,"!/":1419,"WX":1420,"``(!!!!!!!!":1421,"]``_":1422,"JZ":1423,"SA":1424,"<<<<":1425,"FQ":1426,"VX":1427,"YL":1428,"ZP":1429,"WU":1430,"]``[":1431,"EX":1432,"!!!!!!!!!!!!!!!!!!&":1433,"]``]":1434,"`?!!!!!!!!!!!!":1435,"aaaaaP":1436,"IV":1437,"YF":1438,"``<!!!!!!!!!!!!":1439,"+++":1440,"LV":1441,"''''":1442,"!,":1443,"UX":1444,"!!!!!!!!!!!!!!<":1445,"`?!!!!!!!":1446,"GQ":1447,"DDDD":1448,"`<!!!!!!!!!!":1449,"IIII":1450,"KZ":1451,"TY":1452,"!!!!=":1453,"`;!!!!!!!!":1454,"Ua":1455,"``@!!!!!!!!!!!":1456,"888":1457,"BY":1458,"FZ":1459,"!!!!!!!!!!!!!!!!!/":1460,"***":1461,"_``^":1462,"!!!!!!!!!!!!!!!!!!$":1463,"!!!!!!!!!!!!!!!!!!(":1464,"VZ":1465,"YS":1466,"!!!!!!!!!!!!!!@":1467,"YM":1468,"[``]":1469,"`=!!!!!!!":1470,"`@!!!!!!!!!":1471,"``:!!!!!!!":1472,"LZ":1473,"!!!!!!!!!!!!!!!;":1474,"``=!!!!!!!!!":1475,"???":1476,"+`":1477,"MZ":1478,"WA":1479,"GY":1480,"GZ":1481,"!.":1482,"XH":1483,"!!!!!!!!!``":1484,"RV":1485,"WH":1486,"SY":1487,"XT":1488,"Xa":1489,"``@!!!!!!!!!!":1490,"&!!!!!!!!!!!!!!!!":1491,".!!!!!!!!!!!!!!!":1492,"QY":1493,"ZN":1494,"!!!!!!!!!!!!!!>":1495,"`;!!!!!!!!!":1496,"EEEE":1497,"'!!!!!!!!!!!!!!!!":1498,":!!!!!!!!!!!!!!":1499,"XN":1500,"```!!!":1501,"``?!!!!!!!!":1502,"UY":1503,"\\``^":1504,"``;!!!!!!!":1505,"WI":1506,"XD":1507,"Ia":1508,"[``^":1509,"111":1510,"!!!!!!!!!!!!!!!!!!'":1511,"``?!!!!!!!!!":1512,",,,,":1513,"&&&":1514,"Ba":1515,"VD":1516,"_``\\":1517,"`<!!!!!!!!!":1518,"VW":1519,"``:!!!!!!!!!":1520,"Oa":1521,"ZL":1522,"``:!!!!!!!!":1523,"!!!!!!!!!!!!<``":1524,"````````\\":1525,"___`_":1526,"KaK":1527,"WE":1528,"!!!!!!!!=`":1529,"VK":1530,"GGGG":1531,"VB":1532,"!!!!;":1533,"CW":1534,"NS":1535,"EY":1536,"PX":1537,"FFFF":1538,"CY":1539,"ZZZZ":1540,"`````````^":1541,"VT":1542,"((((":1543,"^``\\":1544,"WT":1545,"!!!!!!!!!!!!!!!!:":1546,"`[!!!!!!!":1547,"?!!!!!!!!!!!!!":1548,"WF":1549,"LX":1550,"``=!!!!!!!!!!":1551,"EW":1552,"HY":1553,"PY":1554,"`;!!!!!!!":1555,"(``":1556,"RRRR":1557,"OY":1558,"UE":1559,"`?!!!!!!!!!!!":1560,"IS":1561,"QX":1562,"``!!!!!!!!!!":1563,".``":1564,"!!!!!!!!!!!!!?`":1565,"000":1566,"MY":1567,"`<!!!!!!!!":1568,"+``":1569,"JW":1570,"!!!!!!!!!?`":1571,"WWWW":1572,"DS":1573,"``-!!!!!!!!!!!":1574,"\\``_":1575,"`<!!!!!!!":1576,"<!!!!!!!!!!!!!":1577,"!!!!!!``":1578,">>>>":1579,"Fa":1580,"HW":1581,"``>!!!!!!!!!!":1582,"XW":1583,"`!!!!!!!!!!!!!":1584,"`=!!!!!!!!!!!":1585,"`_`_`_":1586,"OOO":1587,"<!!!":1588,"UC":1589,"VL":1590,"``(!!!!!!!!!":1591,"`@!!!!!!!":1592,"444":1593,"AS":1594,"TD":1595,"CV":1596,"\\``]":1597,"!!!!<":1598,"`@!!!!!!!!!!!!":1599,"``<!!!!!!!!!!":1600,"``?!!!!!!!":1601,"777":1602,"MW":1603,">!!!":1604,"PC":1605,"TV":1606,"XO":1607,"KT":1608,"NV":1609,"!!!!!!!!!!!!!!!?":1610,"TA":1611,"XE":1612,"YQ":1613,"!!!!!!!!!!!!!!!<":1614,"#\"":1615,">!!!!!!!!!!!!!":1616,"YO":1617,"`/!!!!!!!!!!":1618,"`>!!!!!!!!!!!":1619,"333":1620,"DR":1621,"aaaaaA":1622,"_`___":1623,"AW":1624,"YH":1625,"ZJ":1626,"!!!!```":1627,"!!!!!!!!!!!!!!!!!!)":1628,"`@!!!!!!":1629,"YP":1630,"`=!!!!!!":1631,"%%%":1632,"RA":1633,"XL":1634,"=!!!!!!!!!!!!!!":1635,"QG":1636,"UK":1637,"XB":1638,"!!!!!!!!!=`":1639,"!!!!!!!!!!?`":1640,"SN":1641,"UV":1642,"WD":1643,"!!!!!!!!!;`":1644,"``<!!!!!!!":1645,"!!!!!!!!!!``":1646,"\\``[":1647,"`@!!!!!!!!":1648,"Ea":1649,"XG":1650,"BBBB":1651,"``&!!!!!!!!":1652,"___`__":1653,"+!!!!!!!!!!!!!!!!":1654,",!!!!!!!!!!!!!!!!":1655,"Daa":1656,"KA":1657,"`:!!!!!!!":1658,"]`````````":1659,"``!!!!!!!!!!!!":1660,"!!!!!!!!!;``":1661,"!!!!!!!=``":1662,"!!!!!!!!!!?``":1663,"?!!!":1664,"GX":1665,"UB":1666,"`/!!!!!!!!!":1667,"^``[":1668,"YT":1669,"!!!!!!!!!!=`":1670,"XQ":1671,"!!!!>":1672,"!!!!!!!!!!!!!?``":1673,"``?!!!!!!!!!!":1674,"`:!!!!!!!!":1675,"NZ":1676,"VS":1677,"WP":1678,"!!!!!!!!!!!!!<``":1679,"YYYY":1680,"FX":1681,"HX":1682,"TU":1683,"``!!!!!":1684,"``(!!!!!!!!!!!":1685,"!!!!!!!!!!!!!!!!=":1686,"!!!!!!!!!!!!!@`":1687,"!!!!!!!!!!!!!!?``":1688,"----":1689,"``<!!!!!!!!!":1690,"XXXX":1691,"@!!!!":1692,"KD":1693,"!!!!!!!!!!!!!!!@":1694,"``=!!!!!!!!!!!":1695,"``:!!!!!!!!!!!":1696,"OX":1697,"WG":1698,"YG":1699,"``-!!!!!!!!!!":1700,"QI":1701,"VF":1702,"`!!!!!!!!":1703,"!!!!!!!!;``":1704,"VI":1705,"XP":1706,"`!!!":1707,"``<!!!!!!!!":1708,"JX":1709,"SSS":1710,"FU":1711,"!!!!!!!!!!!!<`":1712,"``:!!!!!!!!!!":1713,"UN":1714,"`!!!!!!!!!":1715,"BX":1716,"IW":1717,"`;!!!!!!!!!!!":1718,"'''":1719,"ET":1720,"MX":1721,"/!!!!!!!!!!!!!!!!":1722,"AR":1723,"UF":1724,"``&!!!!!!!":1725,"`[!!!!!!!!":1726,"``?!!!!!!!!!!!!":1727,"*!!!!!!!!!!!!!!!!":1728,"`:!!!!!!!!!!!":1729,"VG":1730,"WR":1731,"`>!!!!!!!":1732,"QA":1733,"UR":1734,"WL":1735,"_``[":1736,"KaY":1737,"XJ":1738,"XM":1739,"!!!!!!!=`":1740,"`````````_":1741,"PE":1742,"UL":1743,"``-!!!!!!!!":1744,"VH":1745,"``*!!!!!!!":1746,"!!!!!!!!!!!!!!!``":1747,"!!!!!!!!@`":1748,"`````````[":1749,";!!!!!!!!!!!!!!":1750,"TK":1751,"!!!!!!!!?`":1752,"```:":1753,"HHHH":1754,"XF":1755,"!!!!!````":1756,"=!!":1757,"HV":1758,"Yaa":1759,"``>!!!!!!!":1760,"!!!!!!!!!!!!'``":1761,"!!!=":1762,"____`____":1763,"``?!!!!!!!!!!!":1764,"::::":1765,"YaY":1766,"NY":1767,"QW":1768,"!!!!!!!!>`":1769,"``+!!!!!!!!":1770,"``-!!!!!!!":1771,"))))":1772,"!!!!!!!!!!!!-``":1773,")!!!!!!!!!!!!!!!!":1774,"*``":1775,"UP":1776,"!!!!!!!!!!!!!!?`":1777,"PPPP":1778,"****":1779,"BR":1780,"TW":1781,"VR":1782,"!!!!!!!!!!!!!!!!!.":1783,"`:!!!!!!":1784,"9999":1785,"\"#":1786,"[``_":1787,"`:!!!!!!!!!!":1788,"BU":1789,"WS":1790,"YN":1791,"^`````````":1792,"!!!!!!!!=``":1793,"``:!!!!!!":1794,"CP":1795,"!!!!!!!!!!!!!;`":1796,"`:!!!!!!!!!":1797,"FW":1798,"`````````]":1799,"``;!!!!!!":1800,"``@!!!!!!!!":1801,"UJ":1802,"!!!!!!!:``":1803,"``;!!!!!!!!!!!!":1804,"XV":1805,"!!!!!!!!&``":1806,"ZZZ":1807,":```":1808,"KW":1809,"OR":1810,"!!!!?":1811,"``/!!!!!!!!!":1812,"`>!!!!!!!!!!!!":1813,"NNN":1814,"\"$":1815,"PV":1816,"SW":1817,"```!!!!!!!!!":1818,"!!!!!!!!<`":1819,"``&!!!!!!!!!":1820,"``.!!!!!!!!!!!":1821,"!!!!!!!!!!!?``":1822,"!!!!!`":1823,"]``\\":1824,"[[[[":1825,";;;;":1826,"!!!!!!!/``":1827,"!!!!!!!!!!!!!!!>":1828,"`[!!!!!!!!!":1829,"*`":1830,"KV":1831,"``-!!!!!!!!!":1832,"AaaaaA":1833,"RW":1834,"``.!!!!!!!!":1835,"`;!!!!!!!!!!!!":1836,"-!!!!!!!!!!!!!!!!":1837,"QH":1838,"``!!!!!!!":1839,"``&!!!!!!":1840,"!!!!!!*``":1841,"!!!!!!!![`":1842,"!!!!!!!!!!!!!+``":1843,"###":1844,"Raa":1845,"WJ":1846,"WO":1847,"...":1848,"UO":1849,"`.":1850,"AaaaaP":1851,"___`___":1852,":!!":1853,"!!!!!!!!!!!!!/``":1854,"`^?":1855,"`?!!!!!!":1856,"LT":1857,"``'!!!!!!!":1858,"`]!!!!!!!!!!!!":1859,"++++":1860,"GW":1861,"``+!!!!!!!!!":1862,"SU":1863,"UT":1864,"[``\\":1865,"!!!!!!!!!!!!!-`":1866,"JY":1867,"@@@@":1868,"KU":1869,"OV":1870,"!!!!!!!!!>`":1871,"!!!!!!!!!!!=`":1872,"\\``\\":1873,"``@!!!!!!!!!":1874,"&&&&":1875,"OI":1876,"RD":1877,"[`````````":1878,"\\__":1879,"!!!!!!!!?``":1880,"!!!!!!!!!!!>`":1881,"```'!!!!!!!!!!!":1882,"8888":1883,"!!!!!!!!!!!!?``":1884,"!!!!!!!!-``":1885,"Ja":1886,"MS":1887,"``'!!!!!!!!":1888,"`;!!!!!!!!!!":1889,"\"!\"":1890,"$'":1891,"DT":1892,"RE":1893,"!!!!!!!;`":1894,"`````````\\":1895,"DK":1896,"GU":1897,"VU":1898,"!!!!!!!!!!!!![`":1899,"``<!!!!!!":1900,"_```_":1901,"!!!!!!!!!!!!(``":1902,"VVVV":1903,"555":1904,"EU":1905,"!!!!!!!!!!@`":1906,"CU":1907,"VN":1908,"!!!!!!!!:`":1909,"!!!!!!!!!!!!!!!!<":1910,"!!!!!!!!!!>`":1911,"0000":1912,"$$$$":1913,"<!!!!!!!!!!!!!!":1914,"AQ":1915,"IT":1916,"!!!!!!!!!!!!@`":1917,"```!!!!!!!!":1918,"@_":1919,"WK":1920,"]]]":1921,"DP":1922,"XK":1923,"aB":1924,"``````````^":1925,"``=!!!!!!":1926,"MV":1927,"!!!!!!!!!!!?`":1928,"_____":1929,"`@!!!!!":1930,"DU":1931,"!!!!!!!!;`":1932,"!!!!!!!!!!!!!!!!>":1933,"MC":1934,"!!!!!!!!!!!!@``":1935,"``>!!!!!!!!!!!!":1936,"LU":1937,"PR":1938,"!!!!!!!!![`":1939,"!!!!!!!!!!!!!!!!!!!#":1940,"``!!!!!!!!!!!":1941,"!!!!!!!!!!!!!!!!;":1942,"!!!!!!!?`":1943,"!!!!!!/``":1944,"2222":1945,"`````````````````":1946,"\"!!\"":1947,"????":1948,"TTTT":1949,"EP":1950,"MU":1951,"RU":1952,"!!!!!!!!!!!!!!!!!!-":1953,"`;!!!!!!":1954,"MT":1955,"``'!!!!!!!!!!!":1956,"`_`_`":1957,"``@!!!!!!!!!!!!":1958,"!!!!!!!!!@`":1959,"```;":1960,"```!!!!!!!!!!!!!":1961,"@!!!":1962,"TL":1963,"YJ":1964,"LLL":1965,"=!":1966,"!!!!!!!!!!!!!!!!!!*":1967,"`>!!!!!!":1968,"\"!!!!!!!!!!!!!!!!!":1969,"YaK":1970,"`/":1971,"`!!!!":1972,"``.!!!!!!!!!!!!":1973,"!!!!!!!!!!!!:`":1974,"`<!!!!!!":1975,"JV":1976,"TP":1977,"!!!!!!!:`":1978,"aaaaaaP":1979,"$%":1980,"!!!!!!!!!!!!!!!!!!+":1981,"FV":1982,"!!!!!!!?``":1983,"IQ":1984,"`[!!!!!!!!!!":1985,"``>!!!!":1986,"MMMM":1987,"\\\\\\":1988,"#%":1989,">]":1990,"QB":1991,"_`````````":1992,"#!!!!!!!!!!!!!!!!!":1993,"@!!!!!!!!!!!!!":1994,"RH":1995,"`=!!!!!!!!!!!!":1996,"``@!!!!!!!":1997,"OU":1998,"``.!!!!!!!!!":1999,"?!!!!!!!!!!!!!!":2000,"FS":2001,"RaY":2002,"!!!!!!!!!!!!!!```":2003,"!!!!!!!!!!!!!!!!!!!\"":2004,"#&":2005,"$&":2006,"AL":2007,"UI":2008,"!!!:":2009,"``;!!!!!!!!!!":2010,"AK":2011,"NU":2012,"TS":2013,"``.":2014,"``>!!!!!!":2015,"!!!!!!!!!!!!+``":2016,"'`":2017,"!!!!!!!!!!!!?`":2018,"!!!!!!!!!=``":2019,"BT":2020,"EQ":2021,"QR":2022,"!!!!!!!!:``":2023,"``&!!!!!!!!!!":2024,"PaaaaA":2025,"!!!!!!=``":2026,"!!!!!!!!!!!!!!!!!!!$":2027,"KX":2028,"OW":2029,"TE":2030,"YaR":2031,"!!!!!!,``":2032,"```<!!!!!!!!!!!":2033,"'``":2034,"QU":2035,"[!!!!!!!":2036,"!!!!!!!!!?``":2037,"!!!!!!!!!!!!!!!?`":2038,"aaaK":2039,"#$":2040,"?^":2041,"SG":2042,"`/!!!!!!!!":2043,"SE":2044,"!!!!!!!!!!!!!!!!@":2045,"!!!!!!```":2046,"PU":2047,"WN":2048,"!!!!@":2049,"!!!!!!!>`":2050,"``>!!!!!":2051,"RO":2052,"SC":2053,"`*!!!!!!":2054,"!!!!!!!!!<`":2055,"!!!!!!!!!!!!!!!=`":2056,"\"%":2057,"HU":2058,"KaR":2059,"``:!!!!!!!!!!!!":2060,"YaD":2061,"BP":2062,"VP":2063,"``.!!!!!!!":2064,"!!!!!!![`":2065,"_```]":2066,"BS":2067,"HS":2068,"QT":2069,"\\`````````":2070,"``.!!!!!!":2071,"!!!!!!!!!!!@`":2072,"TO":2073,"]``````````":2074,"^```^":2075,"`.!!!!!!!!":2076,"``,!!!!!!!!":2077,"UUUU":2078,"%!!!!!!!!!!!!!!!!!":2079,"!!!!!!!!!!!!!!=`":2080,"``````````]":2081,"`&!!!!!!!!":2082,"`/!!!!!!!!!!!":2083,"ER":2084,"QD":2085,"SM":2086,"!!!!!!!<`":2087,"!!!!!!!!!!<`":2088,"`=!!!!!":2089,"``;!!!!!!!!!!!":2090,";!!":2091,">!!":2092,"HT":2093,"OK":2094,"`/!!!!!!!!!!!!":2095,"!!!!!!!!!!!!!=`":2096,"``;!!!!!":2097,"`:!!!!!!!!!!!!":2098,"``@!!!!!!":2099,"CT":2100,"VM":2101,"``+!!!!!!!!!!":2102,"``+!!!!!!!!!!!":2103,"!!!!!!!!!!!!!!;`":2104,"YYY":2105,"NNNN":2106,"UH":2107,"`-!!!!!!!":2108,"``/!!!!!!!!":2109,"!!!!!!!!!!!!!!`":2110,"`_[":2111,"AN":2112,"QS":2113,"TM":2114,"VO":2115,"``.!!!!!!!!!!":2116,"!!!!!!!@`":2117,"!!!!!!>``":2118,"]```^":2119,"`-!!!!!!!!!":2120,"!!!!!>``":2121,"]```[":2122,"!!!!!!!!!!!!'```":2123,"<!!":2124,"IO":2125,"!!!!!!!!/``":2126,"``*!!!!!!!!!":2127,"``,!!!!!!!!!!!":2128,"aaaaaaaaa":2129,"``>!!!!!!!!!!!":2130,"CM":2131,"Ca":2132,"ES":2133,"!!!!!!!!!!!=``":2134,"\"(":2135,":!":2136,"?!!":2137,"TG":2138,"!!!!!!!!!!;`":2139,"\"\"\"\"":2140,"\"&":2141,"$!!!!!!!!!!!!!!!!!":2142,"-=":2143,"PT":2144,"UG":2145,"US":2146,"`.!!!!!!!!!":2147,"!!!!!!!!!!!!:``":2148,"!!!!!!!!!!!/``":2149,"```!!!!!":2150,"aaaaaaaP":2151,"HP":2152,"NT":2153,"!!!!!!:``":2154,"!!!!!!!!!!!!!>`":2155,"!!!!!!!!!!!!!!>`":2156,"!!!!!!!!!!!!!!!!!!!&":2157,"!!!!!!!!!!!!!+`":2158,"AI":2159,"^@":2160,"``:!!!!!":2161,"GS":2162,"``,!!!!!!!!!!":2163,"`[!!!!!!!!!!!":2164,"`?!!!!!!!!!!!!!":2165,"$$$":2166,"(!!!!!!!!!!!!!!!!!":2167,"QJ":2168,"TC":2169,"!!!!!!!!!!!!=``":2170,"!!!!!!!!!!!!,``":2171,"!!!!!!!!!!!!!!!!!!,":2172,"``=!!!!!":2173,"Aaaaaa":2174,"(`":2175,"EV":2176,"!!!!!!!!!:`":2177,"!!!!!!!!!!!<`":2178,"&!!!!!!!!!!!!!!!!!":2179,"=!!!!!!!!!!!!!!!":2180,"!!!!`":2181,"!!!!!!!!!!!<``":2182,"!!!!!!!!!!!!!!;``":2183,"^```]":2184,"PaaaaP":2185,"DJ":2186,"!!!!!!!;``":2187,"!!!!!!!!!!=``":2188,"!!!!!!!!!!!!!@``":2189,".!!!!!!!!!!!!!!!!":2190,"28":2191,"DaK":2192,"MA":2193,"`&!!!!!!":2194,"!!!!!!!!]`":2195,"!!!!!!?``":2196,"!!!!!!!!!!!!!>``":2197,"!!!!!!!!!!!!!!!;`":2198,"WQ":2199,"`-!!!!!!!!!!":2200,"!!!!!!!!!!!!<```":2201,"!!!;":2202,"!!!!!!!!!!!!!!!!!:":2203,"!!!!!!!!!!!!!!!!!!/":2204,"!!!!!!!-``":2205,"CS":2206,"DaY":2207,"Ga":2208,"PD":2209,"VJ":2210,"`>!!!!":2211,"TB":2212,"TN":2213,"TR":2214,"``+!!!!!!!":2215,"!!!!!!!!!!!!=`":2216,"!!!!!!!!!!/``":2217,"OOOO":2218,":!!!!!!!!!!!!!!!":2219,"HQ":2220,"LS":2221,"``*!!!!!!":2222,"aaaY":2223,"!!!!!!!!-`":2224,"JR":2225,"`,!!!!!!!!":2226,"`_@":2227,"@^`":2228,"TJ":2229,"UM":2230,"_`_`_":2231,"``````````_":2232,"`[!!!!!!!!!!!!":2233,"`[!!!!!!":2234,"\"!!!\"":2235,"7777":2236,"?````":2237,"BL":2238,"NW":2239,"Paaaaa":2240,"_@":2241,"`>!!!!!":2242,"``<!!!!!":2243,"IU":2244,"KF":2245,"KO":2246,"UQ":2247,"``,":2248,"``*!!!!!!!!":2249,"JJJ":2250,"!!!!!!!!!!!!!.``":2251,"IR":2252,"`/!!!!!":2253,"``,!!!!!!!!!":2254,"!!!!!!!>``":2255,"!!!!!?``":2256,"`<!!!!!":2257,"[```[":2258,"``?!!!!!!":2259,"3333":2260,")`":2261,">!!!!!!!!!!!!!!":2262,"Kaaaa":2263,"OT":2264,"PS":2265,"UD":2266,"WM":2267,"``,!!!!":2268,"!!!!!!!!!!!!>`":2269,"!!!!!!!!!!!!!!!?``":2270,"!!!!!!!!!!!!!!!<`":2271,"]]]]":2272,"#!\"":2273,"FA":2274,"_```^":2275,"SH":2276,"!!!!!!!!!>``":2277,"^```_":2278,"QQQQ":2279,"!!!!!!!!!!!!!/`":2280,"OE":2281,"]```````````":2282,"`&!!!!!!!":2283,"``-!!!!!!":2284,"!!!!!!!!!!!!!;``":2285,"!!!!!!!!!!!!!,``":2286,"!!!!!!!!!!!!!!!>`":2287,"!!!!!!!!!!!!!!!!!=":2288,"`:!!!!!":2289,"AaaaaaP":2290,"DM":2291,"TQ":2292,"[!!!!!!!!!":2293,"!!!<":2294,"'$":2295,";!!!!!!!!!!!!!!!":2296,"AF":2297,"SF":2298,"[``````````":2299,"`+!!!!!!!!!!!":2300,"``/!!!!!!!!!!":2301,"!!!!!!!@``":2302,"]```]":2303,"\\```_":2304,"``;!!!!!!!!!!!!!":2305,"`____`_":2306,"PB":2307,"PN":2308,"RS":2309,"RaK":2310,"!!!!!!!!!!!!!!/``":2311,"`]!!!!!!!":2312,"'%":2313,"^?":2314,"!!!!!!!!!!!!!!!=``":2315,"__`___":2316,"PaaaaaP":2317,"QN":2318,"^``````````":2319,"``````````[":2320,"LLLL":2321,"IA":2322,"RN":2323,"VE":2324,"`/!!!!!!":2325,"``(!!!!!!!":2326,"``&!!!!!!!!!!!":2327,"!!!!!!!!!!!!;``":2328,"````!!!!":2329,"````!!!":2330,"!!!!!!!!!/``":2331,"!!!!!!!!!!!!!!!!!!!%":2332,"`;!!!!!":2333,"'!!!!!!!!!!!!!!!!!":2334,"FL":2335,"RT":2336,"`*!!!!!!!":2337,"!!!!!!!!@``":2338,"!!!!!![`":2339,"aaaaaaA":2340,"%%%%":2341,"#(":2342,"GP":2343,"JU":2344,"!!!!!!!!``":2345,"``#!!!!!!!!!":2346,"!!!!!!!!!!!!!(``":2347,"!!!!!!!!!!!-``":2348,"!!!!!!!!!!!!-`":2349,"RF":2350,"!!!!!!!!!!!!!:`":2351,"!!!!!!!!!!!!!!!:``":2352,"]```_":2353,"_```\\":2354,"FP":2355,"HC":2356,"JC":2357,"OS":2358,"[!!!!!!!!!!":2359,"`+!!!!!!!!":2360,"``/!!!!!":2361,"!!!!!!<``":2362,"```!!!!!!!!!!!!":2363,"aaaR":2364,"\"!#":2365,"@^":2366,"NE":2367,"OD":2368,"PW":2369,"`!!!!!!!!!!":2370,"`*!!!!!":2371,"`-!!!!!!!!!!!":2372,"`,!!!!!!!!!!!":2373,"``/":2374,"!!!!!:``":2375,"TF":2376,"_>":2377,"``*!!!!!":2378,"``,!!!!!":2379,"!!!!!!!!!!!![`":2380,"!!!!!!!!!`":2381,"`?!!!!!":2382,"KaD":2383,"GL":2384,"RB":2385,"`,":2386,"!!!!!!!!!!!!!!!!;`":2387,"!!!!!!!!!!:`":2388,"``@!!!!!":2389,"!!!!!!!-`":2390,"<!!!!!!!!!!!!!!!":2391,"`-!!!!!!!!":2392,"!!!!!!!!!@``":2393,"!=":2394,"#'":2395,"&\"":2396,"(>":2397,"AJ":2398,"CL":2399,"NP":2400,"RL":2401,"`%!!!!!!!!!!!":2402,"!!!!!!!!!!!,``":2403,"``````````\\":2404,"`____`":2405,")``":2406,"AM":2407,"GB":2408,"RQ":2409,"!!!!!!!!!!:``":2410,"!!!!!!!!!!!@``":2411,"!!!!!!>`":2412,"!!!!!!!!!!!!!!:`":2413,"VVV":2414,"&``":2415,"DN":2416,"GT":2417,"KM":2418,"SJ":2419,"SO":2420,"`&!!!!!!!!!":2421,"`.!!!!!!!!!!":2422,"!!=":2423,"!!!>":2424,"```````````_":2425,"``=!!!!!!!!!!!!":2426,"!!!!!!!&``":2427,"!!!!!!!*`":2428,"####":2429,"BO":2430,"JT":2431,"RP":2432,"``;!!!!":2433,"!!!!!!!.``":2434,"#-":2435,"@!!":2436,"BQ":2437,"HM":2438,"SL":2439,"`,!!!!!!!!!!":2440,"``'!!!!!!":2441,"``````````````````":2442,"($":2443,"64":2444,"FT":2445,"TI":2446,"`!!!!!!!":2447,"4444":2448,"%$":2449,">_":2450,"NA":2451,"RM":2452,"`,!!!!!!!!!":2453,"`-!!!!!!!!!!!!":2454,"!!:":2455,"!!!!!!!!!!;``":2456,"!!!!!!!!!!!:``":2457,"!!!!!!!!*``":2458,";_":2459,"?_":2460,"QE":2461,"QL":2462,"SP":2463,"!!!!!!!!!!!!;`":2464,"`>!!!!!!!!!!!!!":2465,"XXX":2466,">/":2467,"?^`":2468,"`*!!!!!!!!":2469,"!!!!!!`":2470,"!!!!!!;``":2471,"!!!!!!!!!!!!!!]`":2472,"`]=":2473,"....":2474,"5555":2475,"JA":2476,"`!!!!!!!!!!!":2477,"``/!!!!!!!!!!!":2478,"`____`__":2479,"BG":2480,"LG":2481,"MB":2482,"`/!!!!!!!":2483,"`-!!!!!!":2484,"``/!!!!!!!":2485,"!!!!!!!<``":2486,"!!!!!!!!!!!!!!!!!<":2487,"!!!!!!!!!!!!!!!!!!!'":2488,"``>!!!!!!!!!!!!!":2489,"_````_":2490,"+&":2491,"Yaaaa":2492,"]=":2493,"!!!!!!!!>``":2494,"!!!!!!!!!!!:`":2495,"!!!!!!@`":2496,"`]!!!!!!":2497,"`@!!!!!!!!!!!!!":2498,"!!!!!!'``":2499,"!!!!!!!!!/`":2500,"$!\"":2501,"CR":2502,"HR":2503,"!!!!!!!!!!!!!]`":2504,"!!!!!!!!!!!!!!<`":2505,"`@!!!!":2506,"\"!!!!\"":2507,"`<!!!!!!!!!!!!!":2508,"%#":2509,"SQ":2510,"!!!!!!!!<``":2511,"!!!!!!!!!!<``":2512,"!!!!!!=`":2513,"^```\\":2514,")>":2515,"61":2516,"IP":2517,"```.!!!!!!":2518,"`]!!!!!!!!!":2519,"aaaD":2520,"!!!!!!!!!-``":2521,"```>!!!!!!!":2522,"%(":2523,"&+":2524,"39":2525,";!":2526,"GK":2527,"MD":2528,"NR":2529,"SB":2530,"SR":2531,"]````````````":2532,"!!!!!>`":2533,"EO":2534,"HK":2535,"RC":2536,"[```````````":2537,"``)!!!!!!!!":2538,"!!!!!!!!!<``":2539,"!!!!!!!!!!`":2540,"!!!!!!!!!!!!!!-`":2541,"NF":2542,"[!!!!!!":2543,"`/!!!!":2544,"`.!!!!!!!!!!!!":2545,"``*!!!!!!!!!!":2546,"!!!!!!!!!![`":2547,"!!!!!!!!!!@``":2548,"aaaaaaaA":2549,"$\"":2550,"LQ":2551,"!!!!!!!!!!!!!```":2552,"`;!!!!!!!!!!!!!":2553,"!!!!!!!!!'``":2554,"82":2555,"``%!!!!!!!!!!!":2556,"``)!!!!!!!":2557,"``/!!!!!!!!!!!!":2558,"'*":2559,",!!!!!!!!!!!!!!!!!":2560,"?_`":2561,"CK":2562,"QC":2563,"`+!!!!!!!!!":2564,"!!!!!=``":2565,"`^@":2566,"`=!!!!!!!!!!!!!":2567,"#!#":2568,"JP":2569,"!!!!!!!!!:``":2570,"!!!!!!!``":2571,"```.!!!!!!!":2572,"```````````^":2573,"$#":2574,"HO":2575,"LW":2576,"Raaaa":2577,"]>":2578,"`+":2579,"``[!!!!!!!":2580,"`?!!!!":2581,"_```[":2582,"$,":2583,"(&":2584,"93":2585,"HA":2586,"NI":2587,"_?":2588,"``$!!!!!!!!!!!":2589,"!!!!!!!]`":2590,"!!!!!!!!!!!!!!@`":2591,"``?!!!!!!!!!!!!!":2592,"?]":2593,"JQ":2594,"LA":2595,"PG":2596,"ST":2597,"[!!!!!!!!":2598,"^```````````":2599,"!!!@":2600,"]```\\":2601,"\"!!!#":2602,"!;":2603,"*!!!!!!!!!!!!!!!!!":2604,"JS":2605,"RG":2606,"TH":2607,"`!!!!!!!!!!!!":2608,"`,!!!!!!!!!!!!":2609,"``+":2610,"``(!!!!!!!!!!":2611,"`\\!!!!!!!!!!":2612,"____`":2613,"#!!#":2614,"96":2615,"EN":2616,"``/!!!!!!!!!!!!!":2617,"!!!!!!!!!!!!>``":2618,"!!!!!!!!!!!!!:``":2619,"!!!!!!!!!!!!!!=``":2620,"`]!!!!!!!!":2621,"[```\\":2622,"\"!!#":2623,"!!!!!!!!!!!-`":2624,"\"'":2625,"46":2626,"EL":2627,"KC":2628,"`.!!!!!!!":2629,"`+!!!!!!!!!!!!":2630,"!!!!!!!!!!!!!!!!:``":2631,"aaaaaaaaaa":2632,"[```]":2633,"!!!!!!!!.`":2634,"\",":2635,"91":2636,"?]`":2637,"DQ":2638,"MI":2639,"MK":2640,"!!!!!=`":2641,"\\```\\":2642,"\\```]":2643,"!!!!!!!!+`":2644,"```>!!!!!!!!":2645,"!:":2646,"&#":2647,"/;":2648,"!!!!!!!!!!!!!!!\\`":2649,"`?!!!!!!!!!!!!!!":2650,"!!!!!!$``":2651,"!!!!!!!!!,`":2652,"90":2653,"?^``":2654,"AH":2655,"NC":2656,"`(!!!!!!!!":2657,"``'!!!!!!!!!":2658,"``/!!!!":2659,"!!!!!!!!!!!!!!!!=`":2660,"!!!!!!@``":2661,"``<!!!!":2662,"FK":2663,"MG":2664,"ND":2665,"OC":2666,"``-":2667,"````=":2668,"!!!!!!!!&`":2669,"\"!$":2670,"!!!!!!!!!.`":2671,"JJJJ":2672,"',":2673,"=^":2674,"AG":2675,"MP":2676,"RI":2677,"`-":2678,"!!!!!!!![":2679,"``!!!!!!":2680,"!!!!!!!!!!!!!!!!!!!(":2681,"[```_":2682,"``?!!!!":2683,"!!!!!!!!!!!!&``":2684,"TTT":2685,"<!":2686,"^>":2687,"``'!!!!!!!!!!":2688,"````@":2689,"!!!!!!!!!!!!!!!,``":2690,"!!!!!!!!!!!!/`":2691,"$(":2692,"&(":2693,"NL":2694,"PI":2695,"QK":2696,"\\``````````":2697,"\\```^":2698,"_``````````":2699,"`!!!!!":2700,"`%!!!!!!!!!!":2701,"`(!!!!!!!!!!":2702,"!!;":2703,"!!!!!!!!!!!!!<```":2704,"!!!!!!!!'``":2705,"!!!!!!!!!!!!!(`":2706,"```=!!!!!!!!":2707,"!!!!!!!!!!!!!,`":2708,"QO":2709,"``*!!!!!!!!!!!":2710,"AaaaaaA":2711,"!!!!!*``":2712,"CO":2713,"DO":2714,"PF":2715,"!!!!!!!!!!!!!!!!>`":2716,"```!!!!!!!!!!!":2717,"!!!!!<`":2718,"!!!!!!!!!!!!!!<``":2719,"\"\"\"":2720,"CN":2721,"LE":2722,"PH":2723,"\\_`":2724,"!!!!!!!,``":2725,"!!!!!!!!!!>``":2726,"!!!!!!!*```":2727,"^````^":2728,"!!!!!!!.`":2729,"70":2730,"=]`":2731,"GR":2732,"KB":2733,"LP":2734,"`.!!!!!!!!!!!":2735,"``/!!!!!!":2736,"!!!!!!!!!!!!!=``":2737,"!!!!!!!!!!!!!!!:`":2738,"`]!!!!!!!!!!":2739,"aaPA":2740,"`:!!!!":2741,"#!!!!#":2742,"_`_`":2743,"$!!\"":2744,"\\\\\\\\":2745,"LR":2746,"``&!!!!!":2747,"!!!!!!!!!!![`":2748,"!!!!!!!!!!!!!!!!!;":2749,"!!!!!!!!,`":2750,"!!!!!!!!!.``":2751,"&$":2752,")!!!!!!!!!!!!!!!!!":2753,">_`":2754,"BI":2755,"CH":2756,"CQ":2757,"KP":2758,"RaR":2759,"_`_`_`_`_":2760,"`%!!!!!!!!!":2761,"``%!!!!!!!!!":2762,"!!!!!`__":2763,"!!!!!!!!!!!!!!!@`":2764,"!!!!!!!!%`":2765,"!!!!!!!!!!/`":2766,"```>!!!!!!!!!":2767,"%'":2768,"%)":2769,"*/":2770,"@!!!!!!!!!!!!!!":2771,"FO":2772,"!!!!!!:`":2773,"```)!!!!!!!":2774,"`]!!!!!":2775,"aaaaaaaaP":2776,"``:!!!!!!!!!!!!!":2777,"+!!!!!!!!!!!!!!!!!":2778,"<]`":2779,">)":2780,"@_`":2781,"LD":2782,"_=":2783,"`'!!!!!!!!!":2784,"``!!!!!!!!!!!!!!":2785,"``%!!!!!!":2786,"!!!!!!!!!!,``":2787,"!!!!!!<`":2788,"%\"":2789,"AD":2790,"FN":2791,"KH":2792,"!!!!!!!!!!!!!!!!:`":2793,"!!!!!/``":2794,"!!!!!!!!!!!!!!,``":2795,"!!!!!!!!!!!!!!!!!!.":2796,"!!!!!!!!!!!!!!!!!!!*":2797,"``>!!!":2798,"PaaaaaA":2799,"!!!!!!!!/`":2800,"$+":2801,"AO":2802,"BM":2803,"IN":2804,"ME":2805,"PO":2806,"!!!!!!!!,``":2807,"!!!!!!!!!!!!!!!!<`":2808,"!!!!!!!!![":2809,"!!!!!!!!!!!>``":2810,"```.!!!!!!!!!!!":2811,"!!!!!!!%``":2812,"``=!!!!":2813,"!!!!!!!!*`":2814,"#!!\"":2815,"!!!!!!!!!-`":2816,"!!!!!!!!!!!!!!+``":2817,"40":2818,"?*":2819,"LO":2820,"MR":2821,"PQ":2822,"SK":2823,"`(!!!!!!!!!!!":2824,"`)!!!!!!!":2825,"``+!!!!!!!!!!!!":2826,"!!!!!!!!!!!!!!!!@`":2827,"!!!!!!!!!!```":2828,"!!!!!!!!!!!!!!>``":2829,"`^>":2830,"!!!!!!!!!(``":2831,"^^^":2832,"^````_":2833,"_`````_":2834,"QQQ":2835,"!!!!!!!!.``":2836,"&>":2837,"/=":2838,"LF":2839,"]_`":2840,"\\```[":2841,"!!!!!!!!!!!/`":2842,"#)":2843,"(=":2844,"HD":2845,"IC":2846,"`*!!!!!!!!!!!":2847,"`.!!!!!!":2848,"!!!!````":2849,"________":2850,"`;!!!!":2851,"!!!!!!!!+``":2852,"\\````\\":2853,"``.!!!!!":2854,"!!!!!!!!!!!!!!!![`":2855,"!!!!!!;`":2856,"!!!!!;``":2857,"!!!!!!!!!!!!!!!!!!!!\"":2858,"Paaaaaa":2859,"!!!!!!!!!!-`":2860,"%*":2861,"84":2862,"</":2863,">^`":2864,"`*!!!!!!!!!":2865,"!!!!!!!!!!!!!!!;``":2866,"!!!!!!!!!!'``":2867,"\"!!$":2868,"aaaPA":2869,"UUU":2870,"RaD":2871,",'":2872,"AE":2873,"DC":2874,"[```^":2875,"`*!!!!!!!!!!":2876,"``,!!!!!!":2877,"!!!?":2878,"````!!!!!!!!":2879,"`\\!!!!!!!!!!!":2880,"``^?":2881,"#!!!\"":2882,"Aaaaaaaa":2883,"!!!!!!!!!!!!,`":2884,"&:":2885,"@\\":2886,"HN":2887,"OB":2888,"QM":2889,"_;":2890,"`)!!!!!!!!!!":2891,"!!<":2892,"!!!!!!!!!!!!!!!!!!!)":2893,"```?!!!!!!!!":2894,"!<":2895,"+?":2896,".-":2897,"FR":2898,"ID":2899,"KS":2900,"OL":2901,"QP":2902,"`+!!!!!!!":2903,"!!!!!!!!!!!!!!!!=``":2904,"!!!!!!!!!!!;`":2905,"!!!!!!]`":2906,"```````````\\":2907,"```````````]":2908,"^```[":2909,"``?!!!!!":2910,"(-":2911,"GF":2912,"OG":2913,"PM":2914,"^````````````":2915,"``$!!!!!":2916,"``,!!!!!!!":2917,"`]<":2918,"!!!!!!!'``":2919,"!!!!!!*`":2920,"Aaaaaaa":2921,"81":2922,"JE":2923,"``)!!!!!!!!!":2924,"``,!!!!!!!!!!!!":2925,"!!!!!!![":2926,"```.!!!!!!!!":2927,"!!!!!!!!!!!!!!!!!!!+":2928,"`@!!!!!!!!!!!!!!":2929,"!!!!!!!/```":2930,"!!!!!!!!!!!!!!'``":2931,"AAAAA":2932,"%.":2933,"BH":2934,"GD":2935,"PK":2936,"PL":2937,"````>":2938,"!!!!!!!!!!!!!!!`":2939,"`:!!!!!!!!!!!!!!":2940,"=\\":2941,"GA":2942,"LB":2943,"`'!!!!!!!!":2944,"``]=":2945,"`>!!!":2946,"`<!!!!":2947,"_````]":2948,"_````^":2949,"%/":2950,"&)":2951,"&/":2952,"49":2953,"=_":2954,"LM":2955,"!!!!!!!!!!!;``":2956,"```!!!!!!!":2957,"!!!!!!!!!!!!![``":2958,"aaaaaaaaaaaa":2959,"AAAAAA":2960,"$)":2961,"%+":2962,"'\"":2963,"'+":2964,"'<":2965,"EJ":2966,"GO":2967,"LH":2968,"MQ":2969,"]?":2970,"`)!!!!!!!!":2971,"`/!!!!!!!!!!!!!":2972,"`=!!!":2973,"!!!!!!!!!!*``":2974,"^`````_":2975,"!!!!!!!!!!!!!!.``":2976,"(;":2977,"80":2978,">^":2979,"KE":2980,"`_>":2981,"`:!!!!!!!!!!!!!":2982,"!!!!!!!!!!'`":2983,"!!!!!!!!!,``":2984,"!!!!!!!!!!!!!!-``":2985,"'-":2986,"(#":2987,":!!!!!!!!!!!!!!!!":2988,"<-":2989,"CF":2990,"EM":2991,"IL":2992,"JF":2993,"[!!!!!!!!!!!":2994,"``)!!!!!":2995,"!!!!!!!!!!!!!!!!?`":2996,"!!!!!!!!!!!!!!!!?``":2997,"```!!!!!!!!!!":2998,"!!!!!!!!!!!!!!:``":2999},"merges":["! !","!! !!","!!!! !!!!","` `","!!!!!!!! !!!!!!!!","!!!!!!!! !!!!","d o","u p","w n","do wn","!! !","!!!!!!!!!!!!!!!! !!!!!!!!!!!!","`` ``","!!!!!!!! !","!!!! !!!","!!!!!!!! !!","!!!!!!!! !!!","!!!! !!","`` `","!!!! !","a a","!!!!!!!!!!!! !","!!!!!!!!!!!! !!","!!!!!!!!!!!! !!!","1 1","2 2","0 0","_ _","1 6","0 9","2 6","0 4","1 8","1 4","0 8","2 7","1 9","2 3","0 3","0 7","1 7","2 4","0 5","2 0","0 2","2 5","0 6","1 0","1 3","1 5","1 2","0 1","2 1","```` ````","` _","aa aa","```` `","!!!!!!!!!!!!!!!! !","_ `","```` ``","` ^","^ `","] `","!!!!!!!!!!!!!!!! !!","[ `","```` ```","` ]","aa a","` [","\\ `","` \\","`` ^","] ``","`` ]","^ ``","[ ``","_ ``","!!!!!!!!!!!!!!!! !!!","A A","\\ ``","__ __","`` [","`` _","`` \\","```````` `","\" !!!!!!!!!","\" !!!!!!!!","# !!!!!!!!!","# !!!!!!!!","aa A","!!!!!!! \"","\" !!!!!!","!!!!!!!!!! \"","aaaa aaaa","\" !!!!!!!","6 6","__ _","\" !!!!!!!!!!","!!!!!!!! \"","!!!!!!!!! \"","# !!!!!!!","\" !!!!!","$ !!!!!!!!","!!!!!!!!! #","$ !!!!!!!","K K","# !!!!!!","!!!!!!!! #","```````` ``","!!!!!!!!!! #","$ !!!!!!!!!","( !!!!!!!!","& !!!!!!!!","!!!!!!!!!!! \"","!!!!!!! #","# !!!!!!!!!!","` ?","aa P","& !!!!!!!","``` ^","$ !!!!!!","` =","` @","% !!!!!!!!","( !!!!!!!!!","!!!!!! \"","` >","% !!!!!!!!!","& !!!!!!!!!","% !!!!!!!","] ```","? `","$ !!!!!!!!!!","!!!!!!!! %","\" !!!!","# !!!!!","= `","\" !!!!!!!!!!!","!!!!!!!! $","!!!!!!!! &","? ``","!!!!!!!!!!! #","```````` ```","' !!!!!!!","`_ `_","!!!!!!!!! $","^ ```","!!!!!!!!!! $","!!!!!! #","!!!!!!!!!!!!!!!! !!!!","C C","!!!!!!!!! %","!!!!!!!!! &","!!!!!!! %","!!!!!!!!!!!! \"","` <","!!!!!!! $","`` >","[ ```","= =","' !!!!!!!!","& !!!!!!","% !!!!!!!!!!","> `","$ !!!!!","`` <","% !!!!!!","@ `","< `","_ ```","\\ ```","I I","# !!!!!!!!!!!","( !!!!!!!","`` =","a P","F F","; `","/ /","& !!!!!!!!!!","D D","`` :","`` ;","( !!!!!!!!!!","$ !!!!!!!!!!!","!!!!!!!!!! %","!!!!! \"","` ;","`` ?","!!!!!!!! '","E E","!!!!!!!!!! &","!!!!!! $","R R","!!!!!!!!!!! $","P P","a A","\" !!!","` :","!!!!!!!!! (","!!!!!!!!! '","# !!!!","= ``","!!!!!!!! (","!!!!!!!!!!!! #","!!!!!!!!!!! %","' !!!!!!!!!","`` @","+ !!!!!!!!","!!!!!!! &","' !!!!!!",", ,","[ [","S S","G G","W W","* !!!!!!!!","Z Z","( !!!!!!!!!!!","< <","( !!!!!!",": `","% !!!!!!!!!!!","!!!!!!! '","; ``","!!!!!!!!!! (","$ !!!!","!!!!!! %",": ``","% !!!!!","* !!!!!!!","* !!!!!!!!!","/ ``","+ !!!!!!!!!","' !!!!!!!!!!","!!!!! #","!!!!!!!!!!! &","Y Y","+ !!!!!!!","( (","``` [","``` ]","```````` ````",") !!!!!!!","& !!!!!","aaa A","> ``","( !!!!!","B B","!!!!!!!!!! '","!!!!!!! *","- !!!!!!!!!","!!!!!!!!!!!! %","!!!!!!!!! )","< ``","` ____","!!!!!!!!!!!! $","' !!!!!!!!!!!","# !!!",") !!!!!!!!","> >","a K","\" !!","!!!!!!!!!!!!! \"","!!!!!!! (","!!!!!!!! )","& !!!!!!!!!!!","* !!!!!!","@ ``","- -","aaa P","!!!!!!!!!!!! '","!!!!!!!! +","!!!!!!!!!!!!! #","+ !!!!!!!!!!","- !!!!!!!!","!!!!!!!!! *","!!!!!!!!!! *",") !!!!!!!!!","* !!!!!!!!!!","- !!!!!!!","!!!!!!!!!!! '","% !!!!","``` \\","& !!!!","!!!!!!!! *",", !!!!!!!!","/ !!!!!!!!!","\" !","H H","``` _","] ]",") !!!!!!","- !!!!!!!!!!","\" !!!!!!!!!!!!","( !!!!","!!!!!!!!!!! (","/ !!!!!!!!","!!!!!!!!!!!! &","!!!!!!!!! +","9 9","!!!!! $",". !!!!!!!!","!!!!!!!!!!!! (","!!!!!!!! -","V V","@ @","' '","# !!!!!!!!!!!!",": :","+ +","!!!!!!!!! ,","$ !!!","` __","* *","!!!!!! &","+ !!!!!!!!!!!","!!!!!! '","; ;","M M","!!!!!!!!!! +","_ `_","X X","a Y",") )","# !!","' !!!!!","^ ^",") !!!!!!!!!!",", !!!!!!!!!","!!!!!!!!!!! *","!!!!!!! -","& &",". !!!!!!!","P aaaa","!!!!!!! )","!!!!!! (","!!!!!!!!!! )","!!!!!!!!!!! +","!!!!! %","/ !!!!!!!","!!!!!!!!!!!!! (","!!!!!! *","!!!!!!!!! -","/ !!!!!!!!!!","^ ````","# !","_ ````","+ !!!!!!","] ````","? ?","A aaaa","!!!!!!!!!! -","* !!!!!","- !!!!!!","( !!!!!!!!!!!!",", !!!!!!!","!!!!!!!!!!! -","8 8","& !!!","!!!! \"",", ``","!!!!!!! +",". !!!!!!!!!","!!!!!!!! /","!!!!!!!!!!!!! %","!!!!!!!!!!!! +","T T","!!!!!!!!!!!!! $",", !!!!!!!!!!","a R","!!!!!!!!! /",") !!!!!","$ !!","* !!!!!!!!!!!","- !!!!!!!!!!!","O O","/ !!!!!!","!!!!!!!!!!! )","!!!!!!!!!!!!!! \"","\\ \\","% !!!","/ !!!!!","$ !!!!!!!!!!!!","( !!!","! \"","!!!!!!!! ,","!!!!!!!!!!!!!! #","N N","!!!!!!!!! .","% %",". !!!!!!","!!!!!!!!!!!! -","!!!!!!!!!!!!! +","[ ````",", !!!!!!!!!!!","' !!!!","/ !!!!!!!!!!!","!!!!!!!!!!!! *","A aa",". !!!!!!!!!!","Q Q",", !!!!!!",", !!!!!","U U","\" !!!!!!!!!!!!!","!!!!!!!!!! ,","+ !!!!!","__ _`","!!!!!!! /","!!!!!!!! .","\\ ````","& !!!!!!!!!!!!","% !!!!!!!!!!!!","!!!!!! )","!!!!!!!!!! /","3 3","!!!!! &","$ !","7 7","4 4","' !!!","!! \"","L L","!!!!!!!!!!!!!! $","!!!!!!!!!!!! )","+ !!!!!!!!!!!!","!!!!!!!!!!!!! &","!!!!! '","# #","K a",") !!!!!!!!!!!","$ $","!!!!! (","/ !!!!","# !!!!!!!!!!!!!","/ !!!!!!!!!!!!","!!!!!! +","!!!!!!!!!!!!! '","!!!!!!! .",") !!!!",". !!!!!!!!!!!","!!!!!!! ,","```````` `````","- !!!!!",", !!!!","!!!!!!!!!!!!!!! \"","P a","!!!!!!!!!!!! /","% !!","A aaA","& !!","+ !!!!","( !!","% !","!!!!!! -","& !","!!!!!!!!!! .","* !!!!","!!!!!!!!!!! /","!!!!!! ,","' !!!!!!!!!!!!","```` ^",". .","!!!!!!!!!!! ,","!!!!! *","!!!!!! /","!!!!!!!!!!!!!! %","!!!!!!!!!!!!! -","- !!!!","!!!!!!!!!!!!! )","!!! \"","!!!!!!!!!!!!!!! #","P aa","$ !!!!!!!!!!!!!","\" \"","5 5","J J","^ _","!!!!!!!!!!!!!! &","( !","!!!!!!!!!!!! ,","!!!!!!!!!!!!!! '","!!!!!!!!!!!!!! (","!!!! #","* !!!","& !!!!!!!!!!!!!","!!!!!!!!!!!!!!! $","( !!!!!!!!!!!!!","```` [",") !!!!!!!!!!!!","Y a","```` ]","!!!!! )","_ ^","````` ^",", !!!!!!!!!!!!","!!!! $","!!!!!!!!!!! .","+ !!!","!!!!!!!!!!!!! *","' !!",". !!!!!!!!!!!!","```` _","* !!!!!!!!!!!!","< ```","- !!!!!!!!!!!!",". !!!!!","!!!!!! .","' !","!!!!!!!!!!!!! /","!!!!! -","/ !!!","% !!!!!!!!!!!!!","``` >","!!!!!!!!!!!!!!! %","!!!!! +","\" !!!!!!!!!!!!!!","!!!!!!!!!!!!!!! &","```` \\","!!!!!!!!!!!!!! -",") !!!","- !!!","!!!!!!!!!!!!!! +","!! #","``` <","```````` ``````","!!!!!!!!!!!!!! )","_ ]","!!!!!!!!!!!!! .","````` ]","R a","``` =","! #","!!!! %","!!!!!!!!!!!!! ,","!!!!!!!!!!!!!!!! \"","!!!!!!!!!!!!!!! '","!!!!!!!!!!!!!! *","!!!!!!!!!!!! .","A aaa","!!!!! ,","` ___","!!! #","? ```","A P","/ !!!!!!!!!!!!!","; ```","; !!!!!!!!","!!!! &","!!!!! /","````` [","!!!!!!!!!!!!!!! (","$ !!!!!!!!!!!!!!","!!!!!!!!! =","!!!!!!!! =",", !!!","* !!","# !!!!!!!!!!!!!!","+ !!","] _","````` \\","!!!! (","' !!!!!!!!!!!!!","] ^","!!!!!!!!!!!!!!!! !!!!!",": !!!!!!!!","! $","!!!!!!!!!! =","D a","!!!! '","= !!!!!!!!","\\ _","> ```",". !!!!","! %","+ !!!!!!!!!!!!!","!!!!!!!!!!!!!!!! #","AA AA","_ [","- !!!!!!!!!!!!!","!!!!!!! =","`````` ^","!!!!!!!! :","``` ?","!!!!!!!!!!!!!!!! %","!!!!!!!!!!!!!!! -",") !!!!!!!!!!!!!","= !!!!!!!!!","!!!!!!!!!!!!!!! *","!!!!!!!!!!!!!! /",") !!","; !!!!!!!!!","!!!!!!! :","Z a","K Y","!!!!!!!!!!!!!! .","- !!","! &","= !!!!!!!","!!! $","[ _","; !!!!!!!","& !!!!!!!!!!!!!!","`````` _","!!!!!!!!!!!!!!!! $",": !!!!!!!!!","] `````","!!!!!!!!!! :","`````` ]","!!!!!!!! ;","!!!!!!!!!!!!!!! +","_ \\","!!!!!!!!! ;","``` @","/ !!","!!!!!!!!!!!!!! ,","[ ^","```` `_","A aaaaaaaa","= !!!!!!!!!!","^ ]",": !!!!!!!","* !!!!!!!!!!!!!",", !!","!!!!!!!!!!!!!!!! &","P aaA","A aaP","^ `````","@ ```","P aaa","+ !","!!! %","( !!!!!!!!!!!!!!","% !!!!!!!!!!!!!!","!!!! *","!!!!!!!!! :",", !!!!!!!!!!!!!","!!!!!!!!!!! =","' !!!!!!!!!!!!!!","? !!!!!!!!","_ `````","[ `````",": !!!!!!!!!!","P aaP","!!!!! .","> !!!!!!!!","\" !!!!!!!!!!!!!!!","!!!!!! :",". !!!","\\ ^","!!!!!!!!!! ;","Y K","!!!! )","* !","!!!!!!!!!!!!!!!! (","!!!!!!!!!!!!!!! )","; !!!!!!","!!!!!!!! ?","? !!!!!!!!!","!!!!!!!!! ?","A a","; !!!!!!!!!!","!!!! -","= !!!!!!","!!!!!!!!! <","] ``````","a V",": !!!!!!","!!!! +","\\ `````","[` [","a D","`_ `","] [","> !!!!!!!!!","!! $","] ````````","!! &","!!! (","!!!!!!!!!! ?","@ !!!!!!!!!!","+ !!!!!!!!!!!!!!","- !!!!!!!!!!!!!!","!!! &","!!!!!!! ;","!!!!!!!!!!! :","< !!!!!!!!!!","__ `","!! %","! (","? !!!!!!!","^ \\","_` ^","< !!!!!!!!","< !!!!!!!!!!!","^ ``````","] `^","< !!!!!!!!!","a T","P aaaaaaaa","!!!!!!!! @","``````` ^","!!!!! ``","!!!!!!! @","!!!!!!!!!!!!!!!! '",". !!!!!!!!!!!!!","[ ``````","A aA","a X","P aP","< !!!!!!!","^ ````````","!!!!!!!! <","!!!!!! =","!!!!!!!!!!!!!!! /","# !!!!!!!!!!!!!!!",") !","!!!!!!!!!!!!!!! ,","!!!!!!!!!!!!!!! .","``````` ]","66 6","_ ````````","; !!!!!!!!!!!","^ `_","aa K","^ `^","!!!!!!!!!!!! =","!!!!!!!!!!!!!!!! *","/ !","!!!!!!!!! >","!!!!!!!!!!!!! <","!!! '","a Z","* !!!!!!!!!!!!!!","!!!!!!!!!!!!!!!! +","!!!!!!!!!!!!!!!! -","^` ]","!!!!!!!!! @","!!!!!!!!!! <","- !","!!!!!!!!!!!!!!!!! \"","> !!!!!!!","_ ``````","/ !!!!!!!!!!!!!!","@ !!!!!!!!!","a W","AA A",") !!!!!!!!!!!!!!","!!!!!!! ?","!!!! ,","= !!!!!!!!!!!",": !!!!!","!!!! /","< !!!!!!","!!!!!!!!!!!!!!!!! #","!!!!!! ;","!!!!!!!!!!!! :","$ !!!!!!!!!!!!!!!","[ ]","^ [","!!!!!!!!!!!! @","a N","!!!!!!!!!!!!!!!! )","!!!!!!!!!!!!!!!!! %","!! '","!! (","> !!!!!!!!!!","!!!!!!! <","@ !!!!!!","_` ]","!!!!!!!!!!! @","Q a",": !!!!!!!!!!!","`_`_ `_`_","@ !!!!!!!","aa Y","= !!!!!","a U",", !","\\ ``````","!!!!!!!! >","] `_","!!! *","```````` ```````","!!!!!!!!!!! ?","!!! +","? !!!!!!!!!!","!!!!!!!!!! >","]` ]","!!!!!! >","P A","_` [","@ !!!!!!!!","a F","!!!!!!!!!!! <","!!!!!!! >","_` ____","[ `^","!!!!! :",", !!!!!!!!!!!!!!","!!!!!!!!!!!! <","__ `_","; !!!!!","[ ````````","aaaa a","!!!!!!!!!! @","\\ ]","^` [","? !!!!!!","``````` _","\\ `_","& !!!!!!!!!!!!!!!","A aP","!!! -","Z A","aa R","P aA","!!!!! =","D Y","K R","] \\","!!!!! ```","!!!!!!!!!!! ;","! '","A V","`````` [","!! +","( !!!!!!!!!!!!!!!","@ !!!!!!!!!!!","% !!!!!!!!!!!!!!!","> !!!!!!","`` !!!","[ \\","!!!!!!!!!!!!!!!!! &","`````` \\","!!!!!!!!!!! >","!!!!!!!!!!!!!!!! /","Y R","_` __","S a","B Z","N a","!!!!!!!!!!!!!!!!! $","aaaa A","^` \\","; !!!!!!!!!!!!","[` \\","``````` [","Y A","_` \\","CC C","!!!!!! <","\\ `^","!!!! .","= !!!!!!!!!!!!","! +","`` !!!!!!!!!","`` !!!!",". !!","X C","A aaaA","W a",": !!!!!!!!!!!!","A Z","' !!!!!!!!!!!!!!!","!!!!!!!!!!!!! =","!!! )","Y Z","!!!!!!!!!!!!!!!! ,","? !!!!!!!!!!!","V A","\\ `]","!!!!!! @","A aaaP","``< !!!!!!!!!!!","\\ [","< !!!!!","!!!!!! ?","a L","! *","^ ```````","aa D","== =","R Y","] ```````","@ !!!!!","__ `____","!!!!!!!!!!!! ;","!!!!!!!!!!!!!!!!! (","\\` \\","]` [","\\ ````````","[` ]","[ `_","!! *","! )","KK K","Z B","!!!!!!!!!!!!!!!!! '","`` !!!!!!!!","II I","FF F",": !!!!","/ `","!!!!!!!!!!!!! ;","]` \\","< !!!!!!!!!!!!","!! )","A Y","66 66","a Q","S X","Z C","!!!!!!!!!!!!!! =","I X","Z Y","```````` ````````","EE E","\\ `[","_ ```````","; !!!!","!!!!!!!!!!!! >","!!!!!!!!!!!!!!!!! )","- ``","X Y","!!!!!!!!!!!!!!!! .","!!!!! ;","!!!!!!!!!!!!!!!!! +","+ !!!!!!!!!!!!!!!","___` ____","> !!!!!","W Z","= !!!!","Z E","!!!!!!!!!!!! ?","// /","!!!!!!!!!!!!! :","- !!!!!!!!!!!!!!!","!!!!! <","* !!!!!!!!!!!!!!!","a O","C Z","> !!!!!!!!!!!","H a","Z I","Z W","- `","!!! /","aaaa P","`> !!!!!!!!!","!!! ,","!!!!!!!!!!!!! @","Y X","V a",". !","6 5","RR R","P aaaP","Y D","Z D","<< <",": !!!!!!!!!!!!!","V Y","`` !!!!!!!!!!!!!",",, ,","? !!!!!!!!!!!!","aaaa aa","Y I","!!!!! >","`= !!!!!!!!!","DD D","``> !!!!!!!!!","# !!!!!!!!!!!!!!!!","P aaaA","``` !!!!","Z U","[ ```````","`= !!!!!!!!!!","? !!!!!","Z X","`> !!!!!!!!!!","a E","KK KK","B V","GG G",". `","/ !!!!!!!!!!!!!!!",", !!!!!!!!!!!!!!!","E Z","`? !!!!!!!!!","!!!!!!!!!!!!!! :","Q F","`? !!!!!!!!","\\ ```````",", `","\" !!!!!!!!!!!!!!!!","!! -","Y V","PP P","U Z","WW W","Q Z","S I","S Z",". !!!!!!!!!!!!!!","X Z","!!!!!!!!!!!!! ?","; !!!!!!!!!!!!!","!!!!!!!!!!!!!!! :","< !!!!","U A","R K","C X","U W","`= !!!!!!!!","!!!!!!!!!!!!!!! =","Z K","a S","a C","D V","T Z","```````` ^","_`` _","!!!!!!!!!!!!!!!!!! #","= !!!!!!!!!!!!!","!!!!!!!!!!!!! >","!!!!!!!!!!!!!! ``",">> >",") !!!!!!!!!!!!!!!","O Z","W V","``; !!!!!!!!","!!!!!!!!!!!!!! ;","T a","BB B","A U","!!!! ``","99 9","F Y","Z T","!!!!!!!!!!!!!!!!! *","!!!!!!!!!!!!! <`","Z M","11 11","`@ !!!!!!!!!!","Z R","!!!! :","``````` \\",": !!!","X I","== ==","(( (","K aa","L a","Z V","@ !!!!!!!!!!!!","W Y","^ ``^","! -","MM M","Z O","a H","X S","aaaa aaa","D Z","HH H","% !!!!!!!!!!!!!!!!","R X","W B","X A","!!! .","V Q","Z H","@@ @","> !!!!","? !!!!","a G","!!!!!!!!!!!! /``","`< !!!!!!!!!!!","Z Q","!!!!! @","( !!!!!!!!!!!!!!!!","Z F","!!!!!!!!!!!!!!!!!! \"","G V","!!!!! ?","S V","Y C","Y W","!! /",";; ;","a I","> !!!!!!!!!!!!","A Paaaa","SS SS","`@ !!!!!!!!!!!","D W","Z G","W C","!!!!!!!* ``","M a","I Y","V C","[`` [","_ ``]","``> !!!!!!!!","-- -","Z S","= !!!","T X","Y B","`> !!!!!!!!","`____ `____","X U","] ``^","!!!!!!!!!!!!!! ?","B W","__ `__","!! ,","`< !!!!!!!!!!!!","Y U",":: :","I Z","a M","```````` _","= ```","P Z","X R","!!!!!!!!!!!!!!!! !!!!!!","``= !!!!!!!!","// //","!! .","L Y","```````` ]","!!!!!!!!!!!!!!!!! ,","$ !!!!!!!!!!!!!!!!","A X","H Z","CC CC","!!!!!!!!!!!!!!!!! -","[[ [",")) )","Q V","22 2","!!!!!!!!!!!!! ``","S D","```````` [","!!!!!!!!!!!!!!!!!! %","a J","``; !!!!!!!!!","A T","N X","Y E","^`` _","`? !!!!!!!!!!","; !!!","R Z","D X","``= !!!!!!!","^ ``]","! /","W X","`` (!!!!!!!!","]`` _","J Z","S A","<< <<","F Q","V X","Y L","Z P","W U","]`` [","E X","!!!!!!!!!!!!!!!!!! &","]`` ]","`? !!!!!!!!!!!!","aaaa aP","I V","Y F","``< !!!!!!!!!!!!","++ +","L V","'' ''","! ,","U X","!!!!!!!!!!!!!! <","`? !!!!!!!","G Q","DD DD","`< !!!!!!!!!!","II II","K Z","T Y","!!!! =","`; !!!!!!!!","U a","``@ !!!!!!!!!!!","88 8","B Y","F Z","!!!!!!!!!!!!!!!!! /","** *","_ ``^","!!!!!!!!!!!!!!!!!! $","!!!!!!!!!!!!!!!!!! (","V Z","Y S","!!!!!!!!!!!!!! @","Y M","[ ``]","`= !!!!!!!","`@ !!!!!!!!!","``: !!!!!!!","L Z","!!!!!!!!!!!!!!! ;","``= !!!!!!!!!","?? ?","+ `","M Z","W A","G Y","G Z","! .","X H","!!!!!!!!! ``","R V","W H","S Y","X T","X a","``@ !!!!!!!!!!","& !!!!!!!!!!!!!!!!",". !!!!!!!!!!!!!!!","Q Y","Z N","!!!!!!!!!!!!!! >","`; !!!!!!!!!","EE EE","' !!!!!!!!!!!!!!!!",": !!!!!!!!!!!!!!","X N","``` !!!","``? !!!!!!!!","U Y","\\ ``^","``; !!!!!!!","W I","X D","I a","[ ``^","11 1","!!!!!!!!!!!!!!!!!! '","``? !!!!!!!!!",",, ,,","&& &","B a","V D","_`` \\","`< !!!!!!!!!","V W","``: !!!!!!!!!","O a","Z L","``: !!!!!!!!","!!!!!!!!!!!! <``","```````` \\","___ `_","K aK","W E","!!!!!!!! =`","V K","GG GG","V B","!!!! ;","C W","N S","E Y","P X","FF FF","C Y","ZZ ZZ","```````` `^","V T","(( ((","^`` \\","W T","!!!!!!!!!!!!!!!! :","`[ !!!!!!!","? !!!!!!!!!!!!!","W F","L X","``= !!!!!!!!!!","E W","H Y","P Y","`; !!!!!!!","( ``","RR RR","O Y","U E","`? !!!!!!!!!!!","I S","Q X","`` !!!!!!!!!!",". ``","!!!!!!!!!!!!! ?`","00 0","M Y","`< !!!!!!!!","+ ``","J W","!!!!!!!!! ?`","WW WW","D S","`` -!!!!!!!!!!!","\\`` _","`< !!!!!!!","< !!!!!!!!!!!!!","!!!!!! ``",">> >>","F a","H W","``> !!!!!!!!!!","X W","` !!!!!!!!!!!!!","`= !!!!!!!!!!!","`_`_ `_","OO O","< !!!","U C","V L","`` (!!!!!!!!!","`@ !!!!!!!","44 4","A S","T D","C V","\\ ``]","!!!! <","`@ !!!!!!!!!!!!","``< !!!!!!!!!!","``? !!!!!!!","77 7","M W","> !!!","P C","T V","X O","K T","N V","!!!!!!!!!!!!!!! ?","T A","X E","Y Q","!!!!!!!!!!!!!!! <","# \"","> !!!!!!!!!!!!!","Y O","` /!!!!!!!!!!","`> !!!!!!!!!!!","33 3","D R","aaaa aA","_` ___","A W","Y H","Z J","!!!! ```","!!!!!!!!!!!!!!!!!! )","`@ !!!!!!","Y P","`= !!!!!!","%% %","R A","X L","= !!!!!!!!!!!!!!","Q G","U K","X B","!!!!!!!!! =`","!!!!!!!!!! ?`","S N","U V","W D","!!!!!!!!! ;`","``< !!!!!!!","!!!!!!!!!! ``","\\`` [","`@ !!!!!!!!","E a","X G","BB BB","`` &!!!!!!!!","___` __","+ !!!!!!!!!!!!!!!!",", !!!!!!!!!!!!!!!!","D aa","K A","`: !!!!!!!","] `````````","`` !!!!!!!!!!!!","!!!!!!!!! ;``","!!!!!!! =``","!!!!!!!!!! ?``","? !!!","G X","U B","` /!!!!!!!!!","^`` [","Y T","!!!!!!!!!! =`","X Q","!!!! >","!!!!!!!!!!!!! ?``","``? !!!!!!!!!!","`: !!!!!!!!","N Z","V S","W P","!!!!!!!!!!!!! <``","YY YY","F X","H X","T U","`` !!!!!","`` (!!!!!!!!!!!","!!!!!!!!!!!!!!!! =","!!!!!!!!!!!!! @`","!!!!!!!!!!!!!! ?``","-- --","``< !!!!!!!!!","XX XX","@ !!!!","K D","!!!!!!!!!!!!!!! @","``= !!!!!!!!!!!","``: !!!!!!!!!!!","O X","W G","Y G","`` -!!!!!!!!!!","Q I","V F","` !!!!!!!!","!!!!!!!! ;``","V I","X P","` !!!","``< !!!!!!!!","J X","SS S","F U","!!!!!!!!!!!! <`","``: !!!!!!!!!!","U N","` !!!!!!!!!","B X","I W","`; !!!!!!!!!!!","'' '","E T","M X","/ !!!!!!!!!!!!!!!!","A R","U F","`` &!!!!!!!","`[ !!!!!!!!","``? !!!!!!!!!!!!","* !!!!!!!!!!!!!!!!","`: !!!!!!!!!!!","V G","W R","`> !!!!!!!","Q A","U R","W L","_`` [","K aY","X J","X M","!!!!!!! =`","```````` `_","P E","U L","`` -!!!!!!!!","V H","`` *!!!!!!!","!!!!!!!!!!!!!!! ``","!!!!!!!! @`","```````` `[","; !!!!!!!!!!!!!!","T K","!!!!!!!! ?`","``` :","HH HH","X F","!!!!! ````","= !!","H V","Y aa","``> !!!!!!!","!!!!!!!!!!!!' ``","!!! =","____ `____","``? !!!!!!!!!!!",":: ::","Y aY","N Y","Q W","!!!!!!!! >`","`` +!!!!!!!!","`` -!!!!!!!",")) ))","!!!!!!!!!!!!- ``",") !!!!!!!!!!!!!!!!","* ``","U P","!!!!!!!!!!!!!! ?`","PP PP","** **","B R","T W","V R","!!!!!!!!!!!!!!!!! .","`: !!!!!!","99 99","\" #","[`` _","`: !!!!!!!!!!","B U","W S","Y N","^ `````````","!!!!!!!! =``","``: !!!!!!","C P","!!!!!!!!!!!!! ;`","`: !!!!!!!!!","F W","```````` `]","``; !!!!!!","``@ !!!!!!!!","U J","!!!!!!! :``","``; !!!!!!!!!!!!","X V","!!!!!!!!& ``","ZZ Z",": ```","K W","O R","!!!! ?","`` /!!!!!!!!!","`> !!!!!!!!!!!!","NN N","\" $","P V","S W","``` !!!!!!!!!","!!!!!!!! <`","`` &!!!!!!!!!","`` .!!!!!!!!!!!","!!!!!!!!!!! ?``","!!!!! `","]`` \\","[[ [[",";; ;;","!!!!!!! /``","!!!!!!!!!!!!!!! >","`[ !!!!!!!!!","* `","K V","`` -!!!!!!!!!","Aaaaa A","R W","`` .!!!!!!!!","`; !!!!!!!!!!!!","- !!!!!!!!!!!!!!!!","Q H","`` !!!!!!!","`` &!!!!!!","!!!!!!* ``","!!!!!!!! [`","!!!!!!!!!!!!!+ ``","## #","R aa","W J","W O",".. .","U O","` .","Aaaaa P","___` ___",": !!","!!!!!!!!!!!!! /``","`^ ?","`? !!!!!!","L T","`` '!!!!!!!","`] !!!!!!!!!!!!","++ ++","G W","`` +!!!!!!!!!","S U","U T","[`` \\","!!!!!!!!!!!!!- `","J Y","@@ @@","K U","O V","!!!!!!!!! >`","!!!!!!!!!!! =`","\\`` \\","``@ !!!!!!!!!","&& &&","O I","R D","[ `````````","\\ __","!!!!!!!! ?``","!!!!!!!!!!! >`","``` '!!!!!!!!!!!","88 88","!!!!!!!!!!!! ?``","!!!!!!!!- ``","J a","M S","`` '!!!!!!!!","`; !!!!!!!!!!","\"! \"","$ '","D T","R E","!!!!!!! ;`","```````` `\\","D K","G U","V U","!!!!!!!!!!!!! [`","``< !!!!!!","_``` _","!!!!!!!!!!!!( ``","VV VV","55 5","E U","!!!!!!!!!! @`","C U","V N","!!!!!!!! :`","!!!!!!!!!!!!!!!! <","!!!!!!!!!! >`","00 00","$$ $$","< !!!!!!!!!!!!!!","A Q","I T","!!!!!!!!!!!! @`","``` !!!!!!!!","@ _","W K","]] ]","D P","X K","a B","```````` ``^","``= !!!!!!","M V","!!!!!!!!!!! ?`","____ _","`@ !!!!!","D U","!!!!!!!! ;`","!!!!!!!!!!!!!!!! >","M C","!!!!!!!!!!!! @``","``> !!!!!!!!!!!!","L U","P R","!!!!!!!!! [`","!!!!!!!!!!!!!!!!!!! #","`` !!!!!!!!!!!","!!!!!!!!!!!!!!!! ;","!!!!!!! ?`","!!!!!! /``","22 22","```````` `````````","\"!! \"","?? ??","TT TT","E P","M U","R U","!!!!!!!!!!!!!!!!!! -","`; !!!!!!","M T","`` '!!!!!!!!!!!","`_`_ `","``@ !!!!!!!!!!!!","!!!!!!!!! @`","``` ;","``` !!!!!!!!!!!!!","@ !!!","T L","Y J","LL L","= !","!!!!!!!!!!!!!!!!!! *","`> !!!!!!","\" !!!!!!!!!!!!!!!!!","Y aK","` /","` !!!!","`` .!!!!!!!!!!!!","!!!!!!!!!!!! :`","`< !!!!!!","J V","T P","!!!!!!! :`","aaaa aaP","$ %","!!!!!!!!!!!!!!!!!! +","F V","!!!!!!! ?``","I Q","`[ !!!!!!!!!!","``> !!!!","MM MM","\\\\ \\","# %","> ]","Q B","_ `````````","# !!!!!!!!!!!!!!!!!","@ !!!!!!!!!!!!!","R H","`= !!!!!!!!!!!!","``@ !!!!!!!","O U","`` .!!!!!!!!!","? !!!!!!!!!!!!!!","F S","R aY","!!!!!!!!!!!!!! ```","!!!!!!!!!!!!!!!!!!! \"","# &","$ &","A L","U I","!!! :","``; !!!!!!!!!!","A K","N U","T S","`` .","``> !!!!!!","!!!!!!!!!!!!+ ``","' `","!!!!!!!!!!!! ?`","!!!!!!!!! =``","B T","E Q","Q R","!!!!!!!! :``","`` &!!!!!!!!!!","Paaaa A","!!!!!! =``","!!!!!!!!!!!!!!!!!!! $","K X","O W","T E","Y aR","!!!!!! ,``","```< !!!!!!!!!!!","' ``","Q U","[ !!!!!!!","!!!!!!!!! ?``","!!!!!!!!!!!!!!! ?`","aaa K","# $","? ^","S G","` /!!!!!!!!","S E","!!!!!!!!!!!!!!!! @","!!!!!! ```","P U","W N","!!!! @","!!!!!!! >`","``> !!!!!","R O","S C","` *!!!!!!","!!!!!!!!! <`","!!!!!!!!!!!!!!! =`","\" %","H U","K aR","``: !!!!!!!!!!!!","Ya D","B P","V P","`` .!!!!!!!","!!!!!!! [`","_``` ]","B S","H S","Q T","\\ `````````","`` .!!!!!!","!!!!!!!!!!! @`","T O","] ``````````","^ ```^","` .!!!!!!!!","`` ,!!!!!!!!","UU UU","% !!!!!!!!!!!!!!!!!","!!!!!!!!!!!!!! =`","```````` ``]","` &!!!!!!!!","` /!!!!!!!!!!!","E R","Q D","S M","!!!!!!! <`","!!!!!!!!!! <`","`= !!!!!","``; !!!!!!!!!!!","; !!","> !!","H T","O K","` /!!!!!!!!!!!!","!!!!!!!!!!!!! =`","``; !!!!!","`: !!!!!!!!!!!!","``@ !!!!!!","C T","V M","`` +!!!!!!!!!!","`` +!!!!!!!!!!!","!!!!!!!!!!!!!! ;`","YY Y","NN NN","U H","` -!!!!!!!","`` /!!!!!!!!","!!!!!!!!!!!!!! `","`_ [","A N","Q S","T M","V O","`` .!!!!!!!!!!","!!!!!!! @`","!!!!!! >``","] ```^","` -!!!!!!!!!","!!!!! >``","]``` [","!!!!!!!!!!!!' ```","< !!","I O","!!!!!!!! /``","`` *!!!!!!!!!","`` ,!!!!!!!!!!!","aaaaaaaa a","``> !!!!!!!!!!!","C M","C a","E S","!!!!!!!!!!! =``","\" (",": !","? !!","T G","!!!!!!!!!! ;`","\"\" \"\"","\" &","$ !!!!!!!!!!!!!!!!!","- =","P T","U G","U S","` .!!!!!!!!!","!!!!!!!!!!!! :``","!!!!!!!!!!! /``","``` !!!!!","aaaa aaaP","H P","N T","!!!!!! :``","!!!!!!!!!!!!! >`","!!!!!!!!!!!!!! >`","!!!!!!!!!!!!!!!!!!! &","!!!!!!!!!!!!!+ `","A I","^ @","``: !!!!!","G S","`` ,!!!!!!!!!!","`[ !!!!!!!!!!!","`? !!!!!!!!!!!!!","$$ $","( !!!!!!!!!!!!!!!!!","Q J","T C","!!!!!!!!!!!! =``","!!!!!!!!!!!! ,``","!!!!!!!!!!!!!!!!!! ,","``= !!!!!","Aaaaa a","( `","E V","!!!!!!!!! :`","!!!!!!!!!!! <`","& !!!!!!!!!!!!!!!!!","= !!!!!!!!!!!!!!!","!!!! `","!!!!!!!!!!! <``","!!!!!!!!!!!!!! ;``","^``` ]","Paaaa P","D J","!!!!!!! ;``","!!!!!!!!!! =``","!!!!!!!!!!!!! @``",". !!!!!!!!!!!!!!!!","2 8","D aK","M A","` &!!!!!!","!!!!!!!! ]`","!!!!!! ?``","!!!!!!!!!!!!! >``","!!!!!!!!!!!!!!! ;`","W Q","` -!!!!!!!!!!","!!!!!!!!!!!! <```","!!! ;","!!!!!!!!!!!!!!!!! :","!!!!!!!!!!!!!!!!!! /","!!!!!!!- ``","C S","D aY","G a","P D","V J","`> !!!!","T B","T N","T R","`` +!!!!!!!","!!!!!!!!!!!! =`","!!!!!!!!!! /``","OO OO",": !!!!!!!!!!!!!!!","H Q","L S","`` *!!!!!!","aaa Y","!!!!!!!!- `","J R","` ,!!!!!!!!","`_ @","@ ^`","T J","U M","_ `_`_","```````` ``_","`[ !!!!!!!!!!!!","`[ !!!!!!","\"!!! \"","77 77","? ````","B L","N W","Paaaa a","_ @","`> !!!!!","``< !!!!!","I U","K F","K O","U Q","`` ,","`` *!!!!!!!!","JJ J","!!!!!!!!!!!!!. ``","I R","` /!!!!!","`` ,!!!!!!!!!","!!!!!!! >``","!!!!! ?``","`< !!!!!","[``` [","``? !!!!!!","33 33",") `","> !!!!!!!!!!!!!!","K aaaa","O T","P S","U D","W M","`` ,!!!!","!!!!!!!!!!!! >`","!!!!!!!!!!!!!!! ?``","!!!!!!!!!!!!!!! <`","]] ]]","#! \"","F A","_ ```^","S H","!!!!!!!!! >``","^``` _","QQ QQ","!!!!!!!!!!!!!/ `","O E","] ```````````","` &!!!!!!!","`` -!!!!!!","!!!!!!!!!!!!! ;``","!!!!!!!!!!!!! ,``","!!!!!!!!!!!!!!! >`","!!!!!!!!!!!!!!!!! =","`: !!!!!","Aaaaa aP","D M","T Q","[ !!!!!!!!!","!!! <","' $","; !!!!!!!!!!!!!!!","A F","S F","[ ``````````","` +!!!!!!!!!!!","`` /!!!!!!!!!!","!!!!!!! @``","]``` ]","\\``` _","``; !!!!!!!!!!!!!","`____ `_","P B","P N","R S","R aK","!!!!!!!!!!!!!! /``","`] !!!!!!!","' %","^ ?","!!!!!!!!!!!!!!! =``","__ `___","Paaaa aP","Q N","^ ``````````","```````` ``[","LL LL","I A","R N","V E","` /!!!!!!","`` (!!!!!!!","`` &!!!!!!!!!!!","!!!!!!!!!!!! ;``","```` !!!!","```` !!!","!!!!!!!!! /``","!!!!!!!!!!!!!!!!!!! %","`; !!!!!","' !!!!!!!!!!!!!!!!!","F L","R T","` *!!!!!!!","!!!!!!!! @``","!!!!!! [`","aaaa aaA","%% %%","# (","G P","J U","!!!!!!!! ``","`` #!!!!!!!!!","!!!!!!!!!!!!!( ``","!!!!!!!!!!!- ``","!!!!!!!!!!!!- `","R F","!!!!!!!!!!!!! :`","!!!!!!!!!!!!!!! :``","]``` _","_``` \\","F P","H C","J C","O S","[ !!!!!!!!!!","` +!!!!!!!!","`` /!!!!!","!!!!!! <``","``` !!!!!!!!!!!!","aaa R","\"! #","@ ^","N E","O D","P W","` !!!!!!!!!!","` *!!!!!","` -!!!!!!!!!!!","` ,!!!!!!!!!!!","`` /","!!!!! :``","T F","_ >","`` *!!!!!","`` ,!!!!!","!!!!!!!!!!!! [`","!!!!!!!!! `","`? !!!!!","Ka D","G L","R B","` ,","!!!!!!!!!!!!!!!! ;`","!!!!!!!!!! :`","``@ !!!!!","!!!!!!!- `","< !!!!!!!!!!!!!!!","` -!!!!!!!!","!!!!!!!!! @``","! =","# '","& \"","( >","A J","C L","N P","R L","` %!!!!!!!!!!!","!!!!!!!!!!! ,``","```````` ``\\","`____ `",") ``","A M","G B","R Q","!!!!!!!!!! :``","!!!!!!!!!!! @``","!!!!!! >`","!!!!!!!!!!!!!! :`","VV V","& ``","D N","G T","K M","S J","S O","` &!!!!!!!!!","` .!!!!!!!!!!","!! =","!!! >","``````````` _","``= !!!!!!!!!!!!","!!!!!!!& ``","!!!!!!!* `","## ##","B O","J T","R P","``; !!!!","!!!!!!!. ``","# -","@ !!","B Q","H M","S L","` ,!!!!!!!!!!","`` '!!!!!!","```````` ``````````","( $","6 4","F T","T I","` !!!!!!!","44 44","% $","> _","N A","R M","` ,!!!!!!!!!","` -!!!!!!!!!!!!","!! :","!!!!!!!!!! ;``","!!!!!!!!!!! :``","!!!!!!!!* ``","; _","? _","Q E","Q L","S P","!!!!!!!!!!!! ;`","`> !!!!!!!!!!!!!","XX X","> /","? ^`","` *!!!!!!!!","!!!!!! `","!!!!!! ;``","!!!!!!!!!!!!!! ]`","`] =",".. ..","55 55","J A","` !!!!!!!!!!!","`` /!!!!!!!!!!!","`____ `__","B G","L G","M B","` /!!!!!!!","` -!!!!!!","`` /!!!!!!!","!!!!!!! <``","!!!!!!!!!!!!!!!!! <","!!!!!!!!!!!!!!!!!!! '","``> !!!!!!!!!!!!!","_```` _","+ &","Y aaaa","] =","!!!!!!!! >``","!!!!!!!!!!! :`","!!!!!! @`","`] !!!!!!","`@ !!!!!!!!!!!!!","!!!!!!' ``","!!!!!!!!!/ `","$ !\"","C R","H R","!!!!!!!!!!!!! ]`","!!!!!!!!!!!!!! <`","`@ !!!!","\"!!!! \"","`< !!!!!!!!!!!!!","% #","S Q","!!!!!!!! <``","!!!!!!!!!! <``","!!!!!! =`","^``` \\",") >","6 1","I P","``` .!!!!!!","`] !!!!!!!!!","aaa D","!!!!!!!!!- ``","```> !!!!!!!","% (","& +","3 9","; !","G K","M D","N R","S B","S R","] ````````````","!!!!! >`","E O","H K","R C","[ ```````````","`` )!!!!!!!!","!!!!!!!!! <``","!!!!!!!!!! `","!!!!!!!!!!!!!!- `","N F","[ !!!!!!","` /!!!!","` .!!!!!!!!!!!!","`` *!!!!!!!!!!","!!!!!!!!!! [`","!!!!!!!!!! @``","aaaa aaaA","$ \"","L Q","!!!!!!!!!!!!! ```","`; !!!!!!!!!!!!!","!!!!!!!!!' ``","8 2","`` %!!!!!!!!!!!","`` )!!!!!!!","`` /!!!!!!!!!!!!","' *",", !!!!!!!!!!!!!!!!!","? _`","C K","Q C","` +!!!!!!!!!","!!!!! =``","`^ @","`= !!!!!!!!!!!!!","#! #","J P","!!!!!!!!! :``","!!!!!!! ``","``` .!!!!!!!","```````` ```^","$ #","H O","L W","R aaaa","] >","` +","``[ !!!!!!!","`? !!!!","_``` [","$ ,","( &","9 3","H A","N I","_ ?","`` $!!!!!!!!!!!","!!!!!!! ]`","!!!!!!!!!!!!!! @`","``? !!!!!!!!!!!!!","? ]","J Q","L A","P G","S T","[ !!!!!!!!","^ ```````````","!!! @","]``` \\","\"!!! #","! ;","* !!!!!!!!!!!!!!!!!","J S","R G","T H","` !!!!!!!!!!!!","` ,!!!!!!!!!!!!","`` +","`` (!!!!!!!!!!","`\\ !!!!!!!!!!","____ `","#!! #","9 6","E N","`` /!!!!!!!!!!!!!","!!!!!!!!!!!! >``","!!!!!!!!!!!!! :``","!!!!!!!!!!!!!! =``","`] !!!!!!!!","[``` \\","\"!! #","!!!!!!!!!!!- `","\" '","4 6","E L","K C","` .!!!!!!!","` +!!!!!!!!!!!!","!!!!!!!!!!!!!!!! :``","aaaaaaaa aa","[``` ]","!!!!!!!!. `","\" ,","9 1","? ]`","D Q","M I","M K","!!!!! =`","\\``` \\","\\``` ]","!!!!!!!!+ `","```> !!!!!!!!","! :","& #","/ ;","!!!!!!!!!!!!!!! \\`","`? !!!!!!!!!!!!!!","!!!!!!$ ``","!!!!!!!!!, `","9 0","? ^``","A H","N C","` (!!!!!!!!","`` '!!!!!!!!!","`` /!!!!","!!!!!!!!!!!!!!!! =`","!!!!!! @``","``< !!!!","F K","M G","N D","O C","`` -","```` =","!!!!!!!!& `","\"! $","!!!!!!!!!. `","JJ JJ","' ,","= ^","A G","M P","R I","` -","!!!!!!!! [","`` !!!!!!","!!!!!!!!!!!!!!!!!!! (","[``` _","``? !!!!","!!!!!!!!!!!!& ``","TT T","< !","^ >","`` '!!!!!!!!!!","```` @","!!!!!!!!!!!!!!! ,``","!!!!!!!!!!!!/ `","$ (","& (","N L","P I","Q K","\\ ``````````","\\ ```^","_ ``````````","` !!!!!","` %!!!!!!!!!!","` (!!!!!!!!!!","!! ;","!!!!!!!!!!!!! <```","!!!!!!!!' ``","!!!!!!!!!!!!!( `","```= !!!!!!!!","!!!!!!!!!!!!!, `","Q O","`` *!!!!!!!!!!!","Aaaaa aA","!!!!!* ``","C O","D O","P F","!!!!!!!!!!!!!!!! >`","``` !!!!!!!!!!!","!!!!! <`","!!!!!!!!!!!!!! <``","\"\" \"","C N","L E","P H","\\ _`","!!!!!!! ,``","!!!!!!!!!! >``","!!!!!!!* ```","^```` ^","!!!!!!!. `","7 0","= ]`","G R","K B","L P","` .!!!!!!!!!!!","`` /!!!!!!","!!!!!!!!!!!!! =``","!!!!!!!!!!!!!!! :`","`] !!!!!!!!!!","aaP A","`: !!!!","#!!!! #","_`_ `","$!! \"","\\\\ \\\\","L R","`` &!!!!!","!!!!!!!!!!! [`","!!!!!!!!!!!!!!!!! ;","!!!!!!!!, `","!!!!!!!!!. ``","& $",") !!!!!!!!!!!!!!!!!","> _`","B I","C H","C Q","K P","R aR","_ `_`_`_`_","` %!!!!!!!!!","`` %!!!!!!!!!","!!!!! `__","!!!!!!!!!!!!!!! @`","!!!!!!!!% `","!!!!!!!!!!/ `","```> !!!!!!!!!","% '","% )","* /","@ !!!!!!!!!!!!!!","F O","!!!!!! :`","``` )!!!!!!!","`] !!!!!","aaaaaaaa P","``: !!!!!!!!!!!!!","+ !!!!!!!!!!!!!!!!!","< ]`","> )","@ _`","L D","_ =","` '!!!!!!!!!","`` !!!!!!!!!!!!!!","`` %!!!!!!","!!!!!!!!!! ,``","!!!!!! <`","% \"","A D","F N","K H","!!!!!!!!!!!!!!!! :`","!!!!! /``","!!!!!!!!!!!!!! ,``","!!!!!!!!!!!!!!!!!! .","!!!!!!!!!!!!!!!!!!! *","``> !!!","Paaaa aA","!!!!!!!!/ `","$ +","A O","B M","I N","M E","P O","!!!!!!!! ,``","!!!!!!!!!!!!!!!! <`","!!!!!!!!! [","!!!!!!!!!!! >``","``` .!!!!!!!!!!!","!!!!!!!% ``","``= !!!!","!!!!!!!!* `","#!! \"","!!!!!!!!!- `","!!!!!!!!!!!!!!+ ``","4 0","? *","L O","M R","P Q","S K","` (!!!!!!!!!!!","` )!!!!!!!","`` +!!!!!!!!!!!!","!!!!!!!!!!!!!!!! @`","!!!!!!!!!! ```","!!!!!!!!!!!!!! >``","`^ >","!!!!!!!!!( ``","^^ ^","^```` _","_```` `_","QQ Q","!!!!!!!!. ``","& >","/ =","L F","] _`","\\``` [","!!!!!!!!!!!/ `","# )","( =","H D","I C","` *!!!!!!!!!!!","` .!!!!!!","!!!! ````","____ ____","`; !!!!","!!!!!!!!+ ``","\\```` \\","`` .!!!!!","!!!!!!!!!!!!!!!! [`","!!!!!! ;`","!!!!! ;``","!!!!!!!!!!!!!!!!!!!! \"","Paaaa aa","!!!!!!!!!!- `","% *","8 4","< /","> ^`","` *!!!!!!!!!","!!!!!!!!!!!!!!! ;``","!!!!!!!!!!' ``","\"!! $","aaaP A","UU U","Ra D",", '","A E","D C","[ ```^","` *!!!!!!!!!!","`` ,!!!!!!","!!! ?","```` !!!!!!!!","`\\ !!!!!!!!!!!","``^ ?","#!!! \"","Aaaaa aaa","!!!!!!!!!!!!, `","& :","@ \\","H N","O B","Q M","_ ;","` )!!!!!!!!!!","!! <","!!!!!!!!!!!!!!!!!!! )","```? !!!!!!!!","! <","+ ?",". -","F R","I D","K S","O L","Q P","` +!!!!!!!","!!!!!!!!!!!!!!!! =``","!!!!!!!!!!! ;`","!!!!!! ]`","``````````` \\","``````````` ]","^``` [","``? !!!!!","( -","G F","O G","P M","^ ````````````","`` $!!!!!","`` ,!!!!!!!","`] <","!!!!!!!' ``","!!!!!!* `","Aaaaa aa","8 1","J E","`` )!!!!!!!!!","`` ,!!!!!!!!!!!!","!!!!!!! [","``` .!!!!!!!!","!!!!!!!!!!!!!!!!!!! +","`@ !!!!!!!!!!!!!!","!!!!!!!/ ```","!!!!!!!!!!!!!!' ``","AAAA A","% .","B H","G D","P K","P L","```` >","!!!!!!!!!!!!!!! `","`: !!!!!!!!!!!!!!","= \\","G A","L B","` '!!!!!!!!","``] =","`> !!!","`< !!!!","_```` ]","_```` ^","% /","& )","& /","4 9","= _","L M","!!!!!!!!!!! ;``","``` !!!!!!!","!!!!!!!!!!!!! [``","aaaaaaaa aaaa","AAAA AA","$ )","% +","' \"","' +","' <","E J","G O","L H","M Q","] ?","` )!!!!!!!!","` /!!!!!!!!!!!!!","`= !!!","!!!!!!!!!!* ``","^```` `_","!!!!!!!!!!!!!!. ``","( ;","8 0","> ^","K E","`_ >","`: !!!!!!!!!!!!!","!!!!!!!!!!' `","!!!!!!!!!, ``","!!!!!!!!!!!!!!- ``","' -","( #",": !!!!!!!!!!!!!!!!","< -","C F","E M","I L","J F","[ !!!!!!!!!!!","`` )!!!!!","!!!!!!!!!!!!!!!! ?`","!!!!!!!!!!!!!!!! ?``","``` !!!!!!!!!!","!!!!!!!!!!!!!! :``"]}}