{"version":"1.0","truncation":null,"padding":null,"added_tokens":[{"id":0,"special":true,"content":"</s>","single_word":false,"lstrip":false,"rstrip":false,"normalized":false},{"id":1,"special":true,"content":"<pad>","single_word":false,"lstrip":false,"rstrip":false,"normalized":false}],"normalizer":null,"pre_tokenizer":{"type":"ByteLevel","add_prefix_space":false,"trim_offsets":true},"post_processor":{"type":"ByteLevel","add_prefix_space":true,"trim_offsets":false},"decoder":{"type":"ByteLevel","add_prefix_space":true,"trim_offsets":true},"model":{"dropout":null,"unk_token":null,"continuing_subword_prefix":null,"end_of_word_suffix":null,"fuse_unk":false,"vocab":{"</s>":0,"<pad>":1,"!":2,"\"":3,"#":4,"$":5,"%":6,"&":7,"'":8,"(":9,")":10,"*":11,"+":12,",":13,"-":14,".":15,"/":16,"0":17,"1":18,"2":19,"3":20,"4":21,"5":22,"6":23,"7":24,"8":25,"9":26,":":27,";":28,"<":29,"=":30,">":31,"?":32,"@":33,"A":34,"B":35,"C":36,"D":37,"E":38,"F":39,"G":40,"H":41,"I":42,"J":43,"K":44,"L":45,"M":46,"N":47,"O":48,"P":49,"Q":50,"R":51,"S":52,"T":53,"U":54,"V":55,"W":56,"X":57,"Y":58,"Z":59,"[":60,"\\":61,"]":62,"^":63,"_":64,"`":65,"a":66,"b":67,"c":68,"d":69,"e":70,"f":71,"g":72,"h":73,"i":74,"j":75,"k":76,"l":77,"m":78,"n":79,"o":80,"p":81,"q":82,"r":83,"s":84,"t":85,"u":86,"v":87,"w":88,"x":89,"y":90,"z":91,"{":92,"|":93,"}":94,"~":95,"¡":96,"¢":97,"£":98,"¤":99,"¥":100,"¦":101,"§":102,"¨":103,"©":104,"ª":105,"«":106,"¬":107,"®":108,"¯":109,"°":110,"±":111,"²":112,"³":113,"´":114,"µ":115,"¶":116,"·":117,"¸":118,"¹":119,"º":120,"»":121,"¼":122,"½":123,"¾":124,"¿":125,"À":126,"Á":127,"Â":128,"Ã":129,"Ä":130,"Å":131,"Æ":132,"Ç":133,"È":134,"É":135,"Ê":136,"Ë":137,"Ì":138,"Í":139,"Î":140,"Ï":141,"Ð":142,"Ñ":143,"Ò":144,"Ó":145,"Ô":146,"Õ":147,"Ö":148,"×":149,"Ø":150,"Ù":151,"Ú":152,"Û":153,"Ü":154,"Ý":155,"Þ":156,"ß":157,"à":158,"á":159,"â":160,"ã":161,"ä":162,"å":163,"æ":164,"ç":165,"è":166,"é":167,"ê":168,"ë":169,"ì":170,"í":171,"î":172,"ï":173,"ð":174,"ñ":175,"ò":176,"ó":177,"ô":178,"õ":179,"ö":180,"÷":181,"ø":182,"ù":183,"ú":184,"û":185,"ü":186,"ý":187,"þ":188,"ÿ":189,"Ā":190,"ā":191,"Ă":192,"ă":193,"Ą":194,"ą":195,"Ć":196,"ć":197,"Ĉ":198,"ĉ":199,"Ċ":200,"ċ":201,"Č":202,"č":203,"Ď":204,"ď":205,"Đ":206,"đ":207,"Ē":208,"ē":209,"Ĕ":210,"ĕ":211,"Ė":212,"ė":213,"Ę":214,"ę":215,"Ě":216,"ě":217,"Ĝ":218,"ĝ":219,"Ğ":220,"ğ":221,"Ġ":222,"ġ":223,"Ģ":224,"ģ":225,"Ĥ":226,"ĥ":227,"Ħ":228,"ħ":229,"Ĩ":230,"ĩ":231,"Ī":232,"ī":233,"Ĭ":234,"ĭ":235,"Į":236,"į":237,"İ":238,"ı":239,"Ĳ":240,"ĳ":241,"Ĵ":242,"ĵ":243,"Ķ":244,"ķ":245,"ĸ":246,"Ĺ":247,"ĺ":248,"Ļ":249,"ļ":250,"Ľ":251,"ľ":252,"Ŀ":253,"ŀ":254,"Ł":255,"ł":256,"Ń":257,"Ġ=":258,"se":259,"re":260,"in":261,"at":262,"on":263,"er":264,"st":265,"en":266,"or":267,"sel":268,"self":269,"ar":270,"me":271,"al":272,"le":273,"de":274,"ti":275,"ur":276,"ge":277,"an":278,"fi":279,"co":280,"te":281,"ame":282,"lo":283,"ro":284,"ce":285,"id":286,"ret":287,"ue":288,"Ġself":289,"()":290,"name":291,"di":292,"ap":293,"li":294,"ch":295,"dat":296,"urn":297,"Ġ'":298,"return":299,"ut":300,"ad":301,"._":302,"si":303,"ct":304,"('":305,"))":306,"ent":307,"un":308,"ing":309,"get":310,"pe":311,"ra":312,"con":313,"['":314,"']":315,"for":316,"Ġn":317,"as":318,"ri":319,"mp":320,"val":321,"el":322,"res":323,"tion":324,"Ġp":325,"Ġ+":326,"th":327,"data":328,"to":329,"ke":330,"Ġin":331,"ex":332,"',":333,"ty":334,"ma":335,"')":336,"ath":337,"(\"":338,"ate":339,"Ġi":340,"la":341,"end":342,"ul":343,"Ġs":344,"ter":345,"um":346,"arg":347,"Ġ\"":348,"mat":349,"set":350,"up":351,"ck":352,"ta":353,"ĠĠ":354,"mo":355,"file":356,"path":357,"str":358,"es":359,"app":360,"Ġ%":361,"op":362,"ser":363,"ts":364,"value":365,"key":366,"ati":367,"type":368,"Ġ[":369,"par":370,"ms":371,"args":372,"len":373,"ot":374,"Ġ(":375,"log":376,"Ġb":377,"Ġf":378,"Ġc":379,"ed":380,"out":381,"Ġ1":382,"ol":383,"one":384,"ver":385,"ror":386,"Ġ*":387,"])":388,"and":389,"\")":390,"tr":391,"ation":392,"Ġ{":393,"int":394,"po":395,"time":396,"format":397,"Ġ-":398,"lin":399,"ss":400,"ob":401,"ne":402,"append":403,"ve":404,"pro":405,"sp":406,"list":407,"bu":408,"ction":409,"Ġre":410,"Ġfor":411,"col":412,"it":413,"None":414,"ble":415,"fo":416,"no":417,"sh":418,"ise":419,"ult":420,"age":421,"\",":422,"xt":423,"il":424,"Ġa":425,"vi":426,"sion":427,"ub":428,"Ġ0":429,"),":430,"raise":431,"ze":432,"ment":433,"qu":434,"add":435,"put":436,"os":437,"fa":438,"is":439,"ord":440,"he":441,"Ġm":442,"Ġd":443,"],":444,"ren":445,"text":446,"fig":447,"ort":448,"obj":449,"Ġnp":450,"cal":451,"cl":452,"ff":453,"Ġ_":454,"Er":455,"Error":456,"ig":457,"del":458,"ĠNone":459,"date":460,"ext":461,"Ġt":462,"kw":463,"dex":464,"code":465,"ba":466,"dict":467,"que":468,"info":469,"ect":470,"url":471,"eld":472,"Tr":473,"pr":474,"[\"":475,"pa":476,"Ġw":477,"config":478,"ted":479,"max":480,"che":481,"size":482,"Ġto":483,"True":484,"kwargs":485,"rom":486,"dir":487,"art":488,"ind":489,"line":490,"per":491,"Ġ+=":492,"ger":493,"ass":494,"ĠĠĠĠ":495,"our":496,"com":497,"us":498,"oin":499,"ht":500,"__":501,"bo":502,"index":503,"\"]":504,"ers":505,"am":506,"Ġst":507,"join":508,"Ġ#":509,"rip":510,"Ġ{}":511,"'.":512,"sc":513,"result":514,"00":515,"read":516,"red":517,"Ġis":518,"et":519,"ource":520,"all":521,"Ġr":522,"ray":523,"Ġde":524,"Ġh":525,"rent":526,"='":527,"do":528,"new":529,"ams":530,"quest":531,"Ġx":532,"Ġif":533,"alse":534,"Ġnot":535,"py":536,"sa":537,"print":538,"ci":539,"ance":540,"var":541,"ite":542,"field":543,"pre":544,"user":545,"False":546,"coun":547,"].":548,"error":549,"min":550,"load":551,"node":552,".__":553,"cur":554,").":555,"ist":556,"lit":557,"comp":558,"num":559,"gro":560,"Ġstr":561,"du":562,"In":563,"head":564,"sub":565,"Ġ2":566,"Ġ:":567,"array":568,"attr":569,"Ġ/":570,"lab":571,"und":572,"ape":573,"Ġlen":574,"ange":575,"model":576,"ure":577,"Ġe":578,"from":579,"ho":580,"bug":581,"resp":582,"output":583,"Ġth":584,"od":585,"':":586,"split":587,"group":588,"cont":589,"\".":590,"mb":591,"Ġo":592,"ca":593,"start":594,"son":595,"Ġdata":596,"logger":597,"able":598,"ip":599,"wri":600,"Ġor":601,"debug":602,"ask":603,"label":604,"[:":605,"ses":606,"Ġ[]":607,"ls":608,"Re":609,"ac":610,"Ġg":611,"Val":612,"())":613,"ild":614,"row":615,"ctor":616,"sig":617,"tri":618,"ype":619,"ces":620,"fil":621,"om":622,"params":623,"onse":624,"low":625,"ust":626,"cess":627,"ew":628,"fe":629,"json":630,"tions":631,"fault":632,"Ġget":633,"sy":634,"([":635,"pi":636,"ER":637,"ali":638,"ery":639,"comm":640,"Ġname":641,"Ġel":642,"stance":643,"valid":644,"msg":645,"values":646,"ep":647,"ax":648,"cs":649,"map":650,"Ġ**":651,"state":652,"write":653,"temp":654,"Value":655,"np":656,"Ġos":657,"ken":658,"string":659,"ĠS":660,"count":661,"ile":662,"by":663,"ow":664,"mess":665,"mple":666,"rep":667,"md":668,"message":669,"update":670,"stat":671,"fun":672,"gr":673,"vent":674,"Ġelse":675,"lename":676,"loat":677,"response":678,"Ġy":679,"Ġpar":680,"da":681,"ith":682,"match":683,"lay":684,"version":685,"base":686,"mage":687,"Ġint":688,"query":689,"{}":690,"tes":691,"filename":692,"old":693,"tag":694,"Ġv":695,"fix":696,"tran":697,"Ġex":698,"request":699,"sert":700,"**":701,"ĠC":702,"sen":703,"arget":704,"cep":705,"((":706,"Ġbe":707,"shape":708,"lock":709,"object":710,"..":711,"Ġcon":712,"][":713,"table":714,"loc":715,"ly":716,"cli":717,"ry":718,"Ġlist":719,"ĠTrue":720,"ann":721,"Ġvalue":722,"umn":723,"df":724,"ork":725,"im":726,"ec":727,"if":728,"Ġ==":729,"content":730,"enti":731,"gth":732,"idx":733,"ator":734,"Ġpro":735,"Ġdi":736,"ĠFalse":737,"ml":738,"Ġfile":739,"lace":740,"IN":741,"meta":742,"ph":743,"lement":744,"vice":745,"ress":746,"reate":747,"=\"":748,"--":749,"ĠT":750,"meth":751,"color":752,"word":753,"Ġop":754,"class":755,"sum":756,"Ġthe":757,"RE":758,"ject":759,"Ġu":760,"'])":761,"uni":762,"column":763,"inter":764,"gen":765,"back":766,"check":767,"dule":768,"late":769,"ValueError":770,"ĠP":771,"ON":772,"item":773,"ĠE":774,"ary":775,"ase":776,"mport":777,"spe":778,"parse":779,"filter":780,"AT":781,"keys":782,"ĠValueError":783,"rec":784,"sta":785,"sign":786,"ree":787,"uth":788,"method":789,"Con":790,"Ġse":791,"reg":792,"input":793,"ode":794,"token":795,"ref":796,"module":797,"ting":798,"ab":799,"default":800,"zer":801,"lic":802,"scrip":803,"assert":804,"arch":805,"atch":806,"copy":807,"ok":808,"ash":809,"work":810,"source":811,"Ġset":812,"names":813,"'],":814,"cmd":815,"run":816,"cke":817,"be":818,"pl":819,"pop":820,"().":821,"ument":822,"der":823,"target":824,"Ġl":825,"ber":826,"tra":827,"pos":828,"vel":829,"ults":830,"ception":831,"command":832,"ĠA":833,"strip":834,"war":835,"port":836,"sor":837,"spa":838,"instance":839,"Ġkey":840,"Ġch":841,"rame":842,"ds":843,"Ġk":844,"we":845,"event":846,"ffset":847,"mi":848,"ang":849,"remo":850,"lib":851,"header":852,"idth":853,"ler":854,"root":855,"tp":856,"hand":857,"Ġof":858,"raw":859,"image":860,"form":861,"api":862,"vari":863,"current":864,"ĠD":865,"ag":866,"rc":867,"orm":868,")]":869,"ST":870,"replace":871,"last":872,")))":873,"trans":874,"Name":875,"length":876,"wn":877,"Ġtype":878,"ute":879,"ameter":880,"LO":881,"db":882,"lines":883,"(),":884,"lot":885,"session":886,"status":887,"ded":888,"ory":889,"ning":890,"ata":891,"uti":892,"ield":893,"fin":894,"ull":895,"func":896,"ight":897,"env":898,"sed":899,"ion":900,"[-":901,"client":902,"host":903,"call":904,"ic":905,"gin":906,"lob":907,"context":908,"space":909,"ID":910,"ll":911,"tle":912,"Ġand":913,"local":914,"create":915,"lat":916,"ound":917,"Ġ3":918,"link":919,"ids":920,"ĠĠĠĠĠĠĠĠ":921,"Ġtime":922,"so":923,"ations":924,"LE":925,"conne":926,"block":927,"files":928,"cket":929,"bin":930,"ĠM":931,"doc":932,"aph":933,"gs":934,"sample":935,"pack":936,"headers":937,"Ġnew":938,"title":939,"Ġ>":940,"ump":941,"point":942,"ctions":943,"exp":944,"Ġfloat":945,"net":946,"em":947,"ir":948,"igh":949,"options":950,"find":951,"Ex":952,"main":953,"resource":954,"lamb":955,"'))":956,"OR":957,"tern":958,"Ġmax":959,"level":960,"ME":961,"wa":962,"cle":963,"dy":964,"Ġpath":965,"process":966,"ream":967,"qui":968,"ft":969,"lambda":970,"job":971,"ging":972,"Lo":973,"St":974,"template":975,"items":976,"order":977,"auth":978,"ron":979,"fir":980,"width":981,"ĠN":982,"mode":983,"prefix":984,"Ġ<":985,"parent":986,"tribu":987,"ude":988,"ast":989,"Ġimport":990,"results":991,"Ġal":992,"fields":993,"Data":994,"Ġkwargs":995,"dep":996,"ature":997,"sco":998,"unk":999,"lete":1000,"ĠF":1001,"tal":1002,":]":1003,"Un":1004,"tain":1005,"extra":1006,"ĠR":1007,"Ġargs":1008,"cache":1009,"Co":1010,"mt":1011,"float":1012,"[:,":1013,".\")":1014,"offset":1015,"'].":1016,"Type":1017,"tem":1018,"ant":1019,"Ġline":1020,"task":1021,"encode":1022,"server":1023,"logging":1024,"address":1025,"DE":1026,"uple":1027,"mag":1028,"http":1029,"resh":1030,"ctory":1031,"pri":1032,"cls":1033,"cted":1034,"datetime":1035,"child":1036,"Ġdict":1037,"view":1038,"tive":1039,"req":1040,".')":1041,"with":1042,"ys":1043,"iter":1044,"(_":1045,"remove":1046,"\":":1047,"su":1048,"Ġdo":1049,"tings":1050,"parser":1051,"ten":1052,"']['":1053,"SE":1054,"plot":1055,"Ġ{'":1056,"entry":1057,"ule":1058,"Ġmust":1059,"umpy":1060,"hash":1061,"lim":1062,"lower":1063,"axis":1064,"bi":1065,"mean":1066,"10":1067,"men":1068,"hel":1069,"posi":1070,"edge":1071,"Id":1072,"err":1073,"(*":1074,"cate":1075,"first":1076,"mask":1077,"ard":1078,"range":1079,"ties":1080,"seri":1081,"AR":1082,"Ġnum":1083,"annel":1084,"alt":1085,"orted":1086,"metadata":1087,"ding":1088,"Ġpa":1089,"lu":1090,"dire":1091,"})":1092,"'),":1093,"ments":1094,"record":1095,"ght":1096,"ore":1097,"search":1098,"Ġfrom":1099,"frame":1100,"build":1101,"Ġco":1102,"yield":1103,"Ġen":1104,"ved":1105,"]]":1106,"element":1107,"number":1108,"test":1109,"tmp":1110,"service":1111,"norm":1112,"gra":1113,"mod":1114,"Pro":1115,"Par":1116,"quen":1117,"exec":1118,"LOG":1119,"step":1120,"File":1121,"attribu":1122,"Ġpre":1123,"next":1124,"std":1125,"Ġconfig":1126,"Ġmin":1127,"Ġ'.":1128,"man":1129,"AL":1130,"fn":1131,"uct":1132,"clo":1133,"ĠB":1134,"Ġnode":1135,"ori":1136,"sq":1137,"dist":1138,"Ġgetattr":1139,"graph":1140,"send":1141,"Ġax":1142,"make":1143,"EN":1144,")[":1145,"rt":1146,"Ġrequest":1147,"uri":1148,"page":1149,"ps":1150,"scription":1151,"parameter":1152,"Ġsub":1153,"ints":1154,"64":1155,"char":1156,"use":1157,"extend":1158,"decode":1159,"Ġcls":1160,"cy":1161,"Ġ'%":1162,"types":1163,"action":1164,"cat":1165,"iled":1166,"variable":1167,"labels":1168,"01":1169,"argument":1170,"of":1171,"columns":1172,"32":1173,"delta":1174,"]))":1175,"annot":1176,"Di":1177,"ark":1178,"Ġ['":1179,"Ġ4":1180,"cent":1181,"stream":1182,"body":1183,"ĠO":1184,"Ġas":1185,"attern":1186,"Ġz":1187,"De":1188,"Ġcur":1189,"Ġno":1190,"ool":1191,"andom":1192,"(**":1193,"Ġon":1194,"Ġan":1195,"post":1196,"scal":1197,"ffer":1198,"ain":1199,"als":1200,"bytes":1201,"]['":1202,"lon":1203,"xy":1204,"open":1205,"av":1206,"uid":1207,"location":1208,"ulti":1209,"alize":1210,"zeros":1211,"Ġwith":1212,"glob":1213,"left":1214,"ns":1215,"ĠG":1216,"face":1217,"change":1218,"sche":1219,"ther":1220,"Ġ\\":1221,"rix":1222,"sys":1223,"Ġtf":1224,"AN":1225,"total":1226,"Ġurl":1227,"param":1228,"ĠI":1229,"layer":1230,"pk":1231,"List":1232,"{'":1233,"}'.":1234,"onent":1235,"Ġerror":1236,"rence":1237,"rel":1238,"Res":1239,"xml":1240,"cho":1241,"warning":1242,"En":1243,"sk":1244,"Ġdtype":1245,"olu":1246,"ated":1247,"orig":1248,"yload":1249,"queue":1250,"spec":1251,"ime":1252,"iti":1253,"assword":1254,"cor":1255,"clude":1256,"nodes":1257,"stamp":1258,"seq":1259,"FI":1260,"Ġjson":1261,"settings":1262,"abs":1263,"br":1264,"cf":1265,"Ġj":1266,"diff":1267,"tree":1268,"uld":1269,"handle":1270,"Ke":1271,"ĠĠĠ":1272,"UR":1273,"init":1274,"TI":1275,"Ġdefault":1276,"vals":1277,"Set":1278,"save":1279,"channel":1280,"comment":1281,"fla":1282,"Ġend":1283,"project":1284,"uration":1285,"eri":1286,"'][":1287,"stack":1288,"height":1289,"full":1290,"Ġcomp":1291,"Ġuser":1292,"ost":1293,"Ġfun":1294,"right":1295,"coord":1296,"==":1297,"src":1298,"html":1299,"metri":1300,"Ġout":1301,"ped":1302,"tainer":1303,"utils":1304,"utf":1305,"tor":1306,"Ġstart":1307,"act":1308,"identi":1309,"uper":1310,"try":1311,"box":1312,"delete":1313,"To":1314,"Ġsh":1315,"coding":1316,"ures":1317,"indi":1318,"cation":1319,"yle":1320,"are":1321,"matrix":1322,"viron":1323,"Ġun":1324,"ample":1325,"stem":1326,"dtype":1327,"bs":1328,"lass":1329,"Ġresult":1330,"dest":1331,"Ġby":1332,"Ġ|":1333,"colle":1334,"dump":1335,"No":1336,"ched":1337,"fier":1338,"proper":1339,"Invalid":1340,"AC":1341,"gener":1342,"Ġ)":1343,"mail":1344,"store":1345,"indow":1346,"addr":1347,"Ġnumpy":1348,"nc":1349,"SI":1350,"ner":1351,"RO":1352,"dim":1353,"ack":1354,"site":1355,"tags":1356,"CO":1357,"timeout":1358,"arr":1359,"pub":1360,"ine":1361,"vo":1362,"points":1363,"batch":1364,"mer":1365,"zed":1366,"Ġmodel":1367,"Ġitem":1368,"Ġfound":1369,"...":1370,"12":1371,"TE":1372,"ign":1373,"pha":1374,"emp":1375,"den":1376,"stats":1377,"grid":1378,"stop":1379,"tail":1380,"hi":1381,"Key":1382,"opts":1383,"attrs":1384,"objects":1385,"PE":1386,"fs":1387,"Se":1388,"the":1389,"description":1390,"Ġstring":1391,"Element":1392,"go":1393,"limit":1394,"down":1395,"cer":1396,"function":1397,"Ġaxis":1398,"here":1399,"Get":1400,"GE":1401,"ener":1402,"cp":1403,"ative":1404,"rows":1405,"package":1406,"ctx":1407,"mon":1408,"unt":1409,"top":1410,"sort":1411,"Ġparams":1412,"ear":1413,"Ġindex":1414,"pattern":1415,"seg":1416,"older":1417,"Ġoutput":1418,"').":1419,"groups":1420,"buffer":1421,"sions":1422,"Ġrange":1423,"ccess":1424,"\"])":1425,"Ar":1426,"my":1427,"Ġ&":1428,"ĠH":1429,"Ġat":1430,"Ġpy":1431,"ailed":1432,"conf":1433,"inst":1434,"ans":1435,"ak":1436,"Ġ\"%":1437,"Str":1438,"ave":1439,"mary":1440,"pol":1441,"ference":1442,"Ġmatch":1443,"ĠEx":1444,"Ġobj":1445,"handler":1446,"ager":1447,"uto":1448,"mbol":1449,"lient":1450,"ess":1451,"ont":1452,"import":1453,"nown":1454,"//":1455,"section":1456,"vert":1457,"chunk":1458,"sec":1459,"const":1460,"Ġ{}\".":1461,"Ġresponse":1462,"option":1463,"parti":1464,"bound":1465,"not":1466,"Ġ''":1467,"dd":1468,"}\".":1469,"style":1470,"lable":1471,"ari":1472,"Ġ5":1473,"apping":1474,"idget":1475,"Col":1476,"iss":1477,"Ġspe":1478,"mark":1479,"Ġ'/":1480,"Ġbase":1481,"vid":1482,"wr":1483,"Sub":1484,"og":1485,"callback":1486,"Ġtext":1487,"help":1488,"upper":1489,"Ġres":1490,"fit":1491,"select":1492,"parameters":1493,"close":1494,"MA":1495,"quence":1496,"cell":1497,"ates":1498,"indices":1499,"parts":1500,"random":1501,"secon":1502,"cols":1503,"dt":1504,"Ġsp":1505,"disp":1506,"ual":1507,"led":1508,"','":1509,"payload":1510,"Ġ\".":1511,"its":1512,"UT":1513,"network":1514,"anch":1515,"dot":1516,"rol":1517,"Ġ'\\":1518,"upp":1519,"over":1520,"000":1521,"ĠV":1522,"25":1523,"mem":1524,"Ġinput":1525,"('\\":1526,"derr":1527,"schema":1528,"Ġq":1529,"Ġid":1530,"device":1531,"Ġread":1532,"Ġfield":1533,"pt":1534,"part":1535,"Ġ__":1536,"fied":1537,"SS":1538,"ĠL":1539,"aly":1540,"fini":1541,"Exception":1542,"connection":1543,"mis":1544,")),":1545,"Ġbu":1546,"ize":1547,"memb":1548,"pected":1549,"ors":1550,"rule":1551,"ĠW":1552,"oper":1553,"ĠType":1554,"environ":1555,"timestamp":1556,"peri":1557,"sis":1558,"position":1559,"thon":1560,"Ġtarget":1561,"ome":1562,"Ġwe":1563,"ai":1564,"AD":1565,"PI":1566,"tf":1567,"bl":1568,"rop":1569,"ill":1570,"img":1571,"paths":1572,"dataset":1573,"hist":1574,"lease":1575,"ights":1576,"ank":1577,"struct":1578,"NA":1579,"Ġpo":1580,"Ġval":1581,"Ġsize":1582,"ister":1583,"les":1584,"Time":1585,"bar":1586,"namespace":1587,"Ġisinstance":1588,"day":1589,"Ġrow":1590,"Ch":1591,"lice":1592,"},":1593,"container":1594,"script":1595,"clust":1596,"scale":1597,"ĠQ":1598,"Ġro":1599,"FF":1600,"inal":1601,"global":1602,"Ġfilename":1603,"Ġtuple":1604,"fy":1605,"util":1606,"flow":1607,"term":1608,"unit":1609,"Ġexist":1610,"connect":1611,"atures":1612,"exten":1613,"ay":1614,"\"],":1615,"non":1616,"zip":1617,"gest":1618,"tool":1619,"Mo":1620,"Ġreturn":1621,"conn":1622,"radi":1623,"Ġmessage":1624,"sing":1625,"Ġ',":1626,"*(":1627,"16":1628,"Ġlog":1629,"UN":1630,"=[":1631,"Ġsi":1632,"ING":1633,"atus":1634,"cord":1635,"Dict":1636,"password":1637,"username":1638,"train":1639,"Ob":1640,"]),":1641,"99":1642,"----":1643,"[:-":1644,"Path":1645,"ster":1646,"speci":1647,"nd":1648,"verse":1649,"attribute":1650,"ĠX":1651,"Ġformat":1652,"chain":1653,"UL":1654,"desc":1655,"af":1656,"unique":1657,"multi":1658,"domain":1659,"Ġopen":1660,"component":1661,"counts":1662,"Ġmethod":1663,"loop":1664,"ĠException":1665,"dition":1666,"Ġ6":1667,"stdout":1668,"cc":1669,"fore":1670,"Ġbool":1671,"like":1672,"cry":1673,"quired":1674,"ĠTypeError":1675,"DI":1676,"Ġversion":1677,"vars":1678,"Ġ('":1679,"git":1680,"move":1681,"Ġtoken":1682,"salt":1683,"medi":1684,"ous":1685,"gram":1686,"Ġsorted":1687,"Me":1688,"\"))":1689,"exception":1690,"Ġall":1691,"samples":1692,"Ġstate":1693,"ud":1694,"directory":1695,"Ġimage":1696,"rs":1697,"insert":1698,"core":1699,"sition":1700,"Ġcurrent":1701,"Ġquery":1702,"show":1703,"def":1704,"Ġ10":1705,"olume":1706,"TY":1707,"ready":1708,"Ġrun":1709,"fill":1710,"est":1711,"Ġ{}'.":1712,"esc":1713,"au":1714,"licy":1715,"Ġsource":1716,"CON":1717,"feature":1718,"system":1719,"now":1720,"ker":1721,"star":1722,"PO":1723,"Log":1724,"nore":1725,"profile":1726,"score":1727,"signal":1728,"GER":1729,"ix":1730,"CH":1731,"ele":1732,"clas":1733,"tuple":1734,"Ġ!":1735,"ice":1736,"vector":1737,"validate":1738,"repo":1739,"txt":1740,"Ġdatetime":1741,"Ġhas":1742,"let":1743,"ify":1744,"depth":1745,"sent":1746,"Ġ'{":1747,"active":1748,"alog":1749,"exist":1750,"window":1751,"Ġ8":1752,"Ġreg":1753,"cfg":1754,"Ġsy":1755,"metric":1756,"'t":1757,"Ġmsg":1758,"iv":1759,"_,":1760,"hex":1761,"na":1762,"other":1763,"ustom":1764,"stderr":1765,"://":1766,"thread":1767,"tick":1768,"Ġarg":1769,"year":1770,"verbo":1771,"initi":1772,"symbol":1773,"zone":1774,"proto":1775,"Ġarray":1776,"ins":1777,"properties":1778,"Ġret":1779,"String":1780,"can":1781,"attributes":1782,"gex":1783,"pp":1784,"transform":1785,"lang":1786,"ries":1787,"cre":1788,"dirname":1789,"ng":1790,"ĠU":1791,"rate":1792,"Ġparse":1793,"Ġcolor":1794,"(-":1795,"('%":1796,"eno":1797,"plu":1798,"encoding":1799,"region":1800,"place":1801,"CE":1802,"angle":1803,"etch":1804,"execute":1805,"words":1806,"Ġcreate":1807,"clean":1808,"Ġ-=":1809,"rect":1810,"ek":1811,"(\"%":1812,"ating":1813,"NAME":1814,"io":1815,"entity":1816,"units":1817,"look":1818,"ffix":1819,"()[":1820,"sn":1821,"quo":1822,"ĠRe":1823,"ATE":1824,"Ġmo":1825,"email":1826,"Ġ[\"":1827,"opt":1828,"Ġuti":1829,"factor":1830,"LOGGER":1831,"URL":1832,"tifi":1833,"fmt":1834,"pix":1835,"Ġac":1836,"cap":1837,"Ġ!=":1838,"Text":1839,"Ġnext":1840,"plt":1841,"alpha":1842,"Ġevent":1843,"wd":1844,"dev":1845,"ked":1846,"sin":1847,"flat":1848,"errors":1849,"dirs":1850,"wait":1851,"reshape":1852,"manager":1853,"11":1854,"()))":1855,"Ġsum":1856,"tokens":1857,"('/":1858,"sqrt":1859,"Ġapp":1860,"Index":1861,"Ġthis":1862,"plugin":1863,":%":1864,"fra":1865,"pair":1866,"ypes":1867,"LI":1868,"Ġvalues":1869,"mapping":1870,"For":1871,"Frame":1872,"Ġdf":1873,"Ġne":1874,"dered":1875,"loads":1876,"ity":1877,"MP":1878,"variables":1879,"oc":1880,"Ġ.":1881,"edges":1882,"merge":1883,"bit":1884,"sha":1885,"fd":1886,"identifier":1887,"LA":1888,"fname":1889,"0000":1890,"Ġtra":1891,"ants":1892,"=(":1893,"TR":1894,"ld":1895,"Ġlambda":1896,"dumps":1897,"istr":1898,"pc":1899,"lication":1900,"categ":1901,"distance":1902,"cursor":1903,"folder":1904,"ive":1905,"orage":1906,"flags":1907,"where":1908,"Ġ'-":1909,"Ġinter":1910,"TT":1911,"Ġcontent":1912,"Ġvalid":1913,"collection":1914,"20":1915,"SubElement":1916,"'\\":1917,"alg":1918,"sep":1919,"The":1920,"ression":1921,"exc":1922,"Cont":1923,"visi":1924,"unicode":1925,"pid":1926,"ou":1927,"tx":1928,"upported":1929,"alias":1930,"real":1931,"Ġsu":1932,"register":1933,"apper":1934,"Ġgr":1935,"Ġpd":1936,"dis":1937,"At":1938,"(\"\\":1939,"uuid":1940,"Ġ'{}":1941,"KE":1942,"lex":1943,"FA":1944,"eval":1945,"ws":1946,"fer":1947,"control":1948,"remote":1949,"nel":1950,"access":1951,"weights":1952,"dec":1953,"common":1954,"zation":1955,"proxy":1956,"imum":1957,"fp":1958,"nan":1959,"]+":1960,"features":1961,"Ġ\"\\":1962,"Ġsuper":1963,"dr":1964,"sigma":1965,"weight":1966,"tex":1967,"Ġ{\"":1968,"edi":1969,"eff":1970,"dims":1971,"sw":1972,"sequence":1973,"buf":1974,"prop":1975,"updat":1976,"gene":1977,"()]":1978,"Ġcol":1979,"Ġfunc":1980,"Ġlength":1981,"children":1982,"cluster":1983,"obs":1984,"ell":1985,"display":1986,"Ġfind":1987,"sv":1988,"sorted":1989,"coords":1990,"Ġ\"\"":1991,"faults":1992,"Ġ'_":1993,"Ġcopy":1994,"vices":1995,"verbose":1996,"__['":1997,"Config":1998,"CT":1999,"imp":2000,"report":2001,"trace":2002,"nt":2003,"ents":2004,"vate":2005,"Ġcheck":2006,":-":2007,"Ġsho":2008,"Ġspeci":2009,"ni":2010,"vec":2011,"Ġma":2012,"pad":2013,"lookup":2014,"uage":2015,"Ġcontext":2016,"Po":2017,"Ġbo":2018,"bro":2019,"/%":2020,"lt":2021,"olve":2022,"own":2023,"zero":2024,"empty":2025,"warn":2026,"Ġ'')":2027,"astype":2028,"tab":2029,"ats":2030,"ache":2031,"byte":2032,"flu":2033,"csv":2034,"Ġcode":2035,"ader":2036,"andler":2037,"ĠET":2038,"Ġdoes":2039,"arguments":2040,"({'":2041,"parsed":2042,"Ġoptions":2043,"ui":2044,"Ġoffset":2045,"center":2046,"seconds":2047,")/":2048,"Ġinstance":2049,"Ġare":2050,"socket":2051,"has":2052,"cro":2053,"Node":2054,"Ġgroup":2055,"Ġtable":2056,"aml":2057,"ected":2058,"known":2059,"ection":2060,"member":2061,"freq":2062,"rest":2063,"Info":2064,"ailable":2065,"sql":2066,"reshold":2067,"TH":2068,"vm":2069,"detail":2070,"document":2071,"Ġnumber":2072,"-%":2073,"Ġparent":2074,"Ġmode":2075,"analy":2076,"Ġcall":2077,"super":2078,"endpoint":2079,"mu":2080,"pool":2081,"24":2082,"scope":2083,"Ġlabel":2084,"bot":2085,"counter":2086,"wrap":2087,"med":2088,"cast":2089,".'":2090,"meas":2091,"(['":2092,"setdefault":2093,"cos":2094,"Ġ`":2095,".,":2096,"Ġ\"/":2097,"Ġhost":2098,"mg":2099,"basename":2100,"wh":2101,"Ġcommand":2102,"Ġblock":2103,"TYPE":2104,"55":2105,"\"),":2106,"quire":2107,"numpy":2108,"Ġper":2109,"axes":2110,":])":2111,"nection":2112,"ones":2113,"leg":2114,"bucket":2115,"expected":2116,"TER":2117,"commit":2118,"best":2119,"mount":2120,"alized":2121,"Not":2122,"compile":2123,"models":2124,"reference":2125,".\"":2126,"widget":2127,"Object":2128,"({":2129,"ride":2130,"Ġso":2131,"account":2132,"pu":2133,"Ġmodule":2134,"arti":2135,"/{":2136,"variant":2137,"filters":2138,"slice":2139,"found":2140,"setattr":2141,"NO":2142,"orts":2143,"times":2144,")*":2145,"Ġlocal":2146,"interval":2147,"amp":2148,"Num":2149,"]*":2150,"Ġiter":2151,"untime":2152,"ULT":2153,"Request":2154,"yn":2155,"lean":2156,"Ġ\",":2157,"fetch":2158,"adj":2159,"50":2160,"Ġdire":2161,"book":2162,"Ġobject":2163,"limi":2164,"Ser":2165,"true":2166,"prev":2167,"By":2168,"inputs":2169,"Item":2170,"extract":2171,"cale":2172,"signature":2173,"=%":2174,"Ġdoc":2175,"convert":2176,"prog":2177,"Ġtag":2178,"summary":2179,"volume":2180,"coder":2181,"Ġ--":2182,"bind":2183,"US":2184,"include":2185,"Ġ[])":2186,"):":2187,"this":2188,"duct":2189,"clear":2190,"Ġcl":2191,"font":2192,"State":2193,"Failed":2194,"cr":2195,"rot":2196,"Ġparameter":2197,"branch":2198,"Ġsys":2199,"only":2200,"events":2201,"tax":2202,"contents":2203,"ctypes":2204,"80":2205,"memory":2206,"gine":2207,"cryp":2208,"ton":2209,"Ġfa":2210,"calc":2211,"__)":2212,"ward":2213,"Ġalready":2214,"cies":2215,"org":2216,"EL":2217,"Ġtemp":2218,"reen":2219,"ponse":2220,"layers":2221,"sable":2222,"Add":2223,"bits":2224,"ical":2225,"Ġload":2226,"vl":2227,"Ġ>=":2228,"Ġport":2229,"Ġheaders":2230,"ies":2231,"ĠCon":2232,"ping":2233,"regex":2234,"termin":2235,"writer":2236,"policy":2237,"auto":2238,"ators":2239,"Ġheader":2240,"Ġstruct":2241,"vider":2242,"sm":2243,"tile":2244,"Ġclient":2245,"series":2246,"keep":2247,"__,":2248,"sym":2249,"allow":2250,"click":2251,"TO":2252,"loss":2253,"custom":2254,"flag":2255,"Ġ<=":2256,"{}'.":2257,"Ġaction":2258,"case":2259,"Ġfe":2260,"serialize":2261,"Ġdest":2262,"Th":2263,"ason":2264,"Ġsample":2265,"final":2266,"sets":2267,"states":2268,"expand":2269,"Ġcal":2270,"Ġtask":2271,"Ġhave":2272,"Size":2273,"pic":2274,"Op":2275,"align":2276,"Ġpos":2277,"Ġattr":2278,"lity":2279,"phi":2280,"rg":2281,"Class":2282,"dx":2283,"cii":2284,"TION":2285,"Ġcount":2286,"sim":2287,"</":2288,"Ġhel":2289,"Ġ//":2290,"python":2291,"pipe":2292,")])":2293,"interface":2294,"Ġuse":2295,"ody":2296,"role":2297,"indent":2298,"deg":2299,"User":2300,"colors":2301,"miss":2302,"\"].":2303,"drop":2304,"pect":2305,"ie":2306,"ift":2307,"enable":2308,"force":2309,".*":2310,"issing":2311,"off":2312,"river":2313,"olution":2314,"ĠRuntime":2315,"ĠIn":2316,"expr":2317,"vs":2318,"Ġjob":2319,"quote":2320,"actions":2321,"classes":2322,"month":2323,"spect":2324,"gment":2325,"('-":2326,"Ġstatus":2327,"FAULT":2328,"mission":2329,"direct":2330,"02":2331,"cb":2332,"Ġdep":2333,"ĠY":2334,"digest":2335,"lineno":2336,"leted":2337,"Ġauth":2338,"TA":2339,"defaults":2340,"period":2341,"layout":2342,"ending":2343,"hook":2344,"gg":2345,"andid":2346,"suffix":2347,"Ġexp":2348,"itch":2349,"Ġinfo":2350,"Ġinst":2351,"atio":2352,"methods":2353,"pkg":2354,"={":2355,"sity":2356,"Ġ\"{":2357,"tools":2358,"VER":2359,"'}":2360,"secret":2361,"adding":2362,"Ġfailed":2363,"Ġtimeout":2364,"filepath":2365,"exit":2366,"resources":2367,"ination":2368,"gy":2369,"Ġrecord":2370,"ĠĠĠĠĠĠĠĠĠĠĠĠĠĠĠĠ":2371,"EX":2372,"istry":2373,"ĠRuntimeError":2374,"Ġmap":2375,"apply":2376,"echo":2377,"rl":2378,"concat":2379,"aded":2380,"Ġdate":2381,"tensor":2382,"sl":2383,"\\\\":2384,"Array":2385,"mesh":2386,"vide":2387,"safe":2388,"omm":2389,"Rec":2390,"poch":2391,"IT":2392,"dst":2393,"helper":2394,"ascii":2395,"tom":2396,"redenti":2397,"IO":2398,"Ġvar":2399,"PAT":2400,"ick":2401,"cei":2402,"Ġlast":2403,"fail":2404,"\"][\"":2405,"Out":2406,"Ġwh":2407,"33":2408,"IP":2409,"Ġsession":2410,"nb":2411,"master":2412,"ighb":2413,"ignore":2414,"Ġfiles":2415,"depend":2416,"14":2417,"HE":2418,"utton":2419,"Ġonly":2420,"wer":2421,"modi":2422,"pass":2423,"Ġone":2424,"Ġ')":2425,"finition":2426,"Ġ{})":2427,"MO":2428,"Ġ100":2429,"Up":2430,"storage":2431,"##":2432,"')[":2433,"mid":2434,"}'":2435,"partition":2436,"verage":2437,"span":2438,"city":2439,"ach":2440,"vious":2441,"Ġnorm":2442,"radius":2443,"missing":2444,"Ġelement":2445,"DO":2446,"Ġind":2447,"Ġwidth":2448,"(',":2449,"Ġold":2450,"skip":2451,"KEY":2452,"teger":2453,"alizer":2454,"Ġcan":2455,"segment":2456,"essage":2457,"Event":2458,"ĠJ":2459,"bool":2460,"predi":2461,"Ġentry":2462,"shed":2463,"Ġext":2464,"']]":2465,"acti":2466,"transa":2467,"ene":2468,"Ġ*=":2469,"success":2470,"Field":2471,"Gr":2472,"metrics":2473,"cert":2474,"roup":2475,"subject":2476,"changes":2477,"Ġother":2478,"Ġnet":2479,"verify":2480,"ternal":2481,"tz":2482,"Model":2483,"60":2484,"tach":2485,"Ver":2486,"poly":2487,"15":2488,"ERR":2489,"arange":2490,"Could":2491,"ML":2492,"Qu":2493,"ling":2494,"backend":2495,"Ġfirst":2496,"history":2497,"Ġraw":2498,"Ġ7":2499,"Ġclass":2500,"40":2501,"reset":2502,"sol":2503,"side":2504,"pec":2505,"entries":2506,"original":2507,"short":2508,"ATI":2509,"proc":2510,"property":2511,"ground":2512,"Ġshape":2513,"Ġprefix":2514,"Ġzip":2515,"Ac":2516,"install":2517,"cker":2518,"cel":2519,"alle":2520,"GET":2521,"atom":2522,"details":2523,"dimen":2524,"']))":2525,"Ġfunction":2526,"cd":2527,"steps":2528,"language":2529,"redu":2530,"elements":2531,"AS":2532,"Ġfilter":2533,"Ġchild":2534,"Ġutils":2535,"cked":2536,"bins":2537,"Ġhash":2538,"days":2539,"Ġ>>":2540,"mk":2541,"matches":2542,"Bu":2543,"initial":2544,"Ġcolumn":2545,"selected":2546,"theta":2547,"kip":2548,"atic":2549,"Ġroot":2550,"tered":2551,"chema":2552,"download":2553,"Ġle":2554,"ract":2555,"Ġback":2556,"Ġref":2557,"Ġwork":2558,"ribu":2559,"Ġpri":2560,"Ġdb":2561,"cept":2562,")**":2563,"Ġit":2564,"Ġorig":2565,"ES":2566,"Ġbody":2567,"Ġup":2568,"Unknown":2569,"30":2570,"ters":2571,"Sh":2572,"He":2573,"nn":2574,"Ġstep":2575,"Response":2576,"OP":2577,"vation":2578,"}\"":2579,"TTP":2580,"gt":2581,"mass":2582,"sur":2583,"inv":2584,"rm":2585,"Client":2586,"Le":2587,"ef":2588,"links":2589,"SO":2590,"mpt":2591,"modules":2592,"Ġhelp":2593,"Ġmake":2594,"agg":2595,"high":2596,")).":2597,"pose":2598,"Or":2599,"ings":2600,"Ġ((":2601,"ful":2602,"cond":2603,"Ġchar":2604,"Fun":2605,"Ġ\"{}":2606,"mut":2607,"abspath":2608,"iso":2609,"any":2610,"geo":2611,"Vi":2612,"Ġshould":2613,"route":2614,"category":2615,"sure":2616,"mpty":2617,"epcopy":2618,"public":2619,"bed":2620,"Ġsalt":2621,"extension":2622,"Parser":2623,"Ġerrors":2624,"Found":2625,"(?":2626,"Py":2627,"az":2628,"ves":2629,"sid":2630,"Ġstd":2631,"QU":2632,"draw":2633,"Ġlon":2634,"invalid":2635,"PRO":2636,"setup":2637,"hour":2638,"Input":2639,"Ġprocess":2640,"gate":2641,"Ġad":2642,"ily":2643,"agent":2644,"BU":2645,"_)":2646,")\"":2647,"roll":2648,"verti":2649,"idden":2650,"Format":2651,"An":2652,"win":2653,"codes":2654,"sync":2655,"Ġenv":2656,"====":2657,"arning":2658,"loaded":2659,"shot":2660,"used":2661,"\").":2662,"mbed":2663,"eries":2664,"Ġserver":2665,"lap":2666,"ware":2667,"sible":2668,"threshold":2669,"kind":2670,"uture":2671,"round":2672,"condition":2673,"rite":2674,"Ġword":2675,"cri":2676,"tk":2677,"Ġidx":2678,"after":2679,"Ġmath":2680,"Ġlib":2681,"[(":2682,"spli":2683,"ence":2684,"Ġtotal":2685,"grad":2686,"images":2687,"reak":2688,"ommand":2689,"100":2690,"}.":2691,"rain":2692,"quali":2693,"Ġwas":2694,"mit":2695,"Ġ<<":2696,"updated":2697,"duration":2698,"pan":2699,"[:]":2700,"conv":2701,"database":2702,"Ġtemplate":2703,"Ġexc":2704,"unpack":2705,"Ġtmp":2706,"{}\".":2707,"web":2708,"posit":2709,"Ġpack":2710,"Ġdirectory":2711,"samp":2712,"Ġ:]":2713,"gp":2714,"fication":2715,"rand":2716,"amma":2717,"requen":2718,"generate":2719,"Ġ9":2720,"Ġ[(":2721,"combin":2722,"SP":2723,"sched":2724,"Ġabs":2725,"Image":2726,"Ġ]":2727,"board":2728,"exclude":2729,"Ġnamespace":2730,"Handler":2731,"qa":2732,"archive":2733,"pred":2734,"FILE":2735,"Bo":2736,"ql":2737,"curr":2738,"catalog":2739,"AP":2740,"cut":2741,"before":2742,"=_":2743,"Comp":2744,"Ġlevel":2745,"anti":2746,"Ġrel":2747,"patch":2748,"19":2749,"Ġcmd":2750,"Ġbytes":2751,"_.":2752,"Ġfla":2753,"Ġsettings":2754,"IG":2755,"seed":2756,"ga":2757,"}\\":2758,"Ġapi":2759,":\\":2760,"Start":2761,"diag":2762,"getattr":2763,"render":2764,"redentials":2765,"release":2766,"kernel":2767,"Ġsrc":2768,"Group":2769,"neighb":2770,"Ġerr":2771,"ini":2772,"channels":2773,"Che":2774,"hy":2775,"long":2776,"second":2777,"gh":2778,"fact":2779,"enter":2780,"ency":2781,"contin":2782,"Ġadd":2783,"obser":2784,"Ġresource":2785,".',":2786,"proj":2787,"reduce":2788,"ratio":2789,"sock":2790,"qual":2791,"rstrip":2792,"engine":2793,"factory":2794,"bounds":2795,"Ġdist":2796,"trib":2797,"DataFrame":2798,"mac":2799,"On":2800,"(':":2801,"Ġcache":2802,")+":2803,"Ġ'',":2804,"ulate":2805,"assign":2806,"required":2807,"sive":2808,"ulation":2809,"utes":2810,"Ġremo":2811,"reader":2812,"Ġparam":2813,"pixel":2814,"messages":2815,"curity":2816,"hostname":2817,"Ġpassword":2818,"components":2819,"sist":2820,"Content":2821,"PATH":2822,"AM":2823,"ution":2824,"enum":2825,"Ġgener":2826,"rank":2827,"('--":2828,"login":2829,"commands":2830,"'](":2831,"rv":2832,"records":2833,"hs":2834,",)":2835,"argv":2836,"Ġ[],":2837,"flatten":2838,"From":2839,"ATA":2840,"elem":2841,"product":2842,"ERROR":2843,"rf":2844,"outputs":2845,"Ġrequests":2846,"area":2847,"ases":2848,"mal":2849,"stru":2850,"lug":2851,"Ġsc":2852,"selection":2853,"starts":2854,"\"\"":2855,"Ġbin":2856,"Ġextra":2857,"repr":2858,"Ġpage":2859,"FO":2860,"Pre":2861,"origin":2862,"lip":2863,"Ġparser":2864,"DB":2865,"Date":2866,"Ġservice":2867,"vision":2868,"cade":2869,"Ġencoding":2870,"protocol":2871,"blocks":2872,"unknown":2873,"scheme":2874,"cpu":2875,"tasks":2876,"Tag":2877,"expi":2878,"clu":2879,"ATION":2880,"NT":2881,"beta":2882,"SH":2883,"Cannot":2884,"ife":2885,"ness":2886,"Valid":2887,"Message":2888,"zes":2889,"inf":2890,"Sy":2891,"note":2892,"actor":2893,"prob":2894,"__(":2895,"https":2896,"conver":2897,"Ad":2898,"binary":2899,"pb":2900,"utc":2901,"candid":2902,"Ġresults":2903,"transaction":2904,"Ġnoqa":2905,"measure":2906,"Ġframe":2907,"Ġ(\"":2908,"Per":2909,"way":2910,"escape":2911,"__.":2912,"Ġrequired":2913,"js":2914,"Ġorder":2915,"home":2916,"Ġrandom":2917,"hparams":2918,"ĠK":2919,"formation":2920,"ĠĠĠĠĠ":2921,"Ġover":2922,"\"\\":2923,"Table":2924,"DEFAULT":2925,"track":2926,"Ġmask":2927,"begin":2928,"tems":2929,"ceptions":2930,"targets":2931,"peak":2932,"%(":2933,"dl":2934,"Ġstop":2935,"UP":2936,"ĠData":2937,"Unable":2938,"identity":2939,"mm":2940,"Reg":2941,"null":2942,"fic":2943,"band":2944,"relation":2945,"ometry":2946,"div":2947,"ority":2948,"progress":2949,"CK":2950,"math":2951,"Ġoption":2952,"ories":2953,"}/":2954,"13":2955,"::":2956,"epoch":2957,"ged":2958,"fg":2959,"cook":2960,"scan":2961,"]])":2962,"ink":2963,"tar":2964,"lack":2965,"uint":2966,"encoded":2967,"iven":2968,"Ġig":2969,"cab":2970,"private":2971,"ater":2972,"logy":2973,"senten":2974,"Ġ16":2975,"Ġopts":2976,"Ġbuild":2977,"Ġ12":2978,"users":2979,"Widget":2980,"yaml":2981,"leep":2982,"provider":2983,"][\"":2984,"orith":2985,"('.')":2986,"choice":2987,"exists":2988,"Ġtrans":2989,"ctionary":2990,"ense":2991,"ket":2992,"Ġav":2993,"Ġstream":2994,"SC":2995,"retry":2996,"upload":2997,"reverse":2998,"single":2999,"Ġalpha":3000,"lish":3001,"SION":3002,"')]":3003,"Auth":3004,"tribute":3005,"Ġctypes":3006,"sic":3007,"18":3008,")\\":3009,"cum":3010,"ED":3011,"fined":3012,"ww":3013,"application":3014,"usage":3015,"IL":3016,"Ġsplit":3017,"Ġ(%":3018,"Count":3019,"'\"":3020,"delay":3021,"lots":3022,"Ġglob":3023,"dc":3024,"operation":3025,"deredDict":3026,"cla":3027,"Ġcor":3028,"magic":3029,"Ġright":3030,"proces":3031,"require":3032,"ssh":3033,"lated":3034,"App":3035,"Ġchunk":3036,"Ġheight":3037,"Ġ''.":3038,"ript":3039,"Ġdelta":3040,"pars":3041,"driver":3042,"Ġindent":3043,"lst":3044,"pen":3045,"Ġfn":3046,"vity":3047,"til":3048,"scores":3049,"tt":3050,"loy":3051,",))":3052,"--------":3053,"topic":3054,"Ġoper":3055,"VAL":3056,"dic":3057,"uplic":3058,"gger":3059,"shift":3060,"registry":3061,"Tree":3062,"urse":3063,"fl":3064,"mas":3065,"tificate":3066,"structure":3067,"Cur":3068,"Ġproject":3069,"execut":3070,"17":3071,"Dir":3072,"Map":3073,"apter":3074,"perty":3075,"plan":3076,"ics":3077,"menu":3078,"ered":3079,"prompt":3080,"Column":3081,"snap":3082,"ength":3083,"ession":3084,"configuration":3085,"Color":3086,"PAR":3087,"packet":3088,"clip":3089,"rer":3090,")}":3091,"BLE":3092,"shell":3093,"qs":3094,"Ġtest":3095,"ii":3096,"Ġaddress":3097,"UM":3098,"ev":3099,"example":3100,"Parameter":3101,"filtered":3102,",'":3103,"bg":3104,"Ġtitle":3105,"timi":3106,"anager":3107,"indexes":3108,"multip":3109,"ail":3110,"sport":3111,"cn":3112,"previous":3113,"sources":3114,"lugin":3115,"syn":3116,"asarray":3117,"Number":3118,"pository":3119,"inc":3120,"Ġpackage":3121,"thing":3122,"complete":3123,"author":3124,"using":3125,"nor":3126,"ading":3127,"ENT":3128,"ceived":3129,"Ġdt":3130,"ĠPro":3131,"members":3132,"ssl":3133,"Ġscale":3134,"Inter":3135,"extensions":3136,"brocade":3137,"rev":3138,"definition":3139,"attrib":3140,"/(":3141,"ftime":3142,"marker":3143,"existing":3144,"fixed":3145,"dit":3146,"Status":3147,"oints":3148,"services":3149,"cycle":3150,"oly":3151,"loader":3152,"export":3153,"ship":3154,"supported":3155,"Process":3156,"DF":3157,"oms":3158,"34":3159,"tw":3160,"('_":3161,"Ġfields":3162,"Ġdiff":3163,"media":3164,".\",":3165,"resid":3166,"Line":3167,"Of":3168,"cov":3169,"Ġ\"_":3170,"ular":3171,"(__":3172,"arc":3173,"pairs":3174,"POST":3175,"Ġchange":3176,"Ġfull":3177,"worker":3178,"editor":3179,"Ġclo":3180,"builder":3181,"}}":3182,"ks":3183,".'.":3184,"terms":3185,"mented":3186,"Ro":3187,"created":3188,"warnings":3189,"Ġresp":3190,"Ġip":3191,"orithm":3192,"abel":3193,"ĠDe":3194,"olean":3195,"pts":3196,"Ġnon":3197,"bus":3198,"Ġpayload":3199,"linalg":3200,"ribution":3201,"asset":3202,"strftime":3203,"Base":3204,"sole":3205,"flux":3206,"dio":3207,"Ġbyte":3208,"rules":3209,"arn":3210,"descrip":3211,"Ġsupported":3212,"66":3213,"Run":3214,"embed":3215,"pick":3216,"normal":3217,"ĠOr":3218,"ĠNot":3219,"admin":3220,"Ġ%(":3221,".)":3222,"xx":3223,"ective":3224,"maining":3225,"pm":3226,"Ġmetadata":3227,"}{":3228,"('{":3229,"ASE":3230,"SON":3231,"ons":3232,"owner":3233,"GS":3234,"rout":3235,"compute":3236,"AGE":3237,"FOR":3238,"Ġforce":3239,"failed":3240,"intern":3241,"Ġlines":3242,"rary":3243,"shutil":3244,"Ġcoord":3245,"done":3246,"light":3247,"Ġparti":3248,"HTTP":3249,"destination":3250,"free":3251,"neg":3252,"periment":3253,"sg":3254,"pd":3255,"Ġupdate":3256,"Lay":3257,"attach":3258,"resolve":3259,"bad":3260,"Ġmeta":3261,"expression":3262,"ĠĠĠĠĠĠĠ":3263,"feed":3264,"ĠCo":3265,"resol":3266,"Ġdevice":3267,"/'":3268,"seek":3269,"Ġpk":3270,"Ġmulti":3271,"Ġempty":3272,"disk":3273,"\"'":3274,")'":3275,"ops":3276,"lers":3277,"very":3278,"virt":3279,"constra":3280,"rences":3281,"blob":3282,"ices":3283,"END":3284,"(\\":3285,"sleep":3286,"Ġany":3287,"Arg":3288,"xs":3289,"cached":3290,"available":3291,"nr":3292,"pret":3293,"Desc":3294,"Temp":3295,"static":3296,"Ġsix":3297,"Ġchannel":3298,"22":3299,"cision":3300,"annotation":3301,"cwd":3302,"deepcopy":3303,"Ġsa":3304,"direction":3305,"Fil":3306,"Ġloc":3307,"plat":3308,"Ġallow":3309,"Ġ|=":3310,"lain":3311,"\"][":3312,"90":3313,"vas":3314,"sto":3315,"alled":3316,"rint":3317,"__.__":3318,"!\")":3319,"+'":3320,"ĠSt":3321,"generator":3322,"cost":3323,"501":3324,"Row":3325,"ptr":3326,"wrapper":3327,"ticks":3328,"wi":3329,"Ġlogging":3330,"card":3331,"Ġctx":3332,"requency":3333,"_%":3334,"Ġkeys":3335,"Check":3336,"specimen":3337,"inner":3338,"Ġexists":3339,"pointer":3340,"Version":3341,"fc":3342,"ĠĠĠĠĠĠ":3343,"75":3344,"ateg":3345,"Al":3346,"Session":3347,"power":3348,"CS":3349,"Ġpi":3350,"packages":3351,"Create":3352,"vol":3353,"spaces":3354,"changed":3355,"percent":3356,"geometry":3357,"outfile":3358,"reason":3359,"Ġsort":3360,"Ġdataset":3361,"API":3362,"ZE":3363,"tification":3364,"Action":3365,"Ġ1000":3366,"TIME":3367,"faces":3368,"reply":3369,"phase":3370,"analysis":3371,"ert":3372,"props":3373,"splitext":3374,"Ext":3375,"peer":3376,"Ġ\")":3377,"Ġ\"-":3378,"SER":3379,"Ġ'--":3380,"Ġdown":3381,"DS":3382,"Ġspecified":3383,".%":3384,"Ġcannot":3385,"SET":3386,"partial":3387,"rict":3388,"sizes":3389,"04":3390,"Ġsearch":3391,"frames":3392,"RI":3393,"ĠInvalid":3394,"Ġsco":3395,"Params":3396,"VI":3397,"Level":3398,"={'":3399,"andle":3400,"Ġiniti":3401,"Ġbatch":3402,"fam":3403,"encies":3404,"Ġthan":3405,")',":3406,"ots":3407,"tables":3408,"Graph":3409,"none":3410,"ĠKey":3411,"chine":3412,"(\"-":3413,"paren":3414,"sender":3415,"Code":3416,"Meta":3417,"Ġcontain":3418,"ensor":3419,"normalize":3420,"Ġconst":3421,"Service":3422,"ET":3423,"fh":3424,"nl":3425,"bility":3426,"cells":3427,"Ġ_,":3428,"Instance":3429,"OT":3430,"Ġmissing":3431,"Query":3432,"Ġ/=":3433,"ait":3434,"(\"/":3435,"enabled":3436,"cm":3437,"sd":3438,"slug":3439,"Record":3440,"Ġconn":3441,"bers":3442,"signed":3443,"Result":3444,"Ġpost":3445,"View":3446,"future":3447,"environment":3448,"pdf":3449,"MS":3450,"Ġleft":3451,"inds":3452,"refs":3453,"chan":3454,"etree":3455,"refresh":3456,"stage":3457,"itor":3458,"fasta":3459,"Ġdisable":3460,"jobs":3461,"ĠRes":3462,"avg":3463,"FIG":3464,"pot":3465,"continue":3466,"Ġunicode":3467,"INT":3468,"emit":3469,"NS":3470,"256":3471,"Tra":3472,"rad":3473,"Ġlink":3474,"fast":3475,"rb":3476,"Ġ...":3477,"recv":3478,"ollow":3479,"mplemented":3480,"ifest":3481,"Ġ60":3482,"Ġnetwork":3483,"201":3484,"Ġargument":3485,"Ġtri":3486,"configs":3487,"she":3488,"prepa":3489,"Context":3490,"RA":3491,"dn":3492,"coeff":3493,"ends":3494,"figure":3495,"...\")":3496,"56":3497,"padding":3498,"ured":3499,")(":3500,"ving":3501,"inates":3502,"vertices":3503,"icon":3504,"imat":3505,"pal":3506,"rho":3507,"('<":3508,"Ġnames":3509,"Ġnd":3510,"strings":3511,"transpose":3512,"vers":3513,"urls":3514,"Ġnow":3515,"Token":3516,"rees":3517,"controller":3518,"ylabel":3519,"startswith":3520,"button":3521,"nu":3522,"Label":3523,"Ġignore":3524,"Ġlimit":3525,"Ġmon":3526,"tau":3527,"Ġti":3528,"vided":3529,"hidden":3530,"asy":3531,"Ġthread":3532,"Ġconvert":3533,"ia":3534,"scri":3535,"internal":3536,"As":3537,"Ġdir":3538,"Ġ\"\")":3539,"Ġgraph":3540,"findall":3541,"crypt":3542,"tude":3543,"Ġattribute":3544,"abi":3545,"Ġmean":3546,"tify":3547,"DATA":3548,"Ġrest":3549,"allback":3550,"Ġnodes":3551,"amount":3552,"break":3553,"Ġbound":3554,"Trans":3555,"Ġimg":3556,"Ġmark":3557,"transport":3558,"Ġ[[":3559,"]).":3560,"undle":3561,"Ġskip":3562,"Ġexec":3563,"End":3564,"gl":3565,"hich":3566,"pipeline":3567,"Ġcolumns":3568,"umb":3569,"Ġ'<":3570,"Ġpattern":3571,"operator":3572,"dimension":3573,"Ġremove":3574,"BO":3575,"Ġform":3576,"tact":3577,"Ġthat":3578,"Ġconnection":3579,"missions":3580,"Point":3581,"cated":3582,"Command":3583,"ĠID":3584,"classi":3585,"aggreg":3586,"uster":3587,"cloud":3588,"collections":3589,"white":3590,"Vari":3591,"jor":3592,"LIN":3593,"her":3594,"Ġconne":3595,"segments":3596,"virtual":3597,"lc":3598,"fter":3599,"lig":3600,"Ġwill":3601,"]:":3602,"Ġcallback":3603,"wal":3604,"fft":3605,"program":3606,"Const":3607,"SU":3608,"course":3609,"sites":3610,"DIR":3611,"eds":3612,"Ġseq":3613,"chars":3614,"}:":3615,"compo":3616,"chunks":3617,"lan":3618,"=['":3619,"descriptor":3620,"HO":3621,"Ġmy":3622,"acter":3623,"xlabel":3624,"Connection":3625,"Output":3626,"separ":3627,"Ġpoint":3628,"push":3629,"reating":3630,"Ġschema":3631,"car":3632,"Ġrule":3633,"Ġutil":3634,"Spec":3635,"Ġmod":3636,"vertex":3637,">'":3638,"PRE":3639,"oom":3640,"Ġitems":3641,"Ġtree":3642,"STR":3643,"vocab":3644,"Box":3645,"\\'":3646,"dates":3647,"velo":3648,"Ġenum":3649,"rap":3650,"present":3651,"week":3652,"SIZE":3653,"Filter":3654,"comments":3655,"ĠOp":3656,"ndarray":3657,"Source":3658,"('{}":3659,"blem":3660,"variance":3661,"Logger":3662,"sentence":3663,"Ġplot":3664,"bam":3665,"Ġparameters":3666,"\"%":3667,"panel":3668,"css":3669,"oth":3670,"png":3671,"Ġele":3672,"Ġunit":3673,"hdr":3674,"bottom":3675,"versions":3676,"price":3677,"23":3678,"Read":3679,"idge":3680,"Sto":3681,"reci":3682,"disable":3683,"VE":3684,"adjust":3685,"limits":3686,"Can":3687,"ckets":3688,"override":3689,"modified":3690,":],":3691,"td":3692,"Ġdescription":3693,"Ġlabels":3694,"des":3695,"allowed":3696,"27":3697,"aff":3698,"eq":3699,"ĠOrderedDict":3700,"pages":3701,"Ġregion":3702,"lation":3703,"Ġ':":3704,"formatter":3705,"nest":3706,".\".":3707,"Ġlat":3708,"([\"":3709,"sr":3710,"contain":3711,"cmap":3712,"Ġph":3713,"optional":3714,"inte":3715,"COM":3716,"enate":3717,"Ġbut":3718,"screen":3719,":\")":3720,"ration":3721,"ars":3722,"ORD":3723,"legend":3724,"Ġavailable":3725,"=-":3726,"()),":3727,"credentials":3728,"Ġcomponent":3729,"limiter":3730,");":3731,"aa":3732,"Ġsci":3733,"contract":3734,"functions":3735,"Obj":3736,"nam":3737,"Ġpub":3738,"subprocess":3739,"!')":3740,"Range":3741,"eded":3742,"Series":3743,"dp":3744,"dete":3745,"SA":3746,"repe":3747,"Ġinvalid":3748,"crypted":3749,"05":3750,"ven":3751,"primary":3752,"issue":3753,"Ġxml":3754,"dum":3755,"Ġfmt":3756,"ĠPy":3757,"Job":3758,"Ġtop":3759,"Ġ'{}'":3760,"ĠNo":3761,"Ġspec":3762,"Ġtr":3763,"Ġpart":3764,"boot":3765,"running":3766,"Ġrepo":3767,"communi":3768,"makedirs":3769,"squ":3770,"Oper":3771,"mar":3772,"recur":3773,"lities":3774,"chr":3775,"conds":3776,"disc":3777,"median":3778,"come":3779,"keywords":3780,"gamma":3781,"ĠDE":3782,"Ġlocation":3783,"instances":3784,"['_":3785,"Ġstdout":3786,"oint":3787,"country":3788,"Ġsocket":3789,"docs":3790,"Ġparts":3791,"hosts":3792,"Ġ:,":3793,"handlers":3794,")-":3795,"tocol":3796,"utoff":3797,"Argument":3798,"Address":3799,"Ġparsed":3800,"Manager":3801,"ĠUn":3802,"andas":3803,"cimal":3804,"annotations":3805,"Ġjoin":3806,"positions":3807,"ACK":3808,"('/')":3809,"det":3810,"runtime":3811,"relative":3812,"Block":3813,":,":3814,"upport":3815,"Ġrepr":3816,"'%":3817,"quanti":3818,"INFO":3819,"ceil":3820,"noise":3821,"actual":3822,">\\":3823,"MI":3824,"ensure":3825,"Ġfont":3826,"olute":3827,"platform":3828,"ports":3829,"Ġverbose":3830,"lint":3831,"selector":3832,"security":3833,"ithub":3834,"sensor":3835,"Ġcalc":3836,"video":3837,"family":3838,"ressed":3839,"[::-":3840,"Ġcreated":3841,"ong":3842,"trigger":3843,"Ġdim":3844,"95":3845,"ĠZ":3846,"latest":3847,"publish":3848,"acy":3849,"Max":3850,"Qt":3851,"wt":3852,"Ġpad":3853,"Ġposition":3854,"Fe":3855,"ib":3856,"fici":3857,"ancel":3858,"schedule":3859,"px":3860,"logical":3861,"compress":3862,"qub":3863,"ropy":3864,"lyph":3865,"MAX":3866,"big":3867,"pg":3868,"Ġlayer":3869,"200":3870,"Ġedge":3871,"CONFIG":3872,"We":3873,"rie":3874,"argin":3875,"circ":3876,"abled":3877,"diffe":3878,"evalu":3879,"Ġdepth":3880,"fw":3881,"gent":3882,"requests":3883,"plugins":3884,"fr":3885,"gz":3886,"sb":3887,"optimi":3888,"Descrip":3889,"28":3890,"pending":3891,"levels":3892,"Ġdefaultdict":3893,"bbox":3894,"redirect":3895,"roles":3896,"Ġinteger":3897,"Ġspa":3898,"BUG":3899,"correct":3900,"Ġ'/'":3901,"Ġconf":3902,"Ġusername":3903,"ĠPar":3904,"Ġsuccess":3905,"'s":3906,"stmt":3907,"ditional":3908,"))]":3909,"Ġgen":3910,"]],":3911,"(\"{":3912,"Resource":3913,"_(":3914,"Ġreverse":3915,"Ġast":3916,"six":3917,"nx":3918,"rup":3919,"Ġmer":3920,"Tran":3921,"Mode":3922,"ha":3923,"Ġvariable":3924,"atoms":3925,"edit":3926,"Server":3927,"concatenate":3928,"serial":3929,"Ġremote":3930,"sheet":3931,"lection":3932,"fiers":3933,"Ġbr":3934,"ava":3935,"36":3936,"UE":3937,"Ġsection":3938,"pdb":3939,"Ġview":3940,"ident":3941,"Ġrec":3942,"sections":3943,"Length":3944,"MAT":3945,"external":3946,"All":3947,"ste":3948,"prote":3949,"forms":3950,"{})":3951,"ĠFile":3952,"energy":3953,"Attribute":3954,"zen":3955,"Ġ,":3956,"coef":3957,"('.":3958,"play":3959,"instr":3960,"vironment":3961,"keyword":3962,"...')":3963,"OUT":3964,"erate":3965,"tic":3966,"Ġinclude":3967,"clone":3968,"stand":3969,"workflow":3970,"switch":3971,"Ġarguments":3972,"Ġreq":3973,"lstrip":3974,"Ġlang":3975,"visible":3976,"ĠRE":3977,"sat":3978,"maximum":3979,"ential":3980,"grade":3981,"uble":3982,"lengths":3983,"lag":3984,"ween":3985,"library":3986,"Ġtokens":3987,"remaining":3988,"Ġconfiguration":3989,"machine":3990,"Ġ{},":3991,"Ġcontainer":3992,"Ġfeature":3993,"So":3994,"Ġkw":3995,"Store":3996,"acity":3997,"va":3998,"ĠError":3999,"algorithm":4000,"prepare":4001,"(('":4002,"tolist":4003,"mime":4004,"processed":4005,"ĠOption":4006,"aw":4007,"forward":4008,"dle":4009,"AND":4010,"'+":4011,"thod":4012,"ORT":4013,"uff":4014,"Ġflags":4015,"Exec":4016,"rename":4017,"sian":4018,"(\"{}":4019,"asse":4020,"statement":4021,"constants":4022,"trip":4023,"devices":4024,"Ġindi":4025,"Ġstyle":4026,"Pa":4027,"uler":4028,"numer":4029,"Ġexpected":4030,"quires":4031,"Ġmatrix":4032,"mkdir":4033,"href":4034,"SIG":4035,")')":4036,"Ġexception":4037,"adapter":4038,"perm":4039,"Ġeval":4040,"symbols":4041,"(%":4042,"35":4043,"Ret":4044,"ipv":4045,"FIX":4046,"bal":4047,"black":4048,"major":4049,"categories":4050,"PC":4051,"Int":4052,"Ġwrite":4053,"canvas":4054,"Ġscipy":4055,"Ġinspect":4056,"foo":4057,"priority":4058,"cookie":4059,"ally":4060,"Ġgiven":4061,"sitive":4062,"parents":4063,"Ġcell":4064,"transition":4065,"Ġyou":4066,"genes":4067,"ALL":4068,"choices":4069,"neighbors":4070,"rpc":4071,"geom":4072,"Ġpoints":4073,"ango":4074,"96":4075,"'{":4076,"77":4077,"related":4078,"Ġab":4079,"dependencies":4080,"fully":4081,"Ġsite":4082,"Ġfname":4083,"ferences":4084,"scalar":4085,"84":4086,"86":4087,">\"":4088,"pin":4089,"eta":4090,"game":4091,"istered":4092,"Warning":4093,"gap":4094,"just":4095,"atist":4096,"Ġtags":4097,"processing":4098,"HEAD":4099,".\\":4100,"orld":4101,"Window":4102,"]-":4103,"Ġsig":4104,"topo":4105,"Ġfra":4106,"rgb":4107,"tb":4108,"stdin":4109,"candidate":4110,"las":4111,"xi":4112,"Ġprovided":4113,"Match":4114,"_{":4115,"ĠDi":4116,"Ġarr":4117,"encoder":4118,"minimum":4119,"arm":4120,"Ġplugin":4121,"Ġstats":4122,"lists":4123,"acc":4124,"Ġcho":4125,"ions":4126,"iterable":4127,"ond":4128,"etween":4129,"Gener":4130,"ĠLo":4131,"()}":4132,"alization":4133,"union":4134,"MAP":4135,"Ġqueue":4136,"Ġused":4137,"manifest":4138,"HT":4139,"hit":4140,"dig":4141,"resses":4142,"typ":4143,"Ġhandler":4144,"merged":4145,"Sign":4146,"Ġgo":4147,"Ġseri":4148,"Ġwindow":4149,"quences":4150,"CM":4151,"Ġimp":4152,"ranges":4153,"team":4154,"plus":4155,"hal":4156,"Ġdat":4157,"Ġ\"\",":4158,"ĠQt":4159,"](":4160,"wcs":4161,"sumer":4162,"hours":4163,"mx":4164,"zon":4165,"flo":4166,"readline":4167,"authori":4168,"Entry":4169,"async":4170,"gments":4171,"Ġreplace":4172,"reads":4173,"cross":4174,"Ġdatabase":4175,"Ġyield":4176,"Net":4177,"green":4178,"Default":4179,"Child":4180,"ij":4181,"fits":4182,"Stream":4183,"artifact":4184,"tical":4185,"clusters":4186,"FFFF":4187,"Ġbeen":4188,"deps":4189,"Dis":4190,"rsplit":4191,"vcf":4192,"hell":4193,"PUT":4194,"Ġme":4195,"buff":4196,"Ġafter":4197,"predict":4198,"Link":4199,"ndim":4200,"cog":4201,"('[":4202,"ROM":4203,"85":4204,"You":4205,"riter":4206,"Ġstderr":4207,"Ġurllib":4208,"USER":4209,"]=":4210,"console":4211,"Ġprop":4212,"aries":4213,"FLA":4214,"dm":4215,"ravel":4216,"Ġndarray":4217,"atitude":4218,":\",":4219,"OK":4220,"seen":4221,"mooth":4222,"unch":4223,"Ġplt":4224,"Ġprofile":4225,"cv":4226,"ingle":4227,"Ġusing":4228,"Ġ20":4229,"Ġweights":4230,"visit":4231,"ln":4232,"lr":4233,"VERSION":4234,"Build":4235,"snapshot":4236,"threads":4237,"Multi":4238,"[_":4239,"ilt":4240,"aliz":4241,"shared":4242,"pickle":4243,"pie":4244,"tn":4245,"backup":4246,"Ġct":4247,"Names":4248,"certificate":4249,"CI":4250,"_[":4251,"cid":4252,"Ġseconds":4253,"alysis":4254,"Control":4255,"average":4256,"gon":4257,"gain":4258,"subset":4259,"serializer":4260,"ategory":4261,"Pri":4262,"exceptions":4263,"rowser":4264,"Ġker":4265,"Ġdomain":4266,"ueue":4267,"Validation":4268,"duplic":4269,"{\"":4270,"timedelta":4271,"ared":4272,"Ġfig":4273,"simple":4274,"getter":4275,"comple":4276,"ND":4277,"plain":4278,"Ref":4279,"Ġsuffix":4280,"expanduser":4281,"enc":4282,"']),":4283,"Do":4284,"formed":4285,"Ġsep":4286,"1000":4287,"Form":4288,"TS":4289,"tc":4290,"Ġslice":4291,"take":4292,"Ġscope":4293,"bias":4294,"corr":4295,"bb":4296,"wx":4297,"Ġ@":4298,"redis":4299,"orter":4300,"dispatch":4301,"PER":4302,"ĠList":4303,"ANG":4304,"Method":4305,"Clo":4306,"New":4307,"gi":4308,"ube":4309,"blue":4310,"37":4311,"lv":4312,"Ġren":4313,"Ġdisp":4314,"linspace":4315,"conj":4316,"Change":4317,"Ġmp":4318,"Ġsubprocess":4319,"Ġround":4320,"Header":4321,"IC":4322,"NE":4323,"sertion":4324,"atype":4325,":',":4326,"acket":4327,"ACE":4328,"bp":4329,"working":4330,"background":4331,"flush":4332,"derer":4333,"ather":4334,"Ġ255":4335,"how":4336,"validation":4337,"Ġyang":4338,"deploy":4339,"Ġtrain":4340,"Ġ~":4341,"])[":4342,"ĠIO":4343,"ogram":4344,"))[":4345,"Ġopt":4346,"Min":4347,"Ġattrs":4348,"Ġcfg":4349,"Ġsequence":4350,")],":4351,":].":4352,"bundle":4353,"nap":4354,"Ġetree":4355,"setting":4356,"gradi":4357,"CP":4358,"Missing":4359,"frequency":4360,"rong":4361,"WS":4362,"locals":4363,"ĠKeyError":4364,"Doc":4365,"sli":4366,"Ġstack":4367,"entities":4368,"(',')":4369,"gue":4370,"holder":4371,"Ġemail":4372,"hood":4373,"transi":4374,"nonzero":4375,"\"{":4376,"Task":4377,"XT":4378,"Ġinit":4379,"pay":4380,"queryset":4381,"Formatter":4382,"plots":4383,"zy":4384,"liter":4385,"trim":4386,"NG":4387,"Ġclean":4388,"gitude":4389,"PA":4390,"rr":4391,"Ġ$":4392,"eriod":4393,"Ġtrace":4394,"Width":4395,"ux":4396,"saved":4397,"speed":4398,"locale":4399,"conti":4400,"NotFound":4401,"Si":4402,"ple":4403,"repository":4404,"timer":4405,"apes":4406,"Ġrep":4407,"quad":4408,"prior":4409,"Ġpylint":4410,"rx":4411,"era":4412,"./":4413,"Ġvi":4414,"experiment":4415,"Ġsymbol":4416,"Fa":4417,"decor":4418,"ĠStr":4419,"URI":4420,"Ġhist":4421,"coordinates":4422,"Ġim":4423,"linear":4424,"perties":4425,"matched":4426,"dynam":4427,"CRE":4428,"mol":4429,"Ġbit":4430,"cutoff":4431,"ĠMo":4432,"vectors":4433,"article":4434,"perc":4435,"Down":4436,"Ġuri":4437,"ĠAPI":4438,"ferred":4439,"dimensions":4440,"])]":4441,"({\"":4442,"QL":4443,"ims":4444,"ditions":4445,"asc":4446,"globals":4447,"aliases":4448,"Ġsec":4449,"wave":4450,"cluded":4451,"solution":4452,"__[":4453,"Ġenumerate":4454,"''":4455,"cing":4456,"oid":4457,"under":4458,"...,":4459,"LL":4460,"complex":4461,"duce":4462,"jango":4463,"ttp":4464,"ette":4465,"Thread":4466,"sf":4467,"Ġmetric":4468,"cod":4469,"docker":4470,"DEBUG":4471,"Ġpair":4472,"****":4473,"patterns":4474,"finitions":4475,"pmag":4476,"Ġloop":4477,"defined":4478,"Values":4479,"dictionary":4480,"']=":4481,"veri":4482,"curve":4483,"translate":4484,"Sc":4485,"FIEL":4486,"double":4487,"ĠSe":4488,"gress":4489,"Ġgrid":4490,"vlan":4491,"executable":4492,"locations":4493,"CODE":4494,"tid":4495,"assed":4496,"quality":4497,"WAR":4498,"ibr":4499,"ani":4500,"()).":4501,"tot":4502,"normalized":4503,"IS":4504,"Ġsame":4505,"Ġ(-":4506,"Ġtimestamp":4507,"This":4508,"pf":4509,"Ġscal":4510,"MENT":4511,"surface":4512,"erature":4513,"ural":4514,"connected":4515,"Implemented":4516,"oauth":4517,"xlim":4518,"live":4519,"rency":4520,"zoom":4521,"entication":4522,"Ġwhen":4523,"kv":4524,"templates":4525,"Ġweight":4526,"difference":4527,"+\"":4528,"border":4529,"Ġprint":4530,"03":4531,"}\")":4532,"contact":4533,"submit":4534,"Page":4535,"outer":4536,"Ġreference":4537,"quee":4538,"inder":4539,"combined":4540,"aws":4541,"cnt":4542,"(\",":4543,"nm":4544,"logs":4545,"Ġdst":4546,"filt":4547,"Parse":4548,"Ġra":4549,"Ġcollections":4550,"bra":4551,"fold":4552,"watch":4553,"iler":4554,"Ġaccount":4555,"sparse":4556,"(\"[":4557,"accept":4558,"Ġprev":4559,"absolute":4560,"hexdigest":4561,"chrom":4562,"subplot":4563,"scripts":4564,"Ġ'.'":4565,"PS":4566,"ylim":4567,"Ġdelete":4568,"Ġdistance":4569,"checksum":4570,"Function":4571,"Variable":4572,"ĠURL":4573,"dfs":4574,"ĠAt":4575,"Device":4576,"System":4577,"Ġfill":4578,"Ġsin":4579,"hoto":4580,"licit":4581,"offsets":4582,"theme":4583,"LD":4584,"Ġcli":4585,"extent":4586,"####":4587,"Ġar":4588,"Ġda":4589,"monitor":4590,"Ġhttp":4591,"Ġ\"<":4592,"ector":4593,"emon":4594,"processor":4595,"Ġshow":4596,"255":4597,"angles":4598,"ront":4599,"ĠUser":4600,"Update":4601,"measurement":4602,"BASE":4603,"Ġts":4604,"Ġscript":4605,"queeze":4606,"Su":4607,"probs":4608,"mapped":4609,"Ġbefore":4610,"xmin":4611,"\",\"":4612,"Search":4613,"Ġrows":4614,"Ġsigma":4615,"lier":4616,"arity":4617,"frac":4618,"Ġdocument":4619,"alignment":4620,"loading":4621,"cred":4622,"Ġregister":4623,",),":4624,"45":4625,"LU":4626,"hg":4627,"Ġmat":4628,"ffff":4629,"cip":4630,"splitlines":4631,"eps":4632,"Ġrunning":4633,"NING":4634,"Ġbot":4635,"_'":4636,"uous":4637,"wo":4638,"Ġcomment":4639,"aux":4640,"Ġmore":4641,"Ġsign":4642,"ender":4643,"Ġmx":4644,"ĠNotImplemented":4645,"Ġkeep":4646,"apt":4647,"Ġyour":4648,"distribution":4649,"rd":4650,"ybe":4651,"roid":4652,"bases":4653,"Ġendpoint":4654,"ĠConfig":4655,"ached":4656,"mtime":4657,"tice":4658,"Ġmu":4659,"Ġdx":4660,"Ġdimen":4661,"plotlib":4662,"Ġsamples":4663,"Func":4664,"xpath":4665,"Ġdecode":4666,"added":4667,"maps":4668,"[^":4669,"cancel":4670,"cores":4671,"Exp":4672,"Ġpkg":4673,":.":4674,"Ġsignal":4675,"Ġns":4676,"([(":4677,"ither":4678,"audio":4679,"26":4680,"expect":4681,"sci":4682,"CA":4683,"invo":4684,"objs":4685,"Ġproxy":4686,"pher":4687,"Ne":4688,"iloc":4689,"nv":4690,"Ġ}":4691,"Ġ'+":4692,"notify":4693,"Ġaccess":4694,"precision":4695,"ĠTh":4696,"CR":4697,"bc":4698,"mul":4699,"matching":4700,"Results":4701,"thumb":4702,"ines":4703,"ram":4704,"Ġsecond":4705,"LS":4706,"slot":4707,"Ġmag":4708,"Ġcat":4709,"subscri":4710,"Ġbest":4711,"Ġtypes":4712,"========":4713,"residue":4714,"constraints":4715,"Ġunits":4716,"Ġact":4717,"Ġcluster":4718,"Button":4719,"Ġchain":4720,"exe":4721,"Ġsave":4722,"appro":4723,"Ġexisting":4724,"native":4725,"leaf":4726,"lite":4727,"repeat":4728,"Cache":4729,"numbers":4730,"sudo":4731,"good":4732,"crement":4733,"vc":4734,"silon":4735,"soft":4736,"Ġoriginal":4737,"97":4738,"={}":4739,"thro":4740,"Ġwait":4741,"Ġinstall":4742,"DATE":4743,"Mag":4744,"integer":4745,"\")[":4746,"micro":4747,"traceback":4748,"terminal":4749,"}')":4750,"ush":4751,"ĠImage":4752,"nested":4753,"ctrl":4754,"formatted":4755,"idxs":4756,"wrapped":4757,"Spe":4758,"ki":4759,"Ġsq":4760,"cator":4761,"Ġterm":4762,"Ġ'*":4763,"sired":4764,"intersection":4765,"LECT":4766,"texts":4767,"degree":4768,"FORMAT":4769,"Back":4770,"oci":4771,"Ġfit":4772,"Ġio":4773,"poll":4774,"Template":4775,"tour":4776,"interp":4777,"posure":4778,"Dire":4779,")\",":4780,"nit":4781,"ugh":4782,"Work":4783,"stit":4784,"Ġ\"--":4785,"xyz":4786,"cleaned":4787,"trun":4788,"parsers":4789,"means":4790,"CHE":4791,"(':')":4792,"jid":4793,"specs":4794,"Ġmodels":4795,"PIPE":4796,"failure":4797,"OS":4798,"erarch":4799,"less":4800,"tack":4801,"Ġdesc":4802,"Ġgene":4803,"Layer":4804,"reat":4805,"mav":4806,"filenames":4807,"updates":4808,"Ġboolean":4809,"allel":4810,"notification":4811,"Remo":4812,"atter":4813,"anded":4814,"Ġsm":4815,"versed":4816,"proba":4817,"Ġ{}).":4818,"dag":4819,"DU":4820,"fpath":4821,"mig":4822,"decl":4823,"views":4824,"collect":4825,"randint":4826,"44":4827,"Creating":4828,"tl":4829,"reams":4830,"onical":4831,"Ġproperty":4832,"Ġindices":4833,"ring":4834,"Ġsur":4835,"iterator":4836,"ĠNotImplementedError":4837,")\")":4838,"pus":4839,"Ġauto":4840,"grp":4841,"ONE":4842,"Bytes":4843,"Ġmonth":4844,"crop":4845,"ptime":4846,"rapper":4847,"Ġuni":4848,"Ġgot":4849,"relpath":4850,"hdu":4851,"Ġhtml":4852,"INTER":4853,"ould":4854,"revision":4855,"ordered":4856,"rib":4857,"basic":4858,"overlap":4859,"CTION":4860,"Ġ->":4861,"Ġmapping":4862,"atistics":4863,"87":4864,":')":4865,"Bad":4866,"(\"_":4867,"servers":4868,"Ġelem":4869,".+":4870,"JSON":4871,"java":4872,"Ġcols":4873,"constant":4874,"Ġbranch":4875,"HEADER":4876,"21":4877,"bul":4878,"respon":4879,"feat":4880,"Ġwhile":4881,"candidates":4882,"requirements":4883,"tivity":4884,"ric":4885,"Ġtor":4886,"Ġbeta":4887,"Module":4888,"Position":4889,"Ġ'__":4890,"widths":4891,"solver":4892,"Ġallowed":4893,"formats":4894,"Ġstat":4895,"ips":4896,"Ġinputs":4897,"square":4898,"ye":4899,"opy":4900,"arrays":4901,").__":4902,"gid":4903,"squeeze":4904,"Ġman":4905,"Ġstar":4906,"([])":4907,"Ġlower":4908,"Property":4909,"ools":4910,"sky":4911,"EV":4912,"ality":4913,"ways":4914,"Ġ\"\".":4915,"Ġday":4916,"ickle":4917,"ein":4918,"mq":4919,"rozen":4920,"Ġregex":4921,"san":4922,"Ġraise":4923,"lour":4924,"interpol":4925,"Ġweb":4926,"Be":4927,"margin":4928,"Ġselect":4929,"Ġflat":4930,"removed":4931,"Hel":4932,"Ġcustom":4933,"Ġhandle":4934,"LETE":4935,"fastq":4936,"integr":4937,"cipher":4938,"byref":4939,"some":4940,"digits":4941,"floor":4942,"masked":4943,"Ġinitial":4944,"Seri":4945,"uit":4946,"))))":4947,"tyle":4948,"kwds":4949,"Location":4950,"anchor":4951,"Cell":4952,"Now":4953,"ook":4954,"lify":4955,"radians":4956,"Ġfactor":4957,"CF":4958,"GB":4959,"inj":4960,"rase":4961,"Ġwx":4962,"Ġdebug":4963,"transcript":4964,"ATOR":4965,"Ġpe":4966,"deleted":4967,"notes":4968,"9999":4969,"Pos":4970,"struction":4971,"Com":4972,"Url":4973,"('#":4974,"Ġcould":4975,"species":4976,"Write":4977,"false":4978,"mble":4979,"tten":4980,"chro":4981,"Ġreal":4982,"Ġyaml":4983,"$',":4984,"Call":4985,"gui":4986,"mv":4987,"enu":4988,"Ġtx":4989,"Ġwin":4990,"minutes":4991,"getLogger":4992,"permission":4993,"cause":4994,"/\"":4995,"Mat":4996,"dash":4997,"stride":4998,"()['":4999,"DR":5000,"TP":5001,"bj":5002,"lihood":5003,"Only":5004,"separator":5005,"pw":5006,"ral":5007,"strptime":5008,"literal":5009,"aut":5010,"gc":5011,"Ġexceptions":5012,"MIN":5013,"Ġhead":5014,"('>":5015,"Ġ15":5016,"Ġdete":5017,"Ġsegment":5018,"Ġlong":5019,"tm":5020,"apsed":5021,"SELECT":5022,"uer":5023,"ensity":5024,"Ġ'#":5025,"sens":5026,"anner":5027,"runner":5028,"connections":5029,"Ġflag":5030,"lb":5031,"pat":5032,"until":5033,"genome":5034,"(\"--":5035,"Ġ24":5036,"ower":5037,"character":5038,"Ġbl":5039,"Offset":5040,"Please":5041,"dns":5042,"}]":5043,"Ġlo":5044,"Ġcase":5045,"timezone":5046,"Coun":5047,"bio":5048,"ogle":5049,"Network":5050,"cogni":5051,"Var":5052,"utdown":5053,"('=":5054,"oo":5055,"Ġunique":5056,"room":5057,"spac":5058,"Ġcursor":5059,"router":5060,"IM":5061,"ension":5062,"sph":5063,"Ġreport":5064,"Ġep":5065,"callbacks":5066,"IF":5067,"fq":5068,"ny":5069,"ĠName":5070,"resolved":5071,"'^":5072,"bank":5073,"ĠEn":5074,"hits":5075,"mgmt":5076,"wise":5077,"Ġ^":5078,"addresses":5079,"Ġvm":5080,"ĠTime":5081,"Ġaddr":5082,"resize":5083,"tim":5084,"eig":5085,"gb":5086,"newaxis":5087,"seqs":5088,"regions":5089,"GR":5090,"pip":5091,"Ġtimedelta":5092,"Ġbuffer":5093,"nitude":5094,"WN":5095,"____":5096,"Ġpredi":5097,"finished":5098,"imator":5099,"dri":5100,"equal":5101,"wb":5102,"Ġord":5103,"inger":5104,"tok":5105,"Ġshell":5106,"Ġcy":5107,"ĠCol":5108,"Ġmerge":5109,"DA":5110,"SK":5111,"returns":5112,"listen":5113,"topology":5114,"Ġvals":5115,"ĠCommand":5116,"orizon":5117,"tails":5118,"[...,":5119,"inp":5120,"ands":5121,"rieve":5122,"contig":5123,"digit":5124,"lags":5125,"pics":5126,"utit":5127,"COL":5128,"39":5129,"Ġcommon":5130,"anis":5131,"endar":5132,"Ġds":5133,"prep":5134,"coeffs":5135,"dynamic":5136,"defs":5137,"fine":5138,"ACHE":5139,"criter":5140,"Sp":5141,"question":5142,"klass":5143,"kill":5144,"world":5145,"Ġtransform":5146,"Ġpandas":5147,"spi":5148,"dence":5149,"artist":5150,"neighbor":5151,"Iter":5152,"press":5153,"orient":5154,"Ġfinal":5155,"65":5156,"Queue":5157,"()])":5158,"Ġpix":5159,"otal":5160,"AUT":5161,"Ge":5162,"Ġiss":5163,"validator":5164,"Ġpipe":5165,"subnet":5166,"activity":5167,"mutation":5168,"www":5169,"ĠIOError":5170,"einsum":5171,"attemp":5172,"fid":5173,"Ġstore":5174,"READ":5175,"Ġalign":5176,"Ġbox":5177,"Ġlineno":5178,"Ġrot":5179,"Ġbytearray":5180,"supp":5181,"Ġqu":5182,"Ġfreq":5183,"Order":5184,"')))":5185,"]'":5186,"hat":5187,"objective":5188,"Ġdefined":5189,"Ġnormalize":5190,"erarchy":5191,"Over":5192,"glyph":5193,"sequences":5194,"rag":5195,"=\"%":5196,"boundary":5197,"Ġfail":5198,"('\"":5199,"Ġpoly":5200,"Ġbackend":5201,"With":5202,"lope":5203,"(\".\")":5204,"Ġfollow":5205,"basis":5206,"Ġwhich":5207,"Ġhigh":5208,"Expected":5209,"Core":5210,"Ġpython":5211,"MODE":5212,"Port":5213,"Tc":5214,"ula":5215,"resolution":5216,"groupby":5217,"ose":5218,"Ġupper":5219,"deserialize":5220,"sical":5221,"tol":5222,"Ġbuf":5223,"ĠDEFAULT":5224,"rece":5225,"ells":5226,"bridge":5227,"hooks":5228,"vations":5229,"Ġobjects":5230,"permissions":5231,"dom":5232,"general":5233,"Ġbucket":5234,"estim":5235,"Ġneed":5236,"embedding":5237,"Ġscore":5238,"Ġhex":5239,"variants":5240,"Ġ','.":5241,"Schema":5242,"Ġmember":5243,"ĠPath":5244,"closed":5245,"generic":5246,"extended":5247,"fragment":5248,"ake":5249,"mc":5250,"mapper":5251,"stro":5252,"urlen":5253,"Ġpadding":5254,"park":5255,"projects":5256,"answer":5257,"nail":5258,"gateway":5259,"AF":5260,"unset":5261,"shapes":5262,"70":5263,"latitude":5264,"sect":5265,"tage":5266,"execution":5267,"training":5268,"qubits":5269,"Conne":5270,"nick":5271,"PY":5272,"uation":5273,"stim":5274,"fire":5275,"mpath":5276,"(\"'":5277,"Ġdy":5278,"phy":5279,"pixels":5280,"cam":5281,"verb":5282,"deriv":5283,"Ġkernel":5284,"PORT":5285,"mn":5286,"rmt":5287,"uch":5288,"ertificate":5289,"Char":5290,"balance":5291,"Ġzero":5292,"Ġtz":5293,"REQU":5294,"transfer":5295,"Ġsim":5296,"distances":5297,"FIELD":5298,"29":5299,"browser":5300,"rdf":5301,"compressed":5302,"509":5303,"Option":5304,"Ġleast":5305,"]}":5306,"itation":5307,"datasets":5308,"Ġtry":5309,"confir":5310,"dataframe":5311,"compound":5312,"possible":5313,":'":5314,"ench":5315,"coe":5316,"Ġinto":5317,"need":5318,"Ġhashlib":5319,"ĠString":5320,"urlencode":5321,"Ġcos":5322,"Ġsym":5323,"Ġspecify":5324,"Description":5325,"Norm":5326,"Target":5327,"checked":5328,"Ġrole":5329,"half":5330,"Ġvariant":5331,"additional":5332,"els":5333,"Reader":5334,"Ġvo":5335,"manage":5336,"istration":5337,"Open":5338,"sampling":5339,"Ġoperation":5340,"Ġla":5341,"('.',":5342,"Ġfolder":5343,"Ġcsv":5344,"configure":5345,"operations":5346,"illar":5347,"inished":5348,"And":5349,"GI":5350,"Reference":5351,"ĠFROM":5352,"calculate":5353,"Python":5354,"gradient":5355,":\"":5356,"BE":5357,"Ġhe":5358,"Ġass":5359,"Ġfp":5360,"Ġvolume":5361,"license":5362,"likelihood":5363,"Ġconnect":5364,"Cal":5365,"Ġmatches":5366,"Syn":5367,"ume":5368,"conditions":5369,"Ġcenter":5370,"/{}":5371,"Style":5372,"ka":5373,"Ġzone":5374,"TEMP":5375,"FLAGS":5376,"snp":5377,"(\"<":5378,"quiet":5379,"charset":5380,"Sele":5381,"Ġinterval":5382,"UID":5383,"dup":5384,"Ġsingle":5385,"Ġbits":5386,"problem":5387,"Ġclas":5388,"Bar":5389,"HER":5390,"Ġactive":5391,"31":5392,"LATE":5393,"zz":5394,"lear":5395,"tip":5396,"Ġinplace":5397,"08":5398,"CACHE":5399,"ĠĠĠĠĠĠĠĠĠ":5400,"serialized":5401,"Ġdestination":5402,"AB":5403,"Dist":5404,"player":5405,"Ġextract":5406,"LOCK":5407,"ĠĠĠĠĠĠĠĠĠĠ":5408,"Ġsystem":5409,"Ġgroups":5410,"atial":5411,"Ġthreshold":5412,"Ġunpack":5413,")['":5414,"OB":5415,"]',":5416,"github":5417,"izer":5418,"adcast":5419,"dicts":5420,"Ġexclude":5421,">',":5422,"uses":5423,"CESS":5424,"Ġpartial":5425,"alth":5426,"consumer":5427,"argmax":5428,"strap":5429,"Ġwhere":5430,"lexer":5431,"rmtree":5432,"smooth":5433,"Ġpass":5434,"rum":5435,"Ġyear":5436,"Ġ32":5437,"ĠOper":5438,"constraint":5439,"Lim":5440,"Ġsend":5441,"Ġcontinue":5442,"ribe":5443,"Ġhasattr":5444,"Ġcallable":5445,"allele":5446,"Pr":5447,"pv":5448,"completed":5449,"geno":5450,"boxes":5451,"URE":5452,"hard":5453,"mgr":5454,"Ġentity":5455,"lied":5456,"cio":5457,"STAT":5458,"middle":5459,"Ġextension":5460,"filen":5461,"ado":5462,"Ġtempfile":5463,"ceiver":5464,"quantity":5465,"Is":5466,"Ids":5467,"Ġupdated":5468,"delt":5469,"Sequence":5470,"pretty":5471,"Ġsafe":5472,"rh":5473,"yy":5474,"orary":5475,"coverage":5476,"spin":5477,"caller":5478,"Ġwrap":5479,"Ġprotocol":5480,"ART":5481,"crypto":5482,"Host":5483,"Vector":5484,"Ġpolicy":5485,")/(":5486,"ized":5487,"lar":5488,"cepted":5489,"Ġaxes":5490,"ĠHTTP":5491,"tun":5492,"ĠIP":5493,"verbosity":5494,"least":5495,"Ġpmag":5496,"ulated":5497,"Ġsignature":5498,"direc":5499,"appa":5500,"omega":5501,"Current":5502,"48":5503,"retval":5504,"most":5505,"Parameters":5506,"CLA":5507,"Ġdone":5508,"usr":5509,"uniform":5510,"ackage":5511,"PREFIX":5512,"instrument":5513,"ABLE":5514,"ĠIN":5515,"inate":5516,"Ġflu":5517,"Ġdot":5518,"Ġconver":5519,"capt":5520,"walk":5521,"Ġ'\"":5522,"getcwd":5523,"density":5524,"Ġfeatures":5525,"lp":5526,"}/{":5527,"macro":5528,"argsort":5529,"latform":5530,"rotation":5531,"pull":5532,"Ġfg":5533,"minor":5534,"Unsupported":5535,"dists":5536,"Ġcurr":5537,"Return":5538,"slices":5539,"'})":5540,"CAL":5541,"Del":5542,"Ġms":5543,"inspect":5544,"ditor":5545,"__))":5546,"predicate":5547,"Ġgenerate":5548,"Api":5549,"Dyn":5550,"])))":5551,"Ġ%.":5552,"Ġcast":5553,"Ġmd":5554,"Enabled":5555,"combine":5556,",:]":5557,"definitions":5558,"share":5559,"prin":5560,"person":5561,"starting":5562,"Keys":5563,"thresh":5564,"outdir":5565,"Ġmarker":5566,"Copy":5567,"encrypted":5568,"Ġ[_":5569,"minute":5570,"LOW":5571,"TED":5572,"palette":5573,"LINE":5574,"evaluate":5575,"\"}":5576,"XML":5577,"received":5578,"cons":5579,"built":5580,"Ġdeepcopy":5581,"currency":5582,"observed":5583,")*(":5584,"Pool":5585,"SM":5586,"Ġ30":5587,"recipi":5588,"Hash":5589,"WORD":5590,"delimiter":5591,"renderer":5592,"callable":5593,"peaks":5594,"Using":5595,"Ġexit":5596,"Configuration":5597,"Cursor":5598,"standard":5599,"Ġalias":5600,"Ġextensions":5601,"ategy":5602,"serve":5603,"nored":5604,"Ġsepar":5605,"translation":5606,"hashes":5607,"ĠHttp":5608,"Dep":5609,"prot":5610,"funcs":5611,"Ġshort":5612,"cognized":5613,"EC":5614,"Ter":5615,"para":5616,"Ġlanguage":5617,"yes":5618,"Ġradius":5619,"shots":5620,"Ġdictionary":5621,"decoded":5622,"XY":5623,"]/":5624,"kit":5625,"lict":5626,"ULL":5627,"NOT":5628,"AG":5629,"Ġnx":5630,"Ġsw":5631,"Ġdeg":5632,"prefixes":5633,"Ġbounds":5634,"named":5635,"Ġdid":5636,"workers":5637,"Ġenvironment":5638,"Ġnb":5639,"fileobj":5640,"submission":5641,"ĠSer":5642,"sence":5643,"Uni":5644,"Ġprevious":5645,"Grid":5646,"Ġrender":5647,"ĠAs":5648,"installed":5649,"Metadata":5650,"):]":5651,"Stop":5652,"UB":5653,"Ġattributes":5654,"ventory":5655,"many":5656,"Component":5657,"Ġglobal":5658,",\"":5659,"NUM":5660,"cus":5661,"Ġ[-":5662,"aster":5663,"capacity":5664,"notebook":5665,"Feature":5666,"():":5667,"chat":5668,"(\">":5669,"population":5670,"effect":5671,"ValidationError":5672,")[-":5673,"tell":5674,"listener":5675,"scatter":5676,"nonce":5677,"since":5678,"SY":5679,"vtk":5680,"stract":5681,"ename":5682,"Ġ200":5683,"Ġ'-'":5684,"Ġinterface":5685,"structor":5686,"Layout":5687,"Directory":5688,"(.*":5689,"Sum":5690,"pur":5691,"lished":5692,"Container":5693,"cryption":5694,"Mon":5695,"prod":5696,"\"]]":5697,"compare":5698,"Running":5699,"pn":5700,"ä¸":5701,"Ġ'').":5702,"svg":5703,"impl":5704,"Document":5705,"38":5706,"78":5707,"inline":5708,"station":5709,"alph":5710,"disco":5711,"finite":5712,"Ġpresent":5713,"executor":5714,"ĠAttribute":5715,"ĠSy":5716,"Ġurlparse":5717,"[~":5718,"hold":5719,"Ġut":5720,"charge":5721,"binding":5722,"ead":5723,"enari":5724,"titem":5725,"logits":5726,"mix":5727,"Ġcoords":5728,"percenti":5729,"vstack":5730,"Ġrequires":5731,"isode":5732,"Ġseries":5733,"processes":5734,"Next":5735,"fidence":5736,"Ġau":5737,"Ġtool":5738,"subj":5739,"Files":5740,"scaled":5741,"canonical":5742,"uffle":5743,"Ste":5744,"oa":5745,"Ġpickle":5746,"intervals":5747,"prime":5748,"centers":5749,"two":5750,"Ġdownload":5751,"fm":5752,"solve":5753,"Ġsupp":5754,"Ġkind":5755,"iteration":5756,"Ġcolors":5757,"CC":5758,"ECT":5759,"front":5760,"wind":5761,"Ġlow":5762,"Ġmesh":5763,"TEXT":5764,"Total":5765,"ctype":5766,"Ġdec":5767,"beat":5768,"acters":5769,"Ġmodi":5770,"attachment":5771,"irc":5772,"rele":5773,"Ġpacket":5774,"jo":5775,"rst":5776,"lopen":5777,"olver":5778,"calls":5779,"':'":5780,"Ġproperties":5781,"Ġtheta":5782,"ATTR":5783,"blank":5784,"observation":5785,">')":5786,"Top":5787,"ets":5788,"alloc":5789,"cdf":5790,"Ġap":5791,"references":5792,"ards":5793,"apps":5794,"longitude":5795,"Ġorigin":5796,"SUB":5797,"EST":5798,"lec":5799,"Ġrecur":5800,"ĠCh":5801,"formula":5802,"expanded":5803,"UNK":5804,"ttl":5805,"----------------":5806,"tup":5807,"rem":5808,"reater":5809,"namespaces":5810,"Ġnu":5811,"Ġreduce":5812,"Ġoff":5813,"Ġexpr":5814,"grains":5815,"finish":5816,"ĠQu":5817,"ĠJSON":5818,"Ġoperator":5819,"normpath":5820,"><":5821,"streams":5822,"topics":5823,"setLevel":5824,"ĠCO":5825,"phone":5826,"(?:":5827,"expires":5828,"same":5829,"Ġcollection":5830,"Ġsamp":5831,"argspec":5832,"Ġfl":5833,"Ġcategory":5834,"Ġ1024":5835,"letter":5836,"EXT":5837,"protein":5838,"adata":5839,"hum":5840,"vor":5841,"Ġidentifier":5842,"Ġsql":5843,"Ġrate":5844,"Ġdiv":5845,"Unexpected":5846,"06":5847,"sage":5848,"sses":5849,"Ġpid":5850,"Ġpool":5851,"Ġperiod":5852,"Ġ({":5853,"000000":5854,"recursive":5855,"sess":5856,"getvalue":5857,"Ġinstalled":5858,"Root":5859,"resolver":5860,"orizontal":5861,"xp":5862,"infile":5863,"cover":5864,"Ġps":5865,"Ġmis":5866,"Ġuuid":5867,"histogram":5868,"POINT":5869,"lign":5870,"!\"":5871,"cmp":5872,"hint":5873,"raster":5874,"(\".":5875,"isnan":5876,"swap":5877,"taxon":5878,"critical":5879,"cookies":5880,"Font":5881,"Ġinformation":5882,"itle":5883,"shutit":5884,"calibr":5885,"ancest":5886,"ctories":5887,"Ġelements":5888,"endswith":5889,"pitch":5890,"att":5891,"tries":5892,"checks":5893,"checkpoint":5894,"Param":5895,"Options":5896,"degrees":5897,"prediction":5898,"decoder":5899,"\"]],":5900,"nums":5901,"traj":5902,"azard":5903,"guess":5904,"spacing":5905,"criteria":5906,"dur":5907,"hot":5908,"rid":5909,"Ġquote":5910,"Ġcv":5911,"authenti":5912,"ARY":5913,"chedule":5914,"\\\"":5915,"uting":5916,"maybe":5917,"shard":5918,"Dataset":5919,"Identi":5920,"Ġbinary":5921,"Poly":5922,"crs":5923,"hstack":5924,"rp":5925,"urlopen":5926,"chi":5927,"temperature":5928,"Handle":5929,"acl":5930,"kg":5931,"dialog":5932,"accounts":5933,"interfaces":5934,"Glob":5935,"dw":5936,"did":5937,"tif":5938,"more":5939,"indexer":5940,"registered":5941,"numeric":5942,"WARNING":5943,"Matrix":5944,"PL":5945,"Ġmemory":5946,"Ġcompute":5947,"yncio":5948,"AUTH":5949,"iface":5950,"orth":5951,"exposure":5952,"etc":5953,"ĠTO":5954,"LED":5955,"arest":5956,"Active":5957,"Access":5958,"Ġli":5959,"atten":5960,"aper":5961,"mags":5962,"Ġtensor":5963,"Ġtoo":5964,"curacy":5965,"Ġdisplay":5966,"CLI":5967,"Gui":5968,"Met":5969,"OF":5970,"('')":5971,"visor":5972,"**(":5973,"Ġproc":5974,"AV":5975,"Pmag":5976,"Sample":5977,"photo":5978,"ended":5979,"cmds":5980,"void":5981,"styles":5982,"namespaced":5983,"optimizer":5984,"Pub":5985,"Ġreturned":5986,"fraction":5987,"Ġiterable":5988,"converter":5989,"retries":5990,"precated":5991,"Ġdepend":5992,"Starting":5993,"Ġbetween":5994,"Try":5995,"scroll":5996,"=[]":5997,"describe":5998,"Ġneg":5999,"Ġremoved":6000,"roy":6001,"mainder":6002,"DELETE":6003,"special":6004,"periods":6005,"ggreg":6006,"utcnow":6007,"pas":6008,"vidual":6009,"splits":6010,"dv":6011,"adv":6012,"ctl":6013,"Ġcap":6014,"listdir":6015,"small":6016,"scheduler":6017,"hyper":6018,"plane":6019,"Ax":6020,"uted":6021,"rection":6022,"setText":6023,"daemon":6024,"Ġanalysis":6025,"Policy":6026,"dummy":6027,"anization":6028,"Rect":6029,"tgt":6030,"Ġmain":6031,"Ġcandid":6032,"Ġnote":6033,"ROOT":6034,"UTF":6035,"projection":6036,"``":6037,"tpl":6038,"ĠSet":6039,"Ġsummary":6040,"Ġtorch":6041,"98":6042,"wf":6043,"partitions":6044,"94":6045,"}',":6046,"shutdown":6047,"printer":6048,"Ġeach":6049,"trial":6050,"Post":6051,"Ġtar":6052,"Ġalt":6053,"Profile":6054,"Ġfontsize":6055,"Ġvariables":6056,"Ġpl":6057,"Ġdefin":6058,"Cons":6059,"issuer":6060,"VALUE":6061,"Ġspace":6062,"HERE":6063,"mf":6064,"inverse":6065,"fac":6066,"\"]))":6067,"minion":6068,"Ġtimes":6069,"cumsum":6070,"76":6071,"fu":6072,"qq":6073,"Ġlookup":6074,"Ġverify":6075,"stm":6076,"focus":6077,"Types":6078,"Ġdirection":6079,"information":6080,"elapsed":6081,"Ġpop":6082,"Ġstorage":6083,"Ġyet":6084,"requested":6085,"LENG":6086,"Ġpaths":6087,"URCE":6088,"sistent":6089,"WOR":6090,"\\.":6091,"pillar":6092,"Ġvector":6093,"pace":6094,"boolean":6095,"Parti":6096,"Ġimages":6097,"Ġmay":6098,"Ġrelative":6099,"saniti":6100,"Cells":6101,"entropy":6102,"consu":6103,"prox":6104,"REF":6105,"soup":6106,"Ġpositive":6107,"routes":6108,"scene":6109,"RED":6110,"Ġ'.'.":6111,"initialize":6112,"LENGTH":6113,"Cl":6114,"Rule":6115,"jd":6116,"vmin":6117,"Ġvalidate":6118,"Ġunknown":6119,"Ġbins":6120,"subs":6121,"tests":6122,"customer":6123,"'},":6124,"Rel":6125,"Site":6126,"dct":6127,"fut":6128,"fromstring":6129,"Ġexpi":6130,"Tags":6131,"JECT":6132,"Ġcommit":6133,"tives":6134,"infos":6135,"Local":6136,"scopes":6137,"gpu":6138,"ov":6139,"xc":6140,"outcome":6141,"Ġ{!":6142,"Ġkeyword":6143,"Idx":6144,"COMM":6145,"which":6146,"learn":6147,"moment":6148,"Ġfd":6149,"Ġseg":6150,"Ġreader":6151,"Bind":6152,"Len":6153,"[\\":6154,"_=":6155,"Ġids":6156,"Ġ\"+":6157,"itter":6158,"Ġstrip":6159,"domains":6160,"dependency":6161,"requencies":6162,"Hist":6163,"uped":6164,"roots":6165,"elt":6166,"Ġbi":6167,"Ġmid":6168,"substit":6169,"enotype":6170,"vertical":6171,"?'":6172,"EM":6173,"Ra":6174,"sam":6175,"netloc":6176,"ticklabels":6177,"cleanup":6178,"branches":6179,"PARAM":6180,"Ġclose":6181,"AX":6182,"locked":6183,"ĠThe":6184,"RES":6185,"wner":6186,"Ġmatching":6187,"Transform":6188,"Dim":6189,"follow":6190,"reversed":6191,"strict":6192,"Ġ180":6193,"prun":6194,"mavlink":6195,"Bin":6196,"eb":6197,"tcp":6198,"xmax":6199,"locs":6200,"],[":6201,"figsize":6202,"REC":6203,"AA":6204,"given":6205,"tls":6206,"reaction":6207,"restore":6208,"Ġvtk":6209,"Ġproj":6210,"Ġsubject":6211,"factors":6212,"tzinfo":6213,"containers":6214,"jar":6215,"Ġwri":6216,"Collection":6217,"Tool":6218,"hd":6219,"perms":6220,"readlines":6221,"Ġdoesn":6222,"TIONS":6223,"assignment":6224,"ĠOptional":6225,"km":6226,"alect":6227,"desired":6228,"Ġeither":6229,"STATE":6230,"ĠRequest":6231,"Ġevents":6232,"Buffer":6233,"Ġcorrect":6234,"pieces":6235,"modes":6236,"orization":6237,"Timeout":6238,"communicate":6239,")._":6240,"Ġobs":6241,"ider":6242,"chron":6243,"Ġ''))":6244,"cheme":6245,"Ġrho":6246,"UND":6247,"predicted":6248,"Ġ\"{}\"":6249,"Ġsqrt":6250,"BY":6251,"Ġ{:":6252,"Ġdefaults":6253,"Ġ25":6254,"ORY":6255,"grams":6256,"pkt":6257,"CONT":6258,"Ġmaster":6259,"Application":6260,"ĠResponse":6261,"ĠAttributeError":6262,"rhs":6263,"learning":6264,"deli":6265,"']}":6266,"Ġfs":6267,"placeholder":6268,"negative":6269,"VICE":6270,"CMD":6271,"BR":6272,"cations":6273,"Ġlock":6274,"Ġpassed":6275,"Ġba":6276,"Ġfetch":6277,"abet":6278,"Track":6279,"600":6280,"Title":6281,"hdf":6282,"support":6283,"tur":6284,"ymin":6285,"Ġtab":6286,"served":6287,"Ġdisk":6288,"okie":6289,"ĠĠĠĠĠĠĠĠĠĠĠ":6290,"mappings":6291,"Execution":6292,"enario":6293,"Ġreceived":6294,"Ġdrop":6295,"ĠSub":6296,"runs":6297,"slots":6298,"Ġcounts":6299,"ellow":6300,"Ġduration":6301,"Ġcore":6302,"bum":6303,"clock":6304,"flip":6305,"rn":6306,"ĠElement":6307,"Ġensure":6308,"Args":6309,"Updat":6310,"dT":6311,"statistics":6312,"visu":6313,"Ġsetup":6314,"realpath":6315,"Mem":6316,"Ġes":6317,"datas":6318,"rich":6319,"Ġdd":6320,"epsilon":6321,"aggregate":6322,"bulk":6323,"fileno":6324,"wall":6325,"ussian":6326,"contrib":6327,"Delete":6328,"128":6329,"hide":6330,"legal":6331,"\"+":6332,"58":6333,"IR":6334,"dh":6335,"vg":6336,"logfile":6337,"Ġcredentials":6338,"Err":6339,"qualifier":6340,"Speci":6341,"whe":6342,"chart":6343,"['__":6344,"Ġsat":6345,"='%":6346,"comps":6347,"Ġwithout":6348,"COUN":6349,"creation":6350,"Ġcontents":6351,"[[":6352,"kb":6353,"ned":6354,"met":6355,"todo":6356,"mation":6357,"grouped":6358,"Ġsetting":6359,"started":6360,"rupt":6361,"thumbnail":6362,"Cor":6363,"PP":6364,"Ġangle":6365,"isinstance":6366,"Ġdeleted":6367,"Ġxy":6368,"alive":6369,"LOR":6370,"activate":6371,"SOURCE":6372,"responses":6373,"ingerprint":6374,"'\",":6375,"Auto":6376,"Ġlogger":6377,"stri":6378,"statements":6379,"consts":6380,"Ġ'/'.":6381,"Samp":6382,"XX":6383,"kt":6384,"mr":6385,"vt":6386,"licies":6387,"mbly":6388,"Ġcondition":6389,"Stats":6390,"Ġlocals":6391,"Skip":6392,"crc":6393,"mor":6394,"lens":6395,"\")]":6396,"Ġmime":6397,"Ġ{}:":6398,"Ġrank":6399,"Load":6400,"priv":6401,"hgnc":6402,"Limit":6403,"SQL":6404,"Wrapper":6405,"gu":6406,"Ġ'$":6407,"Ġpatch":6408,"oprot":6409,"hierarchy":6410,"Changed":6411,"WA":6412,"ee":6413,"pct":6414,"Ġdelimiter":6415,"Rep":6416,"locator":6417,"ĠTo":6418,"TABLE":6419,"examples":6420,"Factory":6421,"Ġbottom":6422,"755":6423,"Callback":6424,"datatype":6425,"Ġsupport":6426,"parallel":6427,"cay":6428,"modname":6429,"Ġ50":6430,"activation":6431,"hparam":6432,"Ġ()":6433,"secs":6434,"onal":6435,"='')":6436,"tuples":6437,"occur":6438,"Ġadded":6439,"Ġclick":6440,"]')":6441,"ggest":6442,"Ġss":6443,"Ġ11":6444,"converted":6445,"ired":6446,"slope":6447,"ĠIndex":6448,"Ġselected":6449,"represent":6450,"arrow":6451,"LOAD":6452,"clusive":6453,"FS":6454,"Menu":6455,"dge":6456,"vrf":6457,"decimal":6458,"Ġrequire":6459,"Ġstypes":6460,"-{":6461,"bject":6462,"Ġpred":6463,"Ġdis":6464,"udent":6465,"defer":6466,"Role":6467,"ability":6468,"bre":6469,"mil":6470,"udy":6471,"infer":6472,"increment":6473,"strain":6474,"Ġ'[":6475,"pep":6476,"Ġdefinition":6477,"ances":6478,"ĠMessage":6479,"dense":6480,"estimator":6481,"VALID":6482,"Ġarchive":6483,"ino":6484,"endpoints":6485,"Ġbind":6486,"Ġproduct":6487,"SSL":6488,"Prefix":6489,"}:{":6490,"Test":6491,"orders":6492,"())[":6493,"STATUS":6494,"Align":6495,"CB":6496,"KEN":6497,"Ġls":6498,"Ġrdf":6499,"....":6500,"psd":6501,"Channel":6502,"-\\":6503,"anno":6504,"Ġhand":6505,"extras":6506,"ACT":6507,"Ġtrack":6508,"Batch":6509,"Tuple":6510,"ky":6511,"iling":6512,"vidence":6513,"Ġstructure":6514,"lecule":6515,"]].":6516,"uals":6517,"ens":6518,"construct":6519,"vecs":6520,"packed":6521,"compar":6522,"Ġprovide":6523,"Comple":6524,"disconnect":6525,"ĠComp":6526,"Fi":6527,"bel":6528,"hp":6529,"today":6530,"ulator":6531,"queries":6532,"Ġtwo":6533,"exponent":6534,"ALI":6535,"Struct":6536,"SSAGE":6537,"GP":6538,"Ġvec":6539,"erce":6540,"should":6541,"sensus":6542,"CD":6543,"Ġfilters":6544,"indx":6545,"ĠNode":6546,"aving":6547,"Ġneeds":6548,"uplicate":6549,"multiple":6550,"percentile":6551,"CL":6552,"('',":6553,"Ġ\"'":6554,"bove":6555,"subplots":6556,"portal":6557,"Ġsuccessfully":6558,"BB":6559,"fb":6560,"occ":6561,"xaxis":6562,"grant":6563,"ĠCON":6564,"ĠHttpResponse":6565,"altern":6566,"Ġdetermin":6567,"Ġgamma":6568,"csr":6569,"closest":6570,"ĠDict":6571,"ITE":6572,"bench":6573,"Ġcom":6574,"colour":6575,"lam":6576,"kws":6577,"mediate":6578,"Ġdefining":6579,"Lvl":6580,"One":6581,"(\":\")":6582,"launch":6583,"Ġ{}\\":6584,"checker":6585,"Setting":6586,"Ġresolve":6587,"Ġroute":6588,"measurements":6589,"Bit":6590,"lhs":6591,"qry":6592,"lica":6593,"Ġpr":6594,"Ġcpu":6595,"Ġhour":6596,"fromtimestamp":6597,"Ġoc":6598,"Ġfilepath":6599,"Coord":6600,"Ġdiffe":6601,"ficient":6602,"+)":6603,"gorithm":6604,"assets":6605,"scr":6606,"broadcast":6607,"IGHT":6608,"Ġpartition":6609,"Ġ'{}'\".":6610,"Identifier":6611,"Popen":6612,"ross":6613,"Ġplatform":6614,"Ġtopic":6615,"lerance":6616,"lattice":6617,"docstring":6618,"ighted":6619,"Ġpublic":6620,"bootstrap":6621,"stroke":6622,"Ġredirect":6623,"Ġchr":6624,"titles":6625,"Login":6626,"ĠYANG":6627,"sentences":6628,"></":6629,"dry":6630,"who":6631,"Ġfix":6632,"shuffle":6633,"mber":6634,"ryp":6635,"specific":6636,"404":6637,"bands":6638,"Builder":6639,"eye":6640,"nets":6641,"Ġbecause":6642,"ĠField":6643,"Ġshift":6644,"timestamps":6645,"Ġsyn":6646,"creen":6647,"Ġprivate":6648,"crit":6649,"blacklist":6650,"((\"":6651,"RGB":6652,"VAR":6653,"bond":6654,"hw":6655,"sector":6656,"Ġ[%":6657,"extmethods":6658,"Ġsto":6659,"Proxy":6660,"Ġsha":6661,"blk":6662,"Ġretry":6663,"freqs":6664,"relationship":6665,"Ġtile":6666,"dip":6667,"Ġuid":6668,"START":6669,"OrderedDict":6670,"duplicate":6671,"]\"":6672,"reload":6673,"Ġpt":6674,"__',":6675,"episode":6676,"Ġproto":6677,"reqs":6678,"Ġatom":6679,"markers":6680,"Ġextmethods":6681,"Transa":6682,"DynClass":6683,"ĠYANGDynClass":6684,"DD":6685,"EP":6686,"encrypt":6687,"chor":6688,"vis":6689,"Inst":6690,"iteritems":6691,"collector":6692,"Ġ&=":6693,"Attr":6694,"predictions":6695,"napshot":6696,"TEMPLATE":6697,"hazard":6698,"ide":6699,"sz":6700,"lies":6701,"tenant":6702,"TOKEN":6703,"+',":6704,"46":6705,"Cd":6706,"Writer":6707,"Ġbreak":6708,"Ġseed":6709,"ĠAn":6710,"Loading":6711,"Ġ40":6712,"inja":6713,"GL":6714,"Plugin":6715,"mult":6716,"vd":6717,"iterations":6718,"Account":6719,"Success":6720,"Ġfollowing":6721,"=',":6722,">%":6723,"Json":6724,"cx":6725,"ea":6726,"pod":6727,"reading":6728,"Ġepoch":6729,"ĠST":6730,"surf":6731,"lent":6732,"çļ":6733,"algo":6734,"chdir":6735,"ctools":6736,"nearest":6737,"pagin":6738,"SEPAR":6739,"ĠBad":6740,"Ġruntime":6741,"initializer":6742,"Ġfeed":6743,"çļĦ":6744,"OFF":6745,"Pix":6746,"vpc":6747,"åı":6748,"Ġ?":6749,"Ġedges":6750,"Ġloaded":6751,"mosome":6752,"Ġcmap":6753,"Ġhy":6754,"Ġregistry":6755,"redential":6756,"stock":6757,"Ġphase":6758,"+=":6759,"OM":6760,"Volume":6761,"wp":6762,"ticket":6763,"Ġ'&":6764,"contour":6765,"intf":6766,"compiler":6767,"ĠArg":6768,"ĠFor":6769,"bilities":6770,"widgets":6771,"Operation":6772,"Agent":6773,"Flags":6774,"Stack":6775,"sla":6776,"restart":6777,"ane":6778,"conversion":6779,"Ġbro":6780,"Ġdev":6781,"Project":6782,"overlay":6783,"LIST":6784,"Pattern":6785,"gas":6786,"Ġffi":6787,"trust":6788,"Ġrelease":6789,"Ġequal":6790,"subscribe":6791,"Package":6792,"cart":6793,"ymax":6794,"pow":6795,"fake":6796,"Ġgit":6797,"ERS":6798,"pubkey":6799,"dependent":6800,"Ġwords":6801,"\"\"\"":6802,"Ġsaved":6803,"raph":6804,"treat":6805,"{{":6806,"Ġob":6807,"repos":6808,"ale":6809,"lored":6810,"constructor":6811,"oll":6812,"pore":6813,"Ġrect":6814,"health":6815,"minator":6816,"Unit":6817,"windows":6818,"Ġexpression":6819,"Pi":6820,"Raw":6821,"kl":6822,"}\",":6823,"Ġsent":6824,"ero":6825,"eric":6826,"argmin":6827,"Ġacc":6828,"Ġdur":6829,"Ġstrict":6830,"Ġ256":6831,"][-":6832,"magnitude":6833,"ysql":6834,"Ġcomplete":6835,"indicator":6836,"destroy":6837,"overwrite":6838,"cycles":6839,"payment":6840,"Script":6841,"500":6842,"signals":6843,"percentage":6844,"classification":6845,"Float":6846,"SD":6847,"ird":6848,"Storage":6849,"Settings":6850,"Seq":6851,"Ġmessages":6852,"Meas":6853,"visited":6854,"when":6855,"volumes":6856,"taxError":6857,"ailf":6858,"FT":6859,"Flag":6860,"There":6861,"Ġtransaction":6862,"recognized":6863,"atleast":6864,"retty":6865,"subscription":6866,"acked":6867,"([[":6868,"STAN":6869,"graphs":6870,"Ġstrings":6871,"Ġgrad":6872,"padded":6873,"Ġcalled":6874,"Ġscalar":6875,"Ġte":6876,"reward":6877,"inventory":6878,"utor":6879,"Ġphi":6880,"exact":6881,"transl":6882,"fullname":6883,"(':',":6884,"abilities":6885,"LT":6886,"Word":6887,"ches":6888,"strand":6889,"abort":6890,"identifiers":6891,"Ġitertools":6892,"SCR":6893,"potential":6894,"Ġthreading":6895,"discard":6896,"Life":6897,"Ġtail":6898,"Ġcert":6899,"Ġdon":6900,"imuth":6901,"Ġ360":6902,"Encoder":6903,"batches":6904,"Ġ\"/\"":6905,"Ġhostname":6906,"clause":6907,"SEPARATOR":6908,")].":6909,"Scal":6910,"_['":6911,"fallback":6912,"Ġcb":6913,"Ġagent":6914,"wards":6915,"savefig":6916,"helpers":6917,"LINK":6918,")})":6919,"imag":6920,"nic":6921,"mega":6922,"subtype":6923,"summ":6924,"rotate":6925,"Msg":6926,"Ġhere":6927,"Ġscheme":6928,"profiles":6929,"Ġmany":6930,"Ġactual":6931,"=[\"":6932,"Usage":6933,"rng":6934,"Ġresources":6935,"mes":6936,"tier":6937,"dian":6938,"Ġcached":6939,"compat":6940,"bindings":6941,"polygon":6942,"Created":6943,"SN":6944,"equi":6945,"Ġencode":6946,"endor":6947,"calendar":6948,"Loader":6949,"CHAR":6950,"sampler":6951,"lw":6952,"Ġgeo":6953,"mpl":6954,"Ġproces":6955,"ĠTemp":6956,"clients":6957,"tmpl":6958,"COLOR":6959,"adjac":6960,"isoformat":6961,"Ġtraceback":6962,"ĠModel":6963,"88":6964,"alert":6965,"needs":6966,"Ġrepository":6967,"([^":6968,"Ġengine":6969,"chains":6970,"detect":6971,"BACK":6972,"Import":6973,"SR":6974,"retcode":6975,"Ġ\":":6976,"Ġreason":6977,"blems":6978,"Ġmut":6979,"associ":6980,"1024":6981,"Ġrecords":6982,"Admin":6983,"recipe":6984,"Ġdimension":6985,"Calc":6986,"ftp":6987,"receiver":6988,"mods":6989,"buckets":6990,"ĠClient":6991,"reduced":6992,"wire":6993,"GIN":6994,"VM":6995,"django":6996,"imple":6997,"twe":6998,"vx":6999,"xff":7000,"lem":7001,"strs":7002,"Ġflow":7003,"')),":7004,"prise":7005,"scales":7006,"Ġwere":7007,"hexlify":7008,"aligned":7009,"routing":7010,"*.":7011,"Must":7012,"cube":7013,"turn":7014,"~~":7015,"Ġfi":7016,"tabs":7017,"coming":7018,"weep":7019,"letters":7020,"imports":7021,"transactions":7022,"+\\":7023,"54":7024,"air":7025,"Ġ64":7026,"retrieve":7027,"datastore":7028,"Ġamount":7029,"broker":7030,"Ġchildren":7031,"Ġlibrary":7032,"ĠPython":7033,"transitions":7034,"180":7035,"OD":7036,"aN":7037,"psi":7038,"yaxis":7039,"('__":7040,"pem":7041,"Ġblob":7042,"tract":7043,"Web":7044,"Transaction":7045,"74":7046,"MM":7047,"ifo":7048,"jump":7049,"pprint":7050,"strategy":7051,"atible":7052,"Ġgra":7053,"Exit":7054,"ĠWHERE":7055,"TYPES":7056,"Wait":7057,"deep":7058,"ison":7059,"Ġwidget":7060,"ĠPlease":7061,"SPACE":7062,"Ġchoice":7063,"receive":7064,"lg":7065,"uu":7066,"wl":7067,"lets":7068,"chmod":7069,"perf":7070,"Internal":7071,"ĠMulti":7072,"SES":7073,"HOST":7074,"Ab":7075,"GO":7076,"GRO":7077,"uv":7078,"Ġplace":7079,"Ġinte":7080,"authors":7081,"GEX":7082,"Ġ'_'":7083,"STRING":7084,"assess":7085,"physical":7086,"Bound":7087,"perform":7088,"Initi":7089,"Ġest":7090,"msgs":7091,"ĠCont":7092,"particip":7093,"ĠOptionParser":7094,"Ġstarted":7095,"!'":7096,">>":7097,"Ph":7098,"_\"":7099,"anel":7100,"raint":7101,"trap":7102,"Ġdelay":7103,"cipal":7104,":]))":7105,"Disp":7106,"relations":7107,"fontsize":7108,"('.')[":7109,"Global":7110,"between":7111,"quick":7112,"Timestamp":7113,"Ġoverwrite":7114,"contains":7115,"Delta":7116,"?\\":7117,"seline":7118,"roi":7119,"exchange":7120,"Ġ13":7121,"__()":7122,"001":7123,"ADD":7124,"ĠDataFrame":7125,"community":7126,"Helper":7127,"zs":7128,"cha":7129,"Ġscan":7130,"mouse":7131,"Ġbbox":7132,"produ":7133,"LEV":7134,"sun":7135,"Ġsender":7136,"(\"#":7137,"Ġorg":7138,"interpret":7139,"velength":7140,"tributes":7141,"Ġlogin":7142,"creds":7143,"Fore":7144,"If":7145,"ually":7146,"adow":7147,"unlink":7148,"lax":7149,"Ġ(_":7150,"ĠMe":7151,"quoted":7152,"Symbol":7153,"overrides":7154,"completion":7155,"equ":7156,"Ġentries":7157,"dele":7158,"dead":7159,"ceeded":7160,"otential":7161,"Ġ({})":7162,"kwarg":7163,"doi":7164,"heading":7165,"ables":7166,"defaultdict":7167,"published":7168,"simil":7169,"SERVER":7170,"capture":7171,"sibl":7172,"Ġprovider":7173,"warm":7174,"MESSAGE":7175,"diffs":7176,"IST":7177,"Mark":7178,"dk":7179,"fri":7180,"Ġnl":7181,"upgrade":7182,"needed":7183,"Conver":7184,"Ġenviron":7185,"Ġ\",\".":7186,"Ġrelation":7187,"Columns":7188,"Ori":7189,"decrypt":7190,"']])":7191,"ulative":7192,"mbl":7193,"song":7194,"written":7195,"sampled":7196,"Ġoutfile":7197,"voice":7198,"Ġboth":7199,"Ġsecret":7200,"camera":7201,"\"%(":7202,"Edit":7203,"btn":7204,"cron":7205,"prof":7206,"heads":7207,"ĠNum":7208,"UTC":7209,"frag":7210,"velocity":7211,":{":7212,"Items":7213,"Ġvars":7214,"unce":7215,"posed":7216,"ised":7217,"ANGE":7218,"vox":7219,"Ġ90":7220,"Ġcontains":7221,"attention":7222,")[:":7223,"segs":7224,"resample":7225,"='',":7226,"recent":7227,"lons":7228,"Elements":7229,"crease":7230,"sistype":7231,"Descriptor":7232,"ĠArgument":7233,"/{}'.":7234,"bon":7235,"losses":7236,"sitions":7237,"ipher":7238,"pied":7239,"counters":7240,"Ġclosed":7241,"herit":7242,"composition":7243,"decorator":7244,"rms":7245,"spatial":7246,"Ġagain":7247,"amily":7248,"ĠChe":7249,"Ġprogress":7250,"Ġassign":7251,"snapshots":7252,"stmts":7253,"LP":7254,"Mask":7255,"aign":7256,"horizontal":7257,"qte":7258,"Ġinner":7259,"olid":7260,"Ġremaining":7261,"workdir":7262,"TES":7263,"={\"":7264,"Shk":7265,"multiply":7266,"multiplier":7267,"Ġchanges":7268,"Ġhistory":7269,"CATION":7270,"Empty":7271,"MT":7272,"ffic":7273,"vv":7274,"secho":7275,"Ġxmax":7276,"COD":7277,"StringIO":7278,"('/',":7279,"Head":7280,"Adding":7281,"CG":7282,"Factor":7283,"Non":7284,"Plot":7285,"lm":7286,"Ġmass":7287,"mins":7288,"filled":7289,"mir":7290,"transformed":7291,"erior":7292,"analysistype":7293,"Ġ`%":7294,"rozenset":7295,"400":7296,"Fail":7297,"[%":7298,"gos":7299,"udo":7300,"encryption":7301,"datap":7302,"Ġdump":7303,"regs":7304,"orical":7305,"Ġsuch":7306,"decla":7307,"qubit":7308,"Step":7309,"Ps":7310,"got":7311,"ko":7312,"ru":7313,"Ġ..":7314,"design":7315,"getenv":7316,"Ġreci":7317,"Ġprogram":7318,"workspace":7319,"Fields":7320,"}.{":7321,"Ġchanged":7322,"Uti":7323,"citation":7324,"far":7325,"jac":7326,"|'":7327,"']).":7328,"Ġfuture":7329,"REGEX":7330,"rected":7331,"latex":7332,"irt":7333,"Ġbyref":7334,"Ġexpand":7335,"CLASS":7336,"calibration":7337,"''.":7338,"OL":7339,"]{":7340,"requires":7341,"aln":7342,"outs":7343,"coll":7344,"addWidget":7345,"classname":7346,"aves":7347,"generators":7348,"UNI":7349,"wsgi":7350,"what":7351,"Ġinstead":7352,"Interface":7353,"joint":7354,"Ġselection":7355,"dem":7356,"rics":7357,"andard":7358,"codec":7359,"Ġdef":7360,"Look":7361,"legacy":7362,"RUN":7363,"bn":7364,"rdd":7365,"Ġver":7366,"Ġmetrics":7367,"season":7368,"pex":7369,"aspect":7370,"Ġbc":7371,"nom":7372,"Ġstates":7373,"without":7374,"markup":7375,"(\"/\")":7376,"imation":7377,"Ġcatalog":7378,"SCRIP":7379,"]\",":7380,"gzip":7381,"must":7382,"Ġsen":7383,"returncode":7384,"atives":7385,"Ġbad":7386,"Ġca":7387,"Ġtb":7388,"Ġgreater":7389,"Ġdivmod":7390,"7554":7391,"Ba":7392,"Wri":7393,"eLife":7394,"za":7395,"tostring":7396,"togg":7397,"linked":7398,"Ġmanager":7399,"{}.":7400,"ĠText":7401,"Ġpresence":7402,"ĠGe":7403,"Ġtargets":7404,"capit":7405,"TIMEOUT":7406,"compose":7407,"Ġfast":7408,"spy":7409,"Ġ_(\"":7410,"basedir":7411,"iters":7412,"distribu":7413,"frequencies":7414,"gray":7415,"aped":7416,"timeseries":7417,"metavar":7418,"RECT":7419,"(_('":7420,"Enter":7421,"corpus":7422,"Interval":7423,"Points":7424,"venv":7425,"Ġnest":7426,"Ġcla":7427,"__']":7428,"Ġasset":7429,"ĠGet":7430,"sink":7431,"restri":7432,"stored":7433,"lane":7434,"alizers":7435,"Ġdimensions":7436,"stone":7437,"ĠAr":7438,"Diff":7439,"Ġoutputs":7440,"ĠVi":7441,"ixed":7442,"033":7443,"Icon":7444,"UI":7445,"xb":7446,"zi":7447,"alo":7448,"pet":7449,"policies":7450,"Ġexport":7451,"Ġmaximum":7452,"ficients":7453,"CHECK":7454,"pressure":7455,"Ġrecursive":7456,"LEVEL":7457,"mware":7458,"ox":7459,"sx":7460,"Ġescape":7461,"materi":7462,"Ġ14":7463,"artbeat":7464,"comb":7465,"Ġtimezone":7466,"queues":7467,"Parent":7468,"spike":7469,"Dec":7470,"ived":7471,"memo":7472,"stringutils":7473,"psf":7474,"mongo":7475,"Ġauthor":7476,"Memory":7477,"fcoe":7478,"guid":7479,"vp":7480,"à®":7481,"rea":7482,"ention":7483,"tide":7484,"Ġnamed":7485,"{}_":7486,"ĠFI":7487,"writerow":7488,"='.":7489,"BLOCK":7490,"LY":7491,"blast":7492,"fld":7493,"consensus":7494,"Ġnull":7495,"urlparse":7496,"combo":7497,"registration":7498,"COMP":7499,"Ġcomponents":7500,"ĠParameter":7501,"Cdlib":7502,")()":7503,"Got":7504,"]\\":7505,"rates":7506,"Ġ))":7507,"Ġtrue":7508,"(\".\",":7509,"Ġimplemented":7510,"accum":7511,"trig":7512,"latent":7513,"finder":7514,"Ġrequested":7515,"Section":7516,"Ġbasename":7517,"Ġpossible":7518,"cdlib":7519,"languages":7520,"Shape":7521,"PyCdlib":7522,"HOME":7523,"ĠThis":7524,"({})":7525,"Mer":7526,"USE":7527,"plate":7528,"tached":7529,"tracker":7530,"astic":7531,"Ġpycdlib":7532,"Ġupload":7533,"expire":7534,"assessment":7535,"Ġpycdlibexception":7536,"'\")":7537,"Clas":7538,"RT":7539,"Tensor":7540,"wild":7541,"zones":7542,"Ġmem":7543,"reach":7544,"tity":7545,"atient":7546,"Ġcre":7547,"assoc":7548,"compression":7549,"Received":7550,"Ġklass":7551,"Ġside":7552,"Ġtasks":7553,"SpecRec":7554,"COUNT":7555,"/',":7556,"Sec":7557,"nat":7558,"vmax":7559,"())))":7560,"chip":7561,"otropy":7562,"Ġstride":7563,"preview":7564,"mini":7565,"stddev":7566,"certs":7567,"Attributes":7568,"throat":7569,"FIN":7570,"Password":7571,"Ġencoded":7572,"Ġ[('":7573,"Ġwrong":7574,"google":7575,"caption":7576,"Ġbackground":7577,"OPEN":7578,"Ġmultiple":7579,"orientation":7580,"irtual":7581,",%":7582,"Ang":7583,"PR":7584,"Ġmove":7585,"Ġcounter":7586,"seudo":7587,"orb":7588,"Ġ[]))":7589,"Debug":7590,"scaling":7591,"viders":7592,"transformer":7593,"LIB":7594,"Region":7595,"Extra":7596,"dtypes":7597,"confidence":7598,"Ġsl":7599,"Ġowner":7600,"directories":7601,"TTING":7602,"txn":7603,"enterprise":7604,"Authorization":7605,"drive":7606,"estimate":7607,"CLIENT":7608,"WE":7609,"tan":7610,"sts":7611,"ctan":7612,"('$":7613,"(';":7614,"neur":7615,"heet":7616,"suggest":7617,"Ġspan":7618,"=[],":7619,"ĠInter":7620,"modify":7621,"highlight":7622,"79":7623,"BER":7624,"cen":7625,"ske":7626,"__),":7627,"INDE":7628,"spawn":7629,"ĠĠĠĠĠĠĠĠĠĠĠĠ":7630,"LES":7631,"symlink":7632,"Ġhelper":7633,"Ġcharacter":7634,"Predi":7635,"Ġ':'":7636,"Ġty":7637,"student":7638,"prt":7639,"pause":7640,"cles":7641,"Ġstarting":7642,"ldap":7643,"Ġsteps":7644,"Register":7645,"authorization":7646,"approx":7647,"'%(":7648,"Mapping":7649,"land":7650,"ridge":7651,"Ġcont":7652,"Ġcontrol":7653,"atal":7654,"define":7655,"decay":7656,"']('":7657,"Ġdriver":7658,"Ġhref":7659,"litude":7660,"generated":7661,"Ġapply":7662,"Attemp":7663,"TERN":7664,"Ġcloud":7665,"aggregation":7666,"Ġissue":7667,"Last":7668,"gather":7669,"trees":7670,"ely":7671,"isect":7672,"ĠAdd":7673,"\"]),":7674,"Ġbasestring":7675,"piece":7676,"sertionError":7677,"REQUEST":7678,"WORK":7679,"Ġloss":7680,"instruction":7681,"urnal":7682,"viation":7683,"='\\":7684,"repl":7685,"extracted":7686,"denom":7687,"cpus":7688,"instit":7689,"secure":7690,"networks":7691,"('\\\\":7692,"Space":7693,"dpi":7694,"lvl":7695,"Ġappend":7696,"inct":7697,"album":7698,"amb":7699,"Ġratio":7700,"Ġexample":7701,"itertools":7702,"facet":7703,"Ġcompleted":7704,"','')":7705,"velope":7706,"PASS":7707,"recipient":7708,"SL":7709,"åĪ":7710,"delim":7711,"ressions":7712,"matic":7713,"Ġhook":7714,"labi":7715,"imal":7716,"REGI":7717,"ĠAuth":7718,"Ġqs":7719,"Height":7720,"OPTIONS":7721,"mimetype":7722,"Ġreply":7723,"codon":7724,"!!":7725,".],":7726,"AME":7727,"Li":7728,"gd":7729,"Ġpeer":7730,"inx":7731,"Ġreset":7732,"{}`":7733,"Ġconv":7734,"positive":7735,"TRY":7736,"Processing":7737,"OUTPUT":7738,"human":7739,"Filename":7740,"Tri":7741,"xFF":7742,"aps":7743,"Ġnan":7744,"Ġslug":7745,"Ġbg":7746,"spl":7747,"cim":7748,"preferred":7749,"accepted":7750,"ORI":7751,"tmpdir":7752,"correction":7753,"nony":7754,"Ġinterpol":7755,"Ġ128":7756,"Ġoccur":7757,"/.":7758,"Mod":7759,"MIT":7760,"PH":7761,"Rate":7762,"ffi":7763,"fingerprint":7764,"gies":7765,"lbl":7766,"}_":7767,"Ġ\"__":7768,"Ġdetails":7769,"Protocol":7770,"lapse":7771,"products":7772,"flash":7773,"Checking":7774,"Socket":7775,"invoke":7776,"anisotropy":7777,"ĠTODO":7778,"Ġcandidate":7779,"cannot":7780,"dll":7781,"tbl":7782,"zA":7783,"zmq":7784,"toc":7785,"([-":7786,"')).":7787,"elems":7788,"organization":7789,"Bucket":7790,"ĠStringIO":7791,"Ġtake":7792,"unction":7793,"raft":7794,"vered":7795,"shif":7796,"Reading":7797,"Ġexperiment":7798,"Ġknown":7799,"conflict":7800,"marks":7801,"Ġacti":7802,"Ġnormal":7803,"APP":7804,"venance":7805,"Comment":7806,"Select":7807,"Ġclasses":7808,"oi":7809,"utable":7810,"Ġcwd":7811,"ignored":7812,"ointer":7813,"Ġvs":7814,"abf":7815,"handled":7816,"descr":7817,"waiting":7818,"ĠState":7819,"Wh":7820,"WID":7821,"];":7822,"Ġstmt":7823,"accuracy":7824,"Dialog":7825,"Ġregistered":7826,"Ġargparse":7827,"Ġpercent":7828,"preds":7829,"expiration":7830,"ENDPOINT":7831,"spark":7832,"Ġssl":7833,"acces":7834,"syl":7835,"beam":7836,"stripped":7837,"handles":7838,"individual":7839,"syntax":7840,"whitelist":7841,"########":7842,"uc":7843,"allen":7844,"tiles":7845,"Ġ\"#":7846,"Ġwal":7847,"Ġdecor":7848,"matcher":7849,"Ġbegin":7850,"ĠTable":7851,"azimuth":7852,"CREATE":7853,"Edge":7854,"II":7855,"NN":7856,"NULL":7857,"PT":7858,"egg":7859,"idle":7860,"subparsers":7861,"Report":7862,"ĠObject":7863,"ĠVer":7864,"Ġsimple":7865,"Ġsync":7866,"Nodes":7867,"duplicates":7868,"declar":7869,"07":7870,"68":7871,"Send":7872,"Sig":7873,"tolerance":7874,"intersect":7875,"cmdline":7876,"Ġ3600":7877,"certain":7878,"weekday":7879,"probability":7880,"Ġflatten":7881,"Counter":7882,"rating":7883,"alarm":7884,"umor":7885,"dof":7886,"ordering":7887,"Ġasyncio":7888,"chosen":7889,"Ġreading":7890,"('-',":7891,"Ġworking":7892,"IGNO":7893,"optimize":7894,"PRI":7895,"]._":7896,"dL":7897,"ech":7898,"fx":7899,"ners":7900,"Ġage":7901,"utter":7902,"('|":7903,"Ġ\"&":7904,"spice":7905,"\"]=":7906,"ĠDo":7907,"modul":7908,"URN":7909,"MAGE":7910,"Modi":7911,"ĠUp":7912,"Ġloader":7913,"Ġpipeline":7914,"Ġnegative":7915,"bill":7916,"dset":7917,"fout":7918,"hr":7919,"wv":7920,"ĠId":7921,"Ġbar":7922,"Ġdue":7923,"finalize":7924,"Exist":7925,"ARCH":7926,"Segment":7927,"LAB":7928,"voltage":7929,"MSG":7930,"Find":7931,"Sa":7932,"gau":7933,"already":7934,"Ġbold":7935,"pylab":7936,"Ġdims":7937,"icro":7938,"imported":7939,"Generator":7940,"92":7941,"93":7942,"]][":7943,"cu":7944,"evidence":7945,"rval":7946,"Ġlayout":7947,"Ġunder":7948,"explicit":7949,"(_(\"":7950,"Ġcourse":7951,"Ġminutes":7952,"vocation":7953,"elect":7954,"TRA":7955,"ĠCoun":7956,"ExecutionError":7957,"udf":7958,"chk":7959,"Ġsn":7960,"Ġsome":7961,"Ġfinished":7962,"ĠApp":7963,"Namespace":7964,"lats":7965,"Ġcoef":7966,"Ġprecision":7967,"ENV":7968,"ĠImport":7969,"Ġqueryset":7970,"Ġ'{:":7971,"TAG":7972,"********":7973,"verified":7974,"Expression":7975,"Ġpixel":7976,"alphabet":7977,"GROUP":7978,"42":7979,"CUR":7980,"eth":7981,"nrows":7982,"remainder":7983,"inser":7984,"stable":7985,"rough":7986,"Ġcent":7987,"wav":7988,"Ġargv":7989,"zonefile":7990,"LAY":7991,"observations":7992,"assigned":7993,"Allow":7994,"Trace":7995,"Ġrotation":7996,"Av":7997,"]})":7998,"dP":7999,"each":8000,"jj":8001,"wid":8002,"ĠLog":8003,"Ġvirtual":8004,"ĠValidationError":8005,"Ġcc":8006,"Ġrev":8007,"Ġhparams":8008,"Ġdigest":8009,"Ġattach":8010,"Member":8011,"Ġapplication":8012,"Ġvalidation":8013,"Ġ``":8014,"PROTO":8015,"Domain":8016,"Skipping":8017,"%%":8018,"=\",":8019,"Fir":8020,"Pe":8021,"Save":8022,"jvm":8023,"nex":8024,"pandas":8025,"vcs":8026,"datum":8027,"rendered":8028,"varname":8029,"Indi":8030,"Ġeps":8031,"Ġproblem":8032,"mething":8033,"years":8034,"tifications":8035,"NotFoundError":8036,"*',":8037,"2000":8038,"life":8039,"Ġ''),":8040,"Ġrepe":8041,"Ġymax":8042,"Ġexpect":8043,"META":8044,"errmsg":8045,"ticker":8046,"disabled":8047,"Ġcalculate":8048,"sphrase":8049,"rypto":8050,"Man":8051,"Tab":8052,"Util":8053,"fobj":8054,"gm":8055,"Ġtxt":8056,"((-":8057,"Ġprompt":8058,"Ġenabled":8059,"ĠBase":8060,"pkgs":8061,"correlation":8062,"Selection":8063,"Ġ\".\"":8064,"leton":8065,"Ġneighb":8066,"00000000":8067,"svc":8068,"shortcut":8069,"structions":8070,"Ġtrigger":8071,"/{}/":8072,")?":8073,"ball":8074,"bold":8075,"dos":8076,"ljust":8077,"unct":8078,"ummy":8079,"reports":8080,"{}\\":8081,"Ġvol":8082,"abstract":8083,"extractor":8084,"hardware":8085,"wheel":8086,"Cmd":8087,"yellow":8088,"unc":8089,"Ġden":8090,"Ġstage":8091,"filer":8092,"=\"\",":8093,"signing":8094,"LEN":8095,"addrs":8096,"Ġresid":8097,"ixin":8098,"secondary":8099,"Ġgenerator":8100,"ILD":8101,"Ġchannels":8102,"Use":8103,"gn":8104,"unused":8105,"spans":8106,"Ġhow":8107,"newline":8108,"feats":8109,"dbs":8110,"visitor":8111,"terminate":8112,"Cloud":8113,"ĠTemplate":8114,"adjacency":8115,"=\\":8116,"Day":8117,"Print":8118,"mysql":8119,"|\\":8120,"Ġfiltered":8121,"included":8122,"aring":8123,"titude":8124,"dia":8125,"Ġsk":8126,"minus":8127,"tempdir":8128,"weighted":8129,"FileName":8130,"Ġjust":8131,"TRAN":8132,"NOWN":8133,"dropout":8134,"SHA":8135,"issues":8136,"SIGN":8137,"Cluster":8138,"72":8139,"FE":8140,"dent":8141,"gre":8142,"was":8143,"water":8144,"ony":8145,"dialect":8146,"Ġ';":8147,"simp":8148,"METH":8149,"ouble":8150,"Ġglobals":8151,"versal":8152,"HTML":8153,"xdata":8154,"Ġfixed":8155,"Ġmedia":8156,"('^":8157,"Ġbig":8158,"replacement":8159,"Lock":8160,"masks":8161,"Ġ['-":8162,"foreign":8163,"grads":8164,"EVENT":8165,",-":8166,"pth":8167,"rfind":8168,"uest":8169,"('@":8170,"Ġ\"*":8171,"Ġcp":8172,"olved":8173,"ĠAc":8174,"errno":8175,"Ġcoeff":8176,"ĠGroup":8177,"MAIN":8178,"Ġcommands":8179,"Ġperm":8180,"Analysis":8181,"BytesIO":8182,"chromosome":8183,"Ġdetected":8184,"________":8185,"allenge":8186,"iam":8187,"zfill":8188,"ergy":8189,"heap":8190,"ffect":8191,"[\"_":8192,"acquire":8193,"Loop":8194,"Ġimportlib":8195,"DED":8196,"solid":8197,"Signature":8198,"ĠQtGui":8199,"folders":8200,"ĠAssertionError":8201,":(":8202,"Imp":8203,"Random":8204,"hop":8205,"leting":8206,"andi":8207,"uter":8208,"matmul":8209,"='/":8210,"agents":8211,"localhost":8212,"annotate":8213,"Ġusers":8214,"going":8215,"Ġdeploy":8216,"enums":8217,"Ġoptional":8218,"specimens":8219,"Category":8220,"odic":8221,"unded":8222,"Ġcertificate":8223,"imize":8224,"ONT":8225,"libs":8226,"Database":8227,":]]":8228,"ĠBu":8229,"Ġfunctools":8230,"fitness":8231,"Ġ[]).":8232,"Ġworker":8233,"requirement":8234,"Rows":8235,"circuit":8236,"Close":8237,"attempt":8238,"AST":8239,"Folder":8240,"MQ":8241,"sup":8242,"orbit":8243,"arctan":8244,"could":8245,"lio":8246,"problems":8247,"paired":8248,"unix":8249,"connector":8250,"ĠNO":8251,"cats":8252,"Ġmatched":8253,"visibility":8254,"Ġarea":8255,"slash":8256,"Ġsessions":8257,"detector":8258,"buffers":8259,"=='":8260,"SPE":8261,"loci":8262,"dirty":8263,"Ġdiag":8264,"Ġsee":8265,"Ġanaly":8266,"longest":8267,"creator":8268,"+)\\":8269,"CAS":8270,"llegal":8271,"wers":8272,"ä»":8273,"Ġri":8274,"Ġdraw":8275,"Ġdjango":8276,"Ġwant":8277,"persist":8278,"bolic":8279,"isters":8280,"{}]":8281,"(((":8282,"agger":8283,"123":8284,"forecast":8285,"('-')":8286,"Ġprimary":8287,"RF":8288,"Ġge":8289,"stan":8290,"adap":8291,"Ġssh":8292,"Ġsparse":8293,"molecule":8294,"startup":8295,"ERY":8296,"cepts":8297,"ENTI":8298,"tracks":8299,"attachments":8300,"Ġflux":8301,"Email":8302,"gal":8303,"Ġembed":8304,"Ġparsing":8305,"Ġoptimi":8306,"ĠBy":8307,"MAIL":8308,"999":8309,"mutations":8310,"through":8311,"ĠQuery":8312,">{":8313,"BIN":8314,"Body":8315,"_]":8316,"_{}'.":8317,"}},":8318,"Ġ),":8319,"Ġzeros":8320,"review":8321,"into":8322,"oring":8323,"ancer":8324,"baseline":8325,"indexed":8326,"Ġhi":8327,"Ġeig":8328,"camp":8329,"jectory":8330,"ĠDate":8331,"dename":8332,"My":8333,"etag":8334,"xticks":8335,"gered":8336,"coin":8337,"(''.":8338,"Ġsid":8339,"Remove":8340,"imer":8341,"trade":8342,"SETTING":8343,"dtuple":8344,"regexp":8345,"noring":8346,"Ġconnected":8347,"market":8348,"assembly":8349,"artifacts":8350,"(\",\")":8351,"jinja":8352,"ceed":8353,"ctr":8354,"touch":8355,"urllib":8356,"tribs":8357,"backward":8358,"Ġsegments":8359,"closure":8360,"centroid":8361,"dropna":8362,"ITS":8363,"stems":8364,"Headers":8365,"-'":8366,"gps":8367,"gons":8368,"Ġannotation":8369,"asm":8370,"ulating":8371,"Ġsure":8372,"motor":8373,"Ġaggreg":8374,"pref":8375,"{}\"":8376,"{},":8377,"variation":8378,"ĠDB":8379,"DIRECT":8380,"Ġ'_')":8381,"Ġsoup":8382,"Ġoverride":8383,"whitespace":8384,"MagRec":8385,"large":8386,"Writing":8387,"\"^":8388,"cas":8389,"à¸":8390,"atios":8391,"Ġborder":8392,"Ġ_('":8393,"Ġthere":8394,"Ġlw":8395,"IDs":8396,"Ġparen":8397,"azure":8398,"Extension":8399,"truncate":8400,"GRE":8401,"ays":8402,"marg":8403,"rier":8404,"exon":8405,"maker":8406,"procs":8407,"Ġactions":8408,"Ġrv":8409,"Ġprops":8410,"simulation":8411,"mitted":8412,"cards":8413,"authorized":8414,"imshow":8415,"attempts":8416,"ĠToken":8417,"$\",":8418,"MAC":8419,"lev":8420,"peg":8421,"Ġpower":8422,"nomi":8423,"addHandler":8424,"dirpath":8425,"amic":8426,"scenario":8427,"istic":8428,"compiled":8429,"ĠEvent":8430,"suite":8431,"posts":8432,"Ġsources":8433,"Ġinstances":8434,"Ġmodules":8435,"Ġsince":8436,"Ġmatplotlib":8437,"Ġdifferent":8438,"ISO":8439,"MUL":8440,"lng":8441,"rsp":8442,"yr":8443,"ads":8444,"['--":8445,"Errors":8446,"Ġrand":8447,"clicked":8448,"ĠTask":8449,"Ġcurve":8450,"ĠVM":8451,"ĠConnection":8452,"Ġtraining":8453,"proxies":8454,"Git":8455,"ial":8456,"jwt":8457,"zing":8458,"reject":8459,"Ġ18":8460,"quare":8461,"Ġ:],":8462,"[:,:,":8463,"suppress":8464,",**":8465,"73":8466,";\\":8467,"=('":8468,"FUN":8469,"Finished":8470,"bid":8471,"lect":8472,"Ġpretty":8473,"Ġamp":8474,"tokenize":8475,"Ġminimum":8476,"Security":8477,"Ġlocale":8478,"ĠResource":8479,"Ġfragment":8480,"Controller":8481,"translations":8482,"Utils":8483,"curl":8484,"Ġta":8485,"onto":8486,"Ġrs":8487,"populate":8488,"ĠGraph":8489,"corner":8490,"FIL":8491,"}\"'.":8492,"Ġprocessing":8493,"footer":8494,"ĠServer":8495,"Axis":8496,"?')":8497,"Cho":8498,"GEN":8499,"RC":8500,"WR":8501,"]\"]":8502,"ections":8503,"hh":8504,"Ġarch":8505,"uris":8506,"lis":8507,"probe":8508,"Ġhit":8509,"Inf":8510,"Ġori":8511,"ĠSCons":8512,"daily":8513,"firmware":8514,"Ġattemp":8515,"ailabi":8516,"Ġdistribution":8517,"epochs":8518,"ORDER":8519,"Br":8520,"Zip":8521,"è¯":8522,"Ġfore":8523,"Ġcut":8524,"rend":8525,"Ġwi":8526,"preprocess":8527,"ĠSalt":8528,"sessions":8529,"quotes":8530,"Ġlibxml":8531,"eigen":8532,"ĠOperation":8533,"ĠCheck":8534,"ambda":8535,",(":8536,"BL":8537,"Ġarc":8538,"inject":8539,"stub":8540,"tet":8541,"sphere":8542,"linewidth":8543,"Ġ{}))":8544,"minal":8545,"cases":8546,"Ġprob":8547,"Ġcost":8548,"ĠOS":8549,"opener":8550,"Ġreturns":8551,"radii":8552,"snr":8553,"Byte":8554,"slc":8555,"Accept":8556,"sdk":8557,"visual":8558,">'.":8559,"Custom":8560,"hub":8561,"ied":8562,"Ġsentence":8563,"Ġinc":8564,"setEnabled":8565,"verts":8566,"quit":8567,"hest":8568,"userid":8569,"refer":8570,"posix":8571,"saltenv":8572,"spectrum":8573,"Ġgenerated":8574,"Ġbinascii":8575,"('_',":8576,"consumed":8577,"Basic":8578,".{":8579,"DX":8580,"Gate":8581,"Score":8582,"hc":8583,"nk":8584,"weld":8585,"urations":8586,"('~":8587,"Ġplease":8588,"ighest":8589,"both":8590,"Ġrc":8591,"cion":8592,"Ġlc":8593,"mitive":8594,"deno":8595,"Ġ`{}`":8596,"tensors":8597,"Ġdays":8598,"deltas":8599,".))":8600,"/')":8601,"AWS":8602,"FN":8603,"MAN":8604,"SV":8605,"above":8606,"cand":8607,"iro":8608,"pval":8609,"Ġpf":8610,"Ġvmax":8611,"plural":8612,"Dete":8613,"Ġnoise":8614,"effective":8615,"Ġsock":8616,"Ġcharacters":8617,"DateTime":8618,"Temporary":8619,"('=')":8620,"Zone":8621,"bright":8622,"hunt":8623,"Ġurlencode":8624,"Ġ:])":8625,"ĠPO":8626,"ĠAl":8627,"LOCAL":8628,"Expr":8629,"Ġalgorithm":8630,"Contents":8631,"Ġstdin":8632,"Ġcoordinates":8633,"deployment":8634,"migration":8635,"confirm":8636,"capitalize":8637,"Virtual":8638,"WH":8639,"dg":8640,"gates":8641,"passed":8642,"semble":8643,"inet":8644,"Ġinsert":8645,"Ġgzip":8646,"libspice":8647,"explo":8648,"pkl":8649,"fullpath":8650,"answers":8651,"Ġ500":8652,"membership":8653,"Ġblocks":8654,"legate":8655,"Left":8656,"tilde":8657,"Ġskipping":8658,"FFFFFFFF":8659,"ancestor":8660,"512":8661,"Cap":8662,"Red":8663,"pst":8664,"qt":8665,"leader":8666,"Ġsr":8667,"Ġ[{":8668,"bag":8669,"Ġgithub":8670,"omy":8671,"Ġproba":8672,"phenotype":8673,"emails":8674,"Ġmachine":8675,"MODU":8676,"Annot":8677,"Authentication":8678,"ArgumentParser":8679,"CLO":8680,"kk":8681,"Ġlike":8682,"Ġidentity":8683,"Ġfits":8684,"decompress":8685,"anc":8686,"cour":8687,"ellip":8688,"excluded":8689,"moun":8690,"Ġfrozenset":8691,"mentation":8692,"Ġtw":8693,"Ġstatic":8694,"Ġiso":8695,"below":8696,"transforms":8697,"emu":8698,"Ġdocker":8699,"Encoding":8700,"skipped":8701,"Removing":8702,"listeners":8703,"Ġmismatch":8704,"Ġdetermine":8705,"toggle":8706,"={}\".":8707,">\")":8708,"SCHE":8709,"gri":8710,"kappa":8711,"ndims":8712,"inplace":8713,"stick":8714,"study":8715,"alf":8716,"Ġops":8717,"ĠRo":8718,"Ġcookie":8719,"Provider":8720,"Properties":8721,"markdown":8722,"fillna":8723,"CONF":8724,"smtp":8725,"Ġbackup":8726,"ĠElementTree":8727,"!\".":8728,"*\\":8729,"?\"":8730,"Lines":8731,"bt":8732,"catch":8733,"nf":8734,"uoa":8735,"metry":8736,"lick":8737,"providers":8738,"Ġwave":8739,"Ġwarning":8740,"validated":8741,"Ġexact":8742,"ĠTag":8743,"]+)":8744,"Ġscores":8745,"Ġexecution":8746,"invoice":8747,"================":8748,"dashboard":8749,"participant":8750,"ĠNumber":8751,"-',":8752,"09":8753,"Fra":8754,"Go":8755,"Off":8756,"]**":8757,"ama":8758,"zf":8759,"coerce":8760,"getAttribute":8761,"Ġbs":8762,"minions":8763,"Ġdisc":8764,"graphic":8765,"realm":8766,"includes":8767,"Couldn":8768,"Analy":8769,"ghts":8770,"cumulative":8771,"evt":8772,"Multiple":8773,"plaintext":8774,"ĠCounter":8775,"Ig":8776,"vendor":8777,"æľ":8778,"stype":8779,"rols":8780,"asn":8781,"popleft":8782,"Ġ\\'%":8783,"Ġindexes":8784,"Chain":8785,"specification":8786,"grammar":8787,"Ġneeded":8788,"fetchall":8789,"Ġchunks":8790,"Ġpackages":8791,"Consts":8792,"blueprint":8793,"={},":8794,"EVT":8795,"'')":8796,"IMAGE":8797,"sweep":8798,"}_{":8799,"Ġlin":8800,"relu":8801,"listing":8802,"subdir":8803,"ipt":8804,"Ġalways":8805,"Ġ80":8806,"Ġface":8807,"Ġconstants":8808,"classifier":8809,"integration":8810,"Connect":8811,"Certificate":8812,"ization":8813,"pdu":8814,"sch":8815,"Ġ())":8816,"Ġtau":8817,"Ġ\"\").":8818,"__]":8819,"Ġrr":8820,"Ġgate":8821,"fee":8822,"ĠSyn":8823,"sensitive":8824,"../":8825,"ĠĠĠĠĠĠĠĠĠĠĠĠĠ":8826,"blocking":8827,"energies":8828,"misc":8829,"Ġappro":8830,"ensembl":8831,"composite":8832,"Ġchoices":8833,"ĠCommandExecutionError":8834,"Normal":8835,"Ġvocab":8836,"Updating":8837,"Ġduring":8838,"sibling":8839,";\"":8840,"Sending":8841,"][:,":8842,"qc":8843,"qr":8844,"tics":8845,"cture":8846,"foot":8847,"compatible":8848,"groupdict":8849,"bib":8850,"Ġcompile":8851,"votes":8852,"CONNE":8853,"months":8854,"wiki":8855,"Endpoint":8856,"Ġsurname":8857,"Term":8858,"First":8859,"+(":8860,"+'.":8861,"47":8862,"Cy":8863,"SB":8864,"ao":8865,"credential":8866,"rpm":8867,"arp":8868,"Ġnc":8869,"lazy":8870,"pathname":8871,"Ġfh":8872,"Ġfrequency":8873,"cial":8874,"INET":8875,"Named":8876,"ĠNet":8877,"Proto":8878,"toolbar":8879,"escaped":8880,"nowled":8881,"passwd":8882,"ASH":8883,"fications":8884,"Failure":8885,"CATE":8886,"Done":8887,"Flow":8888,"Gen":8889,"Wrong":8890,"bw":8891,"ancy":8892,"liers":8893,"filesystem":8894,"boost":8895,"itemgetter":8896,"LOB":8897,"Ġminor":8898,"Ġmethods":8899,"NAMES":8900,"Ġless":8901,"rained":8902,"adjusted":8903,"('/')[-":8904,"ĠParse":8905,"Ġfigsize":8906,"deferred":8907,"->":8908,"67":8909,"][:":8910,"Ġ],":8911,"reactor":8912,"lims":8913,"mach":8914,"mous":8915,"Ġ([":8916,"Ġva":8917,"colorbar":8918,"Console":8919,"posterior":8920,"Ġboto":8921,"coefficients":8922,"migr":8923,"Serializer":8924,"Ġseparator":8925,"UNKNOWN":8926,"LABEL":8927,"FL":8928,"FFIX":8929,"MD":8930,"NC":8931,"Show":8932,"wk":8933,"yticks":8934,"reindex":8935,"tilt":8936,"lout":8937,"Ġnargs":8938,"rices":8939,"mpy":8940,"Ġ\"[":8941,"Ġmar":8942,"writing":8943,"ĠSh":8944,"scriptions":8945,"schemas":8946,"://%":8947,"shake":8948,"Ġrules":8949,"('{}:":8950,"ctrlpts":8951,"Ġepsilon":8952,"Ġaudio":8953,"Install":8954,"MB":8955,"cg":8956,"vr":8957,"xl":8958,"inherit":8959,"cope":8960,"servation":8961,"Ġfree":8962,"Ġmk":8963,"Redirect":8964,"ĠSE":8965,"=\"{":8966,"Engine":8967,"overall":8968,"ĠUse":8969,"Ġtables":8970,"PATTERN":8971,"diagonal":8972,"wallet":8973,"sanitize":8974,"Origin":8975,")[:,":8976,"52":8977,"eg":8978,"fwd":8979,"tumor":8980,"rete":8981,"provenance":8982,"shadow":8983,"Ġaff":8984,"linesep":8985,"permutation":8986,"joined":8987,"Recs":8988,"ĠScale":8989,"MPLE":8990,"secrets":8991,"alleles":8992,"Ġadmin":8993,"Signal":8994,"ibrary":8995,"contiguous":8996,"DC":8997,"Part":8998,"Ts":8999,"don":9000,"Ġcomm":9001,"ges":9002,"forum":9003,"pole":9004,"visions":9005,"Ġtt":9006,"boto":9007,"Ġrgb":9008,"wavelength":9009,"errs":9010,"ĠOne":9011,"KET":9012,"(',',":9013,"journal":9014,"Ġbias":9015,"mirror":9016,"Double":9017,"ji":9018,"Ġdirname":9019,"unwrap":9020,"mock":9021,"fileName":9022,"Ġadata":9023,"Required":9024,"([],":9025,"ĠEX":9026,"Def":9027,"generation":9028,"ĠLine":9029,"flows":9030,"modifier":9031,"SERVICE":9032,"affine":9033,"circle":9034,"contacts":9035,"?',":9036,"IME":9037,"bf":9038,"hl":9039,"rsa":9040,"sas":9041,"inator":9042,"sized":9043,"Ġschedule":9044,"upy":9045,"moves":9046,"Ġclear":9047,"observer":9048,"rength":9049,"etas":9050,"Integer":9051,"ĠSign":9052,"Entity":9053,"Ġspli":9054,"ĠReg":9055,"THON":9056,"}'\".":9057,"Ġcharset":9058,"(':')[":9059,"alizing":9060,"principal":9061,"ĠContent":9062,"\")))":9063,"'<":9064,"DP":9065,"UES":9066,"hull":9067,"once":9068,"()[:":9069,"too":9070,"cairo":9071,"derived":9072,"Ġcov":9073,"Progress":9074,"ĠWeb":9075,"Datetime":9076,"Ġexecute":9077,"hic":9078,"}`":9079,"Ġmagic":9080,"tesian":9081,"Ġcirc":9082,"isnull":9083,"Ġwrapper":9084,"prec":9085,"subdomain":9086,"hole":9087,"transcripts":9088,"latin":9089,"ĠĠĠĠĠĠĠĠĠĠĠĠĠĠ":9090,"Ġmac":9091,"ĠInput":9092,")**(":9093,"Perm":9094,"UPDATE":9095,"scipy":9096,"ĠThread":9097,"Counts":9098,"ancestors":9099,"friend":9100,"89":9101,"brain":9102,"nbr":9103,"Ġgeometry":9104,"sex":9105,"uess":9106,"silent":9107,"ramid":9108,"moving":9109,"Ġaux":9110,"Ġhdr":9111,"authentication":9112,"suc":9113,"Environment":9114,"Ġfunctions":9115,"coordinate":9116,"impact":9117,"ByName":9118,"gpg":9119,"Ġavg":9120,"havi":9121,"protected":9122,"Ġpairs":9123,"Ġcycle":9124,"Ġprocessed":9125,"ailability":9126,"43":9127,"RM":9128,"VO":9129,"]\")":9130,"atis":9131,"Ġfo":9132,"Ġderi":9133,"Init":9134,"Ġconcat":9135,"anning":9136,"ĠTra":9137,"uniq":9138,"angular":9139,"envs":9140,"Ġnumeric":9141,"mux":9142,"Ġprior":9143,"Ġmultip":9144,"REQUI":9145,"tunnel":9146,"Summary":9147,"$'":9148,"-')":9149,"LF":9150,"dV":9151,"gw":9152,"attribs":9153,"alformed":9154,"sifier":9155,"vect":9156,"heartbeat":9157,"Ġtopo":9158,"Ġalle":9159,"127":9160,"DIS":9161,"aug":9162,"elevation":9163,"documents":9164,"DOWN":9165,"Events":9166,"embedded":9167,"Ġevalu":9168,"quadr":9169,"discovery":9170,"Bl":9171,"Comm":9172,"GT":9173,"HH":9174,"Period":9175,"_))":9176,"burn":9177,"ctivity":9178,"dark":9179,"mdata":9180,"sease":9181,"anted":9182,"setter":9183,"Ġcr":9184,"vest":9185,"Ġtup":9186,"Ġsecurity":9187,"ĠOut":9188,"Ġ'\\\\":9189,"Ġpositions":9190,"capabilities":9191,"Ġchecksum":9192,"\\\\\\":9193,"Public":9194,"ĠImportError":9195,"MULTI":9196,"10000":9197,"Drop":9198,"Full":9199,"Fetch":9200,"Wal":9201,"WIN":9202,"drag":9203,"covery":9204,"mpls":9205,"Ġsnapshot":9206,"Ġcrop":9207,"Ġdeprecated":9208,"ĠSP":9209,"ĠAND":9210,"ResRec":9211,"LIMIT":9212,"Ġwhat":9213,"gaps":9214,"completer":9215,"Geometry":9216,"Ġfailure":9217,"genotype":9218,"TemporaryFile":9219,"Main":9220,"TAR":9221,"UUID":9222,"ju":9223,"nado":9224,"pkey":9225,"conns":9226,"Ġny":9227,"Ġii":9228,"Ġfamily":9229,"Ġ19":9230,"validators":9231,"abc":9232,"traverse":9233,"distinct":9234,"Ġzoom":9235,"stops":9236,"FFER":9237,"Ġ[\"--":9238,"Ġiteration":9239,"backends":9240,"thresholds":9241,"expired":9242,"CONTENT":9243,"57":9244,"Driver":9245,"RR":9246,"uids":9247,"Ġcells":9248,"inference":9249,"stdev":9250,"oral":9251,"leaves":9252,"Ġnative":9253,"rit":9254,"setFormatter":9255,"Ġ[{'":9256,"])/":9257,"isin":9258,"erson":9259,"Ġho":9260,"Ġxi":9261,"fieldname":9262,"replic":9263,"tokenizer":9264,"irth":9265,"ARD":9266,"anchors":9267,"subjects":9268,"Downloading":9269,"prune":9270,"comparison":9271,"nomial":9272,"courses":9273,"bm":9274,"bgp":9275,"dna":9276,"kn":9277,"tv":9278,"æĸ":9279,"revo":9280,"ented":9281,"coo":9282,"elf":9283,"Ġcreating":9284,"ssue":9285,"propa":9286,"Ġhidden":9287,"Ġxs":9288,"anced":9289,"alibr":9290,"Ġlinewidth":9291,"(*[":9292,"ĠVari":9293,"crete":9294,"patches":9295,"Ġ\"-\"":9296,"RECASE":9297,"SampRec":9298,"IGNORECASE":9299,"={}'.":9300,"NET":9301,"WT":9302,"pul":9303,"arse":9304,"conut":9305,"Ġnor":9306,"Ġinv":9307,"ullable":9308,"outh":9309,"proof":9310,"clr":9311,"Ġtol":9312,"__')":9313,"REAM":9314,"ĠPoint":9315,"hasher":9316,"ĠXML":9317,"Ġwhite":9318,"Ġpriority":9319,"rollment":9320,"residual":9321,"Variant":9322,"recurse":9323,"coefs":9324,"relev":9325,"Ġintegr":9326,"'|'":9327,"gff":9328,"alette":9329,"opcode":9330,"Ġclip":9331,"Ġ{{":9332,"notifications":9333,"painter":9334,"scp":9335,"iteral":9336,"hashed":9337,"Ġ\\'":9338,"Too":9339,"ough":9340,"fetchone":9341,"assignments":9342,"Ġdisabled":9343,"recipients":9344,"similarity":9345,"Pop":9346,"RN":9347,"Runtime":9348,"Scale":9349,"ĠValue":9350,"Ġservices":9351,"Ġsigned":9352,"ales":9353,"colored":9354,"']})":9355,"Ġbp":9356,"Ġband":9357,"heat":9358,"subtree":9359,"tagged":9360,"RENT":9361,"Ġspect":9362,"Ġmaybe":9363,"failures":9364,"publisher":9365,"INDEX":9366,"PASSWORD":9367,"Http":9368,"WI":9369,"ran":9370,"Ġcontroller":9371,"Ġ=>":9372,"invert":9373,"motion":9374,"Ġcs":9375,"Inv":9376,"soap":9377,"ĠOpen":9378,"audit":9379,"ĠDecimal":9380,"Ġfraction":9381,"cidr":9382,"softmax":9383,"Successfully":9384,"'[":9385,"ology":9386,"Ġer":9387,"Ġcontract":9388,"incoming":9389,"atlas":9390,"leave":9391,"ulari":9392,"olation":9393,"])*":9394,"isfile":9395,"Ġmtf":9396,"Insert":9397,"replica":9398,"phrase":9399,"ĠPoly":9400,"})'.":9401,"pename":9402,"ĠDefault":9403,"builtin":9404,"Metrics":9405,"Ġstored":9406,"alogs":9407,"Cre":9408,"frozen":9409,"punct":9410,"))*":9411,"))),":9412,"viz":9413,"Ġsubnet":9414,"Ġhosts":9415,"seeds":9416,")+'":9417,"Price":9418,"trimmed":9419,"Remote":9420,"fqdn":9421,"releases":9422,"Ġwritten":9423,"'(?":9424,"53":9425,"UST":9426,"WD":9427,"[['":9428,"bat":9429,"jav":9430,"}-{":9431,"celer":9432,"divide":9433,"Ġosp":9434,"beg":9435,"Ġkv":9436,"Ġnumbers":9437,"searchsorted":9438,"Definition":9439,"periments":9440,"fragments":9441,"Ġboot":9442,"bytearray":9443,"Ġrefresh":9444,"triple":9445,"Ġsmall":9446,"prepend":9447,"snps":9448,"Month":9449,"Trying":9450,"interpreter":9451,"\"')":9452,"vot":9453,"recs":9454,"Ġ'@":9455,"sities":9456,"Ġndim":9457,"strument":9458,"tsv":9459,"shp":9460,"ambig":9461,"say":9462,"phan":9463,"REL":9464,"Ġlst":9465,"anguage":9466,"ĠNOT":9467,"ĠRet":9468,"Ġretrieve":9469,"MOD":9470,"Ġadapter":9471,"gaussian":9472,"Ġmerged":9473,"Ġserial":9474,"nvml":9475,"Ġflask":9476,"Ġ\"{}\"'.":9477,"49":9478,"Agg":9479,"CER":9480,"Ip":9481,"RDF":9482,"yml":9483,"Ġus":9484,"contexts":9485,"Ġnone":9486,"Ġpp":9487,"Ġcar":9488,"provision":9489,"shards":9490,"ages":9491,"osid":9492,"Ġdescrip":9493,"Ġexternal":9494,"locus":9495,"ATCH":9496,"Ġlvl":9497,"aging":9498,"levelname":9499,"Ġminute":9500,"characters":9501,"Arn":9502,"Ġqub":9503,"Ġcurrently":9504,"Ġfasta":9505,"Checked":9506,"ensemble":9507,"COMMAND":9508,"ĠFieldType":9509,"Display":9510,"*')":9511,">=":9512,"EK":9513,"Ti":9514,"iri":9515,"qname":9516,"Ġ])":9517,"Ġlook":9518,"reserved":9519,"inel":9520,"meter":9521,"always":9522,"uns":9523,"Ġpol":9524,"Ġpip":9525,"datacenter":9526,"Ġaz":9527,"fab":9528,"())]":9529,"pio":9530,"Ġdig":9531,"Ġkm":9532,"utiful":9533,"Std":9534,"...\"":9535,"Ġinterp":9536,"}.'.":9537,"claims":9538,"interest":9539,"Ġsymbols":9540,"300":9541,"Packet":9542,"Right":9543,"nz":9544,"vy":9545,"onic":9546,"stemp":9547,"leading":9548,"valent":9549,"Ġpb":9550,"Ġpow":9551,"mote":9552,"timetuple":9553,"maxsize":9554,"cheduler":9555,"Ġcodecs":9556,"ĠDataset":9557,"('_')":9558,"Ġtrim":9559,"Labels":9560,"squared":9561,"dispatcher":9562,"paragraph":9563,"occup":9564,"Draw":9565,"srs":9566,"yi":9567,"Ġusage":9568,"Ġtyp":9569,"moo":9570,"chemy":9571,"reporter":9572,"interactive":9573,"ĠPer":9574,"Unrecognized":9575,"hello":9576,"Ġencoder":9577,"Product":9578,"Parsing":9579,"Notification":9580,"CONSTAN":9581,"inish":9582,"gradients":9583,"triggered":9584,"<<":9585,"Mixin":9586,"YY":9587,"banner":9588,"hints":9589,"Ġed":9590,"instructions":9591,"envelope":9592,"Ġ')[":9593,"resume":9594,"thick":9595,"Ġbundle":9596,"Ġcapt":9597,"Ġrhs":9598,"fieldnames":9599,"Ġordered":9600,"statuses":9601,"normals":9602,"ENCE":9603,"Ġwithin":9604,"seqid":9605,"ĠWork":9606,"Ġstatement":9607,"Ġ'{}.":9608,"Metric":9609,"Ġnested":9610,"ĠScaleType":9611,"Area":9612,"bidden":9613,"dtemp":9614,"har":9615,"ratios":9616,"utions":9617,"Ġselector":9618,"tee":9619,"chans":9620,"Ġ'(":9621,"utation":9622,"ulary":9623,"loglevel":9624,"outine":9625,"copyfile":9626,"Export":9627,"areas":9628,"Ġ'-')":9629,"ĠĠĠĠĠĠĠĠĠĠĠĠĠĠĠĠĠĠĠĠĠĠĠĠĠĠĠĠĠĠĠĠ":9630,"Ġframes":9631,"interpolate":9632,"directive":9633,"delivery":9634,"treatment":9635,"WIDTH":9636,"FILTER":9637,"moothing":9638,"EMAIL":9639,"LANG":9640,"bd":9641,"osition":9642,"xn":9643,"ãģ":9644,"Ġsel":9645,"Ġcountry":9646,"atar":9647,"Ġna":9648,"ĠPre":9649,"SECRE":9650,"ĠBlock":9651,"])),":9652,"these":9653,"aker":9654,"medium":9655,"Objects":9656,"Acti":9657,"Ġ\"_\"":9658,"Ġinitialized":9659,"Operator":9660,"riteria":9661,"[^\\":9662,"ĠSystem":9663,"Partition":9664,"wildcard":9665,"denominator":9666,"ydata":9667,"Ġsensor":9668,"online":9669,"determin":9670,"(\"=":9671,"Ġscreen":9672,"Ġcm":9673,"Ġ17":9674,"precation":9675,"ĠSkip":9676,"gence":9677,"rcParams":9678,"ĠGener":9679,"TRI":9680,"Maximum":9681,"bracket":9682,"interpolation":9683,"middleware":9684,"Ġmiddle":9685,"\"},":9686,"+')":9687,".-":9688,"Bits":9689,"`,":9690,"`\")":9691,"mute":9692,"Ġidenti":9693,"tein":9694,"Ġnm":9695,"logo":9696,"Ġfallback":9697,"ordinal":9698,"{}:":9699,"weather":9700,"STER":9701,"structures":9702,"initialized":9703,"amplitude":9704,"'}},":9705,"Ġlongitude":9706,"ategories":9707,"SUFFIX":9708,"holders":9709,"futures":9710,"PROTOCOL":9711,"[@":9712,"ae":9713,"vz":9714,"wit":9715,"ĠUnknown":9716,"covar":9717,"unquote":9718,"exclusive":9719,"Ġ[]}":9720,"Release":9721,"checkout":9722,"traffic":9723,"STREAM":9724,"Ġshare":9725,"vote":9726,"organis":9727,"Operations":9728,"PyCdlibInvalid":9729,"campaign":9730,"59":9731,"EMP":9732,"PAGE":9733,"RPC":9734,"Sim":9735,"TCP":9736,"[('":9737,"].__":9738,"_('":9739,"aussian":9740,"emb":9741,"hed":9742,"patient":9743,"Ġlayers":9744,"Ġvideo":9745,"))/":9746,"toks":9747,"excel":9748,"prov":9749,"Ġaverage":9750,"indptr":9751,"Ġymin":9752,"REMO":9753,"Conv":9754,"Ġln":9755,"trail":9756,"\":\"":9757,"Prop":9758,"Ġconfigured":9759,"erical":9760,"Getting":9761,"Ġformatter":9762,"Ġversions":9763,"quota":9764,"rgba":9765,"Ġjobs":9766,"Registry":9767,"FORM":9768,"Simple":9769,"pmagplotlib":9770,"ĠColumn":9771,"Split":9772,"Geo":9773,"PARAMS":9774,"institute":9775,"*'":9776,"GING":9777,"TM":9778,"hm":9779,"jected":9780,"npy":9781,"wc":9782,"xffff":9783,"Ġverbosity":9784,"stations":9785,"unsigned":9786,"Ġnt":9787,"Ġinternal":9788,"upstream":9789,"Ġfc":9790,"truth":9791,"pare":9792,"reddit":9793,"='{":9794,"ĠAny":9795,"TypeError":9796,"Ġenable":9797,"Deleting":9798,"ToString":9799,"...'":9800,"stopped":9801,"Move":9802,"Ġ','":9803,"descend":9804,"Ġaccept":9805,"Ġzipfile":9806,"costs":9807,"Waiting":9808,"Lookup":9809,"MODULE":9810,"$')":9811,"dget":9812,"hz":9813,"nside":9814,"spar":9815,"xref":9816,"tides":9817,"Ġ'</":9818,"Ġ'\"'":9819,"('!":9820,"rash":9821,"']:":9822,"exts":9823,"Ġtok":9824,"Enable":9825,"chunksize":9826,"bars":9827,"Ġsizes":9828,"Ġ[\"-":9829,"Ġpermission":9830,"DOUT":9831,"KEYS":9832,"Ġprice":9833,"QUERY":9834,"Ġadditional":9835,"IGN":9836,"Sync":9837,"Permission":9838,"residuals":9839,"Private":9840,"Ġalignment":9841,"ĠService":9842,"ĠIndexError":9843,"TARGET":9844,"Ġdescriptor":9845,"82":9846,"aid":9847,"fron":9848,"hmm":9849,"tap":9850,"deprecated":9851,"Ġpanel":9852,"Ġsol":9853,"moti":9854,"Ġcum":9855,"illa":9856,"imgs":9857,"'],\\":9858,"IDE":9859,"expressions":9860,"snip":9861,"TERM":9862,"BUFFER":9863,"convers":9864,"scheduled":9865,"Soup":9866,"material":9867,"Ġoccurred":9868,"AU":9869,"Bus":9870,"Lib":9871,"dz":9872,"fk":9873,"xls":9874,"zzy":9875,"Ġlimits":9876,"covariance":9877,"Ġdns":9878,"Ġxrange":9879,"Ġocc":9880,"Ġconversion":9881,"ATURE":9882,"ĠAd":9883,"Ġkeywords":9884,"Ġenergy":9885,"Ġshared":9886,"Ġmost":9887,"Ġ`{":9888,"continuous":9889,"Ġdependencies":9890,"\"',":9891,"Clean":9892,"SW":9893,"dq":9894,"fnames":9895,"kargs":9896,"ming":9897,"nw":9898,"âĢ":9899,"Ġtick":9900,"coup":9901,"Ġpg":9902,"Ġmig":9903,"Ġdpi":9904,"extents":9905,"configured":9906,"Ġestim":9907,"Ġcond":9908,"classpath":9909,"annotated":9910,"Ġmeans":9911,"affected":9912,"Ġgenome":9913,"microsecond":9914,"probabilities":9915,"Ġrecipi":9916,"-(":9917,"CY":9918,"ILED":9919,"]*(":9920,"ftype":9921,"uli":9922,"udio":9923,"Ġtransition":9924,"ceble":9925,"Ġiprot":9926,"Ġsd":9927,"Ġsmooth":9928,"Ġrevision":9929,"called":9930,"packets":9931,"Ġrng":9932,"Ġxmin":9933,"ĠSeries":9934,"Ġseen":9935,"translated":9936,"binned":9937,"Example":9938,"ĠFailed":9939,"viewer":9940,"Ġcompress":9941,"POINTER":9942,"Ġarrays":9943,"successors":9944,"Ġwaiting":9945,"Ġwrapped":9946,"slave":9947,".])":9948,"Bot":9949,"PK":9950,"bly":9951,"challenge":9952,"undat":9953,"trunk":9954,"vities":9955,"isdir":9956,"preference":9957,"registers":9958,"lications":9959,"ĠĠĠĠĠĠĠĠĠĠĠĠĠĠĠ":9960,"ORM":9961,"Ġnothing":9962,"Ġresolved":9963,"Ġweek":9964,"Ġformatted":9965,"Addr":9966,"Adapter":9967,"Ġoverlap":9968,"6666":9969,"ĠResult":9970,"Assign":9971,"tweet":9972,"Fixed":9973,"gf":9974,"have":9975,"srv":9976,"usion":9977,"à¯":9978,"amel":9979,"cex":9980,"Ġpc":9981,"serv":9982,"trl":9983,"Ġec":9984,"ĠClo":9985,"Ġcontact":9986,"dyn":9987,"Identity":9988,"Ġunexpected":9989,"POSI":9990,"svd":9991,"Funceble":9992,"Validator":9993,"chanis":9994,"ĠQtCore":9995,"MeasRec":9996,"SECRET":9997,"BV":9998,"CCESS":9999,"HIG":10000,"pseudo":10001,"ĠERROR":10002,"()[-":10003,"getElements":10004,"Ġsan":10005,"Ġ-(":10006,"orting":10007,"prj":10008,"Conf":10009,"processors":10010,"Ġcover":10011,"ANN":10012,"ĠIf":10013,"Ġ'/')":10014,"afka":10015,"pools":10016,"NODE":10017,"Constants":10018,"descriptors":10019,"rieved":10020,"Generating":10021,"ĠOperators":10022,"NUMBER":10023,"authenticate":10024,"Ġhours":10025,"ĠVersion":10026,"Ġorient":10027,"nowledge":10028,">\",":10029,"Center":10030,"DY":10031,"Gene":10032,"Train":10033,"lx":10034,"Ġdirs":10035,"getsize":10036,"rast":10037,"Ġnn":10038,"asa":10039,"asked":10040,"Ġpotential":10041,"(\"\")":10042,"Ġsolution":10043,"setValue":10044,"Ġ10000":10045,"propos":10046,"collapse":10047,"addCallback":10048,"commits":10049,"hostport":10050,"Ġasy":10051,"ĠGu":10052,"ACTION":10053,"TEST":10054,"ĠQueue":10055,"NAMESPACE":10056,"flask":10057,"Ġ...]":10058,"lcdict":10059,"(\".\")[":10060,"History":10061,"Ġdigits":10062,"Ass":10063,"Fn":10064,"Press":10065,"agen":10066,"bash":10067,"rw":10068,"tg":10069,"endian":10070,"retch":10071,"raints":10072,"Ġ\"(":10073,"Ġbb":10074,"Ġdc":10075,"Ġws":10076,"Ġhome":10077,"splitted":10078,"ecc":10079,"tracer":10080,"ĠMAX":10081,"quisition":10082,"Star":10083,"ĠForm":10084,"DEF":10085,"ĠHT":10086,"ĠHe":10087,"Ġresolution":10088,"SSH":10089,"Ġiterations":10090,"limited":10091,"Ġbuilder":10092,"flds":10093,"transit":10094,"Backend":10095,"Ġblue":10096,"Ġswitch":10097,"Polygon":10098,"Ġdependency":10099,"datasource":10100,"utifulSoup":10101,"?\")":10102,"Sm":10103,"WRI":10104,"eid":10105,"eper":10106,"east":10107,"gres":10108,"mate":10109,"ences":10110,"getitem":10111,"ups":10112,"vie":10113,"Ġmargin":10114,"Ġ{}.":10115,"Regex":10116,"RESS":10117,"Ġlb":10118,"Ġansw":10119,"stars":10120,"Ġvalidator":10121,"Ġloading":10122,"Ġtranslation":10123,"Pair":10124,"substitute":10125,"alternative":10126,"PACK":10127,"bkg":10128,"every":10129,"lsp":10130,"nts":10131,"ug":10132,"Ġlinks":10133,"fileStore":10134,"keyid":10135,"intensity":10136,"Ġgame":10137,"backoff":10138,"Ġalph":10139,"primitive":10140,"SEC":10141,"bian":10142,"facecolor":10143,"helpme":10144,"multipart":10145,"ranks":10146,"DBSession":10147,"/'+":10148,"Ġmultiprocessing":10149,"ĠStream":10150,"prepared":10151,"Ġboundary":10152,"ĠConfiguration":10153,"Ġmanifest":10154,"managed":10155,"lemma":10156,"mounts":10157,"ĠSyntaxError":10158,"Library":10159,"Pol":10160,"dj":10161,"ima":10162,"Ġquiet":10163,"ues":10164,"();":10165,"Ġ'.')":10166,"Ġcipher":10167,"puts":10168,"perly":10169,"ĠExt":10170,"ĠRun":10171,"Cols":10172,"Ġreads":10173,"ĠWe":10174,"Ġposix":10175,"mediator":10176,"restype":10177,"ĠJob":10178,"PROCESS":10179,"ĠProcess":10180,"SERT":10181,"ĠUni":10182,"ragma":10183,"Ġassoci":10184,"representation":10185,"relevant":10186,"62":10187,"After":10188,"MON":10189,"Master":10190,"Nrm":10191,"Render":10192,"cname":10193,"pwd":10194,"rna":10195,"tcex":10196,"æķ":10197,"Ġlatest":10198,"semi":10199,"alty":10200,"lector":10201,"))**":10202,"Ġplay":10203,"tope":10204,"laces":10205,"motif":10206,"parsing":10207,"Ġcred":10208,"ational":10209,"Ġred":10210,"pivot":10211,"Ġvcf":10212,"Ġthese":10213,"REE":10214,"Ġsequences":10215,"Ġchan":10216,"ARK":10217,"FilePath":10218,"ANT":10219,"boundaries":10220,"operators":10221,"implicit":10222,"croll":10223,"(['-":10224,"modifiers":10225,"Ġnormalized":10226,"Ġworkflow":10227,"rollback":10228,"SPON":10229,"Weight":10230,"Ġserializer":10231,"verifier":10232,"Ġ^=":10233,"Ġtrying":10234,"Ġdegree":10235,"Ġprojection":10236,"Calculating":10237,"63":10238,":<":10239,";\")":10240,"Ns":10241,"PUB":10242,"SF":10243,"Single":10244,"bri":10245,"cdata":10246,"Ġet":10247,"Ġtermin":10248,"Ġcomments":10249,"alm":10250,"moments":10251,"buses":10252,"Ġwould":10253,"Ġhits":10254,"curves":10255,"Ġgt":10256,"Ġys":10257,"Condition":10258,"menage":10259,"ALT":10260,"Segments":10261,"Ġ\"\"\"":10262,"hypo":10263,"evaluation":10264,"Depth":10265,"Dimension":10266,"Binary":10267,"ĠAddress":10268,"METHOD":10269,"ĠReturn":10270,"NaN":10271,"Sur":10272,"ja":10273,"Ġvertex":10274,"))])":10275,"Ġpush":10276,"Ġ\"$":10277,"intent":10278,"linux":10279,"vehic":10280,"Ġdz":10281,"Ġdyn":10282,"Ġdecoder":10283,"pypi":10284,"loadtxt":10285,"Reset":10286,"Ġgetting":10287,"ĠNe":10288,"Ġenough":10289,"LOGGING":10290,"Subject":10291,"depths":10292,"TASK":10293,"Short":10294,"QUI":10295,"Any":10296,"2018":10297,"buttons":10298,"Ġgood":10299,"Removed":10300,"('=',":10301,"Ġconverted":10302,"Available":10303,"gam":10304,"iz":10305,"pres":10306,"ced":10307,"lices":10308,"matrices":10309,"Ġreversed":10310,"Ġtgt":10311,"Ġeta":10312,"[::":10313,"ĠMissing":10314,"MET":10315,"mutable":10316,"Ġabsolute":10317,"twitter":10318,"Runner":10319,"Ġ'*'":10320,"ĠBytes":10321,"+\".":10322,">{}":10323,"?)":10324,"It":10325,"Illegal":10326,"gation":10327,"gender":10328,"por":10329,"qm":10330,"ufo":10331,"inity":10332,"tets":10333,"lites":10334,"assertion":10335,"verity":10336,"inten":10337,"timestep":10338,"ĠCur":10339,"=\"\")":10340,"RESET":10341,"ONG":10342,"ased":10343,"]]]":10344,"torch":10345,"Ġfilenames":10346,"analyze":10347,"flattened":10348,"expiry":10349,"Ġexecutable":10350,"numerator":10351,"Windows":10352,"FLAG":10353,"ĠColor":10354,"Distance":10355,"(.":10356,"110":10357,"=__":10358,"Async":10359,"Hdr":10360,"NP":10361,"Pen":10362,"PING":10363,"Power":10364,"QA":10365,"Sw":10366,"Saml":10367,"evals":10368,"nav":10369,"osp":10370,"enses":10371,"Ġ'|":10372,"Ġnr":10373,"asyncio":10374,"Ġits":10375,"ularity":10376,"subgraph":10377,"Ġgl":10378,"REG":10379,"signatures":10380,"atcher":10381,"DESCRIP":10382,"Ġdocs":10383,"radient":10384,"caps":10385,"Added":10386,"Curve":10387,"norms":10388,"consume":10389,"/{}\".":10390,"Ali":10391,"More":10392,"OID":10393,"fresh":10394,"gold":10395,"desk":10396,"Ġpending":10397,"typed":10398,"Ġfin":10399,"Ġcutoff":10400,"isq":10401,"Ġmicro":10402,"Ġtd":10403,"countered":10404,"ĠSo":10405,"sums":10406,"about":10407,"abbre":10408,"Ġlar":10409,"})\".":10410,"Ġcomplex":10411,"particle":10412,"Ġ'{}'.":10413,"nii":10414,"qualified":10415,"combinations":10416,"benchmark":10417,"ĠArgumentError":10418,"getElementsBy":10419,",\\":10420,"Glyph":10421,"craw":10422,"kers":10423,"oct":10424,"}</":10425,"sizer":10426,"elastic":10427,"vim":10428,"),)":10429,"Ġdeque":10430,"Ġgap":10431,"based":10432,"ceptor":10433,"Ġ<%":10434,"scoped":10435,"rtn":10436,"snmp":10437,"TagName":10438,"verification":10439,"Ġpredicate":10440,"Ġmodified":10441,"CODING":10442,"Bool":10443,"CLU":10444,"rjust":10445,"sound":10446,"Ġdel":10447,"Ġpeak":10448,"Ġ'?'":10449,"('`":10450,"peers":10451,"matplotlib":10452,"atibility":10453,"Ġbus":10454,"verted":10455,"lination":10456,"subscriptions":10457,"controls":10458,"spector":10459,"regular":10460,"LEFT":10461,"blocksize":10462,"serialization":10463,"Details":10464,"MASK":10465,"Ġbuilt":10466,"QUE":10467,"Ġstopped":10468,"Widgets":10469,"SyntaxError":10470,"Unicode":10471,"passphrase":10472,"Ġsatrec":10473,"ĠHTML":10474,"/\\":10475,"AMP":10476,"Cat":10477,"Lat":10478,"NX":10479,"Schedule":10480,"king":10481,"reactions":10482,"indel":10483,"ansion":10484,"copied":10485,"(\"*":10486,"filetype":10487,"Ġfw":10488,"objec":10489,"urly":10490,"maxlen":10491,"scanner":10492,"readable":10493,"Ġeq":10494,"Ġeditor":10495,"Repo":10496,"usters":10497,")]))":10498,"ARM":10499,"sqlite":10500,"flavor":10501,"credit":10502,"analyses":10503,"bedfile":10504,"Records":10505,"weeks":10506,"microseconds":10507,"PYTHON":10508,"certainty":10509,"Clear":10510,"GM":10511,"SUM":10512,"ipy":10513,"lf":10514,"rbridge":10515,"slack":10516,"intr":10517,"tie":10518,"()-":10519,"licity":10520,"Ġ'),":10521,"three":10522,"Ġ\":\"":10523,"cks":10524,"Ġ1000000":10525,"Ġrelated":10526,"zeta":10527,"paste":10528,"etter":10529,"Ġrh":10530,"Ġdesired":10531,"preserve":10532,"synony":10533,"([\\":10534,"west":10535,"Expect":10536,"cyan":10537,"Ġnotification":10538,"ROP":10539,"bounding":10540,"Ġbuff":10541,"Ġpermissions":10542,"Threshold":10543,"Ġmapped":10544,"randn":10545,"Groups":10546,"ascript":10547,"strides":10548,"Angle":10549,"declaration":10550,"NONE":10551,"PD":10552,"PU":10553,"bund":10554,"heri":10555,"slab":10556,"vms":10557,"inside":10558,"inches":10559,"arcs":10560,"alchemy":10561,"tel":10562,"disease":10563,"Ġ'^":10564,"Ġ'='":10565,"']].":10566,"ulations":10567,"filelist":10568,"logl":10569,"Ġcrypto":10570,"Ġremainder":10571,"Ġstandard":10572,"Ġdatasets":10573,"imt":10574,"pheno":10575,"ĠPri":10576,"signer":10577,"ĠFe":10578,"Ġsubset":10579,"Ġanchor":10580,"Ġjsonify":10581,"Ġjc":10582,"TICAL":10583,"Ġspeed":10584,"namo":10585,"polygons":10586,"Ġ<<<":10587,"Extract":10588,"Connected":10589,"Ġtools":10590,"$\\":10591,",[":10592,"61":10593,"Hz":10594,"RAN":10595,"highest":10596,"ited":10597,"pname":10598,"stash":10599,"iden":10600,"Ġsf":10601,"Ġtrip":10602,"pac":10603,"Ġguess":10604,"locks":10605,"ONLY":10606,"MEM":10607,"cachedir":10608,"closing":10609,"Ġshlex":10610,"picard":10611,"trunc":10612,"Freq":10613,"ipython":10614,"naxis":10615,"vtype":10616,"Ġmeas":10617,"risk":10618,"Ġplan":10619,"parms":10620,"vey":10621,"Ġredis":10622,"pyramid":10623,"***":10624,"DataInstance":10625,"graphy":10626,"publication":10627,"goal":10628,"Ġ\".\".":10629,"ADATA":10630,"Ġfactory":10631,"videos":10632,"mkstemp":10633,"Visible":10634,"BUILD":10635,"Ġignored":10636,"screenshot":10637,"vault":10638,"DAY":10639,"Depend":10640,"Ġsupplied":10641,"authenticated":10642,"ĠOSError":10643,"WRITE":10644,"'d":10645,"'re":10646,";'":10647,"BI":10648,"Card":10649,"EW":10650,"Lambda":10651,"epi":10652,"vated":10653,"Ġary":10654,"Ġ})":10655,"detach":10656,"()})":10657,"isfinite":10658,"Ġmgr":10659,"Ġtp":10660,"redge":10661,"Ġev":10662,"Require":10663,"localize":10664,"Expi":10665,"mention":10666,"normalization":10667,"ĠGit":10668,"collected":10669,"ĠVAL":10670,"Ġauthenti":10671,"Ġauthentication":10672,"EXP":10673,"Anchor":10674,"('.')[-":10675,"discrete":10676,"Worker":10677,"syllable":10678,"SCHEMA":10679,"83":10680,"Cn":10681,"Eval":10682,"SCO":10683,"_'+":10684,"fds":10685,"Ġfigure":10686,"delegate":10687,"ansi":10688,"Ġ'))":10689,"else":10690,"Ġpys":10691,"Ġir":10692,"Ġiv":10693,"Ġmenu":10694,"Ġok":10695,"anned":10696,"beats":10697,"agp":10698,"ĠMAV":10699,"SECON":10700,"ĠBo":10701,"ĠGd":10702,"Ġurljoin":10703,"corrected":10704,"URATION":10705,"descriptions":10706,"atistic":10707,"overlaps":10708,"derivative":10709,"announce":10710,"++":10711,"Atom":10712,"FACT":10713,"Null":10714,"Te":10715,"mad":10716,"rnn":10717,"xm":10718,"Ġverb":10719,"inferred":10720,"coarse":10721,"roc":10722,"returned":10723,"(\"`":10724,"(\"|":10725,"Ġsquare":10726,"ission":10727,"Ġrad":10728,"Ġdataframe":10729,"{}'":10730,"ĠApi":10731,"dbg":10732,"Ġ31":10733,"Ġtimed":10734,"Units":10735,"Cookie":10736,"Ġroom":10737,"EXEC":10738,"3333":10739,"hyd":10740,"operational":10741,"arcsec":10742,"Features":10743,"Ġserialize":10744,"autos":10745,"!=":10746,"'(\\":10747,"Dump":10748,"Saving":10749,"xticklabels":10750,"inality":10751,"onset":10752,"riev":10753,"intro":10754,"Ġam":10755,"quant":10756,"heights":10757,"persistent":10758,"Ġ{}.'.":10759,"Ġdecimal":10760,"computed":10761,"Ġglyph":10762,"Ġnamespaces":10763,"Ġpars":10764,"INPUT":10765,"INVALID":10766,"worksheet":10767,"trajectory":10768,"Stat":10769,"ĠRO":10770,"Ġcomple":10771,"Arch":10772,"DICT":10773,"tablename":10774,"Ġtemperature":10775,"FILES":10776,"hysical":10777,"FromString":10778,"Validate":10779,"playlist":10780,"Payload":10781,"Ġblank":10782,"effects":10783,"Ġsampling":10784,"Radi":10785,"Hub":10786,"HAND":10787,"Push":10788,"Rot":10789,"Xml":10790,"aj":10791,"cds":10792,"nargs":10793,"pLvl":10794,"tml":10795,"Ġlab":10796,"Ġenter":10797,"near":10798,"Ġforward":10799,"Ġworld":10800,"Ġhg":10801,"Ġhmac":10802,"reps":10803,"Ġbeing":10804,"RESPON":10805,"Ġld":10806,"mic":10807,"ĠDis":10808,"within":10809,"central":10810,"Ġatoms":10811,"Vertex":10812,"mktime":10813,"rollers":10814,"FILENAME":10815,"Ġlevels":10816,"shipping":10817,"RAY":10818,"asctime":10819,"('\"',":10820,"taxonomy":10821,"SiteRec":10822,"declare":10823,"stanza":10824,"rieving":10825,"DT":10826,"Gamma":10827,"aes":10828,"amax":10829,"fv":10830,"fatal":10831,"wrong":10832,"yd":10833,"åĲ":10834,"reconnect":10835,"rers":10836,"orn":10837,"ortion":10838,"mps":10839,"Ġpdf":10840,"(\"~":10841,"setCurrent":10842,"Ġfact":10843,"Ġthing":10844,"RET":10845,"trailing":10846,"ĠMat":10847,"Env":10848,"positional":10849,"ocus":10850,"Statement":10851,"indentation":10852,"mkdtemp":10853,"excludes":10854,"192":10855,"Already":10856,"Ġconstant":10857,"Ġdetect":10858,"~~~~":10859,"bonds":10860,"Ġallele":10861,"BA":10862,"FROM":10863,"Gra":10864,"IV":10865,"Long":10866,"]|":10867,"kp":10868,"wm":10869,"Ġser":10870,"Ġmeth":10871,"()],":10872,"Ġpas":10873,"(\"\",":10874,"moid":10875,"Ġfalse":10876,"timeline":10877,"Ġaa":10878,"replay":10879,"INSERT":10880,"ĠPopen":10881,"apikey":10882,"ĠDATA":10883,"fns":10884,"Note":10885,"Arti":10886,"Ġ&&":10887,"specified":10888,"ĠRead":10889,"observ":10890,"ĠProject":10891,"Ġmonitor":10892,"FIELDS":10893,"purge":10894,"RESULT":10895,"Ġbinding":10896,"SETTINGS":10897,"ĠOperationClass":10898,"\"})":10899,"Enum":10900,"knot":10901,"lum":10902,"ncols":10903,"paper":10904,"{:":10905,"sem":10906,"inactive":10907,"decrypted":10908,"timal":10909,"anim":10910,"idf":10911,"thin":10912,"Ġ\"|":10913,"Ġcd":10914,"outgoing":10915,"nowait":10916,"Ġdensity":10917,"bare":10918,"Ġdevices":10919,"grow":10920,"ĠBea":10921,"Ġsubmission":10922,"Decimal":10923,"avail":10924,"foreground":10925,"FAILED":10926,"Ġspecification":10927,"DOC":10928,"segmentation":10929,"ĠStatus":10930,"walker":10931,"sphinx":10932,"occurrences":10933,"Ġhandlers":10934,"adapters":10935,"ZipFile":10936,"brightness":10937,"Ani":10938,"DK":10939,"Phi":10940,"_{}\".":10941,"cbar":10942,"fts":10943,"gtf":10944,"ire":10945,"wor":10946,"{/":10947,"Ġterms":10948,"incr":10949,"Ġ').":10950,"Ġpdb":10951,"Ġci":10952,"Ġ{:.":10953,"Ġdm":10954,"past":10955,"subtract":10956,"Repository":10957,"licer":10958,"prim":10959,"Ġenc":10960,"LOGIN":10961,"choose":10962,"Ġcompression":10963,"ĠYou":10964,"SOCK":10965,"conditional":10966,"Append":10967,"ENDING":10968,"Ġgoogle":10969,"Background":10970,"Serialize":10971,"estimated":10972,"OFFSET":10973,"åıĸ":10974,"Merge":10975,"cimals":10976,"Editor":10977,"Language":10978,"Tmp":10979,"fund":10980,"ico":10981,"æĪ":10982,"remain":10983,"erry":10984,"stacked":10985,"eng":10986,"getargspec":10987,"Ġinf":10988,"')])":10989,"profiler":10990,"Ġmn":10991,"Ġparallel":10992,"=\"\\":10993,"colormap":10994,"REQ":10995,"ĠDist":10996,"ĠOK":10997,"monom":10998,"Ġ\"%(":10999,"ĠRecord":11000,"atomic":11001,"clipboard":11002,"2015":11003,"satel":11004,"assemble":11005,"Ġreplacement":11006,"Ġmanage":11007,"MODEL":11008,"ATTRI":11009,"distributions":11010,"ĠArray":11011,"Ġparents":11012,"grity":11013,"getElementsByTagName":11014,")][":11015,"FC":11016,"GG":11017,"Jobs":11018,"][:-":11019,"_',":11020,"ik":11021,"nml":11022,"ĠURI":11023,"adm":11024,"']],":11025,"mpro":11026,"Ġincorrect":11027,"Ġslot":11028,"mom":11029,"Ġcx":11030,"quar":11031,"Ġtun":11032,"ĠSession":11033,"locate":11034,"localtime":11035,"grain":11036,"coro":11037,"Ġcompat":11038,"specie":11039,"placeholders":11040,"Ġsuc":11041,"Ġbook":11042,"Ġcalling":11043,"Ġnetloc":11044,"solar":11045,"Ġ\"{}.":11046,"ligand":11047,"Transport":11048,"authorize":11049,"InternalError":11050,"Ġhelpers":11051,"Ġjcvi":11052,"'(":11053,"=.":11054,"JOB":11055,"NU":11056,"SUP":11057,"Shell":11058,"Your":11059,"_')":11060,"hu":11061,"jection":11062,"lal":11063,"rpartition":11064,"enqueue":11065,"around":11066,"keh":11067,"Ġdummy":11068,"0001":11069,"nodelist":11070,"Invocation":11071,"Ġ201":11072,"songs":11073,"ĠDoc":11074,"STDOUT":11075,"authority":11076,"Ġ['--":11077,"Ġonce":11078,"olutions":11079,"operand":11080,"LAST":11081,"txid":11082,"(['--":11083,"Ġperc":11084,"offline":11085,"dcm":11086,"lstm":11087,"2017":11088,"QtGui":11089,"Ġspacing":11090,"Need":11091,"migrate":11092,"Ġdegrees":11093,"Converter":11094,"pexpect":11095,"shifted":11096,"Ġtopology":11097,"LV":11098,"cash":11099,"xa":11100,"xpos":11101,"rewrite":11102,"incomplete":11103,"['$":11104,"Ġpointer":11105,"Ġfinish":11106,"ubclass":11107,"coded":11108,"00000":11109,"Ġhalf":11110,"Ġ23":11111,"Ġvmin":11112,"Ġdirect":11113,"Ġll":11114,"STOR":11115,"lambd":11116,"Ġcores":11117,"thernet":11118,"downloaded":11119,"trainer":11120,"Mean":11121,"Ġapps":11122,"updater":11123,"websocket":11124,"Ġtransfer":11125,"SUCCESS":11126,"Ġsurface":11127,"Printer":11128,"directed":11129,"PmagSpecRec":11130,"Ġcandidates":11131,"Ġinterpolation":11132,"Indices":11133,"CONSTANT":11134,"?)\\":11135,"Ker":11136,"Pc":11137,"Year":11138,"Ġ}}":11139,"Ġ...\")":11140,"develo":11141,"undefined":11142,"spot":11143,"Ġag":11144,"vite":11145,"Ġrm":11146,"intermediate":11147,"traces":11148,"ĠAb":11149,"variate":11150,"ORTED":11151,"selectors":11152,"partner":11153,"Chunk":11154,"LIC":11155,"swagger":11156,"Ġspecimen":11157,"cbc":11158,"(',')]":11159,"north":11160,"panels":11161,"QtCore":11162,"Ġclassi":11163,"SYM":11164,"durations":11165,"Ġrepeat":11166,"machines":11167,"quadratic":11168,"RESPONSE":11169,"ĠBeautifulSoup":11170,"\")),":11171,"41":11172,"FRA":11173,"PM":11174,"cj":11175,"hn":11176,"mro":11177,"ngrams":11178,"pids":11179,"targ":11180,"inode":11181,"conc":11182,"Ġput":11183,"logg":11184,"logout":11185,"Ġcss":11186,"linter":11187,"budget":11188,"vip":11189,"Ġtc":11190,"configurations":11191,"requester":11192,"prices":11193,"Ġ{'$":11194,"ENABLE":11195,"TIVE":11196,"while":11197,"Ġclone":11198,"IPv":11199,"Ġ')'":11200,"ĠJson":11201,"activations":11202,"webhook":11203,"sockopt":11204,"tracking":11205,"Ġipv":11206,"freeze":11207,"ParseError":11208,"ciphertext":11209,"ĠEnvironment":11210,"Ġflush":11211,"paginator":11212,"Scalar":11213,"deadline":11214,"declared":11215,"havior":11216,"Ġanswer":11217,"LC":11218,"Low":11219,"Obs":11220,"TC":11221,"pbar":11222,"tlen":11223,"atts":11224,"decess":11225,"undo":11226,"']='":11227,"Ġpull":11228,"typename":11229,"Ġduplicate":11230,"Ġtk":11231,"Ġwcs":11232,"ours":11233,"amera":11234,"etched":11235,"preset":11236,"Vals":11237,"Ġelapsed":11238,"ĠMeta":11239,"periodic":11240,"LAGS":11241,"FAIL":11242,"Ġspecial":11243,"Upload":11244,"allest":11245,"dicator":11246,"Route":11247,"Constant":11248,"ficiency":11249,"Ġgenes":11250,"guest":11251,"residues":11252,"Ġrequirements":11253,"voxel":11254,")(*":11255,")[::-":11256,"69":11257,"Mass":11258,"RD":11259,"RV":11260,"RST":11261,"Sent":11262,"away":11263,"bz":11264,"gca":11265,"kde":11266,"lapping":11267,"tu":11268,"vR":11269,"Ġmembers":11270,"rewards":11271,"revisions":11272,"erase":11273,"deque":11274,"dies":11275,"dicom":11276,"apis":11277,"('(":11278,"pear":11279,"kes":11280,"Ġflo":11281,"Ġcross":11282,"Ġ{}}":11283,"tempfile":11284,"olds":11285,"ĠCode":11286,"transformation":11287,"Ġpay":11288,"Program":11289,"Ġ400":11290,"Ġasc":11291,"Ġjs":11292,"Ġcomps":11293,"Ġlogs":11294,"smart":11295,"exprs":11296,"lapsed":11297,"delayed":11298,"scribe":11299,"Transfer":11300,"transient":11301,"contigs":11302,"hdulist":11303,"timing":11304,"Like":11305,"cuda":11306,"Commit":11307,"Ġasync":11308,"!\\":11309,"81":11310,"AML":11311,"Light":11312,"Scope":11313,"_\\":11314,"raries":11315,"yticklabels":11316,"Ġtax":11317,"datat":11318,"Ġpie":11319,"Ġicon":11320,"Ġ\"\"))":11321,"neut":11322,"Ġrece":11323,"noaa":11324,"addChild":11325,"Ġtwe":11326,"Ġ28":11327,"Ġoauth":11328,"lsm":11329,"ĠSimple":11330,"dae":11331,"Ġexposure":11332,"Ġui":11333,"intercept":11334,"STOP":11335,"Ġencrypted":11336,"ĠOn":11337,"phases":11338,"placement":11339,"Ġlengths":11340,"diagram":11341,"Ġtranslate":11342,"cartesian":11343,"Topic":11344,"Ġtarfile":11345,"hdrs":11346,"REGISTR":11347,"CASRN":11348,"ĠNetwork":11349,"conversation":11350,"Bi":11351,"La":11352,"Na":11353,"Spect":11354,"Win":11355,"bv":11356,"bur":11357,"dut":11358,"dpath":11359,"rnd":11360,"xf":11361,"âĸ":11362,"recall":11363,"roids":11364,"datal":11365,"Ġinp":11366,"Ġix":11367,"optim":11368,"Ġcf":11369,"Ġcid":11370,"spread":11371,"allery":11372,"little":11373,"Ġthumb":11374,"Ġomega":11375,"tps":11376,"ĠMon":11377,"recording":11378,"Deleted":11379,"ADDR":11380,"CONTEXT":11381,"://'":11382,"Ġ\"\\\\":11383,"Ġspecies":11384,"DOT":11385,"feedback":11386,"Ġthreads":11387,"Objective":11388,"quantiles":11389,"Download":11390,"allocate":11391,"ĠVariable":11392,"æķ°":11393,".'))":11394,"]()":11395,"nbytes":11396,"Ġadding":11397,"Ġcollect":11398,"strength":11399,"ano":11400,"Ġpin":11401,"tout":11402,"exif":11403,"opacity":11404,"Ġturn":11405,"maxval":11406,"pert":11407,"splitter":11408,"omic":11409,"Ġnamedtuple":11410,"ĠSim":11411,"Ġprox":11412,"ĠTer":11413,"ĠNew":11414,"Ġaltern":11415,"bix":11416,"ĠOP":11417,"Ġident":11418,"Ġsites":11419,"Ġ'{}_":11420,"dlg":11421,"Processor":11422,"Ġpublish":11423,"MENTS":11424,"discover":11425,"Annotation":11426,"/*":11427,"91":11428,"Ap":11429,"Flu":11430,"Hand":11431,"LB":11432,"dend":11433,"gte":11434,"qp":11435,"sms":11436,"è¿":11437,"sembly":11438,"increase":11439,"ensions":11440,"anony":11441,"cool":11442,"idity":11443,"()\")":11444,"trc":11445,"bump":11446,"colli":11447,"Ġaut":11448,"islice":11449,"texture":11450,"ami":11451,"litlet":11452,"Ġthen":11453,"dsn":11454,"Problem":11455,"availability":11456,"...',":11457,"rollout":11458,"Ġroll":11459,"POS":11460,"MPC":11461,"restrict":11462,"crl":11463,"PROJECT":11464,"breakpoint":11465,"zenith":11466,"('.//":11467,"firewall":11468,"Ġbasis":11469,"Updated":11470,"Ġhyper":11471,"Pipe":11472,"Ġassignment":11473,"Classifier":11474,"LOBAL":11475,"alibration":11476,"ANNEL":11477,"METADATA":11478,")[\"":11479,"Credentials":11480,"Duplicate":11481,"Make":11482,"UAGE":11483,"ific":11484,"Ġteam":11485,"covered":11486,"robot":11487,"dif":11488,"sitivity":11489,"unsupported":11490,"urljoin":11491,"Ġdefinitions":11492,"house":11493,"ferer":11494,"**-":11495,"lacement":11496,"runas":11497,"ANCE":11498,"queued":11499,"MAG":11500,"CEP":11501,"sliced":11502,"Ġcanvas":11503,"Ġchars":11504,"marsh":11505,"alizable":11506,"Sizer":11507,"ĠModule":11508,"ĠSequence":11509,"Ġdecoded":11510,"embeddings":11511,"Unique":11512,"BYTES":11513,"peptide":11514,"motifs":11515,"Screen":11516,"birth":11517,"xd":11518,"Ġub":11519,"Ġvisible":11520,"erts":11521,"leap":11522,"antile":11523,"diter":11524,"unzip":11525,"assis":11526,"experiments":11527,"Ġbra":11528,"Ġbutton":11529,"Ġmv":11530,"dock":11531,"presen":11532,"startTime":11533,"Ġyy":11534,"ĠCreating":11535,"lying":11536,"itemsize":11537,"Ġlv":11538,"replacements":11539,"ĠMO":11540,"findtext":11541,"MEDI":11542,"ĠFil":11543,"ĠFound":11544,"(*(":11545,"ALLOW":11546,"district":11547,"ofs":11548,"125":11549,"\"]).":11550,"fitted":11551,"ioloop":11552,"Ġgrp":11553,"Ġcaller":11554,"Ġfeat":11555,"ATIVE":11556,"Ġpages":11557,"fluxes":11558,"sensors":11559,"Ġkeepdims":11560,"receipt":11561,"XYZ":11562,"FUNCTION":11563,"AI":11564,"FD":11565,"High":11566,"Join":11567,"MER":11568,"SZ":11569,"YPE":11570,"fps":11571,"itable":11572,"mz":11573,"pca":11574,"qdm":11575,"}$":11576,"story":11577,"ctg":11578,"unexpected":11579,"['@":11580,"mpfr":11581,"exons":11582,"Ġactor":11583,"bow":11584,"subparser":11585,"submissions":11586,"ĠSchema":11587,"Ġconsumer":11588,"mtx":11589,"opened":11590,"FIER":11591,"Keep":11592,"CONST":11593,"Ġmacro":11594,"Visi":11595,"catalogue":11596,"NEW":11597,"Ġvia":11598,"CFG":11599,"Ġconverter":11600,"samtools":11601,"Attempting":11602,"Saved":11603,"dbsException":11604,"ĠParseError":11605,"ĠBytesIO":11606,"ATTRIBU":11607,"Hook":11608,"Raster":11609,"Za":11610,"finfo":11611,"qd":11612,"tips":11613,"ana":11614,"Ġ'?":11615,"sip":11616,"('&":11617,"macs":11618,"arger":11619,"])**":11620,"readme":11621,"Incorrect":11622,"unders":11623,"homo":11624,"Ġbeam":11625,"ĠTABLE":11626,"ĠPAR":11627,"Ġlatitude":11628,"STO":11629,"Ġminion":11630,"manual":11631,"ĠGtk":11632,"Ġ\\'{":11633,"xmlns":11634,"arize":11635,"Ġready":11636,"PIO":11637,"('/')[":11638,"Ġmajor":11639,"TOP":11640,"Users":11641,"slider":11642,"gpus":11643,"disks":11644,"Ġnotebook":11645,"natural":11646,"Ġactivation":11647,"Alias":11648,"+='":11649,"199":11650,"BAD":11651,"CALL":11652,"HASH":11653,"Vol":11654,"gandi":11655,"rtype":11656,"Ġvertices":11657,"Ġurlopen":11658,"eni":11659,"anom":11660,"cedu":11661,"datory":11662,"consistent":11663,"ople":11664,"logged":11665,"Ġcard":11666,"pager":11667,"Ġgreen":11668,"signe":11669,"ĠEN":11670,"ATH":11671,"abbr":11672,"astime":11673,"SITE":11674,"(\"\\\\":11675,"Requested":11676,"calculated":11677,"clusion":11678,"RAW":11679,"trips":11680,"Ġmagnitude":11681,"Ġpsutil":11682,"chanism":11683,">{}</":11684,"InvocationError":11685,"010":11686,"FR":11687,"GC":11688,"Lear":11689,"Sheet":11690,"hmac":11691,"ipa":11692,"sos":11693,"åħ":11694,"Ġarticle":11695,"onts":11696,"enrollment":11697,"tight":11698,"unregister":11699,"filesize":11700,"Ġfoo":11701,"edu":11702,"nost":11703,"complement":11704,"subnets":11705,"ĠSource":11706,"popup":11707,"vely":11708,"ENCODING":11709,"Ġ['']":11710,"ACCESS":11711,"Ġreturning":11712,"160":11713,"Ġlogical":11714,"ConfigParser":11715,"Ġoffsets":11716,"depends":11717,"Ġextent":11718,"Ġ':'.":11719,"coefficient":11720,"Building":11721,"morph":11722,"xffffffff":11723,"astimezone":11724,"+\"\\":11725,":{}'.":11726,"MW":11727,"Sta":11728,"Timer":11729,"UInt":11730,"nice":11731,"sname":11732,"vbox":11733,"å¤":11734,"Ġot":11735,"attack":11736,"oname":11737,"idata":11738,"rets":11739,"('</":11740,"getroot":11741,"tobj":11742,"exer":11743,"setAttribute":11744,"Ġcategories":11745,"colon":11746,"Ġwarn":11747,"Ġeffect":11748,"labelsize":11749,"Ġpara":11750,"transpa":11751,"Ġdisco":11752,"dbname":11753,"Loaded":11754,"Dest":11755,"CHANGE":11756,"TERS":11757,"Ġdownloaded":11758,"Ġconstraint":11759,"redirects":11760,"balancer":11761,"cogn":11762,"glyphs":11763,"largest":11764,"momentum":11765,"chronous":11766,"ADDRESS":11767,"DIRECTORY":11768,"migrations":11769,",:,":11770,"<=":11771,"Aggreg":11772,"RS":11773,"Tip":11774,"hpo":11775,"hline":11776,"jk":11777,"tty":11778,"coind":11779,"codename":11780,"division":11781,"Ġiface":11782,"Ġsolver":11783,"setsockopt":11784,"])])":11785,"Ġrecognized":11786,"vile":11787,"adder":11788,"comma":11789,"Ġrup":11790,"questions":11791,"Ġxpath":11792,"presence":11793,"Ġ:-":11794,"trials":11795,"Ġdialect":11796,"ĠTest":11797,"ĠPY":11798,"ĠPo":11799,"ĠDO":11800,"sockets":11801,"arer":11802,"1234":11803,"Ġbased":11804,"octet":11805,"Ġintervals":11806,"bytecode":11807,"achine":11808,"sider":11809,"facts":11810,"sistency":11811,"Ġcontaining":11812,"Ġsuccessful":11813,"HEADERS":11814,"confirmation":11815,"Stopping":11816,"ĠSymbol":11817,"Axes":11818,"SESSION":11819,"modulus":11820,"propagate":11821,"GA":11822,"Mes":11823,"ctime":11824,"lmax":11825,"npix":11826,"ãĤ":11827,"Ġadj":11828,"Ġdates":11829,"ening":11830,"rogram":11831,"Ġpress":11832,"Ġavoid":11833,"addAction":11834,"Ġha":11835,"preorder":11836,"ĠCreate":11837,"ĠCannot":11838,"regulari":11839,"Ġchi":11840,"ARG":11841,"operands":11842,"frags":11843,"ATIC":11844,"stages":11845,"Ġ...,":11846,"Ġvim":11847,"ĠStruct":11848,"Ġarrow":11849,"relationships":11850,"trusted":11851,"Circ":11852,"DJ":11853,"IMP":11854,"Ren":11855,"Snapshot":11856,"]==":11857,"cwl":11858,"Ã°":11859,"resized":11860,"alance":11861,"rift":11862,"ulk":11863,"Ġsheet":11864,"Ġ(?":11865,"folio":11866,"calar":11867,"clf":11868,"Ġrx":11869,"Ġry":11870,"compact":11871,"Information":11872,"Indent":11873,"ĠSH":11874,"Ġprog":11875,"staff":11876,"Ġlater":11877,"Union":11878,"suf":11879,"SED":11880,"grab":11881,"avatar":11882,"Ġformatting":11883,"Ġmoment":11884,"ĠContext":11885,"Percent":11886,"ĠDevice":11887,"+'/":11888,"breaks":11889,"adjustment":11890,"Ġfrac":11891,"Matches":11892,"Help":11893,"macros":11894,"Ġwriting":11895,"Alignment":11896,"CLE":11897,"Dst":11898,"DROP":11899,"EAR":11900,"Zero":11901,"gdf":11902,"mjd":11903,"oq":11904,"}[":11905,"adapt":11906,"sims":11907,"('*":11908,"tobytes":11909,"party":11910,"Ġbisect":11911,"Ġdag":11912,"Ġstill":11913,"countries":11914,"subst":11915,"subclass":11916,"subcommand":11917,"debugger":11918,"sigmas":11919,"msgid":11920,"replication":11921,"ĠCH":11922,"objectinfo":11923,"ĠPRO":11924,"ĠMark":11925,"Ġlinear":11926,"SEARCH":11927,"testing":11928,"Ġones":11929,"facets":11930,"udp":11931,"]+)\\":11932,"USR":11933,"progressbar":11934,"SCA":11935,"nuc":11936,"BOL":11937,"triggers":11938,"conju":11939,"purpose":11940,"Predicted":11941,"Ġdecorator":11942,"150":11943,"Db":11944,"FY":11945,"Hi":11946,"Sensor":11947,"draft":11948,"jpg":11949,"lut":11950,"vin":11951,"Ġmail":11952,"Ġtranscript":11953,"Ġextended":11954,"rez":11955,"ardi":11956,"idi":11957,"chisq":11958,"getId":11959,"']()":11960,"(\"__":11961,"Ġcriteria":11962,"Ġ{}.\".":11963,"speech":11964,"ĠDep":11965,"101":11966,"building":11967,"Ġasarray":11968,"pks":11969,"120":11970,"monic":11971,"ĠVector":11972,"radio":11973,"creating":11974,"successor":11975,"qualname":11976,"Ġdists":11977,"pwm":11978,"Overlay":11979,"management":11980,"smoothed":11981,"instruments":11982,"billing":11983,"CKET":11984,"Fit":11985,"Org":11986,"Tile":11987,"dop":11988,"eled":11989,"pformat":11990,"vow":11991,"well":11992,"Ġvariance":11993,"Ġannotations":11994,"Ġmeasurement":11995,"insertion":11996,"attached":11997,"tele":11998,"tech":11999,"fork":12000,"Ġpick":12001,"Ġsx":12002,"upd":12003,"Ġ({}":12004,"Ġbed":12005,"Ġcsr":12006,"outliers":12007,"Ġwriter":12008,"odd":12009,"ĠSto":12010,"mdl":12011,"Conn":12012,"gines":12013,"blockchain":12014,"ĠMap":12015,"DEL":12016,"FileHandler":12017,"Ġprepare":12018,"Ġ'%(":12019,"itize":12020,"Ġranges":12021,"iving":12022,"Ġaccepted":12023,"categorical":12024,"tabular":12025,"extractall":12026,"isotope":12027,"anyarray":12028,"Ġconstraints":12029,"Constraint":12030,"Ġtrun":12031,"Ġrenderer":12032,"LDER":12033,"Optional":12034,"fuzzy":12035,"turb":12036,"representative":12037,"production":12038,"reachable":12039,"Ġcreation":12040,"friendly":12041,"STORAGE":12042,"conjugate":12043,"!\",":12044,"Mdl":12045,"Rs":12046,"VS":12047,"eos":12048,"lte":12049,"plist":12050,"vrn":12051,"xz":12052,"Ġ(),":12053,"Ġlegend":12054,"Ġquality":12055,"ante":12056,"idp":12057,"enta":12058,"asing":12059,"Ġpts":12060,"Ġpalette":12061,"'):":12062,"appers":12063,"colname":12064,"Ġdw":12065,"artment":12066,"Ġdecla":12067,"Ġhard":12068,"Review":12069,"temporary":12070,"---":12071,"Ġopcode":12072,"interaction":12073,"ĠPub":12074,"Locator":12075,"ĠFunction":12076,"DEVICE":12077,"oriz":12078,"Collector":12079,"keras":12080,"CHUNK":12081,"updating":12082,"orithms":12083,"claim":12084,"ĠParser":12085,"Transition":12086,"completions":12087,"acceptance":12088,"Ġprediction":12089,"Iterator":12090,"Relation":12091,"CURRENT":12092,"proposal":12093,"REGISTRY":12094,"'',":12095,"FLO":12096,"Fill":12097,"LM":12098,"[]":12099,"sls":12100,"è®":12101,"Ġcombine":12102,"enant":12103,"utting":12104,"asanyarray":12105,"spline":12106,"Ġrpc":12107,"Ġdet":12108,"minimize":12109,"starttime":12110,"ĠSQL":12111,"grand":12112,"interactions":12113,"abund":12114,"lastic":12115,"funcname":12116,"IDENTI":12117,"umption":12118,"Ġcoverage":12119,"]]))":12120,"])).":12121,"SetInput":12122,"SIS":12123,"ĠreadDataInstance":12124,"},{":12125,"CHANNEL":12126,"Ġsudo":12127,"meshgrid":12128,"Ġsaltenv":12129,"pane":12130,"contracts":12131,"Ġtornado":12132,"Begin":12133,"confirmed":12134,"Ġmimetype":12135,"Exists":12136,"contiguousarray":12137,"LANGUAGE":12138,"Ġposixpath":12139,"QUISH":12140,"Actor":12141,"bisect":12142,"etype":12143,"fre":12144,"Ġcombined":12145,"Ġupdates":12146,"stra":12147,"defin":12148,"retain":12149,"lik":12150,"')}":12151,"ulus":12152,"Ġfq":12153,"Ġfft":12154,"oney":12155,"spc":12156,"uby":12157,"hem":12158,"Ġmm":12159,"pyc":12160,"pyplot":12161,"mine":12162,"controllers":12163,"alic":12164,"ĠSQUISH":12165,"Ġlists":12166,"ĠAWS":12167,"Ġknow":12168,"weak":12169,"STY":12170,"DataType":12171,"hashlib":12172,"centre":12173,"ĠGo":12174,"origins":12175,"Ġcompar":12176,"discount":12177,"Username":12178,"Ġnonce":12179,"fastafile":12180,"Ġdatatype":12181,"software":12182,"Ġsqlite":12183,"Ġseparators":12184,"whole":12185,"demand":12186,"ĠBuild":12187,"vehicle":12188,"ĠFilter":12189,"'m":12190,"71":12191,"700":12192,"Did":12193,"Omega":12194,"RU":12195,"TX":12196,"greater":12197,"iy":12198,"lxc":12199,"qos":12200,"xFFFFFFFF":12201,"Ġtransport":12202,"Ġfilt":12203,"Ġincrement":12204,"logdir":12205,"outline":12206,"via":12207,"Ġdp":12208,"Ġtot":12209,"Ġevery":12210,"acceler":12211,"triangle":12212,"oku":12213,"Ġlng":12214,"STEM":12215,"ĠND":12216,"floating":12217,"Ġouter":12218,"kern":12219,"Ġmol":12220,"Ġclusters":12221,"calculation":12222,"('-')[":12223,"cdn":12224,"positories":12225,"virtualenv":12226,"Soft":12227,"Ġdaemon":12228,"goodlogging":12229,"stripe":12230,"Ġsyntax":12231,"Sigma":12232,"\">":12233,"=\".":12234,"Pot":12235,"Supported":12236,"vT":12237,"vn":12238,"will":12239,"xe":12240,"çĶ":12241,"Ġann":12242,"incl":12243,"ente":12244,"altitude":12245,"urandom":12246,"()[\"":12247,"chown":12248,"cts":12249,"peek":12250,"['-":12251,"(\":\",":12252,"Ġsz":12253,"Ġscr":12254,"uptime":12255,"Ġabove":12256,"delattr":12257,"Ġtoday":12258,"amin":12259,"csrf":12260,"Ġtheme":12261,"ĠPage":12262,"stab":12263,"warp":12264,"Ġaspect":12265,"Second":12266,"Ġspin":12267,"ĠWindow":12268,"Ġroles":12269,"Ġdirectories":12270,"rottle":12271,"terminator":12272,"iei":12273,"rfc":12274,"converters":12275,"utcfromtimestamp":12276,"Asset":12277,"Ġpatterns":12278,"classify":12279,"USERNAME":12280,"nickname":12281,"Ġassume":12282,"association":12283,"implementation":12284,"oliday":12285,"ĠSignal":12286,"Ġcapture":12287,"!',":12288,"!'.":12289,"COR":12290,"Duration":12291,"Mid":12292,"TLS":12293,"gif":12294,"jupy":12295,"yp":12296,"};":12297,"å®":12298,"æĹ":12299,"unked":12300,"getpid":12301,"radec":12302,"ascontiguousarray":12303,"Ġplain":12304,"Ġinstruction":12305,"(\"!":12306,"umi":12307,"uman":12308,"tailed":12309,"fos":12310,"quat":12311,"Ġwhe":12312,"varnames":12313,"Ġecho":12314,"stringTo":12315,"ĠSc":12316,"sense":12317,"ĠTOP":12318,"RESOURCE":12319,"later":12320,"expansion":12321,"altt":12322,"Ġconfigs":12323,"distro":12324,"Ġcompare":12325,"Ġcompressed":12326,"ĠExec":12327,"Ġrouter":12328,"Logging":12329,"TextCursor":12330,"Configured":12331,"Ġperform":12332,"ĠConst":12333,"Ġcalendar":12334,"antiate":12335,"Ġscene":12336,"ĠNotFound":12337,"pmn":12338,"detection":12339,"Ġspaces":12340,"Ġabout":12341,"directives":12342,")'.":12343,"Ms":12344,"NORM":12345,"Spa":12346,"SPI":12347,"fro":12348,"hue":12349,"kin":12350,"pq":12351,"ua":12352,"}))":12353,"}})":12354,"Ġextend":12355,"inux":12356,"tig":12357,"aniso":12358,"divisor":12359,"maj":12360,"essian":12361,"appen":12362,"Ġbases":12363,"Ġcmp":12364,"provided":12365,"xture":12366,"Ġmi":12367,"bak":12368,"__).":12369,"cities":12370,"ĠClass":12371,"phot":12372,"copyright":12373,"Ġkeyid":12374,"ĠFa":12375,"coroutine":12376,"...\",":12377,"polar":12378,"pidfile":12379,"Ġcodes":12380,"nucle":12381,"Ġmodname":12382,"subscriber":12383,"ĠIPv":12384,"--------------------------------":12385,"PLACE":12386,"VARI":12387,"summaries":12388,"Ġprocesses":12389,"Marker":12390,"Ġsending":12391,"ĠUpdate":12392,"Ġattachment":12393,"Ġeigen":12394,"NamedTemporaryFile":12395,"punctuation":12396,"Radius":12397,"Free":12398,"Future":12399,"GIT":12400,"RANGE":12401,"Spin":12402,"eol":12403,"fto":12404,"ham":12405,"iq":12406,"players":12407,"rss":12408,"}-":12409,"ĠKEY":12410,"oned":12411,"deo":12412,"defn":12413,"Ġplayer":12414,"Ġpragma":12415,"Ġinstrument":12416,"(\"$":12417,"pathsep":12418,"Ġft":12419,"Ġstation":12420,"scrap":12421,"Ġdeep":12422,"Ġdelim":12423,"Ġhdu":12424,"saver":12425,"printf":12426,"Inte":12427,"Ġ21":12428,"Replace":12429,"omim":12430,"cessary":12431,"parseString":12432,"copytree":12433,"utilities":12434,"plotter":12435,"Ġuntil":12436,"ROW":12437,"cpd":12438,"rectangle":12439,"cryptor":12440,"gyro":12441,"Ġrelpath":12442,"ĠProtocol":12443,"Algorithm":12444,"presentation":12445,"rupted":12446,"Ġplugins":12447,"slide":12448,"ascending":12449,"Ġissubclass":12450,"OBJECT":12451,"Publish":12452,"deletion":12453,"(';')":12454,"marginal":12455,".]":12456,"234":12457,"??":12458,"Kind":12459,"Med":12460,"SING":12461,"TOR":12462,"_(\"":12463,"plo":12464,"tas":12465,"vline":12466,"åŃ":12467,"setitem":12468,"deposit":12469,"fish":12470,"mpp":12471,"Ġprep":12472,"keyfile":12473,"Ġblack":12474,"Ġdry":12475,"__\",":12476,"prefetch":12477,"triangles":12478,"axs":12479,"temporal":12480,"ĠCom":12481,"Ġconsole":12482,"Ġfileobj":12483,"formset":12484,"LOCATION":12485,"Ġpathlib":12486,"DEP":12487,"serializers":12488,"Ġzlib":12489,"changelog":12490,"totals":12491,"Entries":12492,"GetRow":12493,"Ġattrib":12494,"ĠVER":12495,"ndx":12496,"Ġneur":12497,"arccos":12498,"Ġrespon":12499,"}{/":12500,"MATCH":12501,"truncated":12502,"Ġlam":12503,"sanitized":12504,"Ġexpired":12505,"ĠFILE":12506,"Ġtyping":12507,"æĸĩ":12508,"precationWarning":12509,"asafe":12510,"Break":12511,"ISS":12512,"Mac":12513,"iid":12514,"sids":12515,"èİ":12516,"recon":12517,"depart":12518,"elm":12519,"Ġpm":12520,"kept":12521,"Ġspi":12522,"taken":12523,"filePath":12524,"calib":12525,"cij":12526,"dupe":12527,"Ġ22":12528,"Ġorb":12529,"yperedge":12530,"Ġelt":12531,"npts":12532,"remotes":12533,"waiter":12534,"Loc":12535,"lowercase":12536,"Ġcurses":12537,"Listener":12538,"protocols":12539,"CES":12540,"ĠRemove":12541,"Ġmount":12542,"ampaign":12543,"Services":12544,"Ġexponent":12545,"Shift":12546,"convolve":12547,"projected":12548,"breakpoints":12549,"Ġconnections":12550,"others":12551,"Ġxmlns":12552,"coders":12553,"approval":12554,"CONTRO":12555,"scratch":12556,"gauss":12557,"FRAME":12558,"èİ·":12559,")//":12560,"ARE":12561,"ASS":12562,"Oc":12563,"RSA":12564,"Scan":12565,"Scroll":12566,"gat":12567,"lator":12568,"uname":12569,"Ġgeom":12570,"enforce":12571,"enrich":12572,"gevent":12573,"rounded":12574,"diameter":12575,"Ġsnap":12576,"mob":12577,"nots":12578,"ripts":12579,"Ġxr":12580,"Rest":12581,"Ġgf":12582,"ceptable":12583,"metabo":12584,"ĠTop":12585,"Ġsess":12586,"callpoint":12587,"Experiment":12588,"jobStore":12589,"Ġdouble":12590,"globaltt":12591,"corre":12592,"Colors":12593,"environments":12594,"rslt":12595,"nake":12596,"importer":12597,"ĠĠĠĠĠĠĠĠĠĠĠĠĠĠĠĠĠĠ":12598,"modification":12599,"celery":12600,")+\"":12601,"Ġ\"_\")":12602,"icons":12603,"ĠUnion":12604,"Ġ'*.":12605,"interpolated":12606,"Ġpixels":12607,"fabric":12608,"ĠCloud":12609,"Ġlarge":12610,"+\",":12611,"+':":12612,"51":12613,"=')":12614,"Fac":12615,"Mis":12616,"ZER":12617,"dK":12618,"ei":12619,"gai":12620,"osite":12621,"Ġartifact":12622,"severity":12623,"onoi":12624,"animation":12625,"namelist":12626,"Ġprun":12627,"keeper":12628,"',)":12629,"typing":12630,"(\"^":12631,"igure":12632,"pyxb":12633,"prefs":12634,"predecess":12635,"lowest":12636,"ĠCor":12637,"ĠTree":12638,"Ġsections":12639,"Ġchro":12640,"ĠME":12641,"ĠMy":12642,"ĠBin":12643,"Diag":12644,"syslog":12645,"stopping":12646,"Ġ512":12647,"isson":12648,"Attach":12649,"brokers":12650,"monthly":12651,"atern":12652,"masses":12653,"routine":12654,"Ġtimer":12655,"8601":12656,"ĠLocal":12657,"ĠLocation":12658,"ĠSecurity":12659,"LDAP":12660,"zier":12661,"gauge":12662,"Ġresidue":12663,"Ġspectrum":12664,"snippet":12665,"+)',":12666,"Average":12667,"CAP":12668,"EE":12669,"JS":12670,"NON":12671,"OVER":12672,"Pickle":12673,"TL":12674,"Vec":12675,"bone":12676,"cators":12677,"hang":12678,"kd":12679,"pil":12680,"è¡":12681,"stuff":12682,"alts":12683,"sio":12684,"ctxt":12685,"(')":12686,"unlock":12687,"rise":12688,"Ġpv":12689,"Ġpag":12690,"tos":12691,"strong":12692,"Ġbam":12693,"appendChild":12694,"Ġreached":12695,"noti":12696,"sho":12697,"quent":12698,"Ġrt":12699,"vartype":12700,"Ġgid":12701,"Ġchrom":12702,"ĠMatch":12703,"DEN":12704,"magn":12705,"Ġcolour":12706,"mantic":12707,"Ġascii":12708,"changeset":12709,"individ":12710,"shares":12711,"Ġ'-',":12712,"whm":12713,"spectra":12714,"suffixes":12715,"alleli":12716,"QUO":12717,"NumberOf":12718,"nlp":12719,"sheets":12720,"Ġkeras":12721,"builtins":12722,"(.*)":12723,"mixed":12724,"Ġsampler":12725,"Reply":12726,"ĠHttpResponseRedirect":12727,"Ġprin":12728,"Ġ({})\".":12729,"ĠGeo":12730,"inserted":12731,"Ġdeployment":12732,"ontology":12733,"ĠSaltInvocationError":12734,"REQUIRED":12735,"ĠMAVLink":12736,"errypy":12737,"BC":12738,"Dat":12739,"Density":12740,"Ln":12741,"UTE":12742,"Veri":12743,"cub":12744,"rq":12745,"satis":12746,"ĠON":12747,"Ġhttps":12748,"Ġchecked":12749,"derers":12750,"tear":12751,"lop":12752,"unable":12753,"tops":12754,"kegg":12755,"lave":12756,"Ġsleep":12757,"argparse":12758,"Ġ\")\"":12759,"Ġ[{}]":12760,"Ġ(\\":12761,"Ġfold":12762,"andbox":12763,"Ġamb":12764,"Ġaws":12765,"Ġdecl":12766,"dual":12767,"lsb":12768,"finditer":12769,"sume":12770,"Ġpaired":12771,"framework":12772,"catalogs":12773,"Ġ\\\\":12774,"Ġurls":12775,"identities":12776,"Ġunquote":12777,"poller":12778,"dotted":12779,"transformers":12780,"Theta":12781,"ĠInst":12782,"Ġleaf":12783,"cutout":12784,"probes":12785,"converged":12786,"Ġtranspose":12787,"Authenti":12788,"planes":12789,"Executing":12790,"Disposition":12791,"Bounds":12792,"Ġcause":12793,"Fetching":12794,"EMPTY":12795,":{}\".":12796,"MY":12797,"Sys":12798,"Vo":12799,"abu":12800,"eu":12801,"mim":12802,"nes":12803,"ngram":12804,"uf":12805,"Ġve":12806,"coconut":12807,"liseconds":12808,"Ġ'~":12809,"adb":12810,"Ġncols":12811,"Ġins":12812,"Ġ[]),":12813,"buy":12814,"quot":12815,"Ġdom":12816,"Ġtm":12817,"Ġwa":12818,"axon":12819,"mda":12820,"Ġlistener":12821,"Ġnewline":12822,"ORIG":12823,"ĠNS":12824,"ĠBit":12825,"ĠWord":12826,"Ġsilent":12827,"ives":12828,"devnull":12829,"mutate":12830,"antity":12831,"clipped":12832,"Ġtests":12833,"even":12834,"Linear":12835,"stores":12836,"Arguments":12837,"Iteration":12838,"Distribution":12839,"frontend":12840,"ĠChannel":12841,"strike":12842,"electro":12843,"Ġneighbor":12844,"AES":12845,"GLOBAL":12846,"OW":12847,"Watch":12848,"due":12849,"frm":12850,"mtype":12851,"nid":12852,"tre":12853,"}={":12854,"âĶ":12855,"recomm":12856,"readed":12857,"arb":12858,"forwar":12859,"Ġnick":12860,"asdict":12861,"Ġff":12862,"pores":12863,"linenum":12864,"colnames":12865,"illed":12866,"fabs":12867,"Ġmt":12868,"Ġdr":12869,"configfile":12870,"company":12871,"Ġthrough":12872,"sigs":12873,"writeln":12874,"ĠMax":12875,"Ġlinestyle":12876,"ENTER":12877,"Dictionary":12878,"Detail":12879,"Ġanother":12880,"Ġjump":12881,"Ġshard":12882,"Ġunused":12883,"sorting":12884,"Ġatt":12885,"Ġqry":12886,"auc":12887,"audi":12888,"ntl":12889,"analyzer":12890,"fetcher":12891,"ĠStart":12892,"99999999":12893,"spacer":12894,"Ġvox":12895,"Synap":12896,"windll":12897,"substitutions":12898,"occurrence":12899,"tweets":12900,"heatmap":12901,"REMOTE":12902,"ĠMatrix":12903,"SerializeToString":12904,">\".":12905,"Case":12906,"FP":12907,"FLOW":12908,"GPS":12909,"Panel":12910,"VL":12911,"cise":12912,"hid":12913,"smoothing":12914,"}),":12915,"Ġreshape":12916,"lost":12917,"getmtime":12918,"Ġni":12919,"Ġinfile":12920,"Ġsink":12921,"setChecked":12922,"keyboard":12923,"Ġrestart":12924,"Ġttl":12925,"Ġhs":12926,"Ġeight":12927,"accn":12928,"Ġgetpass":12929,"ĠCal":12930,"ĠCan":12931,"INE":12932,"ĠEditor":12933,"ĠDX":12934,"blockstack":12935,"DESC":12936,"ALIGN":12937,"6400":12938,"Ġnotes":12939,"(**{":12940,"postgres":12941,"Ġoutside":12942,"thesis":12943,"instant":12944,"MAV":12945,"Paths":12946,"sterday":12947,"Ġ'_'.":12948,"cuts":12949,"Ġaddresses":12950,"detected":12951,"Ġimported":12952,"thickness":12953,"xlsx":12954,"èİ·åıĸ":12955,"BS":12956,"Hy":12957,"LER":12958,"Mapper":12959,"RIGHT":12960,"_),":12961,"ible":12962,"isis":12963,"iki":12964,"äº":12965,"Ġlinalg":12966,"Ġ...')":12967,"apache":12968,"assist":12969,"(\"'%":12970,"Ġsky":12971,"ott":12972,"Ġwatch":12973,"usb":12974,"='<":12975,"mbda":12976,"mdb":12977,"rypt":12978,"Convert":12979,"connectivity":12980,"iterkeys":12981,"SECTION":12982,"Dev":12983,"Ġformats":12984,"Media":12985,"PROXY":12986,"ATIONS":12987,"penalty":12988,"xxx":12989,"imators":12990,"ĠIDs":12991,"vocabulary":12992,"Selector":12993,"Selected":12994,"guild":12995,"Ġestimator":12996,"utterance":12997,"Ġcoeffs":12998,"Ignoring":12999,"Ġapprox":13000,"Surface":13001,"(~":13002,"360":13003,"AGER":13004,"Alt":13005,"Click":13006,"El":13007,"Has":13008,"Machine":13009,"Pass":13010,"ku":13011,"wg":13012,"ym":13013,"}).":13014,"æĺ":13015,"Ġ;":13016,"Ġur":13017,"ansible":13018,"()._":13019,"uninstall":13020,"concept":13021,"'][:,":13022,"Ġpref":13023,"Ġpitch":13024,"filepaths":13025,"serted":13026,"trs":13027,"Ġformu":13028,"ills":13029,"het":13030,"linestyle":13031,"duction":13032,"respond":13033,"contribution":13034,"Ġown":13035,"Retry":13036,"([_":13037,"nps":13038,"Ġdic":13039,"spection":13040,"icer":13041,"ĠNAME":13042,"DEV":13043,"Ġ\\\"":13044,"...'.":13045,"PEM":13046,"goids":13047,"overview":13048,"ptc":13049,"111":13050,"TRACT":13051,"surro":13052,"NTU":13053,"COMMENT":13054,"Resources":13055,"Ġmpl":13056,"Minimum":13057,"ĠSearch":13058,"CRY":13059,"attery":13060,"guide":13061,"COLUM":13062,"Overlap":13063,"Ġpopulation":13064,"skew":13065,"Modified":13066,"ĠDocument":13067,"GetRowValue":13068,"Ġformula":13069,")\".":13070,"Actions":13071,"BIT":13072,"Cert":13073,"Issue":13074,"Pointer":13075,"Ratio":13076,"Some":13077,"_()":13078,"gfile":13079,"Ġ99":13080,"Ġutc":13081,"ora":13082,"deb":13083,"uring":13084,"dimage":13085,"peting":13086,"third":13087,"Ġinside":13088,"mast":13089,"uploaded":13090,"spider":13091,"Ġmapper":13092,"Ġdl":13093,"Ġdash":13094,"perp":13095,"Ġrd":13096,"newlines":13097,"Ġeven":13098,"odb":13099,"syms":13100,"ĠSM":13101,"{}-":13102,"'])]":13103,"licenses":13104,"libraries":13105,"ĠMag":13106,"tmpfile":13107,"Ġsublist":13108,"voke":13109,"cern":13110,"Ġresolver":13111,"ĠLay":13112,"ATED":13113,"Ġchecking":13114,"Ġtemporary":13115,"symbolic":13116,"Ġlocations":13117,"affinity":13118,"Side":13119,"Ġpolygon":13120,"Ġlaunch":13121,"EXTEN":13122,"ALIAS":13123,"COMPLETE":13124,"Ġembedding":13125,"Dstn":13126,"Amount":13127,"Flat":13128,"Github":13129,"bh":13130,"bk":13131,"hdfs":13132,"imap":13133,"oser":13134,"places":13135,"Ġmedian":13136,"ince":13137,"inverted":13138,"arri":13139,"rote":13140,"diver":13141,"('+":13142,"['<":13143,"']*":13144,"Ġports":13145,"Ġ\"?":13146,"provide":13147,"Ġrepl":13148,"itations":13149,"itors":13150,"ubi":13151,"),(":13152,"Ġstatistics":13153,"curdir":13154,"subpath":13155,"grouping":13156,"trajs":13157,"linkage":13158,"bios":13159,"Ġpredict":13160,"Ġ42":13161,"scalars":13162,"globs":13163,"ĠISO":13164,"250":13165,"aive":13166,"connecting":13167,"Ġcheckpoint":13168,"OPTION":13169,"Ġtemplates":13170,"Ġinitialize":13171,"gradebook":13172,"Children":13173,"Ġpredictions":13174,"(\"'\",":13175,"CharP":13176,"restriction":13177,"GREEN":13178,"Ġalphabet":13179,"Archive":13180,"RETURN":13181,"âĸĪ":13182,")[:-":13183,"Cancel":13184,"MARY":13185,"SG":13186,"Uri":13187,"hape":13188,"hsv":13189,"ipe":13190,"tmax":13191,"reet":13192,"rels":13193,"metal":13194,"nameserver":13195,"lide":13196,"rescale":13197,"thr":13198,"togen":13199,"(\"\".":13200,"parm":13201,"logic":13202,"Ġrem":13203,"Ġdct":13204,"Ġrl":13205,"Ġhp":13206,"labor":13207,"cao":13208,"cach":13209,"Real":13210,"sigmoid":13211,"writelines":13212,"ifti":13213,"ĠPost":13214,"reement":13215,"workbook":13216,"trait":13217,"Ġalso":13218,"DELI":13219,"Ġsubscription":13220,"diffuse":13221,"goti":13222,"*(\\":13223,"ĠĠĠĠĠĠĠĠĠĠĠĠĠĠĠĠĠ":13224,"(','.":13225,"successful":13226,"hyp":13227,"2014":13228,"Ġintegers":13229,"3600":13230,"SIGTERM":13231,"25519":13232,"Ġsmart":13233,"'^\\":13234,"Ġpredicted":13235,"learner":13236,"Returns":13237,"Monitor":13238,"restricted":13239,"ĠView":13240,"referred":13241,"Activation":13242,"witness":13243,"DESCRIPTION":13244,"bundles":13245,"ORIGIN":13246,"CTYPE":13247,"FMT":13248,"FONT":13249,"Green":13250,"Xs":13251,"dal":13252,"eck":13253,"fdata":13254,"jb":13255,"nable":13256,"saml":13257,"vk":13258,"xo":13259,"Ġray":13260,"relax":13261,"decision":13262,"Ġ'+'":13263,"))).":13264,"Ġnullable":13265,"Ġphoto":13266,"Ġib":13267,"msb":13268,"Ġway":13269,"scf":13270,"scaff":13271,"Ġdeps":13272,"Ġstrand":13273,"acle":13274,"bea":13275,"ĠAction":13276,"ĠFrame":13277,"stacks":13278,"PED":13279,"Seconds":13280,"ElementTree":13281,"downloads":13282,"anchore":13283,"blur":13284,"aught":13285,"Ġtrailing":13286,"Ġ'-'.":13287,"Ġinterpret":13288,"vmware":13289,"Ġ\"/\".":13290,"Quo":13291,"survi":13292,"rerror":13293,"Ġcoordinate":13294,"Ġpkt":13295,"CODES":13296,"Ġscaling":13297,"allocated":13298,"Ġxyz":13299,"Ġbroker":13300,"('\\\\',":13301,"Choice":13302,"replicas":13303,"Ġdynamic":13304,"stringToCharP":13305,"aternion":13306,"Band":13307,"Ok":13308,"PG":13309,"PID":13310,"flight":13311,"hpx":13312,"ior":13313,"jp":13314,"rts":13315,"vgp":13316,"zorder":13317,"åĽ":13318,"inheri":13319,"tect":13320,"rive":13321,"Ġpwd":13322,"except":13323,"(\"@":13324,"Ġagg":13325,"),))":13326,"quared":13327,"Ġmc":13328,"Ġtpl":13329,"joinpath":13330,"readers":13331,"=''":13332,"itecture":13333,"preferences":13334,"Ġem":13335,"axy":13336,"Ġvlan":13337,"..\")":13338,"RESO":13339,"irp":13340,"succ":13341,"SEEK":13342,"manence":13343,"ĠIPython":13344,"ĠExp":13345,"ĠUcs":13346,"]+)',":13347,"Ġfake":13348,"Optimi":13349,"TAIL":13350,"ĠĠĠĠĠĠĠĠĠĠĠĠĠĠĠĠĠĠĠ":13351,"geojson":13352,"Checker":13353,"FOUND":13354,"blobs":13355,"Disk":13356,"cntl":13357,"monitoring":13358,"Ġstarts":13359,"rhol":13360,"WAIT":13361,"(\":\")[":13362,"UNICODE":13363,"________________":13364,"ĠOneLogin":13365,",_":13366,"/\",":13367,"CTED":13368,"HDU":13369,"Prf":13370,"TB":13371,"asi":13372,"hpars":13373,"kid":13374,"kms":13375,"nxt":13376,"vP":13377,"see":13378,"iness":13379,"mets":13380,"demo":13381,"deserialized":13382,"chassis":13383,"Ġslope":13384,"android":13385,"sps":13386,"'.\")":13387,"pytz":13388,"labs":13389,"hoo":13390,"writes":13391,"ĠSSL":13392,"**(-":13393,"Ġdirec":13394,"ressor":13395,"Ġlr":13396,"Ġ300":13397,"Static":13398,"magenta":13399,"modpath":13400,"ĠBY":13401,"rtl":13402,"centroids":13403,"erial":13404,"Ġbug":13405,"singular":13406,"loops":13407,"]+',":13408,"Ġinstit":13409,"###":13410,"DOMAIN":13411,"OPER":13412,"Ġphone":13413,"decorated":13414,"watcher":13415,"INTERN":13416,"digital":13417,"Syntax":13418,"Binding":13419,"Measure":13420,"Abstract":13421,"Ġneighbors":13422,"organism":13423,"/\")":13424,";')":13425,"CN":13426,"Ctx":13427,"Embed":13428,"Fo":13429,"Frequency":13430,"kf":13431,"ncol":13432,"nbins":13433,"plen":13434,"south":13435,"vname":13436,"zo":13437,"æį":13438,"Ġck":13439,"ĠOR":13440,"Ġvectors":13441,"Ġobserved":13442,"atexit":13443,"deck":13444,"tiled":13445,"timesteps":13446,"Ġreach":13447,"shlex":13448,"ising":13449,"codeError":13450,"scape":13451,"readonly":13452,"Ġisn":13453,"Ġrg":13454,"Ġdefine":13455,"minmax":13456,"Ġgui":13457,"ĠSeq":13458,"genus":13459,"ĠPackage":13460,"ĠAN":13461,"ĠAES":13462,"Ġchart":13463,"ĠDI":13464,"plotting":13465,"graphics":13466,"ENTRY":13467,"Ġcompound":13468,"Ġunwrap":13469,"GetOutput":13470,"early":13471,"Ġatol":13472,"PIX":13473,"=[])":13474,"Ġrunas":13475,"Ġcanonical":13476,"Video":13477,"GroupName":13478,"(\"-\",":13479,"SIGINT":13480,"MAPPING":13481,"Ġraster":13482,"BadRequest":13483,"needle":13484,"ĠINTO":13485,"SYSTEM":13486,"Ġsupply":13487,"POSITION":13488,"abbreviation":13489,"anonymous":13490,"\"\")":13491,"AK":13492,"EAD":13493,"Html":13494,"Nu":13495,"Plain":13496,"TON":13497,"Tools":13498,"^{":13499,"ace":13500,"bol":13501,"fed":13502,"hdl":13503,"ira":13504,"ofile":13505,"pmid":13506,"slicer":13507,"tmin":13508,"vap":13509,"zk":13510,"renew":13511,"remap":13512,"rebuild":13513,"cobian":13514,"teams":13515,"than":13516,"datadir":13517,"keyring":13518,"Ġfm":13519,"formatters":13520,"quid":13521,"fami":13522,"igner":13523,"Ġwc":13524,"Ġwt":13525,"Ġ26":13526,"([('":13527,"baseurl":13528,"Ġthem":13529,"dynamo":13530,"itervalues":13531,"Ġanno":13532,"Ġuserid":13533,"Sets":13534,"Ġspecs":13535,"election":13536,"(-(":13537,"bitmap":13538,"TRM":13539,"Ġchecks":13540,"EventData":13541,"Ġadv":13542,"}.\".":13543,"Ġ<<=":13544,"randrange":13545,"enumerate":13546,"tarball":13547,"Instances":13548,"Ġregions":13549,"Signals":13550,"Ġmodify":13551,"........":13552,"pagination":13553,"ORIZ":13554,"lifetime":13555,"Ġaggregate":13556,"{}\"'.":13557,"Branch":13558,"WHITE":13559,"Ġevaluate":13560,"ĠeightBit":13561,"?[":13562,"DM":13563,"Nv":13564,"Owner":13565,"Pmt":13566,"PLU":13567,"dts":13568,"flex":13569,"iff":13570,"mw":13571,"wkt":13572,"Ġterminal":13573,"invite":13574,"stp":13575,"engines":13576,"tition":13577,"chord":13578,"Ġ'('":13579,"Ġpot":13580,"Ġinverse":13581,"Ġsong":13582,"Ġfcntl":13583,"Req":13584,"iles":13585,"ĠPool":13586,"ĠAR":13587,"wnd":13588,"ĠFLAGS":13589,"magcol":13590,"datetimes":13591,"ALY":13592,"distrib":13593,"Deg":13594,"ĠImpro":13595,"TIT":13596,"TIES":13597,"earth":13598,"multiline":13599,"symmetric":13600,"nnz":13601,"surname":13602,"Ġabspath":13603,"continuation":13604,"ategorical":13605,"Ġvisu":13606,"Ġsecondary":13607,"(\"_\",":13608,"PmagResRec":13609,"WORDS":13610,"javascript":13611,"Ġoccured":13612,"\"\".":13613,")},":13614,"+'\\":13615,"885":13616,"BAR":13617,"DL":13618,"Da":13619,"PORTED":13620,"TK":13621,"eli":13622,"hyperedge":13623,"offer":13624,"rink":13625,"you":13626,"}%":13627,"cean":13628,"apdu":13629,"siz":13630,"rab":13631,"Ġpat":13632,"throw":13633,"Ġinline":13634,"Ġimple":13635,"Ġsg":13636,"Ġsing":13637,"Ġscheduler":13638,"argparser":13639,"movie":13640,"Ġfld":13641,"Ġfrequencies":13642,"prom":13643,"notice":13644,"viol":13645,"Ġduplic":13646,"ites":13647,"Ġear":13648,"hould":13649,"systems":13650,"ĠSu":13651,"ĠSSH":13652,"=\"\"":13653,"ĠMan":13654,"ĠMake":13655,"ĠMIME":13656,"ANY":13657,"Ġ\"%.":13658,"Contin":13659,"editable":13660,"Ġdocstring":13661,"ributions":13662,"Ġprocessor":13663,"combination":13664,"Ġgeneral":13665,"Ġextras":13666,"Ġlocator":13667,"EndOf":13668,"MIS":13669,"MISS":13670,"Feed":13671,"sbj":13672,"Ġconflict":13673,"Ġfrag":13674,"Primary":13675,"Hello":13676,"artists":13677,"sessment":13678,"Samples":13679,"privkey":13680,"Structure":13681,"Coordinate":13682,"Pixmap":13683,"GlobalFile":13684,"producer":13685,"Ġfastq":13686,"ĠFIX":13687,"stddevs":13688,"Edges":13689,"Ġattempt":13690,"Fragment":13691,"CERT":13692,"Ġrecipient":13693,"Expecting":13694,"STYLE":13695,"'/":13696,"401":13697,"IE":13698,"Platform":13699,"Sort":13700,"imin":13701,"åĬ":13702,"Ġliteral":13703,"iny":13704,"unhexlify":13705,"gettext":13706,"Ġpw":13707,"Ġpsd":13708,"Ġpoll":13709,"Ġperson":13710,"Ġinds":13711,"mobj":13712,"Ġ[{\"":13713,"Ġfpath":13714,"\");":13715,"ils":13716,"varargs":13717,"Inc":13718,"Ġ:].":13719,"cable":13720,"symb":13721,"ĠSp":13722,"Ġbelow":13723,"ĠPh":13724,"popen":13725,"traversal":13726,"Ġkappa":13727,"DataArray":13728,"Ġsubparsers":13729,"Ġ\\\"%":13730,"ROLE":13731,"goid":13732,"Subnet":13733,"ĠLiteral":13734,"Ġ655":13735,"Ġblocksize":13736,"USH":13737,"symm":13738,"observe":13739,"clazz":13740,"synset":13741,"Ġlocate":13742,"RITICAL":13743,"StreamHandler":13744,"duplicated":13745,"Ġtxn":13746,"pruned":13747,"ĠFormat":13748,"datapath":13749,"simplify":13750,"determine":13751,"frontier":13752,"ĠHeader":13753,"ObsTrack":13754,"STORE":13755,"HG":13756,"LH":13757,"Plan":13758,"Scores":13759,"Vm":13760,"ZONE":13761,"camel":13762,"Ġlight":13763,"arded":13764,"alone":13765,"concrete":13766,"ritical":13767,"datafile":13768,"topk":13769,"');":13770,"uming":13771,"moved":13772,"filehandle":13773,"applications":13774,"Ġcancel":13775,"vigation":13776,"baz":13777,"urlsafe":13778,"aming":13779,"Ġstudy":13780,"scen":13781,"Ġeff":13782,"Ġyi":13783,"tagger":13784,"sensitivity":13785,"INST":13786,"regression":13787,"okies":13788,"STATIC":13789,"dedent":13790,"icense":13791,"bitr":13792,"srcdir":13793,"Ġshutit":13794,"ĠRemote":13795,"accessor":13796,"books":13797,"crval":13798,"Ġauthors":13799,"Ġexpanded":13800,"Ġleading":13801,"qualities":13802,"Filters":13803,"Ġtip":13804,"Ġ[[]":13805,"sbml":13806,"CIM":13807,"rxn":13808,"Direction":13809,"GRAM":13810,"Ġsimulation":13811,"BEGIN":13812,"Ġzonefile":13813,"Steps":13814,"Ġexpires":13815,"warmup":13816,"SCRIPT":13817,"PyCdlibInternalError":13818,"Ġwalk":13819,"Ġdenom":13820,"PyCdlibInvalidISO":13821,"Training":13822,"\"[":13823,":]),":13824,"Final":13825,"PAN":13826,"bfd":13827,"cw":13828,"dlog":13829,"lid":13830,"nh":13831,"pho":13832,"wel":13833,"yt":13834,"ç»":13835,"Ġter":13836,"ĠUnable":13837,"Ġaliases":13838,"indep":13839,"stime":13840,"strerror":13841,"liq":13842,"ras":13843,"'][-":13844,"mpi":13845,"mpstate":13846,"Ġpast":13847,"argtypes":13848,"appendleft":13849,"produce":13850,"spon":13851,"fox":13852,"Ġmasked":13853,"Ġwell":13854,"'.\"":13855,"Ġdetail":13856,"epub":13857,"ĠStop":13858,"Ġvpc":13859,"sending":13860,"Contact":13861,"tens":13862,"orized":13863,"cyc":13864,"ĠIt":13865,"eriodic":13866,"Keyword":13867,"ĠExit":13868,"168":13869,"threading":13870,"binds":13871,"Ġworks":13872,"qualifiers":13873,"cluding":13874,"actors":13875,"Author":13876,"multiplicity":13877,"Ġmetavar":13878,"(\"/\",":13879,"rapid":13880,"triples":13881,"Closed":13882,"Before":13883,"Termin":13884,"millis":13885,"Ġrelationship":13886,"RUNNING":13887,"shifts":13888,"Ġ``_":13889,"inheritance":13890,"Ġsplits":13891,"Wallet":13892,"desktop":13893,"Kernel":13894,"Reviewing":13895,"sbjct":13896,"-\"":13897,"?\",":13898,"Cp":13899,"_='":13900,"ctive":13901,"gmtime":13902,"mpeg":13903,"nro":13904,"reraise":13905,"onsets":13906,"allocation":13907,"lea":13908,"rock":13909,"()')":13910,"lights":13911,"chg":13912,"ctree":13913,"']/":13914,"Ġpur":13915,"then":13916,"Ġ\";":13917,"optimal":13918,"Ġfu":13919,"formatting":13920,"Ġreward":13921,"Ġmtime":13922,"sizeof":13923,"scm":13924,"dog":13925,"subtitle":13926,"Ġ::":13927,"cesses":13928,"clim":13929,"ĠTri":13930,"tracked":13931,"Ġsubmit":13932,"Ġ['%":13933,"postfix":13934,"flav":13935,"torrent":13936,"KeyError":13937,"Arr":13938,"mismatch":13939,"barcode":13940,"Ġrunner":13941,"estimators":13942,"TRL":13943,"nanmax":13944,"Ġiterator":13945,"ĠInstance":13946,"pkgname":13947,"reduction":13948,"Ġworkers":13949,"Ġstddev":13950,"MessageBox":13951,"bandwidth":13952,"ĠCould":13953,"VIEW":13954,"dimensional":13955,"SAMPLE":13956,"Ġdispatch":13957,"sftp":13958,"Ġscaled":13959,"Serial":13960,"aneous":13961,"ĠInterval":13962,"GENER":13963,"amazon":13964,"Ġqubits":13965,"HIGH":13966,"Requirement":13967,"Spectrum":13968,"underscore":13969,"sufficient":13970,"(.+":13971,")==":13972,"./(":13973,"^\\":13974,"_{}_":13975,"bas":13976,"knn":13977,"lus":13978,"rin":13979,"want":13980,"æģ":13981,"recovery":13982,"rejected":13983,"inations":13984,"stress":13985,"tial":13986,"analog":13987,"getting":13988,"tocsr":13989,"Ġsolve":13990,"osc":13991,"Ġdn":13992,"permutations":13993,"indexing":13994,"Ġ##":13995,"dots":13996,"userinfo":13997,"gran":13998,"Ġdialog":13999,"ĠTYPE":14000,"uniprot":14001,"calling":14002,"ĠMust":14003,"Loss":14004,"Ġalert":14005,"Para":14006,"ĠBack":14007,"Ġsubclass":14008,"Ġsubstit":14009,"Destro":14010,"FIRST":14011,"GetValue":14012,"topt":14013,"uppercase":14014,"sentinel":14015,"Ġretries":14016,"Texture":14017,"ldp":14018,"Ġdateutil":14019,"Activity":14020,"Ġupgrade":14021,"samps":14022,"fcntl":14023,"communities":14024,"Ġkws":14025,"Generic":14026,"Does":14027,"RECORD":14028,"Phase":14029,"resampled":14030,"Ġrecipe":14031,"Ġstrides":14032,"Peer":14033,"MULTILINE":14034,"Creation":14035,"Catalog":14036,"families":14037,"Destroy":14038,"\"(?":14039,"FG":14040,"Mi":14041,"Other":14042,"Place":14043,"PDF":14044,"Self":14045,"dsa":14046,"hbox":14047,"ntp":14048,"Ġquestion":14049,"requi":14050,"lee":14051,"copt":14052,"roke":14053,"()].":14054,"apert":14055,"('['":14056,"['%":14057,"Ġpx":14058,"umbs":14059,"setResults":14060,"Ġ%=":14061,"otonic":14062,"timeperiod":14063,"obao":14064,"Ġwf":14065,"Include":14066,"subsystem":14067,"Ġequi":14068,"hourly":14069,"basepath":14070,"ĠCl":14071,"--')":14072,"ĠEnd":14073,"ĠEND":14074,"spell":14075,"ĠALL":14076,"Ġchat":14077,"rootdir":14078,"ĠDown":14079,"transf":14080,"lldp":14081,"exports":14082,"Ġalg":14083,"edgecolor":14084,"constrained":14085,"://{":14086,"Ġapplied":14087,"THREAD":14088,"expandvars":14089,"EXCEP":14090,"mutually":14091,"Ġlonger":14092,"Both":14093,"TableName":14094,"Ġcorr":14095,"Ġcorpus":14096,"('_')[":14097,"ConnectionError":14098,"carrier":14099,"STRU":14100,"\\'',":14101,"CONFIGURATION":14102,"Ġstyles":14103,"Ġserialized":14104,"buffered":14105,"Workflow":14106,"integrate":14107,"criterion":14108,"ellipse":14109,"Ġhgnc":14110,"individuals":14111,"æģ¯":14112,"setResultsName":14113,"*_":14114,"BH":14115,"GUI":14116,"Lon":14117,"MX":14118,"Pay":14119,"UD":14120,"Va":14121,"Vect":14122,"crt":14123,"pvals":14124,"swarm":14125,"Ġvariants":14126,"retention":14127,"Ġ'']":14128,"Ġsun":14129,"Ġ\"</":14130,"pathway":14131,"Ġflip":14132,"Ġcrc":14133,"outpath":14134,"Ġrename":14135,"Ġreaction":14136,"shear":14137,"addon":14138,"Ġdeno":14139,"paint":14140,"Ġ/*":14141,"caches":14142,"filing":14143,"ĠCLI":14144,"lockfile":14145,"Ġsets":14146,"Standard":14147,"serie":14148,"ARGS":14149,"Ġassigned":14150,"ACES":14151,"particles":14152,"ĠLe":14153,"managers":14154,"fractions":14155,"Ġ-->":14156,"crd":14157,".*)":14158,"sides":14159,"badge":14160,"5678":14161,"MIC":14162,"Scene":14163,"Ġdistances":14164,"predicates":14165,"Converting":14166,"Ġclause":14167,"modulename":14168,"Ġexactly":14169,"alesce":14170,"descendants":14171,"perlyConfigured":14172,"synonyms":14173,"Ġpercenti":14174,"Ġascending":14175,"!<":14176,"$\")":14177,">[":14178,"Age":14179,"Bed":14180,"Epoch":14181,"Hint":14182,"KB":14183,"ah":14184,"crash":14185,"eigh":14186,"gss":14187,"hess":14188,"nans":14189,"sma":14190,"vb":14191,"reed":14192,"ligh":14193,"asser":14194,"databases":14195,"topy":14196,"stry":14197,"Ġbond":14198,"outfiles":14199,"])-":14200,"splice":14201,"spines":14202,"bust":14203,"addItem":14204,"__('":14205,"Ġdefer":14206,"curie":14207,"compartment":14208,"Ġ2000":14209,"Ġedit":14210,"Rece":14211,"temps":14212,"ĠSpe":14213,"Ġdigit":14214,"phinx":14215,"universe":14216,"staging":14217,"STAMP":14218,"authn":14219,"ĠFloat":14220,"priori":14221,"ĠIs":14222,"Resolver":14223,"Ġcompiler":14224,"Ġoutdir":14225,"indicators":14226,"PEG":14227,"uppress":14228,"Mouse":14229,"Ġopened":14230,"algorithms":14231,"Ġblockchain":14232,"symlinks":14233,"Ġclassname":14234,"Ġextracted":14235,"ĠComple":14236,"cardinality":14237,"Ġskipped":14238,"separators":14239,"(\"{}:":14240,"Ġhistogram":14241,"Ġ'#'":14242,"Ġmimetypes":14243,"('|')":14244,"ĠContentType":14245,"ambiguous":14246,"Switch":14247,"ĠFeature":14248,"knotvector":14249,"BATCH":14250,"Malformed":14251,"OLD":14252,"Prd":14253,"TMP":14254,"fstr":14255,"gallery":14256,"pdata":14257,"psa":14258,"zmax":14259,"Ġquantity":14260,"Ġletter":14261,"Ġ],[":14262,"ined":14263,"dean":14264,"idy":14265,"Ġ'..":14266,"elts":14267,"Ġsv":14268,"ummary":14269,"Ġ\"'\"":14270,"mos":14271,"Ġbel":14272,"prows":14273,"shap":14274,"ilation":14275,"quals":14276,"amble":14277,"Ġ27":14278,"Ġgu":14279,"Ġgpg":14280,"Ġgandi":14281,"mds":14282,"Ġconfidence":14283,"clidean":14284,"Ġseason":14285,"currentIndex":14286,"IDX":14287,"quiz":14288,"ĠRel":14289,"Colour":14290,"Deferred":14291,"openssl":14292,"Ġshapes":14293,"GetPoint":14294,"Ġpycbc":14295,"pairwise":14296,"'\\\\":14297,"Ġgroupby":14298,"Ġsoft":14299,"ById":14300,"solr":14301,"rolling":14302,"VALUES":14303,"aggregations":14304,"vagrant":14305,"Methods":14306,"integral":14307,"alphas":14308,"swapaxes":14309,"Ġcapacity":14310,"Rules":14311,"Ġgateway":14312,"Ġbootstrap":14313,"quarter":14314,"tleneck":14315,"Ġproxies":14316,"Destination":14317,"FLOAT":14318,"ĠImproperlyConfigured":14319,"(...":14320,"*\",":14321,";',":14322,"={})":14323,"Bro":14324,"Cent":14325,"EFF":14326,"NI":14327,"Patch":14328,"Vis":14329,"_.__":14330,"blog":14331,"dvs":14332,"dtheta":14333,"dbus":14334,"uk":14335,"xv":14336,"xfer":14337,"ython":14338,"ä¿":14339,"Ġht":14340,"ĠTry":14341,"relay":14342,"independent":14343,"orph":14344,"()*":14345,"toarray":14346,"made":14347,"Ġbrowser":14348,"Ġmult":14349,"Ġtenant":14350,"prs":14351,"[\"__":14352,"acs":14353,"rowse":14354,"omit":14355,"INF":14356,"phys":14357,"sqs":14358,"Resid":14359,"Ġobjective":14360,"histo":14361,"bitcoind":14362,"NotSet":14363,"ceivers":14364,"Ġworkspace":14365,"Ġgeneration":14366,"Dirs":14367,"rhog":14368,"Week":14369,"satrec":14370,"subscribers":14371,"Ġraised":14372,"chrome":14373,"Ġrealm":14374,"Dynamic":14375,"outcomes":14376,"Ġbasic":14377,"Completed":14378,"Pixel":14379,"STANCE":14380,"################":14381,"grey":14382,"BINARY":14383,"Blue":14384,"ĠOutput":14385,"RDFDatetime":14386,"PACKAGE":14387,"epilog":14388,"ĠVALUES":14389,"ĠTOPRequest":14390,"!='":14391,"\"$":14392,"+\")":14393,"+(\\":14394,";\",":14395,"=(\"":14396,"=\")":14397,"CSS":14398,"Guest":14399,"Literal":14400,"bqm":14401,"dname":14402,"kron":14403,"slit":14404,"vpn":14405,"Ġå":14406,"Ġfil":14407,"repositories":14408,"uro":14409,"lix":14410,"Ġ'['":14411,"utors":14412,"('//":14413,"conda":14414,"Ġinfer":14415,"umin":14416,"opatch":14417,"keyname":14418,"outside":14419,"Ġ*/":14420,"heapp":14421,"Ġdh":14422,"Ġdstore":14423,"renderers":14424,"perturb":14425,"preamble":14426,").\"":14427,"Indx":14428,"frombuffer":14429,"Ġthresh":14430,"Repe":14431,"Ġgp":14432,"Ġgradient":14433,"ĠSO":14434,"imate":14435,"abridge":14436,"mib":14437,"tpm":14438,"ĠMem":14439,"iterate":14440,"SEP":14441,"SENT":14442,"directions":14443,"Ġencountered":14444,"manent":14445,"seqres":14446,"TIFI":14447,"Times":14448,"Ġsimp":14449,"descs":14450,"Ġ('%":14451,"Ġregistration":14452,"smallest":14453,"TAIN":14454,"Ġexplicit":14455,")\"%(":14456,"BOX":14457,"ligol":14458,"MIME":14459,"Ġcalculation":14460,"Ġcleaned":14461,"Ġsimil":14462,"advance":14463,"ISTS":14464,"(\"/\")[-":14465,"CONNECT":14466,"NETWORK":14467,"Assignment":14468,"worst":14469,"\"<":14470,"?%":14471,"Cti":14472,"ELE":14473,"Gu":14474,"MG":14475,"MARK":14476,"Slice":14477,"VED":14478,"WM":14479,"ZED":14480,"mile":14481,"ptype":14482,"Ġche":14483,"ĠUN":14484,"iname":14485,"stu":14486,"enh":14487,"dico":14488,"sics":14489,"getName":14490,"consolid":14491,"assigne":14492,"Ġinventory":14493,"may":14494,"uling":14495,"taobao":14496,"moother":14497,"applied":14498,"opub":14499,"Ġfut":14500,"trading":14501,"nemonic":14502,"sprint":14503,"quantile":14504,"isdigit":14505,"Ġ_)":14506,"extre":14507,"Redis":14508,"acquisition":14509,"ĠSN":14510,"ĠCustom":14511,"RESH":14512,"ĠEmail":14513,"ĠEmpty":14514,"abb":14515,"latlon":14516,"ORS":14517,"yscale":14518,"errback":14519,"ĠGot":14520,"ANALY":14521,"Ġtextwrap":14522,"finity":14523,"trainable":14524,"affi":14525,"augment":14526,"LIG":14527,"Ġnever":14528,"Ġinterfaces":14529,"Ġcoll":14530,"Ġspecific":14531,"({'_":14532,"referenced":14533,"403":14534,"Ġ95":14535,"clauses":14536,"ĠQtWidgets":14537,"patt":14538,"('\"')":14539,"Deploy":14540,"dhcp":14541,"Ġaccum":14542,"neuron":14543,"Safe":14544,"Manage":14545,"MANAGER":14546,"Connecting":14547,"undations":14548,"intenance":14549,"ENABLED":14550,"gatk":14551,"*\"":14552,"800":14553,"Days":14554,"JLink":14555,"Photo":14556,"RON":14557,"cgi":14558,"dscp":14559,"horiz":14560,"pfp":14561,"vargs":14562,"xor":14563,"zers":14564,"zij":14565,"Ġent":14566,"Ġloads":14567,"Ġlicense":14568,"semantic":14569,"react":14570,"along":14571,"Ġ'>":14572,"['{":14573,"Ġplane":14574,"Ġ\"/%":14575,"keyspace":14576,"Ġbench":14577,"ssa":14578,"Ġreferences":14579,"ilx":14580,"Ġack":14581,"Ġwd":14582,"maxiter":14583,"__'":14584,"minval":14585,"fromfile":14586,"fromkeys":14587,"csu":14588,"Ġconstruct":14589,"abbix":14590,"Ġlats":14591,"Ġlarger":14592,"angent":14593,"removal":14594,"ĠMin":14595,"External":14596,"Prob":14597,"Resp":14598,"brid":14599,"Ġmatcher":14600,"udents":14601,"CHO":14602,"Ġsympy":14603,"ngl":14604,"Ġcalls":14605,"dropped":14606,"4096":14607,"PyFunceble":14608,"PROPER":14609,"ĠInvalidArgument":14610,"(\"-\")":14611,"Tokens":14612,"DATABASE":14613,"evaluated":14614,"Ġchosen":14615,"CPU":14616,"underline":14617,"+\"/":14618,"Ġdxpy":14619,"Calling":14620,"/\"+":14621,"Ġexiting":14622,"following":14623,"Ġderiv":14624,"Ġorientation":14625,"Launch":14626,"cedure":14627,"Mesh":14628,"gaia":14629,"PmtInf":14630,"PLUGIN":14631,"ĠFIXME":14632,"BP":14633,"Cr":14634,"Focus":14635,"Nx":14636,"Rad":14637,"TF":14638,"cdelt":14639,"ey":14640,"fus":14641,"fmin":14642,"hessian":14643,"pcs":14644,"rconf":14645,"uing":14646,"Ġour":14647,"Ġtran":14648,"Ġutf":14649,"Ġadjust":14650,"recover":14651,"atol":14652,"allax":14653,"tia":14654,"lover":14655,"rooms":14656,"namedtuple":14657,"chirp":14658,"Ġ'\"%":14659,"unpacked":14660,"uncertainty":14661,"getObject":14662,"consum":14663,"])+":14664,"spw":14665,"quants":14666,"fai":14667,"isat":14668,"igar":14669,"Ġ{}),":14670,"newname":14671,"Ġdatastore":14672,"Ġgain":14673,"functools":14674,"sentry":14675,"checking":14676,"ATT":14677,"signs":14678,"Ġseqs":14679,"Ġkill":14680,"ĠDel":14681,"Ġ365":14682,"ĠRa":14683,"childNodes":14684,"ARI":14685,"sqr":14686,"catter":14687,"opening":14688,"corners":14689,"Ġjava":14690,"SetValue":14691,"Ġunable":14692,"mong":14693,"Ġretval":14694,"svm":14695,"crpix":14696,"Quantity":14697,"Ġscenario":14698,"ketch":14699,"ILL":14700,"Ġfullname":14701,"Ġclosing":14702,"Ġtrial":14703,"Ġticket":14704,"Ġkwarg":14705,"Retrieving":14706,"INTERVAL":14707,"Combo":14708,"ĠTimeout":14709,"CLAS":14710,"Ġreduced":14711,"Ġcorrectly":14712,"alternate":14713,"Coordinates":14714,"translator":14715,"siblings":14716,"voxels":14717,"skeleton":14718,"****************":14719,"phantom":14720,"ificant":14721,"vowel":14722,"teardown":14723,"Arc":14724,"CV":14725,"CRITICAL":14726,"Hidden":14727,"JO":14728,"QT":14729,"fpr":14730,"jobject":14731,"kmax":14732,"uds":14733,"yin":14734,"zure":14735,"Ġradians":14736,"inasafe":14737,"atm":14738,"tids":14739,"()+":14740,"liation":14741,"sively":14742,"confs":14743,"ully":14744,"ulong":14745,"Ġsvc":14746,"mof":14747,"Ġ[(\"":14748,"loglike":14749,"logies":14750,"Ġreload":14751,"Ġaio":14752,"),'":14753,"Ġtl":14754,"Ġtolerance":14755,"hover":14756,"Ġ[];":14757,"axvline":14758,"grids":14759,"ĠCall":14760,"sents":14761,"immediate":14762,"=\"/":14763,"ĠTarget":14764,"recorder":14765,"ĠNX":14766,"prefixed":14767,"centration":14768,"ĠOver":14769,"Ġcurrency":14770,"ACTIVE":14771,"pubsub":14772,"Subscription":14773,"Ġspatial":14774,"singleton":14775,"Ġretrieved":14776,"Ġtraj":14777,"Ġmade":14778,"symmetry":14779,"Ġ\"{:":14780,"(','))":14781,"Leg":14782,"Inputs":14783,"Messages":14784,"Registration":14785,"bgcolor":14786,"Ranges":14787,"detections":14788,"Ġevaluation":14789,"Generate":14790,"chroms":14791,"IFT":14792,"Ġaligned":14793,"tuning":14794,"contours":14795,"Ġbroadcast":14796,"Initial":14797,"Diffe":14798,"ĠParameterError":14799,"conflicts":14800,"declarations":14801,"ĠPOST":14802,"SetInputData":14803,"ligolw":14804,"$\"":14805,"130":14806,"=(',',":14807,"Ca":14808,"Cla":14809,"Don":14810,"HEL":14811,"\\-":14812,"][:]":14813,"blocked":14814,"kdims":14815,"mma":14816,"nmax":14817,"oh":14818,"ply":14819,"sse":14820,"Ã©":14821,"atan":14822,"statistic":14823,"decls":14824,"roster":14825,"'])))":14826,"Ġnrows":14827,"Ġptr":14828,"opj":14829,"Ġfri":14830,"Ġcn":14831,"Ġcalibration":14832,"Ġreserved":14833,"Ġforms":14834,"Ġair":14835,"addCons":14836,"prints":14837,"Ġtoks":14838,"Ġxx":14839,"prece":14840,"userdata":14841,"Reason":14842,"Ġgs":14843,"alib":14844,"Ġexcluded":14845,"Ġprotein":14846,"ĠTIME":14847,"gens":14848,"derive":14849,"Ġ33":14850,"netmask":14851,"Ġalbum":14852,"ARRAY":14853,"Ġcoerce":14854,"Ġ'%.":14855,"Ġ45":14856,"Decoder":14857,"ĠGamma":14858,"Ġends":14859,"Ġshutdown":14860,"Ġunsupported":14861,"Ġindexing":14862,"ledger":14863,"overflow":14864,"ĠLabel":14865,"nonlocal":14866,"*(-":14867,"CEL":14868,"Ġboard":14869,"fluent":14870,"]*\\":14871,"Ġ\",\"":14872,"writers":14873,"acher":14874,"Ġhashes":14875,"Ġexecutor":14876,"('./":14877,"Ġwindows":14878,"Closing":14879,"cipant":14880,"Ġpep":14881,"('=')[":14882,"estimates":14883,"Character":14884,"compounds":14885,
[...]
