{"version":"1.0","truncation":null,"padding":null,"added_tokens":[{"id":0,"special":true,"content":"</s>","single_word":false,"lstrip":false,"rstrip":false,"normalized":false},{"id":1,"special":true,"content":"<pad>","single_word":false,"lstrip":false,"rstrip":false,"normalized":false}],"normalizer":null,"pre_tokenizer":{"type":"ByteLevel","add_prefix_space":false,"trim_offsets":true},"post_processor":{"type":"ByteLevel","add_prefix_space":true,"trim_offsets":false},"decoder":{"type":"ByteLevel","add_prefix_space":true,"trim_offsets":true},"model":{"dropout":null,"unk_token":null,"continuing_subword_prefix":null,"end_of_word_suffix":null,"fuse_unk":false,"vocab":{"</s>":0,"<pad>":1,"!":2,"\"":3,"#":4,"$":5,"%":6,"&":7,"'":8,"(":9,")":10,"*":11,"+":12,",":13,"-":14,".":15,"/":16,"0":17,"1":18,"2":19,"3":20,"4":21,"5":22,"6":23,"7":24,"8":25,"9":26,":":27,";":28,"<":29,"=":30,">":31,"?":32,"@":33,"A":34,"B":35,"C":36,"D":37,"E":38,"F":39,"G":40,"H":41,"I":42,"J":43,"K":44,"L":45,"M":46,"N":47,"O":48,"P":49,"Q":50,"R":51,"S":52,"T":53,"U":54,"V":55,"W":56,"X":57,"Y":58,"Z":59,"[":60,"\\":61,"]":62,"^":63,"_":64,"`":65,"a":66,"b":67,"c":68,"d":69,"e":70,"f":71,"g":72,"h":73,"i":74,"j":75,"k":76,"l":77,"m":78,"n":79,"o":80,"p":81,"q":82,"r":83,"s":84,"t":85,"u":86,"v":87,"w":88,"x":89,"y":90,"z":91,"{":92,"|":93,"}":94,"~":95,"¡":96,"¢":97,"£":98,"¤":99,"¥":100,"¦":101,"§":102,"¨":103,"©":104,"ª":105,"«":106,"¬":107,"®":108,"¯":109,"°":110,"±":111,"²":112,"³":113,"´":114,"µ":115,"¶":116,"·":117,"¸":118,"¹":119,"º":120,"»":121,"¼":122,"½":123,"¾":124,"¿":125,"À":126,"Á":127,"Â":128,"Ã":129,"Ä":130,"Å":131,"Æ":132,"Ç":133,"È":134,"É":135,"Ê":136,"Ë":137,"Ì":138,"Í":139,"Î":140,"Ï":141,"Ð":142,"Ñ":143,"Ò":144,"Ó":145,"Ô":146,"Õ":147,"Ö":148,"×":149,"Ø":150,"Ù":151,"Ú":152,"Û":153,"Ü":154,"Ý":155,"Þ":156,"ß":157,"à":158,"á":159,"â":160,"ã":161,"ä":162,"å":163,"æ":164,"ç":165,"è":166,"é":167,"ê":168,"ë":169,"ì":170,"í":171,"î":172,"ï":173,"ð":174,"ñ":175,"ò":176,"ó":177,"ô":178,"õ":179,"ö":180,"÷":181,"ø":182,"ù":183,"ú":184,"û":185,"ü":186,"ý":187,"þ":188,"ÿ":189,"Ā":190,"ā":191,"Ă":192,"ă":193,"Ą":194,"ą":195,"Ć":196,"ć":197,"Ĉ":198,"ĉ":199,"Ċ":200,"ċ":201,"Č":202,"č":203,"Ď":204,"ď":205,"Đ":206,"đ":207,"Ē":208,"ē":209,"Ĕ":210,"ĕ":211,"Ė":212,"ė":213,"Ę":214,"ę":215,"Ě":216,"ě":217,"Ĝ":218,"ĝ":219,"Ğ":220,"ğ":221,"Ġ":222,"ġ":223,"Ģ":224,"ģ":225,"Ĥ":226,"ĥ":227,"Ħ":228,"ħ":229,"Ĩ":230,"ĩ":231,"Ī":232,"ī":233,"Ĭ":234,"ĭ":235,"Į":236,"į":237,"İ":238,"ı":239,"Ĳ":240,"ĳ":241,"Ĵ":242,"ĵ":243,"Ķ":244,"ķ":245,"ĸ":246,"Ĺ":247,"ĺ":248,"Ļ":249,"ļ":250,"Ľ":251,"ľ":252,"Ŀ":253,"ŀ":254,"Ł":255,"ł":256,"Ń":257,"!!":258,"!!!!":259,"!!!!!!!!":260,"``":261,"!!!!!!!!!!!!!!!!":262,"!!!!!!!!!!!!":263,"do":264,"up":265,"wn":266,"down":267,"!!!":268,"!!!!!!!!!!!!!!!!!!!!!!!!!!!!":269,"````":270,"!!!!!!!!!":271,"!!!!!!!":272,"!!!!!!!!!!":273,"!!!!!!!!!!!":274,"!!!!!!":275,"```":276,"!!!!!":277,"aa":278,"!!!!!!!!!!!!!":279,"!!!!!!!!!!!!!!":280,"!!!!!!!!!!!!!!!":281,"11":282,"22":283,"00":284,"__":285,"16":286,"09":287,"26":288,"04":289,"18":290,"14":291,"08":292,"27":293,"19":294,"23":295,"03":296,"07":297,"17":298,"24":299,"05":300,"20":301,"02":302,"25":303,"06":304,"10":305,"13":306,"15":307,"12":308,"01":309,"21":310,"````````":311,"`_":312,"aaaa":313,"`````":314,"!!!!!!!!!!!!!!!!!":315,"_`":316,"``````":317,"`^":318,"^`":319,"]`":320,"!!!!!!!!!!!!!!!!!!":321,"[`":322,"```````":323,"`]":324,"aaa":325,"`[":326,"\\`":327,"`\\":328,"``^":329,"]``":330,"``]":331,"^``":332,"[``":333,"_``":334,"!!!!!!!!!!!!!!!!!!!":335,"AA":336,"\\``":337,"____":338,"``[":339,"``_":340,"``\\":341,"`````````":342,"\"!!!!!!!!!":343,"\"!!!!!!!!":344,"#!!!!!!!!!":345,"#!!!!!!!!":346,"aaA":347,"!!!!!!!\"":348,"\"!!!!!!":349,"!!!!!!!!!!\"":350,"aaaaaaaa":351,"\"!!!!!!!":352,"66":353,"___":354,"\"!!!!!!!!!!":355,"!!!!!!!!\"":356,"!!!!!!!!!\"":357,"#!!!!!!!":358,"\"!!!!!":359,"$!!!!!!!!":360,"!!!!!!!!!#":361,"$!!!!!!!":362,"KK":363,"#!!!!!!":364,"!!!!!!!!#":365,"``````````":366,"!!!!!!!!!!#":367,"$!!!!!!!!!":368,"(!!!!!!!!":369,"&!!!!!!!!":370,"!!!!!!!!!!!\"":371,"!!!!!!!#":372,"#!!!!!!!!!!":373,"`?":374,"aaP":375,"&!!!!!!!":376,"```^":377,"$!!!!!!":378,"`=":379,"`@":380,"%!!!!!!!!":381,"(!!!!!!!!!":382,"!!!!!!\"":383,"`>":384,"%!!!!!!!!!":385,"&!!!!!!!!!":386,"%!!!!!!!":387,"]```":388,"?`":389,"$!!!!!!!!!!":390,"!!!!!!!!%":391,"\"!!!!":392,"#!!!!!":393,"=`":394,"\"!!!!!!!!!!!":395,"!!!!!!!!$":396,"!!!!!!!!&":397,"?``":398,"!!!!!!!!!!!#":399,"```````````":400,"'!!!!!!!":401,"`_`_":402,"!!!!!!!!!$":403,"^```":404,"!!!!!!!!!!$":405,"!!!!!!#":406,"!!!!!!!!!!!!!!!!!!!!":407,"CC":408,"!!!!!!!!!%":409,"!!!!!!!!!&":410,"!!!!!!!%":411,"!!!!!!!!!!!!\"":412,"`<":413,"!!!!!!!$":414,"``>":415,"[```":416,"==":417,"'!!!!!!!!":418,"&!!!!!!":419,"%!!!!!!!!!!":420,">`":421,"$!!!!!":422,"``<":423,"%!!!!!!":424,"@`":425,"<`":426,"_```":427,"\\```":428,"II":429,"#!!!!!!!!!!!":430,"(!!!!!!!":431,"``=":432,"aP":433,"FF":434,";`":435,"//":436,"&!!!!!!!!!!":437,"DD":438,"``:":439,"``;":440,"(!!!!!!!!!!":441,"$!!!!!!!!!!!":442,"!!!!!!!!!!%":443,"!!!!!\"":444,"`;":445,"``?":446,"!!!!!!!!'":447,"EE":448,"!!!!!!!!!!&":449,"!!!!!!$":450,"RR":451,"!!!!!!!!!!!$":452,"PP":453,"aA":454,"\"!!!":455,"`:":456,"!!!!!!!!!(":457,"!!!!!!!!!'":458,"#!!!!":459,"=``":460,"!!!!!!!!(":461,"!!!!!!!!!!!!#":462,"!!!!!!!!!!!%":463,"'!!!!!!!!!":464,"``@":465,"+!!!!!!!!":466,"!!!!!!!&":467,"'!!!!!!":468,",,":469,"[[":470,"SS":471,"GG":472,"WW":473,"*!!!!!!!!":474,"ZZ":475,"(!!!!!!!!!!!":476,"<<":477,"(!!!!!!":478,":`":479,"%!!!!!!!!!!!":480,"!!!!!!!'":481,";``":482,"!!!!!!!!!!(":483,"$!!!!":484,"!!!!!!%":485,":``":486,"%!!!!!":487,"*!!!!!!!":488,"*!!!!!!!!!":489,"/``":490,"+!!!!!!!!!":491,"'!!!!!!!!!!":492,"!!!!!#":493,"!!!!!!!!!!!&":494,"YY":495,"+!!!!!!!":496,"((":497,"```[":498,"```]":499,"````````````":500,")!!!!!!!":501,"&!!!!!":502,"aaaA":503,">``":504,"(!!!!!":505,"BB":506,"!!!!!!!!!!'":507,"!!!!!!!*":508,"-!!!!!!!!!":509,"!!!!!!!!!!!!%":510,"!!!!!!!!!)":511,"<``":512,"`____":513,"!!!!!!!!!!!!$":514,"'!!!!!!!!!!!":515,"#!!!":516,")!!!!!!!!":517,">>":518,"aK":519,"\"!!":520,"!!!!!!!!!!!!!\"":521,"!!!!!!!(":522,"!!!!!!!!)":523,"&!!!!!!!!!!!":524,"*!!!!!!":525,"@``":526,"--":527,"aaaP":528,"!!!!!!!!!!!!'":529,"!!!!!!!!+":530,"!!!!!!!!!!!!!#":531,"+!!!!!!!!!!":532,"-!!!!!!!!":533,"!!!!!!!!!*":534,"!!!!!!!!!!*":535,")!!!!!!!!!":536,"*!!!!!!!!!!":537,"-!!!!!!!":538,"!!!!!!!!!!!'":539,"%!!!!":540,"```\\":541,"&!!!!":542,"!!!!!!!!*":543,",!!!!!!!!":544,"/!!!!!!!!!":545,"\"!":546,"HH":547,"```_":548,"]]":549,")!!!!!!":550,"-!!!!!!!!!!":551,"\"!!!!!!!!!!!!":552,"(!!!!":553,"!!!!!!!!!!!(":554,"/!!!!!!!!":555,"!!!!!!!!!!!!&":556,"!!!!!!!!!+":557,"99":558,"!!!!!$":559,".!!!!!!!!":560,"!!!!!!!!!!!!(":561,"!!!!!!!!-":562,"VV":563,"@@":564,"''":565,"#!!!!!!!!!!!!":566,"::":567,"++":568,"!!!!!!!!!,":569,"$!!!":570,"`__":571,"**":572,"!!!!!!&":573,"+!!!!!!!!!!!":574,"!!!!!!'":575,";;":576,"MM":577,"!!!!!!!!!!+":578,"_`_":579,"XX":580,"aY":581,"))":582,"#!!":583,"'!!!!!":584,"^^":585,")!!!!!!!!!!":586,",!!!!!!!!!":587,"!!!!!!!!!!!*":588,"!!!!!!!-":589,"&&":590,".!!!!!!!":591,"Paaaa":592,"!!!!!!!)":593,"!!!!!!(":594,"!!!!!!!!!!)":595,"!!!!!!!!!!!+":596,"!!!!!%":597,"/!!!!!!!":598,"!!!!!!!!!!!!!(":599,"!!!!!!*":600,"!!!!!!!!!-":601,"/!!!!!!!!!!":602,"^````":603,"#!":604,"_````":605,"+!!!!!!":606,"]````":607,"??":608,"Aaaaa":609,"!!!!!!!!!!-":610,"*!!!!!":611,"-!!!!!!":612,"(!!!!!!!!!!!!":613,",!!!!!!!":614,"!!!!!!!!!!!-":615,"88":616,"&!!!":617,"!!!!\"":618,",``":619,"!!!!!!!+":620,".!!!!!!!!!":621,"!!!!!!!!/":622,"!!!!!!!!!!!!!%":623,"!!!!!!!!!!!!+":624,"TT":625,"!!!!!!!!!!!!!$":626,",!!!!!!!!!!":627,"aR":628,"!!!!!!!!!/":629,")!!!!!":630,"$!!":631,"*!!!!!!!!!!!":632,"-!!!!!!!!!!!":633,"OO":634,"/!!!!!!":635,"!!!!!!!!!!!)":636,"!!!!!!!!!!!!!!\"":637,"\\\\":638,"%!!!":639,"/!!!!!":640,"$!!!!!!!!!!!!":641,"(!!!":642,"!\"":643,"!!!!!!!!,":644,"!!!!!!!!!!!!!!#":645,"NN":646,"!!!!!!!!!.":647,"%%":648,".!!!!!!":649,"!!!!!!!!!!!!-":650,"!!!!!!!!!!!!!+":651,"[````":652,",!!!!!!!!!!!":653,"'!!!!":654,"/!!!!!!!!!!!":655,"!!!!!!!!!!!!*":656,"Aaa":657,".!!!!!!!!!!":658,"QQ":659,",!!!!!!":660,",!!!!!":661,"UU":662,"\"!!!!!!!!!!!!!":663,"!!!!!!!!!!,":664,"+!!!!!":665,"___`":666,"!!!!!!!/":667,"!!!!!!!!.":668,"\\````":669,"&!!!!!!!!!!!!":670,"%!!!!!!!!!!!!":671,"!!!!!!)":672,"!!!!!!!!!!/":673,"33":674,"!!!!!&":675,"$!":676,"77":677,"44":678,"'!!!":679,"!!\"":680,"LL":681,"!!!!!!!!!!!!!!$":682,"!!!!!!!!!!!!)":683,"+!!!!!!!!!!!!":684,"!!!!!!!!!!!!!&":685,"!!!!!'":686,"##":687,"Ka":688,")!!!!!!!!!!!":689,"$$":690,"!!!!!(":691,"/!!!!":692,"#!!!!!!!!!!!!!":693,"/!!!!!!!!!!!!":694,"!!!!!!+":695,"!!!!!!!!!!!!!'":696,"!!!!!!!.":697,")!!!!":698,".!!!!!!!!!!!":699,"!!!!!!!,":700,"`````````````":701,"-!!!!!":702,",!!!!":703,"!!!!!!!!!!!!!!!\"":704,"Pa":705,"!!!!!!!!!!!!/":706,"%!!":707,"AaaA":708,"&!!":709,"+!!!!":710,"(!!":711,"%!":712,"!!!!!!-":713,"&!":714,"!!!!!!!!!!.":715,"*!!!!":716,"!!!!!!!!!!!/":717,"!!!!!!,":718,"'!!!!!!!!!!!!":719,"````^":720,"..":721,"!!!!!!!!!!!,":722,"!!!!!*":723,"!!!!!!/":724,"!!!!!!!!!!!!!!%":725,"!!!!!!!!!!!!!-":726,"-!!!!":727,"!!!!!!!!!!!!!)":728,"!!!\"":729,"!!!!!!!!!!!!!!!#":730,"Paa":731,"$!!!!!!!!!!!!!":732,"\"\"":733,"55":734,"JJ":735,"^_":736,"!!!!!!!!!!!!!!&":737,"(!":738,"!!!!!!!!!!!!,":739,"!!!!!!!!!!!!!!'":740,"!!!!!!!!!!!!!!(":741,"!!!!#":742,"*!!!":743,"&!!!!!!!!!!!!!":744,"!!!!!!!!!!!!!!!$":745,"(!!!!!!!!!!!!!":746,"````[":747,")!!!!!!!!!!!!":748,"Ya":749,"````]":750,"!!!!!)":751,"_^":752,"`````^":753,",!!!!!!!!!!!!":754,"!!!!$":755,"!!!!!!!!!!!.":756,"+!!!":757,"!!!!!!!!!!!!!*":758,"'!!":759,".!!!!!!!!!!!!":760,"````_":761,"*!!!!!!!!!!!!":762,"<```":763,"-!!!!!!!!!!!!":764,".!!!!!":765,"!!!!!!.":766,"'!":767,"!!!!!!!!!!!!!/":768,"!!!!!-":769,"/!!!":770,"%!!!!!!!!!!!!!":771,"```>":772,"!!!!!!!!!!!!!!!%":773,"!!!!!+":774,"\"!!!!!!!!!!!!!!":775,"!!!!!!!!!!!!!!!&":776,"````\\":777,"!!!!!!!!!!!!!!-":778,")!!!":779,"-!!!":780,"!!!!!!!!!!!!!!+":781,"!!#":782,"```<":783,"``````````````":784,"!!!!!!!!!!!!!!)":785,"_]":786,"!!!!!!!!!!!!!.":787,"`````]":788,"Ra":789,"```=":790,"!#":791,"!!!!%":792,"!!!!!!!!!!!!!,":793,"!!!!!!!!!!!!!!!!\"":794,"!!!!!!!!!!!!!!!'":795,"!!!!!!!!!!!!!!*":796,"!!!!!!!!!!!!.":797,"Aaaa":798,"!!!!!,":799,"`___":800,"!!!#":801,"?```":802,"AP":803,"/!!!!!!!!!!!!!":804,";```":805,";!!!!!!!!":806,"!!!!&":807,"!!!!!/":808,"`````[":809,"!!!!!!!!!!!!!!!(":810,"$!!!!!!!!!!!!!!":811,"!!!!!!!!!=":812,"!!!!!!!!=":813,",!!!":814,"*!!":815,"#!!!!!!!!!!!!!!":816,"+!!":817,"]_":818,"`````\\":819,"!!!!(":820,"'!!!!!!!!!!!!!":821,"]^":822,"!!!!!!!!!!!!!!!!!!!!!":823,":!!!!!!!!":824,"!$":825,"!!!!!!!!!!=":826,"Da":827,"!!!!'":828,"=!!!!!!!!":829,"\\_":830,">```":831,".!!!!":832,"!%":833,"+!!!!!!!!!!!!!":834,"!!!!!!!!!!!!!!!!#":835,"AAAA":836,"_[":837,"-!!!!!!!!!!!!!":838,"!!!!!!!=":839,"``````^":840,"!!!!!!!!:":841,"```?":842,"!!!!!!!!!!!!!!!!%":843,"!!!!!!!!!!!!!!!-":844,")!!!!!!!!!!!!!":845,"=!!!!!!!!!":846,"!!!!!!!!!!!!!!!*":847,"!!!!!!!!!!!!!!/":848,")!!":849,";!!!!!!!!!":850,"!!!!!!!:":851,"Za":852,"KY":853,"!!!!!!!!!!!!!!.":854,"-!!":855,"!&":856,"=!!!!!!!":857,"!!!$":858,"[_":859,";!!!!!!!":860,"&!!!!!!!!!!!!!!":861,"``````_":862,"!!!!!!!!!!!!!!!!$":863,":!!!!!!!!!":864,"]`````":865,"!!!!!!!!!!:":866,"``````]":867,"!!!!!!!!;":868,"!!!!!!!!!!!!!!!+":869,"_\\":870,"!!!!!!!!!;":871,"```@":872,"/!!":873,"!!!!!!!!!!!!!!,":874,"[^":875,"`````_":876,"Aaaaaaaaa":877,"=!!!!!!!!!!":878,"^]":879,":!!!!!!!":880,"*!!!!!!!!!!!!!":881,",!!":882,"!!!!!!!!!!!!!!!!&":883,"PaaA":884,"AaaP":885,"^`````":886,"@```":887,"Paaa":888,"+!":889,"!!!%":890,"(!!!!!!!!!!!!!!":891,"%!!!!!!!!!!!!!!":892,"!!!!*":893,"!!!!!!!!!:":894,",!!!!!!!!!!!!!":895,"!!!!!!!!!!!=":896,"'!!!!!!!!!!!!!!":897,"?!!!!!!!!":898,"_`````":899,"[`````":900,":!!!!!!!!!!":901,"PaaP":902,"!!!!!.":903,">!!!!!!!!":904,"\"!!!!!!!!!!!!!!!":905,"!!!!!!:":906,".!!!":907,"\\^":908,"!!!!!!!!!!;":909,"YK":910,"!!!!)":911,"*!":912,"!!!!!!!!!!!!!!!!(":913,"!!!!!!!!!!!!!!!)":914,";!!!!!!":915,"!!!!!!!!?":916,"?!!!!!!!!!":917,"!!!!!!!!!?":918,"Aa":919,";!!!!!!!!!!":920,"!!!!-":921,"=!!!!!!":922,"!!!!!!!!!<":923,"]``````":924,"aV":925,":!!!!!!":926,"!!!!+":927,"\\`````":928,"[`[":929,"aD":930,"`_`":931,"][":932,">!!!!!!!!!":933,"!!$":934,"]````````":935,"!!&":936,"!!!(":937,"!!!!!!!!!!?":938,"@!!!!!!!!!!":939,"+!!!!!!!!!!!!!!":940,"-!!!!!!!!!!!!!!":941,"!!!&":942,"!!!!!!!;":943,"!!!!!!!!!!!:":944,"<!!!!!!!!!!":945,"__`":946,"!!%":947,"!(":948,"?!!!!!!!":949,"^\\":950,"_`^":951,"<!!!!!!!!":952,"<!!!!!!!!!!!":953,"^``````":954,"]`^":955,"<!!!!!!!!!":956,"aT":957,"Paaaaaaaa":958,"!!!!!!!!@":959,"```````^":960,"!!!!!``":961,"!!!!!!!@":962,"!!!!!!!!!!!!!!!!'":963,".!!!!!!!!!!!!!":964,"[``````":965,"AaA":966,"aX":967,"PaP":968,"<!!!!!!!":969,"^````````":970,"!!!!!!!!<":971,"!!!!!!=":972,"!!!!!!!!!!!!!!!/":973,"#!!!!!!!!!!!!!!!":974,")!":975,"!!!!!!!!!!!!!!!,":976,"!!!!!!!!!!!!!!!.":977,"```````]":978,"666":979,"_````````":980,";!!!!!!!!!!!":981,"^`_":982,"aaK":983,"^`^":984,"!!!!!!!!!!!!=":985,"!!!!!!!!!!!!!!!!*":986,"/!":987,"!!!!!!!!!>":988,"!!!!!!!!!!!!!<":989,"!!!'":990,"aZ":991,"*!!!!!!!!!!!!!!":992,"!!!!!!!!!!!!!!!!+":993,"!!!!!!!!!!!!!!!!-":994,"^`]":995,"!!!!!!!!!@":996,"!!!!!!!!!!<":997,"-!":998,"!!!!!!!!!!!!!!!!!\"":999,">!!!!!!!":1000,"_``````":1001,"/!!!!!!!!!!!!!!":1002,"@!!!!!!!!!":1003,"aW":1004,"AAA":1005,")!!!!!!!!!!!!!!":1006,"!!!!!!!?":1007,"!!!!,":1008,"=!!!!!!!!!!!":1009,":!!!!!":1010,"!!!!/":1011,"<!!!!!!":1012,"!!!!!!!!!!!!!!!!!#":1013,"!!!!!!;":1014,"!!!!!!!!!!!!:":1015,"$!!!!!!!!!!!!!!!":1016,"[]":1017,"^[":1018,"!!!!!!!!!!!!@":1019,"aN":1020,"!!!!!!!!!!!!!!!!)":1021,"!!!!!!!!!!!!!!!!!%":1022,"!!'":1023,"!!(":1024,">!!!!!!!!!!":1025,"!!!!!!!<":1026,"@!!!!!!":1027,"_`]":1028,"!!!!!!!!!!!@":1029,"Qa":1030,":!!!!!!!!!!!":1031,"`_`_`_`_":1032,"@!!!!!!!":1033,"aaY":1034,"=!!!!!":1035,"aU":1036,",!":1037,"\\``````":1038,"!!!!!!!!>":1039,"]`_":1040,"!!!*":1041,"```````````````":1042,"!!!!!!!!!!!?":1043,"!!!+":1044,"?!!!!!!!!!!":1045,"!!!!!!!!!!>":1046,"]`]":1047,"!!!!!!>":1048,"PA":1049,"_`[":1050,"@!!!!!!!!":1051,"aF":1052,"!!!!!!!!!!!<":1053,"!!!!!!!>":1054,"_`____":1055,"[`^":1056,"!!!!!:":1057,",!!!!!!!!!!!!!!":1058,"!!!!!!!!!!!!<":1059,"__`_":1060,";!!!!!":1061,"[````````":1062,"aaaaa":1063,"!!!!!!!!!!@":1064,"\\]":1065,"^`[":1066,"?!!!!!!":1067,"```````_":1068,"\\`_":1069,"&!!!!!!!!!!!!!!!":1070,"AaP":1071,"!!!-":1072,"ZA":1073,"aaR":1074,"PaA":1075,"!!!!!=":1076,"DY":1077,"KR":1078,"]\\":1079,"!!!!!```":1080,"!!!!!!!!!!!;":1081,"!'":1082,"AV":1083,"``````[":1084,"!!+":1085,"(!!!!!!!!!!!!!!!":1086,"@!!!!!!!!!!!":1087,"%!!!!!!!!!!!!!!!":1088,">!!!!!!":1089,"``!!!":1090,"[\\":1091,"!!!!!!!!!!!!!!!!!&":1092,"``````\\":1093,"!!!!!!!!!!!>":1094,"!!!!!!!!!!!!!!!!/":1095,"YR":1096,"_`__":1097,"Sa":1098,"BZ":1099,"Na":1100,"!!!!!!!!!!!!!!!!!$":1101,"aaaaA":1102,"^`\\":1103,";!!!!!!!!!!!!":1104,"[`\\":1105,"```````[":1106,"YA":1107,"_`\\":1108,"CCC":1109,"!!!!!!<":1110,"\\`^":1111,"!!!!.":1112,"=!!!!!!!!!!!!":1113,"!+":1114,"``!!!!!!!!!":1115,"``!!!!":1116,".!!":1117,"XC":1118,"AaaaA":1119,"Wa":1120,":!!!!!!!!!!!!":1121,"AZ":1122,"'!!!!!!!!!!!!!!!":1123,"!!!!!!!!!!!!!=":1124,"!!!)":1125,"YZ":1126,"!!!!!!!!!!!!!!!!,":1127,"?!!!!!!!!!!!":1128,"VA":1129,"\\`]":1130,"!!!!!!@":1131,"AaaaP":1132,"``<!!!!!!!!!!!":1133,"\\[":1134,"<!!!!!":1135,"!!!!!!?":1136,"aL":1137,"!*":1138,"^```````":1139,"aaD":1140,"===":1141,"RY":1142,"]```````":1143,"@!!!!!":1144,"__`____":1145,"!!!!!!!!!!!!;":1146,"!!!!!!!!!!!!!!!!!(":1147,"\\`\\":1148,"]`[":1149,"\\````````":1150,"[`]":1151,"[`_":1152,"!!*":1153,"!)":1154,"KKK":1155,"ZB":1156,"!!!!!!!!!!!!!!!!!'":1157,"``!!!!!!!!":1158,"III":1159,"FFF":1160,":!!!!":1161,"/`":1162,"!!!!!!!!!!!!!;":1163,"]`\\":1164,"<!!!!!!!!!!!!":1165,"!!)":1166,"AY":1167,"6666":1168,"aQ":1169,"SX":1170,"ZC":1171,"!!!!!!!!!!!!!!=":1172,"IX":1173,"ZY":1174,"````````````````":1175,"EEE":1176,"\\`[":1177,"_```````":1178,";!!!!":1179,"!!!!!!!!!!!!>":1180,"!!!!!!!!!!!!!!!!!)":1181,"-``":1182,"XY":1183,"!!!!!!!!!!!!!!!!.":1184,"!!!!!;":1185,"!!!!!!!!!!!!!!!!!+":1186,"+!!!!!!!!!!!!!!!":1187,"___`____":1188,">!!!!!":1189,"WZ":1190,"=!!!!":1191,"ZE":1192,"!!!!!!!!!!!!?":1193,"///":1194,"!!!!!!!!!!!!!:":1195,"-!!!!!!!!!!!!!!!":1196,"!!!!!<":1197,"*!!!!!!!!!!!!!!!":1198,"aO":1199,"CZ":1200,">!!!!!!!!!!!":1201,"Ha":1202,"ZI":1203,"ZW":1204,"-`":1205,"!!!/":1206,"aaaaP":1207,"`>!!!!!!!!!":1208,"!!!,":1209,"!!!!!!!!!!!!!@":1210,"YX":1211,"Va":1212,".!":1213,"65":1214,"RRR":1215,"PaaaP":1216,"YD":1217,"ZD":1218,"<<<":1219,":!!!!!!!!!!!!!":1220,"VY":1221,"``!!!!!!!!!!!!!":1222,",,,":1223,"?!!!!!!!!!!!!":1224,"aaaaaa":1225,"YI":1226,"!!!!!>":1227,"`=!!!!!!!!!":1228,"DDD":1229,"``>!!!!!!!!!":1230,"#!!!!!!!!!!!!!!!!":1231,"PaaaA":1232,"```!!!!":1233,"ZU":1234,"[```````":1235,"`=!!!!!!!!!!":1236,"?!!!!!":1237,"ZX":1238,"`>!!!!!!!!!!":1239,"aE":1240,"KKKK":1241,"BV":1242,"GGG":1243,".`":1244,"/!!!!!!!!!!!!!!!":1245,",!!!!!!!!!!!!!!!":1246,"EZ":1247,"`?!!!!!!!!!":1248,"!!!!!!!!!!!!!!:":1249,"QF":1250,"`?!!!!!!!!":1251,"\\```````":1252,",`":1253,"\"!!!!!!!!!!!!!!!!":1254,"!!-":1255,"YV":1256,"PPP":1257,"UZ":1258,"WWW":1259,"QZ":1260,"SI":1261,"SZ":1262,".!!!!!!!!!!!!!!":1263,"XZ":1264,"!!!!!!!!!!!!!?":1265,";!!!!!!!!!!!!!":1266,"!!!!!!!!!!!!!!!:":1267,"<!!!!":1268,"UA":1269,"RK":1270,"CX":1271,"UW":1272,"`=!!!!!!!!":1273,"!!!!!!!!!!!!!!!=":1274,"ZK":1275,"aS":1276,"aC":1277,"DV":1278,"TZ":1279,"````````^":1280,"_``_":1281,"!!!!!!!!!!!!!!!!!!#":1282,"=!!!!!!!!!!!!!":1283,"!!!!!!!!!!!!!>":1284,"!!!!!!!!!!!!!!``":1285,">>>":1286,")!!!!!!!!!!!!!!!":1287,"OZ":1288,"WV":1289,"``;!!!!!!!!":1290,"!!!!!!!!!!!!!!;":1291,"Ta":1292,"BBB":1293,"AU":1294,"!!!!``":1295,"999":1296,"FY":1297,"ZT":1298,"!!!!!!!!!!!!!!!!!*":1299,"!!!!!!!!!!!!!<`":1300,"ZM":1301,"1111":1302,"`@!!!!!!!!!!":1303,"ZR":1304,"!!!!:":1305,"```````\\":1306,":!!!":1307,"XI":1308,"====":1309,"(((":1310,"Kaa":1311,"La":1312,"ZV":1313,"@!!!!!!!!!!!!":1314,"WY":1315,"^``^":1316,"!-":1317,"MMM":1318,"ZO":1319,"aH":1320,"XS":1321,"aaaaaaa":1322,"DZ":1323,"HHH":1324,"%!!!!!!!!!!!!!!!!":1325,"RX":1326,"WB":1327,"XA":1328,"!!!.":1329,"VQ":1330,"ZH":1331,"@@@":1332,">!!!!":1333,"?!!!!":1334,"aG":1335,"!!!!!!!!!!!!/``":1336,"`<!!!!!!!!!!!":1337,"ZQ":1338,"!!!!!@":1339,"(!!!!!!!!!!!!!!!!":1340,"ZF":1341,"!!!!!!!!!!!!!!!!!!\"":1342,"GV":1343,"!!!!!?":1344,"SV":1345,"YC":1346,"YW":1347,"!!/":1348,";;;":1349,"aI":1350,">!!!!!!!!!!!!":1351,"APaaaa":1352,"SSSS":1353,"`@!!!!!!!!!!!":1354,"DW":1355,"ZG":1356,"WC":1357,"!!!!!!!*``":1358,"Ma":1359,"IY":1360,"VC":1361,"[``[":1362,"_``]":1363,"``>!!!!!!!!":1364,"---":1365,"ZS":1366,"=!!!":1367,"TX":1368,"YB":1369,"`>!!!!!!!!":1370,"`____`____":1371,"XU":1372,"]``^":1373,"!!!!!!!!!!!!!!?":1374,"BW":1375,"__`__":1376,"!!,":1377,"`<!!!!!!!!!!!!":1378,"YU":1379,":::":1380,"IZ":1381,"aM":1382,"````````_":1383,"=```":1384,"PZ":1385,"XR":1386,"!!!!!!!!!!!!!!!!!!!!!!":1387,"``=!!!!!!!!":1388,"////":1389,"!!.":1390,"LY":1391,"````````]":1392,"!!!!!!!!!!!!!!!!!,":1393,"$!!!!!!!!!!!!!!!!":1394,"AX":1395,"HZ":1396,"CCCC":1397,"!!!!!!!!!!!!!!!!!-":1398,"[[[":1399,")))":1400,"QV":1401,"222":1402,"!!!!!!!!!!!!!``":1403,"SD":1404,"````````[":1405,"!!!!!!!!!!!!!!!!!!%":1406,"aJ":1407,"``;!!!!!!!!!":1408,"AT":1409,"NX":1410,"YE":1411,"^``_":1412,"`?!!!!!!!!!!":1413,";!!!":1414,"RZ":1415,"DX":1416,"``=!!!!!!!":1417,"^``]":1418,"!/":1419,"WX":1420,"``(!!!!!!!!":1421,"]``_":1422,"JZ":1423,"SA":1424,"<<<<":1425,"FQ":1426,"VX":1427,"YL":1428,"ZP":1429,"WU":1430,"]``[":1431,"EX":1432,"!!!!!!!!!!!!!!!!!!&":1433,"]``]":1434,"`?!!!!!!!!!!!!":1435,"aaaaaP":1436,"IV":1437,"YF":1438,"``<!!!!!!!!!!!!":1439,"+++":1440,"LV":1441,"''''":1442,"!,":1443,"UX":1444,"!!!!!!!!!!!!!!<":1445,"`?!!!!!!!":1446,"GQ":1447,"DDDD":1448,"`<!!!!!!!!!!":1449,"IIII":1450,"KZ":1451,"TY":1452,"!!!!=":1453,"`;!!!!!!!!":1454,"Ua":1455,"``@!!!!!!!!!!!":1456,"888":1457,"BY":1458,"FZ":1459,"!!!!!!!!!!!!!!!!!/":1460,"***":1461,"_``^":1462,"!!!!!!!!!!!!!!!!!!$":1463,"!!!!!!!!!!!!!!!!!!(":1464,"VZ":1465,"YS":1466,"!!!!!!!!!!!!!!@":1467,"YM":1468,"[``]":1469,"`=!!!!!!!":1470,"`@!!!!!!!!!":1471,"``:!!!!!!!":1472,"LZ":1473,"!!!!!!!!!!!!!!!;":1474,"``=!!!!!!!!!":1475,"???":1476,"+`":1477,"MZ":1478,"WA":1479,"GY":1480,"GZ":1481,"!.":1482,"XH":1483,"!!!!!!!!!``":1484,"RV":1485,"WH":1486,"SY":1487,"XT":1488,"Xa":1489,"``@!!!!!!!!!!":1490,"&!!!!!!!!!!!!!!!!":1491,".!!!!!!!!!!!!!!!":1492,"QY":1493,"ZN":1494,"!!!!!!!!!!!!!!>":1495,"`;!!!!!!!!!":1496,"EEEE":1497,"'!!!!!!!!!!!!!!!!":1498,":!!!!!!!!!!!!!!":1499,"XN":1500,"```!!!":1501,"``?!!!!!!!!":1502,"UY":1503,"\\``^":1504,"``;!!!!!!!":1505,"WI":1506,"XD":1507,"Ia":1508,"[``^":1509,"111":1510,"!!!!!!!!!!!!!!!!!!'":1511,"``?!!!!!!!!!":1512,",,,,":1513,"&&&":1514,"Ba":1515,"VD":1516,"_``\\":1517,"`<!!!!!!!!!":1518,"VW":1519,"``:!!!!!!!!!":1520,"Oa":1521,"ZL":1522,"``:!!!!!!!!":1523,"!!!!!!!!!!!!<``":1524,"````````\\":1525,"___`_":1526,"KaK":1527,"WE":1528,"!!!!!!!!=`":1529,"VK":1530,"GGGG":1531,"VB":1532,"!!!!;":1533,"CW":1534,"NS":1535,"EY":1536,"PX":1537,"FFFF":1538,"CY":1539,"ZZZZ":1540,"`````````^":1541,"VT":1542,"((((":1543,"^``\\":1544,"WT":1545,"!!!!!!!!!!!!!!!!:":1546,"`[!!!!!!!":1547,"?!!!!!!!!!!!!!":1548,"WF":1549,"LX":1550,"``=!!!!!!!!!!":1551,"EW":1552,"HY":1553,"PY":1554,"`;!!!!!!!":1555,"(``":1556,"RRRR":1557,"OY":1558,"UE":1559,"`?!!!!!!!!!!!":1560,"IS":1561,"QX":1562,"``!!!!!!!!!!":1563,".``":1564,"!!!!!!!!!!!!!?`":1565,"000":1566,"MY":1567,"`<!!!!!!!!":1568,"+``":1569,"JW":1570,"!!!!!!!!!?`":1571,"WWWW":1572,"DS":1573,"``-!!!!!!!!!!!":1574,"\\``_":1575,"`<!!!!!!!":1576,"<!!!!!!!!!!!!!":1577,"!!!!!!``":1578,">>>>":1579,"Fa":1580,"HW":1581,"``>!!!!!!!!!!":1582,"XW":1583,"`!!!!!!!!!!!!!":1584,"`=!!!!!!!!!!!":1585,"`_`_`_":1586,"OOO":1587,"<!!!":1588,"UC":1589,"VL":1590,"``(!!!!!!!!!":1591,"`@!!!!!!!":1592,"444":1593,"AS":1594,"TD":1595,"CV":1596,"\\``]":1597,"!!!!<":1598,"`@!!!!!!!!!!!!":1599,"``<!!!!!!!!!!":1600,"``?!!!!!!!":1601,"777":1602,"MW":1603,">!!!":1604,"PC":1605,"TV":1606,"XO":1607,"KT":1608,"NV":1609,"!!!!!!!!!!!!!!!?":1610,"TA":1611,"XE":1612,"YQ":1613,"!!!!!!!!!!!!!!!<":1614,"#\"":1615,">!!!!!!!!!!!!!":1616,"YO":1617,"`/!!!!!!!!!!":1618,"`>!!!!!!!!!!!":1619,"333":1620,"DR":1621,"aaaaaA":1622,"_`___":1623,"AW":1624,"YH":1625,"ZJ":1626,"!!!!```":1627,"!!!!!!!!!!!!!!!!!!)":1628,"`@!!!!!!":1629,"YP":1630,"`=!!!!!!":1631,"%%%":1632,"RA":1633,"XL":1634,"=!!!!!!!!!!!!!!":1635,"QG":1636,"UK":1637,"XB":1638,"!!!!!!!!!=`":1639,"!!!!!!!!!!?`":1640,"SN":1641,"UV":1642,"WD":1643,"!!!!!!!!!;`":1644,"``<!!!!!!!":1645,"!!!!!!!!!!``":1646,"\\``[":1647,"`@!!!!!!!!":1648,"Ea":1649,"XG":1650,"BBBB":1651,"``&!!!!!!!!":1652,"___`__":1653,"+!!!!!!!!!!!!!!!!":1654,",!!!!!!!!!!!!!!!!":1655,"Daa":1656,"KA":1657,"`:!!!!!!!":1658,"]`````````":1659,"``!!!!!!!!!!!!":1660,"!!!!!!!!!;``":1661,"!!!!!!!=``":1662,"!!!!!!!!!!?``":1663,"?!!!":1664,"GX":1665,"UB":1666,"`/!!!!!!!!!":1667,"^``[":1668,"YT":1669,"!!!!!!!!!!=`":1670,"XQ":1671,"!!!!>":1672,"!!!!!!!!!!!!!?``":1673,"``?!!!!!!!!!!":1674,"`:!!!!!!!!":1675,"NZ":1676,"VS":1677,"WP":1678,"!!!!!!!!!!!!!<``":1679,"YYYY":1680,"FX":1681,"HX":1682,"TU":1683,"``!!!!!":1684,"``(!!!!!!!!!!!":1685,"!!!!!!!!!!!!!!!!=":1686,"!!!!!!!!!!!!!@`":1687,"!!!!!!!!!!!!!!?``":1688,"----":1689,"``<!!!!!!!!!":1690,"XXXX":1691,"@!!!!":1692,"KD":1693,"!!!!!!!!!!!!!!!@":1694,"``=!!!!!!!!!!!":1695,"``:!!!!!!!!!!!":1696,"OX":1697,"WG":1698,"YG":1699,"``-!!!!!!!!!!":1700,"QI":1701,"VF":1702,"`!!!!!!!!":1703,"!!!!!!!!;``":1704,"VI":1705,"XP":1706,"`!!!":1707,"``<!!!!!!!!":1708,"JX":1709,"SSS":1710,"FU":1711,"!!!!!!!!!!!!<`":1712,"``:!!!!!!!!!!":1713,"UN":1714,"`!!!!!!!!!":1715,"BX":1716,"IW":1717,"`;!!!!!!!!!!!":1718,"'''":1719,"ET":1720,"MX":1721,"/!!!!!!!!!!!!!!!!":1722,"AR":1723,"UF":1724,"``&!!!!!!!":1725,"`[!!!!!!!!":1726,"``?!!!!!!!!!!!!":1727,"*!!!!!!!!!!!!!!!!":1728,"`:!!!!!!!!!!!":1729,"VG":1730,"WR":1731,"`>!!!!!!!":1732,"QA":1733,"UR":1734,"WL":1735,"_``[":1736,"KaY":1737,"XJ":1738,"XM":1739,"!!!!!!!=`":1740,"`````````_":1741,"PE":1742,"UL":1743,"``-!!!!!!!!":1744,"VH":1745,"``*!!!!!!!":1746,"!!!!!!!!!!!!!!!``":1747,"!!!!!!!!@`":1748,"`````````[":1749,";!!!!!!!!!!!!!!":1750,"TK":1751,"!!!!!!!!?`":1752,"```:":1753,"HHHH":1754,"XF":1755,"!!!!!````":1756,"=!!":1757,"HV":1758,"Yaa":1759,"``>!!!!!!!":1760,"!!!!!!!!!!!!'``":1761,"!!!=":1762,"____`____":1763,"``?!!!!!!!!!!!":1764,"::::":1765,"YaY":1766,"NY":1767,"QW":1768,"!!!!!!!!>`":1769,"``+!!!!!!!!":1770,"``-!!!!!!!":1771,"))))":1772,"!!!!!!!!!!!!-``":1773,")!!!!!!!!!!!!!!!!":1774,"*``":1775,"UP":1776,"!!!!!!!!!!!!!!?`":1777,"PPPP":1778,"****":1779,"BR":1780,"TW":1781,"VR":1782,"!!!!!!!!!!!!!!!!!.":1783,"`:!!!!!!":1784,"9999":1785,"\"#":1786,"[``_":1787,"`:!!!!!!!!!!":1788,"BU":1789,"WS":1790,"YN":1791,"^`````````":1792,"!!!!!!!!=``":1793,"``:!!!!!!":1794,"CP":1795,"!!!!!!!!!!!!!;`":1796,"`:!!!!!!!!!":1797,"FW":1798,"`````````]":1799,"``;!!!!!!":1800,"``@!!!!!!!!":1801,"UJ":1802,"!!!!!!!:``":1803,"``;!!!!!!!!!!!!":1804,"XV":1805,"!!!!!!!!&``":1806,"ZZZ":1807,":```":1808,"KW":1809,"OR":1810,"!!!!?":1811,"``/!!!!!!!!!":1812,"`>!!!!!!!!!!!!":1813,"NNN":1814,"\"$":1815,"PV":1816,"SW":1817,"```!!!!!!!!!":1818,"!!!!!!!!<`":1819,"``&!!!!!!!!!":1820,"``.!!!!!!!!!!!":1821,"!!!!!!!!!!!?``":1822,"!!!!!`":1823,"]``\\":1824,"[[[[":1825,";;;;":1826,"!!!!!!!/``":1827,"!!!!!!!!!!!!!!!>":1828,"`[!!!!!!!!!":1829,"*`":1830,"KV":1831,"``-!!!!!!!!!":1832,"AaaaaA":1833,"RW":1834,"``.!!!!!!!!":1835,"`;!!!!!!!!!!!!":1836,"-!!!!!!!!!!!!!!!!":1837,"QH":1838,"``!!!!!!!":1839,"``&!!!!!!":1840,"!!!!!!*``":1841,"!!!!!!!![`":1842,"!!!!!!!!!!!!!+``":1843,"###":1844,"Raa":1845,"WJ":1846,"WO":1847,"...":1848,"UO":1849,"`.":1850,"AaaaaP":1851,"___`___":1852,":!!":1853,"!!!!!!!!!!!!!/``":1854,"`^?":1855,"`?!!!!!!":1856,"LT":1857,"``'!!!!!!!":1858,"`]!!!!!!!!!!!!":1859,"++++":1860,"GW":1861,"``+!!!!!!!!!":1862,"SU":1863,"UT":1864,"[``\\":1865,"!!!!!!!!!!!!!-`":1866,"JY":1867,"@@@@":1868,"KU":1869,"OV":1870,"!!!!!!!!!>`":1871,"!!!!!!!!!!!=`":1872,"\\``\\":1873,"``@!!!!!!!!!":1874,"&&&&":1875,"OI":1876,"RD":1877,"[`````````":1878,"\\__":1879,"!!!!!!!!?``":1880,"!!!!!!!!!!!>`":1881,"```'!!!!!!!!!!!":1882,"8888":1883,"!!!!!!!!!!!!?``":1884,"!!!!!!!!-``":1885,"Ja":1886,"MS":1887,"``'!!!!!!!!":1888,"`;!!!!!!!!!!":1889,"\"!\"":1890,"$'":1891,"DT":1892,"RE":1893,"!!!!!!!;`":1894,"`````````\\":1895,"DK":1896,"GU":1897,"VU":1898,"!!!!!!!!!!!!![`":1899,"``<!!!!!!":1900,"_```_":1901,"!!!!!!!!!!!!(``":1902,"VVVV":1903,"555":1904,"EU":1905,"!!!!!!!!!!@`":1906,"CU":1907,"VN":1908,"!!!!!!!!:`":1909,"!!!!!!!!!!!!!!!!<":1910,"!!!!!!!!!!>`":1911,"0000":1912,"$$$$":1913,"<!!!!!!!!!!!!!!":1914,"AQ":1915,"IT":1916,"!!!!!!!!!!!!@`":1917,"```!!!!!!!!":1918,"@_":1919,"WK":1920,"]]]":1921,"DP":1922,"XK":1923,"aB":1924,"``````````^":1925,"``=!!!!!!":1926,"MV":1927,"!!!!!!!!!!!?`":1928,"_____":1929,"`@!!!!!":1930,"DU":1931,"!!!!!!!!;`":1932,"!!!!!!!!!!!!!!!!>":1933,"MC":1934,"!!!!!!!!!!!!@``":1935,"``>!!!!!!!!!!!!":1936,"LU":1937,"PR":1938,"!!!!!!!!![`":1939,"!!!!!!!!!!!!!!!!!!!#":1940,"``!!!!!!!!!!!":1941,"!!!!!!!!!!!!!!!!;":1942,"!!!!!!!?`":1943,"!!!!!!/``":1944,"2222":1945,"`````````````````":1946,"\"!!\"":1947,"????":1948,"TTTT":1949,"EP":1950,"MU":1951,"RU":1952,"!!!!!!!!!!!!!!!!!!-":1953,"`;!!!!!!":1954,"MT":1955,"``'!!!!!!!!!!!":1956,"`_`_`":1957,"``@!!!!!!!!!!!!":1958,"!!!!!!!!!@`":1959,"```;":1960,"```!!!!!!!!!!!!!":1961,"@!!!":1962,"TL":1963,"YJ":1964,"LLL":1965,"=!":1966,"!!!!!!!!!!!!!!!!!!*":1967,"`>!!!!!!":1968,"\"!!!!!!!!!!!!!!!!!":1969,"YaK":1970,"`/":1971,"`!!!!":1972,"``.!!!!!!!!!!!!":1973,"!!!!!!!!!!!!:`":1974,"`<!!!!!!":1975,"JV":1976,"TP":1977,"!!!!!!!:`":1978,"aaaaaaP":1979,"$%":1980,"!!!!!!!!!!!!!!!!!!+":1981,"FV":1982,"!!!!!!!?``":1983,"IQ":1984,"`[!!!!!!!!!!":1985,"``>!!!!":1986,"MMMM":1987,"\\\\\\":1988,"#%":1989,">]":1990,"QB":1991,"_`````````":1992,"#!!!!!!!!!!!!!!!!!":1993,"@!!!!!!!!!!!!!":1994,"RH":1995,"`=!!!!!!!!!!!!":1996,"``@!!!!!!!":1997,"OU":1998,"``.!!!!!!!!!":1999,"?!!!!!!!!!!!!!!":2000,"FS":2001,"RaY":2002,"!!!!!!!!!!!!!!```":2003,"!!!!!!!!!!!!!!!!!!!\"":2004,"#&":2005,"$&":2006,"AL":2007,"UI":2008,"!!!:":2009,"``;!!!!!!!!!!":2010,"AK":2011,"NU":2012,"TS":2013,"``.":2014,"``>!!!!!!":2015,"!!!!!!!!!!!!+``":2016,"'`":2017,"!!!!!!!!!!!!?`":2018,"!!!!!!!!!=``":2019,"BT":2020,"EQ":2021,"QR":2022,"!!!!!!!!:``":2023,"``&!!!!!!!!!!":2024,"PaaaaA":2025,"!!!!!!=``":2026,"!!!!!!!!!!!!!!!!!!!$":2027,"KX":2028,"OW":2029,"TE":2030,"YaR":2031,"!!!!!!,``":2032,"```<!!!!!!!!!!!":2033,"'``":2034,"QU":2035,"[!!!!!!!":2036,"!!!!!!!!!?``":2037,"!!!!!!!!!!!!!!!?`":2038,"aaaK":2039,"#$":2040,"?^":2041,"SG":2042,"`/!!!!!!!!":2043,"SE":2044,"!!!!!!!!!!!!!!!!@":2045,"!!!!!!```":2046,"PU":2047,"WN":2048,"!!!!@":2049,"!!!!!!!>`":2050,"``>!!!!!":2051,"RO":2052,"SC":2053,"`*!!!!!!":2054,"!!!!!!!!!<`":2055,"!!!!!!!!!!!!!!!=`":2056,"\"%":2057,"HU":2058,"KaR":2059,"``:!!!!!!!!!!!!":2060,"YaD":2061,"BP":2062,"VP":2063,"``.!!!!!!!":2064,"!!!!!!![`":2065,"_```]":2066,"BS":2067,"HS":2068,"QT":2069,"\\`````````":2070,"``.!!!!!!":2071,"!!!!!!!!!!!@`":2072,"TO":2073,"]``````````":2074,"^```^":2075,"`.!!!!!!!!":2076,"``,!!!!!!!!":2077,"UUUU":2078,"%!!!!!!!!!!!!!!!!!":2079,"!!!!!!!!!!!!!!=`":2080,"``````````]":2081,"`&!!!!!!!!":2082,"`/!!!!!!!!!!!":2083,"ER":2084,"QD":2085,"SM":2086,"!!!!!!!<`":2087,"!!!!!!!!!!<`":2088,"`=!!!!!":2089,"``;!!!!!!!!!!!":2090,";!!":2091,">!!":2092,"HT":2093,"OK":2094,"`/!!!!!!!!!!!!":2095,"!!!!!!!!!!!!!=`":2096,"``;!!!!!":2097,"`:!!!!!!!!!!!!":2098,"``@!!!!!!":2099,"CT":2100,"VM":2101,"``+!!!!!!!!!!":2102,"``+!!!!!!!!!!!":2103,"!!!!!!!!!!!!!!;`":2104,"YYY":2105,"NNNN":2106,"UH":2107,"`-!!!!!!!":2108,"``/!!!!!!!!":2109,"!!!!!!!!!!!!!!`":2110,"`_[":2111,"AN":2112,"QS":2113,"TM":2114,"VO":2115,"``.!!!!!!!!!!":2116,"!!!!!!!@`":2117,"!!!!!!>``":2118,"]```^":2119,"`-!!!!!!!!!":2120,"!!!!!>``":2121,"]```[":2122,"!!!!!!!!!!!!'```":2123,"<!!":2124,"IO":2125,"!!!!!!!!/``":2126,"``*!!!!!!!!!":2127,"``,!!!!!!!!!!!":2128,"aaaaaaaaa":2129,"``>!!!!!!!!!!!":2130,"CM":2131,"Ca":2132,"ES":2133,"!!!!!!!!!!!=``":2134,"\"(":2135,":!":2136,"?!!":2137,"TG":2138,"!!!!!!!!!!;`":2139,"\"\"\"\"":2140,"\"&":2141,"$!!!!!!!!!!!!!!!!!":2142,"-=":2143,"PT":2144,"UG":2145,"US":2146,"`.!!!!!!!!!":2147,"!!!!!!!!!!!!:``":2148,"!!!!!!!!!!!/``":2149,"```!!!!!":2150,"aaaaaaaP":2151,"HP":2152,"NT":2153,"!!!!!!:``":2154,"!!!!!!!!!!!!!>`":2155,"!!!!!!!!!!!!!!>`":2156,"!!!!!!!!!!!!!!!!!!!&":2157,"!!!!!!!!!!!!!+`":2158,"AI":2159,"^@":2160,"``:!!!!!":2161,"GS":2162,"``,!!!!!!!!!!":2163,"`[!!!!!!!!!!!":2164,"`?!!!!!!!!!!!!!":2165,"$$$":2166,"(!!!!!!!!!!!!!!!!!":2167,"QJ":2168,"TC":2169,"!!!!!!!!!!!!=``":2170,"!!!!!!!!!!!!,``":2171,"!!!!!!!!!!!!!!!!!!,":2172,"``=!!!!!":2173,"Aaaaaa":2174,"(`":2175,"EV":2176,"!!!!!!!!!:`":2177,"!!!!!!!!!!!<`":2178,"&!!!!!!!!!!!!!!!!!":2179,"=!!!!!!!!!!!!!!!":2180,"!!!!`":2181,"!!!!!!!!!!!<``":2182,"!!!!!!!!!!!!!!;``":2183,"^```]":2184,"PaaaaP":2185,"DJ":2186,"!!!!!!!;``":2187,"!!!!!!!!!!=``":2188,"!!!!!!!!!!!!!@``":2189,".!!!!!!!!!!!!!!!!":2190,"28":2191,"DaK":2192,"MA":2193,"`&!!!!!!":2194,"!!!!!!!!]`":2195,"!!!!!!?``":2196,"!!!!!!!!!!!!!>``":2197,"!!!!!!!!!!!!!!!;`":2198,"WQ":2199,"`-!!!!!!!!!!":2200,"!!!!!!!!!!!!<```":2201,"!!!;":2202,"!!!!!!!!!!!!!!!!!:":2203,"!!!!!!!!!!!!!!!!!!/":2204,"!!!!!!!-``":2205,"CS":2206,"DaY":2207,"Ga":2208,"PD":2209,"VJ":2210,"`>!!!!":2211,"TB":2212,"TN":2213,"TR":2214,"``+!!!!!!!":2215,"!!!!!!!!!!!!=`":2216,"!!!!!!!!!!/``":2217,"OOOO":2218,":!!!!!!!!!!!!!!!":2219,"HQ":2220,"LS":2221,"``*!!!!!!":2222,"aaaY":2223,"!!!!!!!!-`":2224,"JR":2225,"`,!!!!!!!!":2226,"`_@":2227,"@^`":2228,"TJ":2229,"UM":2230,"_`_`_":2231,"``````````_":2232,"`[!!!!!!!!!!!!":2233,"`[!!!!!!":2234,"\"!!!\"":2235,"7777":2236,"?````":2237,"BL":2238,"NW":2239,"Paaaaa":2240,"_@":2241,"`>!!!!!":2242,"``<!!!!!":2243,"IU":2244,"KF":2245,"KO":2246,"UQ":2247,"``,":2248,"``*!!!!!!!!":2249,"JJJ":2250,"!!!!!!!!!!!!!.``":2251,"IR":2252,"`/!!!!!":2253,"``,!!!!!!!!!":2254,"!!!!!!!>``":2255,"!!!!!?``":2256,"`<!!!!!":2257,"[```[":2258,"``?!!!!!!":2259,"3333":2260,")`":2261,">!!!!!!!!!!!!!!":2262,"Kaaaa":2263,"OT":2264,"PS":2265,"UD":2266,"WM":2267,"``,!!!!":2268,"!!!!!!!!!!!!>`":2269,"!!!!!!!!!!!!!!!?``":2270,"!!!!!!!!!!!!!!!<`":2271,"]]]]":2272,"#!\"":2273,"FA":2274,"_```^":2275,"SH":2276,"!!!!!!!!!>``":2277,"^```_":2278,"QQQQ":2279,"!!!!!!!!!!!!!/`":2280,"OE":2281,"]```````````":2282,"`&!!!!!!!":2283,"``-!!!!!!":2284,"!!!!!!!!!!!!!;``":2285,"!!!!!!!!!!!!!,``":2286,"!!!!!!!!!!!!!!!>`":2287,"!!!!!!!!!!!!!!!!!=":2288,"`:!!!!!":2289,"AaaaaaP":2290,"DM":2291,"TQ":2292,"[!!!!!!!!!":2293,"!!!<":2294,"'$":2295,";!!!!!!!!!!!!!!!":2296,"AF":2297,"SF":2298,"[``````````":2299,"`+!!!!!!!!!!!":2300,"``/!!!!!!!!!!":2301,"!!!!!!!@``":2302,"]```]":2303,"\\```_":2304,"``;!!!!!!!!!!!!!":2305,"`____`_":2306,"PB":2307,"PN":2308,"RS":2309,"RaK":2310,"!!!!!!!!!!!!!!/``":2311,"`]!!!!!!!":2312,"'%":2313,"^?":2314,"!!!!!!!!!!!!!!!=``":2315,"__`___":2316,"PaaaaaP":2317,"QN":2318,"^``````````":2319,"``````````[":2320,"LLLL":2321,"IA":2322,"RN":2323,"VE":2324,"`/!!!!!!":2325,"``(!!!!!!!":2326,"``&!!!!!!!!!!!":2327,"!!!!!!!!!!!!;``":2328,"````!!!!":2329,"````!!!":2330,"!!!!!!!!!/``":2331,"!!!!!!!!!!!!!!!!!!!%":2332,"`;!!!!!":2333,"'!!!!!!!!!!!!!!!!!":2334,"FL":2335,"RT":2336,"`*!!!!!!!":2337,"!!!!!!!!@``":2338,"!!!!!![`":2339,"aaaaaaA":2340,"%%%%":2341,"#(":2342,"GP":2343,"JU":2344,"!!!!!!!!``":2345,"``#!!!!!!!!!":2346,"!!!!!!!!!!!!!(``":2347,"!!!!!!!!!!!-``":2348,"!!!!!!!!!!!!-`":2349,"RF":2350,"!!!!!!!!!!!!!:`":2351,"!!!!!!!!!!!!!!!:``":2352,"]```_":2353,"_```\\":2354,"FP":2355,"HC":2356,"JC":2357,"OS":2358,"[!!!!!!!!!!":2359,"`+!!!!!!!!":2360,"``/!!!!!":2361,"!!!!!!<``":2362,"```!!!!!!!!!!!!":2363,"aaaR":2364,"\"!#":2365,"@^":2366,"NE":2367,"OD":2368,"PW":2369,"`!!!!!!!!!!":2370,"`*!!!!!":2371,"`-!!!!!!!!!!!":2372,"`,!!!!!!!!!!!":2373,"``/":2374,"!!!!!:``":2375,"TF":2376,"_>":2377,"``*!!!!!":2378,"``,!!!!!":2379,"!!!!!!!!!!!![`":2380,"!!!!!!!!!`":2381,"`?!!!!!":2382,"KaD":2383,"GL":2384,"RB":2385,"`,":2386,"!!!!!!!!!!!!!!!!;`":2387,"!!!!!!!!!!:`":2388,"``@!!!!!":2389,"!!!!!!!-`":2390,"<!!!!!!!!!!!!!!!":2391,"`-!!!!!!!!":2392,"!!!!!!!!!@``":2393,"!=":2394,"#'":2395,"&\"":2396,"(>":2397,"AJ":2398,"CL":2399,"NP":2400,"RL":2401,"`%!!!!!!!!!!!":2402,"!!!!!!!!!!!,``":2403,"``````````\\":2404,"`____`":2405,")``":2406,"AM":2407,"GB":2408,"RQ":2409,"!!!!!!!!!!:``":2410,"!!!!!!!!!!!@``":2411,"!!!!!!>`":2412,"!!!!!!!!!!!!!!:`":2413,"VVV":2414,"&``":2415,"DN":2416,"GT":2417,"KM":2418,"SJ":2419,"SO":2420,"`&!!!!!!!!!":2421,"`.!!!!!!!!!!":2422,"!!=":2423,"!!!>":2424,"```````````_":2425,"``=!!!!!!!!!!!!":2426,"!!!!!!!&``":2427,"!!!!!!!*`":2428,"####":2429,"BO":2430,"JT":2431,"RP":2432,"``;!!!!":2433,"!!!!!!!.``":2434,"#-":2435,"@!!":2436,"BQ":2437,"HM":2438,"SL":2439,"`,!!!!!!!!!!":2440,"``'!!!!!!":2441,"``````````````````":2442,"($":2443,"64":2444,"FT":2445,"TI":2446,"`!!!!!!!":2447,"4444":2448,"%$":2449,">_":2450,"NA":2451,"RM":2452,"`,!!!!!!!!!":2453,"`-!!!!!!!!!!!!":2454,"!!:":2455,"!!!!!!!!!!;``":2456,"!!!!!!!!!!!:``":2457,"!!!!!!!!*``":2458,";_":2459,"?_":2460,"QE":2461,"QL":2462,"SP":2463,"!!!!!!!!!!!!;`":2464,"`>!!!!!!!!!!!!!":2465,"XXX":2466,">/":2467,"?^`":2468,"`*!!!!!!!!":2469,"!!!!!!`":2470,"!!!!!!;``":2471,"!!!!!!!!!!!!!!]`":2472,"`]=":2473,"....":2474,"5555":2475,"JA":2476,"`!!!!!!!!!!!":2477,"``/!!!!!!!!!!!":2478,"`____`__":2479,"BG":2480,"LG":2481,"MB":2482,"`/!!!!!!!":2483,"`-!!!!!!":2484,"``/!!!!!!!":2485,"!!!!!!!<``":2486,"!!!!!!!!!!!!!!!!!<":2487,"!!!!!!!!!!!!!!!!!!!'":2488,"``>!!!!!!!!!!!!!":2489,"_````_":2490,"+&":2491,"Yaaaa":2492,"]=":2493,"!!!!!!!!>``":2494,"!!!!!!!!!!!:`":2495,"!!!!!!@`":2496,"`]!!!!!!":2497,"`@!!!!!!!!!!!!!":2498,"!!!!!!'``":2499,"!!!!!!!!!/`":2500,"$!\"":2501,"CR":2502,"HR":2503,"!!!!!!!!!!!!!]`":2504,"!!!!!!!!!!!!!!<`":2505,"`@!!!!":2506,"\"!!!!\"":2507,"`<!!!!!!!!!!!!!":2508,"%#":2509,"SQ":2510,"!!!!!!!!<``":2511,"!!!!!!!!!!<``":2512,"!!!!!!=`":2513,"^```\\":2514,")>":2515,"61":2516,"IP":2517,"```.!!!!!!":2518,"`]!!!!!!!!!":2519,"aaaD":2520,"!!!!!!!!!-``":2521,"```>!!!!!!!":2522,"%(":2523,"&+":2524,"39":2525,";!":2526,"GK":2527,"MD":2528,"NR":2529,"SB":2530,"SR":2531,"]````````````":2532,"!!!!!>`":2533,"EO":2534,"HK":2535,"RC":2536,"[```````````":2537,"``)!!!!!!!!":2538,"!!!!!!!!!<``":2539,"!!!!!!!!!!`":2540,"!!!!!!!!!!!!!!-`":2541,"NF":2542,"[!!!!!!":2543,"`/!!!!":2544,"`.!!!!!!!!!!!!":2545,"``*!!!!!!!!!!":2546,"!!!!!!!!!![`":2547,"!!!!!!!!!!@``":2548,"aaaaaaaA":2549,"$\"":2550,"LQ":2551,"!!!!!!!!!!!!!```":2552,"`;!!!!!!!!!!!!!":2553,"!!!!!!!!!'``":2554,"82":2555,"``%!!!!!!!!!!!":2556,"``)!!!!!!!":2557,"``/!!!!!!!!!!!!":2558,"'*":2559,",!!!!!!!!!!!!!!!!!":2560,"?_`":2561,"CK":2562,"QC":2563,"`+!!!!!!!!!":2564,"!!!!!=``":2565,"`^@":2566,"`=!!!!!!!!!!!!!":2567,"#!#":2568,"JP":2569,"!!!!!!!!!:``":2570,"!!!!!!!``":2571,"```.!!!!!!!":2572,"```````````^":2573,"$#":2574,"HO":2575,"LW":2576,"Raaaa":2577,"]>":2578,"`+":2579,"``[!!!!!!!":2580,"`?!!!!":2581,"_```[":2582,"$,":2583,"(&":2584,"93":2585,"HA":2586,"NI":2587,"_?":2588,"``$!!!!!!!!!!!":2589,"!!!!!!!]`":2590,"!!!!!!!!!!!!!!@`":2591,"``?!!!!!!!!!!!!!":2592,"?]":2593,"JQ":2594,"LA":2595,"PG":2596,"ST":2597,"[!!!!!!!!":2598,"^```````````":2599,"!!!@":2600,"]```\\":2601,"\"!!!#":2602,"!;":2603,"*!!!!!!!!!!!!!!!!!":2604,"JS":2605,"RG":2606,"TH":2607,"`!!!!!!!!!!!!":2608,"`,!!!!!!!!!!!!":2609,"``+":2610,"``(!!!!!!!!!!":2611,"`\\!!!!!!!!!!":2612,"____`":2613,"#!!#":2614,"96":2615,"EN":2616,"``/!!!!!!!!!!!!!":2617,"!!!!!!!!!!!!>``":2618,"!!!!!!!!!!!!!:``":2619,"!!!!!!!!!!!!!!=``":2620,"`]!!!!!!!!":2621,"[```\\":2622,"\"!!#":2623,"!!!!!!!!!!!-`":2624,"\"'":2625,"46":2626,"EL":2627,"KC":2628,"`.!!!!!!!":2629,"`+!!!!!!!!!!!!":2630,"!!!!!!!!!!!!!!!!:``":2631,"aaaaaaaaaa":2632,"[```]":2633,"!!!!!!!!.`":2634,"\",":2635,"91":2636,"?]`":2637,"DQ":2638,"MI":2639,"MK":2640,"!!!!!=`":2641,"\\```\\":2642,"\\```]":2643,"!!!!!!!!+`":2644,"```>!!!!!!!!":2645,"!:":2646,"&#":2647,"/;":2648,"!!!!!!!!!!!!!!!\\`":2649,"`?!!!!!!!!!!!!!!":2650,"!!!!!!$``":2651,"!!!!!!!!!,`":2652,"90":2653,"?^``":2654,"AH":2655,"NC":2656,"`(!!!!!!!!":2657,"``'!!!!!!!!!":2658,"``/!!!!":2659,"!!!!!!!!!!!!!!!!=`":2660,"!!!!!!@``":2661,"``<!!!!":2662,"FK":2663,"MG":2664,"ND":2665,"OC":2666,"``-":2667,"````=":2668,"!!!!!!!!&`":2669,"\"!$":2670,"!!!!!!!!!.`":2671,"JJJJ":2672,"',":2673,"=^":2674,"AG":2675,"MP":2676,"RI":2677,"`-":2678,"!!!!!!!![":2679,"``!!!!!!":2680,"!!!!!!!!!!!!!!!!!!!(":2681,"[```_":2682,"``?!!!!":2683,"!!!!!!!!!!!!&``":2684,"TTT":2685,"<!":2686,"^>":2687,"``'!!!!!!!!!!":2688,"````@":2689,"!!!!!!!!!!!!!!!,``":2690,"!!!!!!!!!!!!/`":2691,"$(":2692,"&(":2693,"NL":2694,"PI":2695,"QK":2696,"\\``````````":2697,"\\```^":2698,"_``````````":2699,"`!!!!!":2700,"`%!!!!!!!!!!":2701,"`(!!!!!!!!!!":2702,"!!;":2703,"!!!!!!!!!!!!!<```":2704,"!!!!!!!!'``":2705,"!!!!!!!!!!!!!(`":2706,"```=!!!!!!!!":2707,"!!!!!!!!!!!!!,`":2708,"QO":2709,"``*!!!!!!!!!!!":2710,"AaaaaaA":2711,"!!!!!*``":2712,"CO":2713,"DO":2714,"PF":2715,"!!!!!!!!!!!!!!!!>`":2716,"```!!!!!!!!!!!":2717,"!!!!!<`":2718,"!!!!!!!!!!!!!!<``":2719,"\"\"\"":2720,"CN":2721,"LE":2722,"PH":2723,"\\_`":2724,"!!!!!!!,``":2725,"!!!!!!!!!!>``":2726,"!!!!!!!*```":2727,"^````^":2728,"!!!!!!!.`":2729,"70":2730,"=]`":2731,"GR":2732,"KB":2733,"LP":2734,"`.!!!!!!!!!!!":2735,"``/!!!!!!":2736,"!!!!!!!!!!!!!=``":2737,"!!!!!!!!!!!!!!!:`":2738,"`]!!!!!!!!!!":2739,"aaPA":2740,"`:!!!!":2741,"#!!!!#":2742,"_`_`":2743,"$!!\"":2744,"\\\\\\\\":2745,"LR":2746,"``&!!!!!":2747,"!!!!!!!!!!![`":2748,"!!!!!!!!!!!!!!!!!;":2749,"!!!!!!!!,`":2750,"!!!!!!!!!.``":2751,"&$":2752,")!!!!!!!!!!!!!!!!!":2753,">_`":2754,"BI":2755,"CH":2756,"CQ":2757,"KP":2758,"RaR":2759,"_`_`_`_`_":2760,"`%!!!!!!!!!":2761,"``%!!!!!!!!!":2762,"!!!!!`__":2763,"!!!!!!!!!!!!!!!@`":2764,"!!!!!!!!%`":2765,"!!!!!!!!!!/`":2766,"```>!!!!!!!!!":2767,"%'":2768,"%)":2769,"*/":2770,"@!!!!!!!!!!!!!!":2771,"FO":2772,"!!!!!!:`":2773,"```)!!!!!!!":2774,"`]!!!!!":2775,"aaaaaaaaP":2776,"``:!!!!!!!!!!!!!":2777,"+!!!!!!!!!!!!!!!!!":2778,"<]`":2779,">)":2780,"@_`":2781,"LD":2782,"_=":2783,"`'!!!!!!!!!":2784,"``!!!!!!!!!!!!!!":2785,"``%!!!!!!":2786,"!!!!!!!!!!,``":2787,"!!!!!!<`":2788,"%\"":2789,"AD":2790,"FN":2791,"KH":2792,"!!!!!!!!!!!!!!!!:`":2793,"!!!!!/``":2794,"!!!!!!!!!!!!!!,``":2795,"!!!!!!!!!!!!!!!!!!.":2796,"!!!!!!!!!!!!!!!!!!!*":2797,"``>!!!":2798,"PaaaaaA":2799,"!!!!!!!!/`":2800,"$+":2801,"AO":2802,"BM":2803,"IN":2804,"ME":2805,"PO":2806,"!!!!!!!!,``":2807,"!!!!!!!!!!!!!!!!<`":2808,"!!!!!!!!![":2809,"!!!!!!!!!!!>``":2810,"```.!!!!!!!!!!!":2811,"!!!!!!!%``":2812,"``=!!!!":2813,"!!!!!!!!*`":2814,"#!!\"":2815,"!!!!!!!!!-`":2816,"!!!!!!!!!!!!!!+``":2817,"40":2818,"?*":2819,"LO":2820,"MR":2821,"PQ":2822,"SK":2823,"`(!!!!!!!!!!!":2824,"`)!!!!!!!":2825,"``+!!!!!!!!!!!!":2826,"!!!!!!!!!!!!!!!!@`":2827,"!!!!!!!!!!```":2828,"!!!!!!!!!!!!!!>``":2829,"`^>":2830,"!!!!!!!!!(``":2831,"^^^":2832,"^````_":2833,"_`````_":2834,"QQQ":2835,"!!!!!!!!.``":2836,"&>":2837,"/=":2838,"LF":2839,"]_`":2840,"\\```[":2841,"!!!!!!!!!!!/`":2842,"#)":2843,"(=":2844,"HD":2845,"IC":2846,"`*!!!!!!!!!!!":2847,"`.!!!!!!":2848,"!!!!````":2849,"________":2850,"`;!!!!":2851,"!!!!!!!!+``":2852,"\\````\\":2853,"``.!!!!!":2854,"!!!!!!!!!!!!!!!![`":2855,"!!!!!!;`":2856,"!!!!!;``":2857,"!!!!!!!!!!!!!!!!!!!!\"":2858,"Paaaaaa":2859,"!!!!!!!!!!-`":2860,"%*":2861,"84":2862,"</":2863,">^`":2864,"`*!!!!!!!!!":2865,"!!!!!!!!!!!!!!!;``":2866,"!!!!!!!!!!'``":2867,"\"!!$":2868,"aaaPA":2869,"UUU":2870,"RaD":2871,",'":2872,"AE":2873,"DC":2874,"[```^":2875,"`*!!!!!!!!!!":2876,"``,!!!!!!":2877,"!!!?":2878,"````!!!!!!!!":2879,"`\\!!!!!!!!!!!":2880,"``^?":2881,"#!!!\"":2882,"Aaaaaaaa":2883,"!!!!!!!!!!!!,`":2884,"&:":2885,"@\\":2886,"HN":2887,"OB":2888,"QM":2889,"_;":2890,"`)!!!!!!!!!!":2891,"!!<":2892,"!!!!!!!!!!!!!!!!!!!)":2893,"```?!!!!!!!!":2894,"!<":2895,"+?":2896,".-":2897,"FR":2898,"ID":2899,"KS":2900,"OL":2901,"QP":2902,"`+!!!!!!!":2903,"!!!!!!!!!!!!!!!!=``":2904,"!!!!!!!!!!!;`":2905,"!!!!!!]`":2906,"```````````\\":2907,"```````````]":2908,"^```[":2909,"``?!!!!!":2910,"(-":2911,"GF":2912,"OG":2913,"PM":2914,"^````````````":2915,"``$!!!!!":2916,"``,!!!!!!!":2917,"`]<":2918,"!!!!!!!'``":2919,"!!!!!!*`":2920,"Aaaaaaa":2921,"81":2922,"JE":2923,"``)!!!!!!!!!":2924,"``,!!!!!!!!!!!!":2925,"!!!!!!![":2926,"```.!!!!!!!!":2927,"!!!!!!!!!!!!!!!!!!!+":2928,"`@!!!!!!!!!!!!!!":2929,"!!!!!!!/```":2930,"!!!!!!!!!!!!!!'``":2931,"AAAAA":2932,"%.":2933,"BH":2934,"GD":2935,"PK":2936,"PL":2937,"````>":2938,"!!!!!!!!!!!!!!!`":2939,"`:!!!!!!!!!!!!!!":2940,"=\\":2941,"GA":2942,"LB":2943,"`'!!!!!!!!":2944,"``]=":2945,"`>!!!":2946,"`<!!!!":2947,"_````]":2948,"_````^":2949,"%/":2950,"&)":2951,"&/":2952,"49":2953,"=_":2954,"LM":2955,"!!!!!!!!!!!;``":2956,"```!!!!!!!":2957,"!!!!!!!!!!!!![``":2958,"aaaaaaaaaaaa":2959,"AAAAAA":2960,"$)":2961,"%+":2962,"'\"":2963,"'+":2964,"'<":2965,"EJ":2966,"GO":2967,"LH":2968,"MQ":2969,"]?":2970,"`)!!!!!!!!":2971,"`/!!!!!!!!!!!!!":2972,"`=!!!":2973,"!!!!!!!!!!*``":2974,"^`````_":2975,"!!!!!!!!!!!!!!.``":2976,"(;":2977,"80":2978,">^":2979,"KE":2980,"`_>":2981,"`:!!!!!!!!!!!!!":2982,"!!!!!!!!!!'`":2983,"!!!!!!!!!,``":2984,"!!!!!!!!!!!!!!-``":2985,"'-":2986,"(#":2987,":!!!!!!!!!!!!!!!!":2988,"<-":2989,"CF":2990,"EM":2991,"IL":2992,"JF":2993,"[!!!!!!!!!!!":2994,"``)!!!!!":2995,"!!!!!!!!!!!!!!!!?`":2996,"!!!!!!!!!!!!!!!!?``":2997,"```!!!!!!!!!!":2998,"!!!!!!!!!!!!!!:``":2999,"`[!!!!!":3000,"!!!!!!!!!!!!!!!!!!!-":3001,"\"!%":3002,"```=!!!!!!!!!":3003,"%!\"":3004,"%!!\"":3005,"63":3006,"71":3007,"78":3008,"<_":3009,"NQ":3010,"`+!!!!!!!!!!":3011,"!!!!!!!!!!!!!!!!?":3012,"!!!!!!!!!!!!!!!!;``":3013,"`=!!!!":3014,"```````````[":3015,"``=!!!!!!!!!!!!!":3016,"``:!!!!":3017,"!!!!!!!!'`":3018,"\"!!!!!!!!!!!!!!!!!!":3019,"/?":3020,"IM":3021,"RJ":3022,"`(!!!!!!!!!":3023,"!!!!!!!!!![":3024,"``?!!!":3025,"PaaaaaaP":3026,"]````^":3027,"AaaaaaaP":3028,"!!!!!!!!!!.`":3029,"\")":3030,"')":3031,"-!!!!!!!!!!!!!!!!!":3032,"86":3033,"IB":3034,"MH":3035,"NG":3036,"OA":3037,"!!?":3038,"````?":3039,"!!!!!?`":3040,"!!!!!!!!!!-``":3041,"[````[":3042,"$!#":3043,"83":3044,"DaR":3045,"^_`":3046,"`)!!!!!!":3047,"``)!!!!!!":3048,"!!!!!!!!!<```":3049,"!!!!!!!!!!!!!!!>``":3050,"`^!!!!!!!!!!":3051,"`]:":3052,"``<!!!!!!!!!!!!!":3053,"!!!!!!!!!!!!!.`":3054,"\".":3055,"#!!!!!!!!!!!!!!!!!!":3056,"%,":3057,"&*":3058,"(+":3059,"JG":3060,"`'!!!!!!!!!!":3061,"!!!!!!!]``":3062,"```.!!!!!!!!!!":3063,"!!!!!@``":3064,"!!!!!!!!!!!!!!@``":3065,"`_\\":3066,"____`__":3067,"!!!!!!!!!&`":3068,"!!!!!!!!!!!'``":3069,"___`___`":3070,"!!!!!!!!!!!!!<``<!!!!!!!!!!!":3071,"$``":3072,"&-":3073,"'>":3074,"29":3075,"87":3076,"EG":3077,"JL":3078,"PJ":3079,"```(!!!!!!!!":3080,"```'!!!!!!!":3081,"KKR":3082,"\"!!%":3083,"!!!!!!!!!!!!(`":3084,"!!!!!!!!!!!!+`":3085,"!!!!!!!!!!!!!!!'``":3086,"&=":3087,"(\"":3088,"38":3089,"<_`":3090,"Daaaa":3091,"KQ":3092,"OQ":3093,"`&!!!!!!!!!!":3094,"`,!!!!!":3095,"!!!!!!![``":3096,"!!!!!!?`":3097,"aaaaaaaaaaa":3098,"`=!!!!!!!!!!!!!!":3099,"!!!!!$``":3100,"!!!!!'``":3101,"!!!!!!!!!!!!!!/`":3102,"(%":3103,"<\"!!!!!!!!!":3104,"JN":3105,"OF":3106,"\\=":3107,"`+!!!!!!":3108,"```-!!!!!!!!!":3109,"```)!!!!!!!!":3110,"!!!!!<``":3111,"`_?":3112,"!!!!!!!!!&``":3113,"(!!!!!!!!!!!!!!!!!!":3114,".[`":3115,"@````":3116,"EI":3117,"GE":3118,"`-!!!!!":3119,"``%!!!!!!!":3120,"```;!!!!!!!!":3121,"!!!!!!!!!!!!!!!!!!=":3122,"`>!!!!!!!!!!!!!!":3123,"!!!!!!!!!'`":3124,"%!!!!!!!!!!!!!!!!!!":3125,":^`":3126,"CG":3127,"DA":3128,"DI":3129,"````!!!!!!!!!":3130,"!!!!!!!!!\">":3131,"`?!!!":3132,"!!!!!!!!!)``":3133,"!!!!!!.``":3134,"```?!!!!!!!":3135,"$*":3136,"%;":3137,"&;":3138,"(,":3139,"36":3140,"94":3141,">&":3142,">\"!!!!!!!!!":3143,"BN":3144,"]:":3145,"`*!!!!!!!!!!!!":3146,"``__":3147,"!!!!!!!!!!!!;```":3148,"!!!!!,``":3149,"!!!!!!!!!*``":3150,"#*":3151,"'.":3152,"+=":3153,"+]`":3154,"30":3155,"56":3156,"<^`":3157,"DG":3158,"DH":3159,"IF":3160,"OH":3161,"_``````_":3162,"````!!!!!!!!!!!":3163,"!!!!!!!!!\\`":3164,"!!!!!:`":3165,"____`_":3166,"!!!!!!!!/```":3167,"!!!!!!!/`":3168,"50":3169,"72":3170,"@^``":3171,"GJ":3172,"KN":3173,"`&!!!!!!!!!!!":3174,"`,!!!!!!!":3175,"``%!!!!!!!!!!":3176,"!!!!!<```":3177,"!!!!!!!!!!!!!!!!!=`":3178,"``^!!!!!!!!!!!!":3179,"!!!!!!!!!!!*`":3180,"!!!!!!!!!!,`":3181,"!!!!!!!!!!!!/```":3182,"```=!!!!!!!":3183,"!>":3184,"#/":3185,"$/":3186,")+":3187,"48":3188,"69":3189,"85":3190,"=/":3191,"FM":3192,"`'!!!!!!!":3193,"`,!!!!":3194,"``#!!!!!!!!!!":3195,"!!!!!!!!!!!!!!!!!!!!!!!":3196,"`\\!!!!!!!!!":3197,"``=!!!":3198,"!!!!!!!'`":3199,"#!!!#":3200,"!!!!!!!!!+``":3201,"Paaaaaaa":3202,"```<!!!!!!!!!!":3203,"%-":3204,"(/":3205,":]`":3206,"[__":3207,"[_`":3208,"!!!!?``":3209,"!!!!!!!!!;```":3210,"!!!!!!!!!!!!!!!<``":3211,"!!!!!!!!!!!!!!!!!@`":3212,"!!!!!!!!!!!!!!!!!;`":3213,"66666":3214,"AaaaaaaA":3215,"!!!!!!-``":3216,"!!!!!!!!!!!!!-``":3217,"```<!!!!!!!":3218,"&!!!!!!!!!!!!!!!!!!":3219,"DL":3220,"`)!!!!!!!!!":3221,"!!!!!!!!!```":3222,"`_!!!!!!!!!!!!":3223,"!!!!!!!!!!!!!!!!!@":3224,"``[!!!!!!!!":3225,"aaaaaaaaaP":3226,"`<!!!!!!!!!!!!!!":3227,"!!!!!!!!(`":3228,"!!!!!!!!!!!!%``":3229,"#!$":3230,";,":3231,"<,":3232,"=]":3233,">]`":3234,"GM":3235,"HL":3236,"ON":3237,"`!!":3238,"!!!!!!!!!!\"<":3239,"aaaaaaaaA":3240,"aaaaaaaaaA":3241,"$!!!\"":3242,"^^^^":3243,"!!!!!!!!!!!+``":3244,"&'":3245,"/!!!!!!!!!!!!!!!!!":3246,"92":3247,">!":3248,"?,":3249,"KG":3250,"MN":3251,"MO":3252,"_````````````":3253,"```-!!!!!!!!":3254,"!!!!!]`":3255,"!!!!!;`":3256,"]````_":3257,"!!!!!!,`":3258,"```<!!!!!!!!!":3259,"%`":3260,"37":3261,":?":3262,"EA":3263,"EC":3264,"KL":3265,"LC":3266,"_`````^":3267,"`&!!!!!":3268,"!!!!!!!!;```":3269,"``(!!!!":3270,"\"!!!!#":3271,"!!!!!!!!!!!!!!!!!!!!$":3272,"]````]":3273,"(!!(":3274,"```<!!!!!!!!":3275,"$!!!!!!!!!!!!!!!!!!":3276,"&<":3277,".,":3278,";````":3279,"!!!!!!!!!!!!!!!```":3280,"`_=":3281,"!!!!!!!!!!!!!!!!!>":3282,"!!!!!!!!!!!&``":3283,"!!!!!%``":3284,"^````]":3285,"!!!!!!!!!!!!*``":3286,"!!!!!!!!!!.``":3287,"-^`":3288,"/>":3289,"32":3290,"=]``":3291,"BJ":3292,"IK":3293,"JO":3294,"ML":3295,"!!!!!!!?```":3296,"`^<":3297,"!!!!!!!!!!!!!!!!!!!,":3298,"`;!!!!!!!!!!!!!!":3299,"\"!!!$":3300,"!!!!!!!!!!!!'`":3301,"^````\\":3302,"```>!!!!!!":3303,"!!!!!!!!!!!!!!!+``":3304,"$-":3305,"&`":3306,"(.":3307,"58":3308,"60":3309,"74":3310,"EH":3311,"Kaaa":3312,"_<":3313,"```!!!!!!":3314,"```-!!!!!!!":3315,"!!!!!!!!!!!!!!![`":3316,"__]":3317,"!!!!!!!!!!!!!!!!!<`":3318,"`[!!!!":3319,"``?!!!!!!!!!!!!!!":3320,"!!!!!!'`":3321,"!!!!!!!!!!!*``":3322,"!!!!!!!!!!!!!!,`":3323,"%<":3324,".)":3325,":^":3326,"@,":3327,"LK":3328,"!!>":3329,"``%!!!!":3330,"!!!!!!!!!!!!!!!!/``":3331,"!!!!!!!^`":3332,"!!!!!!!!!!!!!!!!!>`":3333,"!!!!!!!!!!(``":3334,"AaaaaaaaP":3335,"```>!!!!!":3336,"```<!!!!!!!!!!!!":3337,"'?":3338,"/)":3339,"41":3340,"68":3341,"CA":3342,"GN":3343,"HE":3344,"`*":3345,"!!@":3346,"!!!!!!!!!!!!!`":3347,"`_^":3348,"$!!!!\"":3349,"!!!!!!!!!*`":3350,"PaaaaaaA":3351,"!!!!!!!!!!!!!!*`":3352,"!!!!!!!=```":3353,"!!!!!!!!!!!!!!.`":3354,"6565":3355,"#,":3356,"&!\"":3357,"+\"":3358,"+@":3359,"-@":3360,"?!":3361,"JB":3362,"`%!!!!!!!!":3363,"``(!!!!!!":3364,"!!!!!!!!!!!!!!!!``":3365,"```.!!!!!!!!!":3366,"!!!!![`":3367,"!!!!!!!!!!!!!!!/``":3368,"``\\!!!!!!!!!!":3369,"```>!!!!!!!!!!":3370,"#.":3371,"31":3372,"57":3373,";!!!!!!!!!!!!!!!!":3374,"<````":3375,"<[`":3376,"BK":3377,"IE":3378,"MJ":3379,"!!!!!!!!!!!``":3380,"```'!!!!!!!!":3381,"!!!!!;```":3382,"______":3383,"!!!!!!!!!!\"?":3384,"`<!!!":3385,"!!!!!!!!!(`":3386,"`____`___":3387,"!!!!!!.`":3388,"!!!!!!!!!!!!!!+`":3389,"#+":3390,"%:":3391,"'!\"":3392,">\"!!!!!!!!":3393,"EK":3394,"LN":3395,"OM":3396,"[!!!!!!!!!!!!":3397,"``-!!!!!!!!!!!!":3398,"!!!!!![":3399,"!!!!!`````":3400,"``:!!!!!!!!!!!!!!":3401,"``@!!!!":3402,"!!!!!!%``":3403,"```=!!!!!!!!!!":3404,"APaaP":3405,"\"*":3406,"&.":3407,"-```":3408,".!!!!!!!!!!!!!!!!!":3409,"/\"!!!!!!!":3410,">\"!!!!!!!":3411,"\\```````````":3412,"!!!!>``":3413,"``$!!!!!!!!":3414,"```;!!!!!!!!!":3415,"`\\!!!!!!!!!!!!":3416,"``^@":3417,"!!!!!!!!(``":3418,"``@!!!!!!!!!!!!!":3419,"!!!!!!!!!!*`":3420,"!!!!!!!!!!!'`":3421,"#!!$":3422,"```?!!!!!!!!!":3423,"!!!!!!!!!!!!!!!-`":3424,"/*":3425,"95":3426,"97":3427,"<\"!!!!!!!!":3428,"CE":3429,"NH":3430,"\\!!!!!!!!!!!":3431,"^__":3432,"!!!!>`":3433,"!!!!!!!![``":3434,"``:!!!":3435,"!!!!!!!!!+`":3436,"!!!!!!!+`":3437,"!?":3438,")$":3439,"*=":3440,"?:":3441,"FC":3442,"IG":3443,"``$!!!!!!!!!":3444,"``\"!!!!!!!!!!!":3445,"!!!!!!!!!!\">":3446,"``<!!!!!!!!!!!!!!":3447,"``;!!!!!!!!!!!!!!":3448,"````````````^":3449,"&%":3450,"&,":3451,"'/":3452,".(":3453,"73":3454,"79":3455,":_":3456,"CD":3457,"HI":3458,"MF":3459,"NK":3460,"!!!!!!!!!!!!!!!@``":3461,"`^!!!!!!!!!!!":3462,"aaaaaaaaaaP":3463,"$!!#":3464,"```=!!!!!!!!!!!":3465,"-#":3466,"@=":3467,"LJ":3468,"OP":3469,"``\"!!!!!!!!!":3470,"!!!!!!!!!!!!!!!!,``":3471,"!!!!!!!!!!!!``":3472,"!!!!!!>```":3473,"```:!!!!!!!":3474,"``^!!!!!!!":3475,"``[!!!!!!":3476,"!!!!!!!!\"?":3477,"\"!!&":3478,"!!!!!!/`":3479,"%>":3480,")\"":3481,"34":3482,"62":3483,"=(":3484,">````":3485,"?\"!!!!!!!!":3486,"BE":3487,"HG":3488,"]@":3489,"``#!!!!!!!!":3490,"``)!!!!":3491,"!!!!!!!!!!!!!!!!!!!!!\"":3492,"!!!!!!!!!!!!!!!!!:`":3493,"!!!!!!!!!!!!!!!!!!;":3494,"!!!!!!!!!!#``":3495,"_````\\":3496,"\\````_":3497,"!!!!!!+`":3498,"DaD":3499,"&!!\"":3500,"';":3501,")%":3502,"<[":3503,"<\"!!!!!!!":3504,"=!!!!!!!!!!!!!!!!":3505,"CI":3506,"FD":3507,"KI":3508,"LI":3509,"NM":3510,"`#!!!!!!!!!":3511,"`(!!!!!!!":3512,"!!!!!!!!?```":3513,"``(!!!!!":3514,"``+!!!!!!":3515,"```-!!!!!!!!!!":3516,"`^!!!!!!!!!!!!":3517,"`\\!!!!!!!!":3518,"!!!!!!!!!!!!!!!!!!!/":3519,"!!!!!!!!!\"?":3520,"``@!!!!!!!!!!!!!!":3521,"$!!$":3522,"'#":3523,"+;":3524,"59":3525,">\"!!!!!!":3526,"?\"!!!!!!!!!":3527,"@*":3528,"OJ":3529,"_```````````":3530,"``!!":3531,"```*!!!!!!!!!":3532,"`\\:":3533,"``]!!!!!!!":3534,"!!!!!!!\";":3535,"PPA":3536,"````````````]":3537,"!!!!!!!!!!!'```":3538,"!!!!!!!!!!!!+```":3539,"(!!#":3540,"*?":3541,"@]":3542,"ED":3543,"HJ":3544,"[<":3545,"`!!!!!!!!!!!!!!":3546,"`.!!!!!":3547,"!!!!!!!!!!!!\\`":3548,"```,!!!!!!!!!!!":3549,"`@!!!":3550,"``<!!!":3551,"!!!!!!!!)``":3552,"`___`":3553,"#!!%":3554,"AaaaaaaaA":3555,"```<!!!!!!":3556,"!!!!!!!:```":3557,"`_`_`_`_`_":3558,",?":3559,"/$":3560,"89":3561,"=)":3562,"?!!!!!!!!!!!!!!!":3563,"@[":3564,"CJ":3565,"KaaY":3566,"_:":3567,"``*":3568,"``%!!!!!!!!":3569,"``%!!!!!":3570,"!!!!!!!!!!!![``":3571,"!!!!!!!!!!!<```":3572,"```$!!!!!!":3573,"```+!!!!!!!!":3574,"!!!!!!!!!!!!!_`":3575,"!!!!!!!!!!!!!\\`":3576,"$!!!#":3577,"!!!!!!!!!!+`":3578,"^````[":3579,"$!%":3580,"51":3581,">!!!!!!!!!!!!!!!":3582,"@!":3583,"FH":3584,"HF":3585,"NB":3586,"\\!!!!!!!!!!":3587,"`!!!!!!":3588,"!!!!!!!!`":3589,"``.!!!!":3590,"!!!!!!]``":3591,"!!!!!!<```":3592,"```)!!!!!!":3593,"```:!!!!!!!!":3594,"!!!!!>```":3595,"`_:":3596,"`^;":3597,"!!!!!!!!\">":3598,"FFFFF":3599,"#!%":3600,"_````[":3601,"&!#":3602,"APaaa":3603,"```@!!!!!!!!!!!":3604,"*\"":3605,",/":3606,"./":3607,"<^":3608,"=*":3609,"GC":3610,"Yaaa":3611,"!!!!!!!!!!!![":3612,"```;!!!!!!!":3613,"```:!!!!!!!!!!":3614,"```````````````````":3615,"`]!!!!!!!!!!!!!":3616,"!!!!!!!\">":3617,"=====":3618,"EEEEE":3619,"PPPPP":3620,"`:!!!":3621,"!!!!!!!!!!!+```":3622,"!!!!!!!!!!!!!$``":3623,"!!!!!!!!!!!.``":3624,"!!!!!!!!!!!!.`":3625,"!!!!!!!!!!!!!!!+`":3626,"$=":3627,"(:":3628,"*$":3629,"+%":3630,"42":3631,"KJ":3632,"]<":3633,"````:":3634,"!!!!!![``":3635,"!!!!!!!\"``":3636,"``=!!!!!!!!!!!!!!":3637,"!!!!!!!!!!+``":3638,"!!!!!!!+``":3639,"```=!!!!!!":3640,"!!!!!!!!!!!!!!!/`":3641,"'!!\"":3642,")=":3643,"+[`":3644,",%":3645,"-(":3646,"52":3647,"DF":3648,"\\___":3649,"\\`````^":3650,"^:":3651,"`+!!!!":3652,"!!!!;``":3653,"!!!!!!!!!!!!!!!!\\`":3654,"!!!!!!!!!!!!_``":3655,"```'!!!!!!!!!!":3656,"KKKKK":3657,"!!!!!!!%`":3658,"!!!!!!!(`":3659,"]````[":3660,"&!!&":3661,"```?!!!!!!!!!!":3662,")/":3663,"<*":3664,"@/":3665,"!!!!?`":3666,"!!!!!!!!]``":3667,"!!!``":3668,"````'!!!!!!!!!!":3669,"```&!!!!!!!!!!":3670,"```*!!!!!!!":3671,"```:!!!!!!":3672,"!!!!!`___":3673,"__``":3674,"`])!!!!!!!!!":3675,"``[!!!!!":3676,"!!!!!!!!!!!\"``":3677,"`?!!!!!!!!!!!!!!!":3678,"\"!!!!%":3679,"[````_":3680,"!!!!!!!!!!!.`":3681,"+#":3682,"+(":3683,"._":3684,"47":3685,"54":3686,":,":3687,":_`":3688,"FG":3689,"NO":3690,"[;":3691,"[!!!!!":3692,"`)!!!!!":3693,"!!!!;`":3694,"!!!!!!!!!!!!!!!!!!!!!#":3695,"!!!!!!!;```":3696,"!!!!!!!!!!!?```":3697,"```;!!!!!!!!!!!":3698,"!!!!!!!!!!!!!!!_`":3699,"`[(!!!!!!!!":3700,"``[!!!!!!!!!":3701,"!!!!!!!!\"=":3702,"`_`_`_`":3703,"`:!!!!!!!!!!!!!!!":3704,"#!!!!\"":3705,"#!!!$":3706,"$!$":3707,"!!!!!*`":3708,"!!!!!!!!!!!!!*`":3709,"```@!!!!!!!!!!":3710,")&":3711,"),":3712,"*'":3713,"53":3714,">'":3715,"GI":3716,"JM":3717,"NJ":3718,"Raaa":3719,"[@":3720,"`_]":3721,"`]!!!!!!!!!!!":3722,"`\\(!!!!!!!!":3723,"`@!!!!!!!!!!!!!!!":3724,"!!!!!!!!!!!!!!!!!!!!#":3725,"!!!!!!!$``":3726,"!!!!!!!!!!!!!%`":3727,"`````````````]":3728,"%!!%":3729,"%!$":3730,"!@":3731,"-^":3732,"-[`":3733,"FB":3734,"JD":3735,"`,!!!":3736,"``&!!!!":3737,"``-!!!!!!!!!!!!!":3738,"!!!!!`____":3739,"!!!!!!!!!!!!!!!]`":3740,"!!!!!!!!!!!!!!!!!?`":3741,"!!!!!!!!!!!!!!!!!!;`":3742,"!!!!!!!\"=":3743,"KKY":3744,"!!!!!!!!!!!!!!!!!!!!'":3745,"GGGGG":3746,"!!!!!!!(``":3747,"!!!!!!!!!!!!(```":3748,"%!%":3749,"&?":3750,").":3751,"/```":3752,":+":3753,"<]":3754,"=.":3755,"=\"!!!!!!!!":3756,"=\"!!!!!!!!!!":3757,"FJ":3758,"\\@":3759,"\\````````````":3760,"]``````]":3761,"``#!!!!!!":3762,"``$!!!!!!":3763,"``&!!!":3764,"``&!!!!!!!!!!!!!":3765,"!!!!!!!!!!<```":3766,"```&!!!!!!!!":3767,"```'!!!!!!":3768,"```;!!!!!!!!!!":3769,"__[":3770,"!!!!!!!!!!!!%`":3771,"!!!!!!!!)`":3772,"!!!!!!(``":3773,"!!!!!!!!!!!!*`":3774,"!!!!!!!,`":3775,"!!!!!!!!!!!!/```'!!!!!!!!!!!":3776,"%!!#":3777,"*,":3778,"*-":3779,"-%":3780,"/<":3781,";.":3782,"!!!!=`":3783,"``(!!!!!!!!!!!!":3784,"!!!!!!!>```":3785,"!!!!!!!!!!!!!!_`":3786,"!!!!!!!!!!!!!![`":3787,"!!!!!!!!!!$```":3788,"aPA":3789,"]`````_":3790,"!!!!!!-`":3791,"(!\"":3792,")#":3793,"*<":3794,",\"":3795,"-'":3796,"35":3797,";]":3798,"=\"!!!!!!!!!":3799,"HB":3800,"IJ":3801,"^`````\\":3802,"!!!!!!!!!!!!!!!!<``":3803,"````!!!!!":3804,"```$!!!!!":3805,"`[@":3806,"``^>":3807,"``]:":3808,"$!!!%":3809,"!!!!!!*```":3810,"[````^":3811,"`````````````^":3812,"!!!!!!!!!!!!!-``-!!!!!!!!!!!":3813,"!!!!!!!!!!!!!!!,`":3814,");":3815,"+.":3816,":&":3817,"=_`":3818,"=^`":3819,">\\":3820,"?\"!!!!!!!":3821,"RKK":3822,"^`````]":3823,"`*!!!":3824,"!!!!!!````":3825,"```/!!!!!":3826,"!!!!!@`":3827,"!!!!!!!!!!!!!!!!!!:":3828,"`]+!!!!!!!":3829,"!!!!!!!!!!!!!!!!!!!.":3830,"`=!!!!!!!!!!!!!!!":3831,"``>!!!!!!!!!!!!!!":3832,"!!!!!!!!!!!%``":3833,"````````````[":3834,"]````\\":3835,"!!!!!!!!!!!-```":3836,"\\````^":3837,"!!!!!!!!!!!!!!!&``":3838,"```@!!!!!!!":3839,"!!!!!!!!!!!!@__`":3840,")'":3841,"*&":3842,"*```":3843,"/\"":3844,"43":3845,"<.":3846,"?+":3847,"@!!!!!!!!!!!!!!!":3848,"BA":3849,"`+!!!!!":3850,"!!!!!!!!\\`":3851,"!!!!!!!!!!!!!!!!>``":3852,"`_;":3853,"!!!!!!!!\"``":3854,"IIIII":3855,"\"!!!&":3856,",,,,,":3857,"!!!!!!!!!!)``":3858,"$!'":3859,"'!!#":3860,"```>!!!!!!!!!!!":3861,"Aaaaaaaaaaa":3862,"$:":3863,"*[`":3864,"/\"!!!!!!!!!":3865,"?\"!!!!!!":3866,"GH":3867,"JK":3868,"`(!!!!":3869,"`,!!!!!!":3870,"``\"!!!!!!":3871,"``'!!!!!":3872,"!!!!!!!!!````":3873,"`^+!!!!!!!!!":3874,"!!!!!!!!!!!!!!!!!!@`":3875,"`]>":3876,"`]@":3877,"``\\!!!!!!!!!!!":3878,"___!!!":3879,"/////":3880,"`;!!!":3881,">>>>>":3882,"\"!'":3883,"\"!*":3884,"!!!!!!!!-```":3885,"PaaaaaaaA":3886,"PaaaaaaaP":3887,"%!!!#":3888,"!!!!!!!!!!!!!!$``":3889,"`````````````\\":3890,"!!!!!!!!!!!!!!!*`":3891,"```@!!!!!!!!!":3892,"\"+":3893,"([`":3894,"-$":3895,"/@":3896,"<!!!!!!!!!!!!!!!!":3897,"=[":3898,"JH":3899,"^`````^":3900,"`/!!!":3901,"``+!!!!!":3902,"``-!!!!!":3903,"`_@!!!!!!!!!!":3904,"`_@!!!!!!":3905,"!!!!!!!!!!!!!!!!!?":3906,"`^.":3907,"`^!!!!!!":3908,"``\\!!!!!!!!!":3909,"!!!!!!!!+]`":3910,"&!!%":3911,"!!!!!!!!!!!!'```$!!!!!!!!!!!":3912,"+'":3913,"-:":3914,"-]`":3915,"98":3916,"?\"!!!!!!!!!!":3917,"BF":3918,"\\!!!!!!!!":3919,"`*!!!!":3920,"``\"!!!!!!!!!!":3921,"!!!!!!!!!!!!?```":3922,"!!!!!!!!![``":3923,"!!!!!!?```":3924,"```+!!!!!!!!!":3925,"```)!!!!!!!!!":3926,"!!!!!!!!!!!!![":3927,"!!!!!!!!!!!!!;```":3928,"`_!!!!!!!!!!!":3929,"!!!!!!!!!!!!!!!!!>``":3930,"`\\=":3931,"!!!!!!!!([`":3932,"!!!!!!!!!)`":3933,"!!!!!!!!!)```":3934,"\"!!'":3935,"%!!!\"":3936,"[````]":3937,"!!!!!(``":3938,"!!!!!-`":3939,"!!!!!/`":3940,"<]``":3941,">\"!!!!!!!!!!":3942,"@_``":3943,"EF":3944,"_`````\\":3945,"`%!!!!!!!":3946,"`'!!!!!!":3947,"`(!!!!!!!!!!!!":3948,"``/!!!":3949,"````;":3950,"!!!!!!!!!!![":3951,"```(!!!!!!!!!!!":3952,"__`;!!!!!!!!!!!":3953,"`````@":3954,"!!!!!!!!!!!!!!!!!!>":3955,"aaaAA":3956,"`[(!!!!!!!!!!":3957,"!!!!!!!!!\"/":3958,"#!!!!!!#":3959,"!!!!!!!!!!!\">":3960,"!!!!!!!!%;":3961,"CCCCC":3962,"!!!!!!!!!%;":3963,"\\`````_":3964,"'!!!\"":3965,"!!!!!!!!!!!,```":3966,"!!!!!!!!!!=```":3967,"!!!!!!!!!!!!!!!*``":3968,"```@!!!!!!!!":3969,"_`____`":3970,"*+":3971,":%":3972,";^":3973,"<\\":3974,"=,":3975,"=-":3976,"?\\":3977,"`)!!!!!!!!!!!":3978,"``)!!!!!!!!!!":3979,"!!!!!!!!!!!!_`":3980,"```.":3981,"`]*!!!!!!!!!":3982,"&!!!!&":3983,"&!!!#":3984,"!!!!!!/```":3985,"!!!!!!!!!!!!!!!.``":3986,"$.":3987,"+:":3988,"<\"!!!!!":3989,"AC":3990,"DE":3991,"FI":3992,"]!!!!!!":3993,"^;":3994,"`-!!!!!!!!!!!!!":3995,"!!!!!!!!<```":3996,"!!!!!!!!!!!!!!!!_`":3997,"!!!!!!!\\`":3998,"!!!!!!!!!!>```":3999,"```&!!!!!!!":4000,"```(!!!!!!!!!":4001,"!!!!![``":4002,"!!!!!!!!!!!!!!\\`":4003,"`]+!!!!!!!!":4004,"`[!!!!!!!!!!!!!":4005,"!!!!!!!\"@":4006,"!!!!!!!!\";":4007,"!!!!!!!!)```":4008,"!!!!!!!!!!!*```":4009,"!!!!!!!!!!!+`":4010,"!!!!!!!!!!!!!([`":4011,"!!!!!!!!!!!!,```":4012,"!!!!!!!!!!!!!!)``":4013,"!!!!!,`":4014,"!!!!!!!!!!!=```":4015,"!!!!!!!!!!!!!!!.`":4016,"%=":4017,":)":4018,";%!!!!!!!!":4019,"\\>":4020,"_`````]":4021,"!!!!:`":4022,"````!!!!!!!!!!!!":4023,"!!!!!!!!!]`":4024,"!!!!!!!!!?```":4025,"```)!!!!!":4026,"`[<":4027,"!!!!!!!!!!\"/":4028,"!!!!!!!!\".":4029,"!!!!!!!!!!!!!!!!!!!!%":4030,"!!!!!!!!!%`":4031,"`<!!!!!!!!!!!!!!!":4032,"!!!!!!!!!!&``":4033,"WWWWW":4034,"BBBBB":4035,"#!!(":4036,"#!'":4037,"&!$":4038,"!!!!!!!!!!!,`":4039,"APaaaP":4040,")!\"":4041,"+```":4042,",;":4043,",\\`":4044,"/(":4045,"/_":4046,"/\"!!!!!!":4047,":]``":4048,";]`":4049,">@":4050,">]``":4051,"?[`":4052,"FE":4053,"]`````^":4054,"`%!!!!":4055,"`+!!!":4056,"!!!!:``":4057,"!!!=`":4058,"`[%!!!!!!!!":4059,"``\\=":4060,"___!!!!":4061,"!!!!!!!!\"<":4062,"DDDDD":4063,"``:!!!!!!!!!!!!!!!":4064,"!!!!!!!!!!(`":4065,"$!!!!#":4066,"&!!!!#":4067,"HHHHH":4068,"!!!!!!!!!!!!!!!'`":4069,"!!!!!!!!=```":4070,"!!!!!!!!:```":4071,"!!!!!!!!!!!!!!!!!+`":4072,"\"-":4073,"*@":4074,"75":4075,">\"!!!!!":4076,"IH":4077,"KaaK":4078,"[`````^":4079,"\\?":4080,"_`_`_`_":4081,"`\"!!!!!!!!!":4082,"`'!!!!!!!!!!!":4083,"``#!!!":4084,"``/!!!!!!!!!!!!!!":4085,"!!!!!!!!!!!!```":4086,"!!!!!!!!!!!!@```":4087,"```;!!!!!!":4088,"`_!!!!!!!!!!":4089,"`^+!!!!!!!!":4090,"`^+!!!!!!!!!!":4091,"``^!!!!!!!!!!":4092,"[[[[[":4093,"MMMMM":4094,"#!&":4095,"%!!$":4096,"%!&":4097,"!!!!!!!!!=```":4098,"^``````\\":4099,"Paaaaaaaaa":4100,"(!!\"":4101,"*%":4102,"*!!!\"":4103,"/\"!!!!!!!!":4104,"76":4105,";\"!!!!!!!!":4106,">,":4107,"[````````````":4108,"``#!!!!!":4109,"``&!!!!!!!!!!!!":4110,"``-!!!!":4111,"``*!!!!!!!!!!!!":4112,"```$!!!!!!!!!":4113,"```+!!!!!!!":4114,"```+!!!!!!!!!!":4115,"!!!!!!!!!!!!!!!!!``":4116,"^`@":4117,"`]+!!!!!!":4118,"`[(!!!!!!!!!":4119,"`\\!!!!!!!!!!!!!":4120,"!!!!!!!\"?":4121,"!!!!!!!!!\"<":4122,"!!!!!!!!!!!!!!!!!!!!*":4123,"``<!!!!!!!!!!!!!!!":4124,"\"!!!%":4125,"!!!!!!!&`":4126,"<<<<<":4127,"!!!!!!!!!!!(`":4128,"&!!!&":4129,"%!#":4130,"&!%":4131,"(!(":4132,"!!!!!+``":4133,"APaP":4134,"Aaaaaaaaaa":4135,"!!!!!!!!!!!!!!!!(`":4136,"11111":4137,"$<":4138,"'(":4139,"+/":4140,":]":4141,":\\``":4142,"=;":4143,"[=":4144,"]`````\\":4145,"_``````^":4146,"`#!!!!!!!!!!":4147,"``#!!!!!!!!!!!":4148,"!!!!!!!!!!!!!!!!]`":4149,"```__":4150,"!!!!!!!!!!!!!```<!!!!!!!!!!!":4151,"`^!!!!!":4152,"!!!!!!!!\"/":4153,"!!!!!!!!!!!!!!!!!!!!(":4154,"RRRRR":4155,"&!!!!\"":4156,"!!!!!!!-]`":4157,"!!!!!!!+]`":4158,"%!!!$":4159,"!!!!!!!!!!!!-```":4160,"(!$":4161,"!!!!!!!!!!!!@__":4162,"_`____`____":4163,"__`____`____":4164,"*;":4165,",]`":4166,".\"!!!!!!!!!":4167,"/.":4168,";\"!!!!!!!!!":4169,"<\"!!!!!!":4170,"AB":4171,"^!!!!!!!!!!":4172,"`+!!!!!!!!!!!!!!":4173,"!!?`":4174,"``+!!!!":4175,"````<":4176,"```*!!!!!!!!":4177,"```:!!!!!!!!!":4178,"!!!!!!!!!!!!!!!!!=``":4179,"!!!!!!!!!!!!!!!!!:``":4180,"`^.!!!!!!!!":4181,"!!!!!!!!!!!!!!!!!!>`":4182,"``]!!!!!!!!":4183,"____`___":4184,"\"!!!!!\"":4185,"`>!!!!!!!!!!!!!!!":4186,"!!!!!!!!!!$``":4187,"'!#":4188,"APA":4189,"!!!!!!:```":4190,"!!!!!!!!!!!!!!!!*`":4191,"!!!!!!!!!!!!!!!!*``":4192,"!!!!!!!!!!!!!!!!+`":4193,"'=":4194,"*.":4195,"-\"":4196,"-)":4197,"/'":4198,"45":4199,":\\`":4200,"<\"!!!!!!!!!!":4201,"=\"!!!!!!!":4202,">%":4203,"JI":4204,"KaaR":4205,"YaaK":4206,"[-!!!!!":4207,"]__":4208,"`.!!!!":4209,"!!!!!!!!]":4210,"!!!!!!!!@```":4211,"``#!!!!":4212,"``'!!!!":4213,"!!!!!!!!!!!!!!!!@``":4214,"!!!!!!!!!!?```":4215,"!!!!!!;```":4216,"!!!!!!!!!!!!!?```":4217,"`_!!!!!!!!!!!!!":4218,"!!!!!!!!!!!!!!!!!]`":4219,"!!!!!!!!!!!!!!!!!?``":4220,"`^!!!!!!!!!":4221,"`^/!!!!!!":4222,"`[%!!!!!!!!!":4223,"!!!!!!!!!\".":4224,"!!!!!!!!!'```":4225,"!!!!!!!!(```":4226,"!!!!!!!!!!!(``":4227,"!!!!!!!!!!!!!(``(!!!!!!!!!!!":4228,"88888":4229,"'!!!#":4230,"!!!!!!+``":4231,"'!$":4232,"APaaA":4233,"!!!!!:```":4234,"*#":4235,"*]`":4236,"+-":4237,",<":4238,".\"!!!!!!!!":4239,"/&":4240,"=\"!!!!!!":4241,"^``````_":4242,"`#!!!!!!!!":4243,"`-!!!!":4244,"`+!!!!!!!!!!!!!":4245,"!!!!!!!!!!!!\\``":4246,"!!!`":4247,"!!!!!!!!!>```":4248,"!!!!!!!`":4249,"!!!!!!!```":4250,"_`@":4251,"`^/!!!!!!!!!":4252,"`]+!!!!!!!!!":4253,"`[+!!!!!!!":4254,"\"!!!!$":4255,"!!!!!!!!!!!!!!!!!!!!&":4256,"$!!!!!\"":4257,"``=!!!!!!!!!!!!!!!":4258,"!!!!!!!!*```":4259,"\"!&":4260,";;;;;":4261,"$!!%":4262,"!!!!!!!!!!!!!!*``":4263,"!!!!!!!!!!!!.``":4264,"%&":4265,",^":4266,".#":4267,"/+":4268,";_`":4269,";\"!!!!!":4270,"<%":4271,"<[``":4272,"@:":4273,"@?":4274,"APP":4275,"CB":4276,"EB":4277,"\\:":4278,"\\;":4279,"\\!!!!!!!!!":4280,"\\``````^":4281,"^``````^":4282,"`,!!!!!!!!!!!!!":4283,"!!!!!!!!```":4284,"``\"!!!!!":4285,"``,!!!":4286,"!!!!!!!]":4287,"!!!!!!!!!!\\`":4288,"!!!!!!`````":4289,"!!!!!!\\`":4290,"```/!!!!!!!!":4291,"!!!!!!!!!!!!!!!!!-``":4292,"`]*!!!!!!!!!!":4293,"`[(!!!!!!":4294,"`\\*!!!!!!!!":4295,"``]!!!!!!":4296,"``\\:":4297,"!!!!!!!!\"@":4298,"!!!!!!!!!!!!\">":4299,"`;!!!!!!!!!!!!!!!":4300,"SSV":4301,"!!!!!!!!-]`":4302,"&!!!\"":4303,"!!!!!!,```":4304,"!!!!!!!!!!!!!!'`":4305,"```>!!!!":4306,"```>!!!!!!!!!!!!":4307,"!!!!!!!!!!!!!!!!-`":4308,"$>":4309,"-[":4310,";&":4311,">*":4312,">-":4313,"@+":4314,"`)!!!!":4315,"!!!!@`":4316,"!!!!@``":4317,"``$!!!!":4318,"``%!!!!!!!!!!!!":4319,"``*!!!!":4320,"``+!!!!!!!!!!!!!":4321,"````!!!!!!!":4322,"!!!!!!!<```":4323,"!!!!!!!!!!!@```":4324,"```!!!!!!!!!!!!!!":4325,"```,!!!!!!!!!!":4326,"!!!!!!!!!!!!!]":4327,"`^:":4328,"`^-!!!!!!!!":4329,"`^-!!!!!!!":4330,"`]!!!!":4331,"``]!!!!!":4332,"``[!!!!!!!!!!!":4333,"!!!!!!!\"<":4334,"!!!!!!!!!\";":4335,"!!!!!!!!!\"@":4336,"!!!!!!\";":4337,"!!!!!!!!&```":4338,"!!!!!!!!!!%;":4339,"(((((":4340,"!!!!!!!([`":4341,"!!!!!!&``":4342,"#!!)":4343,"!!!!!!!!!!!!-[`":4344,"&!!#":4345,"!!!!!!!!!!!!!!)`":4346,"```=!!!!!":4347,"PaaaaaaaaP":4348,";*":4349,";%!!!!!!!!!":4350,"=\\`":4351,"@.":4352,"DaaK":4353,"[_``":4354,"\\`````````````":4355,"\\`````]":4356,"]`````[":4357,"^`````[":4358,"`%!!!!!!":4359,"!!!!!!!!!!!!!!!!`":4360,"````!!!!!!!!!!!!!":4361,"!!!!!!!!!!!^`":4362,"```&!!!!!!!!!":4363,"`````!!!!":4364,"!!!!!!!!!!!!!!!!!;``":4365,"``[!!!!!!!!!!!!":4366,"!!!!!!!!!!\".":4367,"aaaaaaaaaaaP":4368,"\"!!!!!#":4369,"!!!!!!!!!!!\".":4370,"```^?":4371,"!!!!!!!!%``":4372,"\"!!!)":4373,"!!!!!!!!!+[`":4374,"$!!!$":4375,"!!!!!!!!!!!!!'``":4376,"!!!!!!!!!!!!!!!%`":4377,"!!!!!+`":4378,"```<!!!!!":4379,"APaaaA":4380,")*":4381,")!#":4382,"+$":4383,"/#":4384,":````":4385,";\\`":4386,"<'":4387,"@]`":4388,"]``````^":4389,"!!!!<`":4390,"``$!!!!!!!!!!":4391,"```(!!!!!!!!!!":4392,"```*!!!!!!":4393,"`_<":4394,"!!!!!!!!!!!!!!!!!/``":4395,"`^.!!!!!!!":4396,"`\\%!!!!!!!!!":4397,"`\\'!!!!!!!":4398,"\"!!!'":4399,"```[!!!!!!!":4400,"#!!!&":4401,"!!!!!!!!!!-```":4402,"!!!!!!!!!!!!*]`":4403,"&!&":4404,"&!'":4405,"!!!!!!!!!!!!!!!-``":4406,"AaaaaaaaaP":4407,"666666":4408,"*\\`":4409,"*!!\"":4410,",#":4411,",(":4412,"-+":4413,"-.":4414,"->":4415,".]`":4416,"/%":4417,"=:":4418,"?)":4419,"?;":4420,"RaaY":4421,"YaaR":4422,"]`````]":4423,"^=":4424,"^```````]":4425,"`\"!!!!!!!!!!":4426,"`#!!!!":4427,"``)!!!!!!!!!!!!":4428,"!!!!!!!!!!!!!!!!!!!!!$":4429,"!!!!!!!!!\\":4430,"```/!!!!!!!!!":4431,"!!!!![":4432,"!!!!!!!!!!!!!!<```":4433,"`^.!!!!!!!!!":4434,"`[(!!!!!!!!!!!":4435,"`\\;":4436,"`\\*!!!!!!!":4437,"``^!!!!!!!!!!!":4438,"!!!!!!!!!!\"@":4439,"aaaaaaaaaaaaa":4440,"`@!!":4441,"!!!!!!\">":4442,"!!!!!!!!!!!!\"``":4443,"$!!!!$":4444,"````````````_":4445,"#!!!%":4446,"\"!!(":4447,"!!!!!!!!+[`":4448,"!!!!!!!!!!*```":4449,"%!!!!\"":4450,"@@@@@":4451,"!!!!!!!!!-```":4452,"[````\\":4453,"%!'":4454,"```?!!!!!!!!!!!":4455,"!!!!!!!!!!!!!!!!%`":4456,"AaaaaaaaaA":4457,"[``````[":4458,"$?":4459,")!!!!!!!!!!!!!!!!!!":4460,"+>":4461,"-]":4462,".>":4463,".^`":4464,"<&":4465,"<\"!!!!!!!!!!!":4466,"?^```":4467,"BC":4468,"]``````_":4469,"`/!!!!!!!!!!!!!!":4470,"!!!!=``":4471,"!!!!!!!!>```":4472,"``*!!!":4473,"!!!!!!!!!!!\\``":4474,"!!!!!!!!!!!;```":4475,"!!!!!!!!!!!!!!\\":4476,"!!!!!!!!!!!!!!!!!@``":4477,"!!!!!!!!!!!!!!!!!!@":4478,"`[(!!!!!!!":4479,"`\\(!!!!!!!!!":4480,"aaaaaaaaaaA":4481,"`?!!":4482,"`>!!":4483,"!!!!!!!!!!'?":4484,"#!!&":4485,"```<!!!!":4486,"AaaaaaaaaaP":4487,"Paaaaaaaaaa":4488,"!!!!!!!!!!!!!!!!,`":4489,"'!!!!!!!!!!!!!!!!!!":4490,"+)":4491,",@":4492,".'":4493,"/!!!!!!!!!!!!!!!!!!":4494,"/\\`":4495,";]``":4496,"=````":4497,"Daaa":4498,"YKK":4499,"[:":4500,"[!!!":4501,"\\!!!!!!!!!!!!":4502,"`&!!!!":4503,"``'!!!!!!!!!!!!":4504,"```/!!!!":4505,"!!!!!!!!!!!!!!^`":4506,"`_@!!!!!":4507,"!!!!!!!!!!!!!!!!!-`":4508,"`^/!!!!!!!!":4509,"`^,!!!!!!!!!":4510,"\\`@":4511,"____`____`____":4512,"!!!!!!!!!\":":4513,"!!!!!!!!!%[`":4514,"!!!!!!!!!'?":4515,"$!!!!'":4516,":::::":4517,"+++++":4518,"#!!'":4519,"!!!!!!!!!!)`":4520,"(!!!(":4521,"'!!!%":4522,"):":4523,"*!!!!\"":4524,"+*":4525,"+!#":4526,",*":4527,">\\`":4528,">\"!!!!!!!!!!!":4529,"`$!!!!!":4530,"`&!!!":4531,"`'!!!!":4532,"`.!!!!!!!!!!!!!":4533,"!!!!!!!!!!!!!!!!!!!!!&":4534,"!!!!!!!!!!!!]`":4535,"!!!!!!!!!!@```":4536,"```*!!!!!!!!!!":4537,"`];":4538,"`['!!!!!!!!":4539,"``]<":4540,"!!!!!!!!!!!\"=":4541,"``;!!!":4542,"(!!!!(":4543,")))))":4544,"!!!!!!!!!/```":4545,"$!!'":4546,"\\````]":4547,")!!\"":4548,".\\":4549,"/-":4550,";/":4551,"<@":4552,">_``":4553,"RaaK":4554,"YXX":4555,"[!!!!":4556,"`-!!!":4557,"``#!!!!!!!!!!!!":4558,"``,!!!!!!!!!!!!!":4559,"!!!?`":4560,"!!!!!!!!!@```":4561,"!!!!!!!!!!\\":4562,"!!!!!!^`":4563,"!!!!!]``":4564,"`````=":4565,"!!!!!!!!!!!!!!!!!\\`":4566,"`^-!!!!!!":4567,"``_@":4568,"!!!!!!!!%[`":4569,"!!!!!!!!!!!!!!!!!!!!)":4570,"!!!!!!!!!(```":4571,"#!!!!&":4572,"````````````\\":4573,"$!!!(":4574,"!!!!!!&`":4575,"!!!!!!!!!!!!*[`":4576,"$!(":4577,"(!/":4578,"```?!!!!!!":4579,"!!!!!!!!!!!!!!!!&``":4580,"PaaaaaaaaA":4581,"('":4582,")@":4583,"+^":4584,",=":4585,"-&":4586,".$":4587,":/":4588,">[":4589,"?]``":4590,"@\"!!!!!!!!!!":4591,"];":4592,"]!!!!!!!":4593,"]!!!!!":4594,"_``````]":4595,"`)!!!!!!!!!!!!":4596,"!!!![`":4597,"!!!!<```":4598,"!!!!!!!!!!!!>```":4599,"!!!!!!!!!!!`":4600,"!!!!!!_``":4601,"`_/!!!!!!!!":4602,"`^!!!!!!!":4603,"`^*!!!!!!!!!":4604,"!!!!!!!!!!!!!!!!!!``":4605,"!!!!!!!!!!!!!!!!!!=`":4606,"`])!!!!!!!!!!":4607,"`[%!!!!!!!":4608,"`['!!!!!!!":4609,"`[+!!!!!!!!!!":4610,"`\\*!!!!!!":4611,"``_\\":4612,"#!!!!!!\"":4613,"!!!!!!!!!!!%`":4614,"``@!!!":4615,"!!!!!!!!!!!&`":4616,"\"!!)":4617,"!!!!!!!!!!*]`":4618,"%!!!!#":4619,"!!!!!!!!!!!+````":4620,"!!!!!!!!!!!!)``":4621,"(!#":4622,"(!'":4623,"```=!!!!":4624,"!!!!!!!!!!!!!!!)`":4625,"!!!!!!=```":4626,"_````````_":4627,"(@":4628,"*!%":4629,"+!&":4630,",[`":4631,"._`":4632,"=\"!!!!!":4633,">(":4634,"@;":4635,"YaaY":4636,"YaaD":4637,"!!!!,``":4638,"``(!!!":4639,"``.!!!!!!!!!!!!!":4640,"!!!!!!!^":4641,"!!!!!!!!!!![``":4642,"!!!!!!_`":4643,"```$!!!!!!!!":4644,"```+!!!!!!!!!!!":4645,"!!!!!!!!!!!!!!````":4646,"`^-!!!!!!!!!":4647,"`[&!!!!!!!!":4648,"`[%!!!!!!":4649,"`[+!!!!!!!!":4650,"`\\!!!!!":4651,"`\\'!!!!!!!!":4652,"!!!!!!!!!!!\"/":4653,"CCP":4654,"``>!!!!!!!!!!!!!!!":4655,"!!!!!!!!!!!!$``":4656,"\"!)":4657,"!!!!!!!!!+]`":4658,"!!!!!!!!!!!*]`":4659,"!!!!!!!-```":4660,"%!!'":4661,"!!!!!!!!!!!!!!!$``":4662,"!!!!!.`":4663,"&!!!!!#":4664,")<":4665,"*:":4666,"+]":4667,"+\\`":4668,",)":4669,".\"":4670,".?":4671,".@":4672,"/:":4673,"67":4674,";^`":4675,"?\"!!!!!":4676,"^-!!!!!!!!":4677,"`%!!!!!":4678,"`)!!!":4679,"`/!!":4680,"!!!!`__":4681,"!!!!!!!!^``":4682,"``.!!!":4683,"!!!!!!!!!!;```":4684,"```-!!!!!!!!!!!":4685,"`^!!!!":4686,"`]+!!!!!":4687,"`[!!!":4688,"`[+!!!!!!!!!":4689,"``]!!!!!!!!!":4690,"!!!!!!!!!\"=":4691,"!!!!!!!!!!!\"<":4692,"!!!!!!!!!!!\"?":4693,"!!!!!!!!!!!!\"?":4694,"99999":4695,"!!!!!!!-[`":4696,"!!!!!!!!!-^`":4697,"$!&":4698,"(!!&":4699,"!!!!!!!!!!!!!!&``":4700,"'!%":4701,"```@!!!!!!!!!!!!":4702,"!!!!!!!!!!!!!!!!(``":4703,"!!!!!!!!!!!!!!!!+``":4704,"'\\`":4705,"*>":4706,",^`":4707,",!!!!!!!!!!!!!!!!!!":4708,"-;":4709,"-\\`":4710,"/_`":4711,";%":4712,";\"!!!!!!":4713,">.":4714,"?'":4715,"XWW":4716,"\\<":4717,"`.!!!":4718,"````!!!!!!":4719,"!!!!!!!@```":4720,"!!!!!!!!!!!]`":4721,"!!!!!!!!!!!!!![":4722,"`````?":4723,"`^/!!!!!!!":4724,"`^.!!!!!!!!!!!":4725,"`]+!!!!!!!!!!!":4726,"`\\*!!!!!!!!!":4727,"``_]":4728,"\"!!!!!!\"":4729,"!!!!!!!!!!$:":4730,"``=!!":4731,"!!!!!!!!'\\`":4732,"!!!!!!!!!'\\`":4733,"!!!!!!!!!!([`":4734,"!!!!!!!!!,[``":4735,"?????":4736,"'!(":4737,"PaaPA":4738,"!!!!-`":4739,"!!!!!!!!!!!!!!!!/`":4740,",$":4741,"-!!\"":4742,".+":4743,".^":4744,".\\`":4745,"/,":4746,":[`":4747,";'":4748,";<":4749,";$!!!!!!!!!":4750,"=+":4751,"=&!!!!!!!!!!!":4752,"?[":4753,"@>":4754,"APaa":4755,"BD":4756,"]!!!!!!!!!":4757,"^-!!!!!!!":4758,"_`````[":4759,"!!!!!!!!^`":4760,"!!!>`":4761,"````?!!!!!!!!":4762,"```/!!!!!!":4763,"!!!!!!!!!!!!!!!]``":4764,"`_/!!!!!!!!!!!":4765,"!!!!!!!!!!!!!!!!![`":4766,"`^!!!!!!!!":4767,"`^/!!!!!!!!!!!":4768,"``[<":4769,"``_[":4770,"!!!!!!!!!!\"=":4771,"$!!!!!!\"":4772,"!!!!!!\"``":4773,"#!!!!!\"":4774,"!!!!!!!!!$;":4775,"\"!!!(":4776,"!!!!!!!&```":4777,"\"!!*":4778,"-----":4779,"!!!!!!!!!!!!([`":4780,"!!!!!!!!!!!!-]`":4781,"!!!!!)``":4782,"!!!!!!!!!!!!!*``":4783,"!!!!!-``":4784,"!!!!!!!!!!!!!<`]!!!!!!!!!!!!":4785,".&":4786,"=[``":4787,"QFF":4788,"^-!!!!!!!!!":4789,"`#!!!!!":4790,"`(!!!!!!":4791,"!!!!<``":4792,"``)":4793,"!!!!!!!!!!!!!!!!\\":4794,"!!!!!!!!!!!!!!!!!!!!!(":4795,"!!!!!!!!!!`__":4796,"```)!!!!!!!!!!":4797,"00000":4798,"__\\":4799,"_`___`":4800,"`^+!!!!!!!!!!!":4801,"!!!!!!!!!!!!!!!!!!:`":4802,"`]-!!!!!!!":4803,"`\\-!!!!!!!!!":4804,"``^!!!!!!":4805,"!!!!!!!!!!!!!!!!!!!=":4806,"``[!!!!!!!!!!":4807,"aaaaaaaaaaaA":4808,"`?!!!!!!!!!!!!!!!!":4809,"!!!!!!!%<":4810,"!!!!!!!!!!!!\".":4811,"!!!!!!!!!!%`":4812,"``?!!!!!!!!!!!!!!!":4813,"`:!!":4814,"!!!!!!!!!([`":4815,"#!!!!$":4816,"#!!!'":4817,"!!!!!!!!!*```":4818,"%!!!!'":4819,"!!!!!!!!-]":4820,"!!!!!!!)``":4821,"!!!!!!!!!!!-[`":4822,"!!!!!!!!!!!)___":4823,"!!!!!!!!!!/```":4824,"```=!!!!!!!!!!!!":4825,"*!!%":4826,"!!!!!!!!!!!:```":4827,"___`____`__":4828,"'&":4829,"+!\"":4830,",.":4831,",!\"":4832,"-_":4833,"/]`":4834,":$":4835,":$!!!!!!!!!":4836,"<>":4837,"<?":4838,"DaaY":4839,"PAA":4840,"VSS":4841,"[>":4842,"[!!!!!!!!!!!!!":4843,"^,!!!!!!!!":4844,"`&!!!!!!!!!!!!!":4845,"!!!!`___":4846,"``+!!!":4847,"```.!!!!!":4848,"```:!!!!!":4849,"!!!!!!!!!!!!!]``":4850,"`\\(!!!!!!!":4851,"\"!!!!!!#":4852,"`=!!":4853,"`=!!!!!!!!!!!!!!!!":4854,"#!!!!!#":4855,"!!!!!!#`":4856,"!!!!!!!!!%>":4857,"!!!!!!!!!!%``":4858,"`````````````_":4859,"\"!(":4860,"!!!!!!!!!!!!&`":4861,"!!!!!'```":4862,"`````````````[":4863,"*!!!#":4864,")!!!#":4865,"ZaT":4866,"!!!!!!!!!!:```":4867,"AaaaaaaaaaA":4868,"!!!!!!!!!!!!!!!!!&``":4869,"======":4870,"$;":4871,"+!!\"":4872,",:":4873,"-*":4874,".%":4875,".*":4876,".[":4877,":(":4878,"@\"!!!!!!!!!":4879,"[`````]":4880,"\\_``":4881,"]``````````````":4882,"^-!!!!!!!!!!":4883,"_```````_":4884,"``(":4885,"````.!!!!!!!":4886,"!!!!!!!!!!!!!@```":4887,"!!!!!!!!!!!!!!?```":4888,"22222":4889,"!!!!!!!!!!!!!!!!!,`":4890,"`^+!!!!!!!":4891,"`^,!!!!!!!!":4892,"`^-!!!!!!!!!!":4893,"`[:":4894,"`[-!!!!!!!!!":4895,"`\\!!!!!!!!!!!!!!":4896,"!!!!!!!!!!\":":4897,"___]":4898,"#!!!!!&":4899,"`;!!":4900,"#!!!!%":4901,"GGV":4902,"!!!!!!!!!!!'````":4903,"!!!!!!!!!,]`":4904,"!!!!!!!!!!!!-^`":4905,"&!!'":4906,"!!!!!!!!!!!/```":4907,"__`____`_":4908,")-":4909,")?":4910,"*!\"":4911,"+^`":4912,"-!\"":4913,".\"!!!!!!!":4914,"/^`":4915,"/!(":4916,";\\":4917,";\"!!!!!!!":4918,";$!!!!!!!!":4919,"<:":4920,"@\"!!!!!":4921,"DB":4922,"KaaD":4923,"[`````\\":4924,"^``````]":4925,"``$!!!!!!!":4926,"``)!!!!!!!!!!!":4927,"!!!!!!!!!!!!!!!![":4928,"!!!!!!!!!!]`":4929,"!!!!!_`":4930,"`],!!!!!!!!!":4931,"`[%!!!!!!!!!!":4932,"\"!!!!!%":4933,"!!!!!!!!!!#-":4934,"!!!!!!!#``":4935,"!!!!!!!!'```":4936,"!!!!!!!!!!&`":4937,"!!!!!!!!(]`":4938,"!!!!!!!!!!+]`":4939,"!!!!!!!!!!!+]`":4940,"#!+":4941,"&!!!%":4942,"$!!&":4943,"(!!!&":4944,"%!!&":4945,"!!!!!!!!!!!!:```":4946,"___`____`":4947,"___`____`_":4948,"'!!!!\"":4949,")!!!\"":4950,")!$":4951,"*!#":4952,"-\\":4953,".;":4954,".```":4955,";$":4956,"<+":4957,"<;":4958,">\"!!!!":4959,"?/":4960,"?`_":4961,"?`````":4962,"]```````^":4963,"!!!!;```":4964,"!!!!!!!!!!!>```":4965,"```&!!!!!!":4966,"```;!!!!!":4967,"!!!!!`_":4968,"!!!!!\\`":4969,"!!!!!!!!!!!!!````":4970,"!!!!!!!!!!!!!!]``":4971,"!!!!!!!!!!!!!!;```":4972,"`^\\":4973,"^`>":4974,"!!!!!!!!!!!!!!!!!!<":4975,"`],!!!!!!":4976,"`['!!!!!!":4977,"`\\%!!!!!!!":4978,"`\\-!!!!!!!!":4979,"`\\.!!!!!!!!!":4980,"``_^":4981,"!!!!!!!\".":4982,"\"!!!!'":4983,"`<!!":4984,"``;!!":4985,"!!!!!!!*[`":4986,"!!!!!!!!!!!!!%``":4987,"(!!!$":4988,"[`````_":4989,"33333":4990,"$!*":4991,"!!!!!!!!!!!!)```":4992,"!!!!!!!.```":4993,")!!!!#":4994,"!!!!!!!!!!!!!)``":4995,"*!!$":4996,"PaaaaaaaaaA":4997,"//////":4998,"*!!!!!!!!!!!!!!!!!!":4999,",_":5000,"/[`":5001,":.":5002,":=":5003,"?\"!!!!!!!!!!!":5004,"@\"!!!!!!!!":5005,"Yaaaaaaaa":5006,"[^`":5007,"\\%!!!!!!!!":5008,"`$!!!!!!!!!!":5009,"!!!!!!!!_`":5010,"``%!!!":5011,"!!!@`":5012,"!!!<`":5013,"!!!!!!!\\":5014,"```/!!!!!!!":5015,"!!!!!!!!!!!!!!!<```":5016,"`_!!!!!!!!":5017,"aaaaK":5018,"`^+!!!!!!":5019,"`^,!!!!!!!!!!":5020,"!!!!!!!!!!!!!!!!!!;``":5021,"`])!!!!!!!!":5022,"`],!!!!!!!!":5023,"`[&!!!!!!!":5024,"`[-!!!!!!!!":5025,"``^!!!!!!!!!":5026,"!!!!!!!!!!\";":5027,"\"!!!!&":5028,"!!!!!!!!!!&=":5029,"!!!!!!%`":5030,"!!!!!!%```":5031,"!!!!!!!!!!!!&``;!!!!!!!!!!!!":5032,"*****":5033,"_`_@!!!!!!!!!!":5034,"!!!!!!!-^`":5035,"#!)":5036,"(!!!#":5037,"%%%%%":5038,"'!!!$":5039,"'!!&":5040,"APaA":5041,"!!!!!!!!!!!!!!!(`":5042,"!!!!!!!!!!!!!!!(``":5043,"```?!!!!!!!!!!!!":5044,"!!!!,`":5045,"'@":5046,"+,":5047,"+!!!!!!!!!!!!!!!!!!":5048,"+!!#":5049,"+!$":5050,";%!!!!!!!":5051,"<(":5052,"?!!!!!!!!!!!!!!!!":5053,"@-":5054,"@`_":5055,"\\!!!!!!!!!!!!!":5056,"]_``":5057,"])!!!!!!!!!":5058,"^+!!!!!!!!!":5059,"!!;`":5060,"!!!![``":5061,"!!!!/``":5062,"``)!!!":5063,"``-!!!":5064,"``)!!!!!!!!!!!!!":5065,"!!!!!!!!!!!!!!!!!!!!!!\"":5066,"!!!!!!!!!!!!!!!!!!!!!%":5067,"!!!!!!!_`":5068,"!!!!!^`":5069,"`_/!!!!!!!!!":5070,"aaaaAA":5071,"!!!!!!!!!!!!!!!!!!?`":5072,"`]*!!!!!!!!":5073,"aaaaaaaaaaaaaA":5074,"\"!!!!!$":5075,"!!!!!!!#@":5076,"!!!!!!!!!$:":5077,"!!!!!!!!!!!%<":5078,"``@!!!!!!!!!!!!!!!":5079,"!!!!!!!'```":5080,"```]=":5081,"(!!!!#":5082,"!!!!!!(`":5083,"!!!!!%```":5084,"!!!!!!!!!!-^`":5085,"\\````[":5086,"!!!!!'`":5087,"&!!$":5088,"(!!%":5089,"%!)":5090,"'!&":5091,"+!!&":5092,")!!$":5093,"```@!!!!!!":5094,"PaaaaaaaaaP":5095,"!!!!!!!@__":5096,"_`____`__":5097,"'!!!!!\"":5098,")(":5099,"+[":5100,".!!!!!!!!!!!!!!!!!!":5101,".\"!!!!!!!!!!":5102,".!!!#":5103,"/\"!!!!!!!!!!":5104,";+":5105,"=!!!!!!!!!!!!!!!!!":5106,">$":5107,">^``":5108,"?%":5109,"@\"!!!!!!!":5110,"^,!!!!!!!!!":5111,"`%!!!!!!!!!!!!":5112,"`,!":5113,"!!!?``":5114,"````=!!!!!!!!":5115,"````<!!!!!!!!!!":5116,"!!!!!!!!!!````":5117,"```!!":5118,"`_.!!!!!!!!!!":5119,"`_@!!!!!!!!!!!":5120,"`^-!!!!!":5121,"`]'!!!!!!!":5122,"`[*!!!!!!!!":5123,"`[(!!!!!":5124,"``^<":5125,"``]!!!!!!!!!!!!":5126,"_____`____":5127,"``[!!!!":5128,"!!!!!!!\"/":5129,"#!!!!!%":5130,"DDZ":5131,"\"!!!*":5132,"```[!!!!!!!!":5133,"&!!!!!&":5134,"!!!!!!!!!!!!$`":5135,"$!!!'":5136,"!!!!!!!!!!+[`":5137,"!!!!!!!!!!!-^`":5138,"&!!!)":5139,"$!!(":5140,"!!!!!!!!,^`":5141,"!!!!!!!!!!!!!+```":5142,"!!!!!!!!!!!!!&``":5143,"!!!!!!!!!!!!!!([`":5144,"+!!!&":5145,"'!!$":5146,"`_`_`_`_`_`_":5147,"SSSSS":5148,"&!!!!!\"":5149,"':":5150,"*(":5151,",!!\"":5152,"-!#":5153,";^``":5154,"<)":5155,"<^``":5156,"=$":5157,">[`":5158,"DKK":5159,"DaaR":5160,"QGG":5161,"RaaR":5162,"YWW":5163,"]_```":5164,"^,!!!!!!!":5165,"`,!!":5166,"!!!;`":5167,"!!!:`":5168,"!!!!!!!!!\\``":5169,"!!!!!!!!!!!\\`":5170,"```,!!!!!":5171,"```,!!!!":5172,"`_/!!!!!!!":5173,"`^[":5174,"`^'!!!!!!!!!!!":5175,"`^/!!!!!!!!!!":5176,"`^-!!!!!!!!!!!":5177,"`\\@":5178,"`\\+!!!!!!!":5179,"`\\,!!!!!!!":5180,"``[+!!!!!!!":5181,"___!!!!!!!!!":5182,"!!!!!!#``":5183,"!!!!!!!!!&=":5184,"!!!!!!!!!&[`":5185,"!!!!!!!%;":5186,"!!!!!!$`":5187,"$!!!&":5188,"!!!!!!!!!!!!+]`":5189,"!!!!!!!!!.^`":5190,"77777":5191,"(!!$":5192,"!!!!$``":5193,"```@!!!!!":5194,"Aaaaaaaaaaaa":5195,"!!!!*``":5196,"/!/":5197,"!!!!!!!!!!!!!!!!-``":5198,"!!!!/`":5199,"EEEEEE":5200,"%!!!!!\"":5201,"'```":5202,"-!!!!!!!!!!!!!!!!!!":5203,"-!%":5204,":[":5205,";(":5206,";%!!!!!!!!!!!":5207,"<\\`":5208,"=@":5209,"?_``":5210,"@)":5211,"@]``":5212,"\\``````_":5213,"]!!!!":5214,"]`````````````":5215,"_/!!!!!!!!":5216,"`-!!":5217,"```:!!!!!!!!!!!":5218,"!!!!!!!!!!!!!!!\\":5219,"__^":5220,"`_!!!!!!!":5221,"aaaaPA":5222,"!!!!!!!!!!!!!!!!!.`":5223,"`^,!!!!!!!!!!!":5224,"`]+!!!!!!!!!!":5225,"`]-!!!!!!":5226,"`[$!!!!!!!!!!":5227,"`\\(!!!!!":5228,"``]>":5229,"``]!!!!":5230,"!!!!!!!!&[`":5231,"!!!!!!!!!!!!\"<":5232,"!!!!!!!!!!!!%[`":5233,"#!!!)":5234,"!!!!!!!!!!!!(````":5235,"!!!!!!!)`":5236,"$!!)":5237,"!!!!!!!!!!!)`":5238,"(!!!%":5239,"!!!!!!!!!!!!/````":5240,"&!!(":5241,"!!!!!!!!!!!!!-^`":5242,"```>!!!!!!!!!!!!!":5243,"!!!!!!!!!!!!!!!&`":5244,"```<!!!!!!!!!!!!!":5245,"!!!!!!!!!!=````":5246,"!!!!!.``":5247,"!!!!+``":5248,"!!!!!!!!!!!!<``<!!!!!!!!!!!!":5249,"!!!!!!!!!!!!!!!!.`":5250,"'\"!!!!!!!!":5251,"/\"!!!!!":5252,"/!\"":5253,":$!!!!!!!!!!":5254,"<=":5255,"=&!!!!!!!!!!":5256,"?=":5257,"@<":5258,"[-!!!!!!!!!!":5259,"\\%!!!!!!!!!":5260,"^<":5261,"^*!!!!!!!!!":5262,"`!!!!!!!!!!!!!!!":5263,"`(!!!!!":5264,"`'!!!!!":5265,"`%!!!":5266,"!!=`":5267,"``+!!!!!!!!!!!!!!":5268,"``,!!!!!!!!!!!!!!":5269,"``/!!!!!!!!!!!!!!!":5270,"````.!!!!!!!!":5271,"```(!!!!!!!":5272,"!!!!!\\":5273,"!!!!!!!!!!!!!````!!!!!!!!!!!":5274,"`_)!!!!!!":5275,"_`?":5276,"`[$!!!!!!!!!":5277,"`[+!!!!!!":5278,"`[,!!!!!!!":5279,"`\\'!!!!!!":5280,"`\\(!!!!!!":5281,"!!!!!!!\"*":5282,"!!!!!!!!!#-":5283,"!!!!!!!!!!!\";":5284,"!!!!!!!!!!!\"@":5285,"`@!!!!!!!!!!!!!!!!":5286,"`>!":5287,"!!!!!!!!!&>":5288,"$!!!!!#":5289,"!!!!!!!!!!!$``":5290,"#!!!!*":5291,"!!!!!!!!!!(```":5292,"!!!!!!!!!!!&```":5293,"#!!!+":5294,"!!!!!!!!!!+```":5295,"#!*":5296,"!!!!!!!!!!-^":5297,"!!!!!!!+]":5298,"OOOOO":5299,"!!!!!!!!!!!)\\`":5300,"!!!!!!!!!!!!-]":5301,"'!!!!#":5302,"%!!)":5303,"'!!'":5304,"```=!!!!!!!!!!!!!":5305,"!!!!'``":5306,"+!(":5307,"#!!!!!!!!!!!!!!!!!!!":5308,",&":5309,";)":5310,"?>":5311,"?'!!!!!!!!!":5312,"@#!!!!!!!!":5313,"[-!!!!!!":5314,"[`````[":5315,"^!!!!!!!!!!!":5316,"^)!!!!!!!!!":5317,"_``````````````":5318,"`(!!!":5319,"`+!!":5320,"!!<`":5321,"!!!!]`":5322,"!!!!!!!!!!!!^`":5323,"!!!@``":5324,"!!!!!!!!!!^`":5325,"!!!!!!!!!![``":5326,"```,!!!!!!!!!":5327,"!!!!!!!!!!!!!\\``":5328,"!!!!!!!!!!!!!!_":5329,"!!!!!!!!!!!!!!!\\``":5330,"`^*!!!!!!!!":5331,"^`<":5332,"!!!!!!!!!!!!!!!!!!<`":5333,"!!!!!!!!!!!!!!!!!!-`":5334,"`](!!!!!!!!":5335,"`]-!!!!!!!!!!!":5336,"`\\(!!!!!!!!!!":5337,"`\\)!!!!!!!!!":5338,"\"!!!!!!%":5339,"!!!!!!!!!#?":5340,"!!!!!!!!!!#<":5341,"`?!":5342,"\"!!!!+":5343,"!!!!!!!!$=":5344,"!!!!!!!!!%\\`":5345,"!!!!!!!%[`":5346,"``:!!":5347,"!!!!!!!!!!%[`":5348,"!!!!!!!!!!!$`":5349,"!!!!!!!!!!!%;":5350,"!!!!!!!!!!!!%\\`":5351,"!!!!!!!!!!*[`":5352,"!!!!!!!!!!!*=":5353,"#!(":5354,"$!!+":5355,"!!!!!!!!.^`":5356,"!!!!!&``":5357,"(!%":5358,"!!!!(``":5359,"!!!!!!!!;````":5360,"AaaaaaaaaaaP":5361,"KKKKKK":5362,"APaaaaP":5363,"IIIIII":5364,"ZZZZZ":5365,"\"!!!!!!!!!!!!!!!!!!!":5366,")!%":5367,",>":5368,":@":5369,":\\":5370,":\"!!!!!!!!":5371,"=^``":5372,"=$!!!!!!!":5373,">%!!!!!!!!!!":5374,"DaaD":5375,"WVV":5376,"\\'!!!!!!!!":5377,"\\&!!!!!!!!!!":5378,"\\```````^":5379,"](!!!!!!!!":5380,"]*!!!!!!!!!!":5381,"^+!!!!!!!!!!":5382,"^*!!!!!!!!!!":5383,"_/!!!!!!!!!":5384,"_```````]":5385,"`,!!!!!!!!!!!!!!":5386,"``\"!!!!!!!":5387,"``&!!!!!!!!!!!!!!":5388,"!!!!!!!!!!!!`":5389,"!!!!!!!!!!!!]``":5390,"!!!!!!!!!!!!\\```":5391,"!!!!!!!!!!!^":5392,"!!!!!!^":5393,"```,!!!!!!!!":5394,"```;!!!!":5395,"`_/!!!!!!":5396,"!!!!!!!!!!!!!!!!!/`":5397,"_`>":5398,"`](!!!!!!!":5399,"`](!!!!!!":5400,"`],!!!!!!!":5401,"`[-!!!!!!!!!!":5402,"`[)!!!!!!!!!!":5403,"`[,!!!!!!!!!":5404,"`\\>":5405,"`\\'!!!!!!!!!!!":5406,"`\\*!!!!!!!!!!":5407,"`\\,!!!!!!!!":5408,"`\\-!!!!!!!!!!":5409,"`\\+!!!!!!!!!!!":5410,"``];":5411,"``]!!!!!!!!!!":5412,"!!!!!!!!!!!!!!!!!!!@":5413,"_______":5414,"!!!!!!!!!!\",":5415,"!!!!!!!!!\"'":5416,"!!!!!!!!!!#`":5417,"$!!!!!!#":5418,"#!!!!!$":5419,"#!!!!!'":5420,"!!!!!!!%```":5421,"FFA":5422,"WWX":5423,"!!!!!!!!!!(\\`":5424,"!!!!!!%<":5425,"!!!!!!%[`":5426,"!!!!!!!!!!!!!\"``":5427,"!!!!!!!!!!!'?":5428,"\"!,":5429,"(!!!!%":5430,"!!!!!!!!!!!([`":5431,"!!!!!!!!!+[``":5432,"!!!!!!!-]":5433,"!!!!!!!!!!!!+[`":5434,"!!!!!!!!!!!!!$`":5435,"!!!!!!!!!!,^`":5436,"!!!!!!!!!!!!!!%``":5437,"'!'":5438,"AaaPA":5439,"!!!!!!!!!!!!=```":5440,"__`____`__":5441,"<<<<<<":5442,"'''''":5443,"\":":5444,"$!!!!!!!!!!!!!!!!!!!":5445,"(\\`":5446,")!!!!\"":5447,"*)":5448,",[``":5449,"-!!#":5450,"/]":5451,";`_":5452,";!!!!!!!!!!!!!!!!!":5453,"=`_":5454,"?.":5455,"@(":5456,"ZTT":5457,"[,!!!!!!!!":5458,"_-!!!!!!!!!":5459,"_.!!!!!!!!":5460,"_-!!!!!!!!!!!":5461,"`$!!!!":5462,"!!@`":5463,"!!!!`````":5464,"!!!!\\`":5465,"!!!!!!!!\\":5466,"``#!!!!!!!":5467,"!!!!!!!!!!!!!!!!!!!!!'":5468,"!!!!!!!!!!!!!!!!!!!!!*":5469,"!!!=``":5470,"````=!!!!!!!":5471,"````;!!!!!!!":5472,"````>!!!!!!!":5473,"```#!!!!!!!!!":5474,"```*!!!!!":5475,"!!!!!!!!!!!!!!]":5476,"!!!!!!!!!!!!!!!^`":5477,"aaaaaY":5478,"`^!!!!!!!!!!!!!":5479,"`^/!!!!!":5480,"`^+!!!!!":5481,"`^-!!!!":5482,"]`@":5483,"!!!!!!!!!!!!!!!!!!:``":5484,"`])!!!!!!!":5485,"`],!!!!!!!!!!":5486,"`[,!!!!!!!!":5487,"`\\%!!!!!!!!":5488,"!!!!!!!!!!!!!!!!!!!=`":5489,"AAaaa":5490,"\\``!!!!":5491,"!!!!!!\"@":5492,"!!!!!!!!&>":5493,"!!!!!!!!!!%[":5494,"!!!!!\"``":5495,"#!!!!'":5496,"!!!!!!!!!!!!$=":5497,"!!!!!!!!!!!!'\\`":5498,"%!!!!%":5499,"&!!!!$":5500,"!!!!!!!!!+]":5501,"!!!!!!([`":5502,"'!!!!$":5503,"!!!!!!!!!!,```":5504,"'!!!&":5505,"!!!!!!!!!!!!!-]`":5506,"!!!!!!!!!!!!!!(``":5507,"'!!)":5508,"!!!!!!!!!!!!!!!!'`":5509,"\"/":5510,"(?":5511,"*]":5512,"*!!#":5513,"+<":5514,",\"!!!!!!!":5515,"-!!!\"":5516,".]":5517,":>":5518,":!!!!!!!!!!!!!!!!!":5519,"=[`":5520,"=(!!!!!!!!!!":5521,"APa":5522,"VRR":5523,"ZYY":5524,"ZMM":5525,"[?":5526,"[%!!!!!!!":5527,"\\'!!!!!!!":5528,"\\%!!!!!!":5529,"](!!!!!":5530,"]```````_":5531,"^___":5532,"`#!!!!!!!!!!!!":5533,"`-!!!!!!!!!!!!!!":5534,"!!?``":5535,"!!!!!!!^``":5536,"!!!!!!!!!!!\\":5537,"```/!!!!!!!!!!":5538,"```,!!!!!!!!!!!!":5539,"!!!!!``^":5540,"!!!!!@```":5541,"!!!!!!!!!!!!!^`":5542,"!!!!!!!!!!!!!>```":5543,"!!!!!!!!!!!!!!!>```":5544,"`^`":5545,"`^'!!!!!!!!":5546,"`^+!!!!!!!!!!!!":5547,"`]?":5548,"`['!!!!!!!!!!":5549,"`['!!!!!":5550,"`\\!!!!":5551,"`\\&!!!!!!!!":5552,"`\\%!!!!!!!!!!":5553,"`\\)!!!!!!!!!!!":5554,"``]-!!!!!!!":5555,"``[:":5556,"aaaaaaaaaaaaaa":5557,"!!!!!!!!\",":5558,"!!!!!!!!!#>":5559,"`=!":5560,"`@!":5561,"\"!!!!)":5562,"!!!!!!!!!!!!!!!!!!!!+":5563,"!!!!!!!$=":5564,"!!!!!!!!!!!!#``":5565,"]]]]]":5566,"!!!!!!!!!!!!&=":5567,"!!!!!!!!!!!!&```":5568,"!!!!!!!!!-]`":5569,"(!!!/":5570,"#####":5571,"%!!(":5572,"&!!)":5573,"%!(":5574,"%!*":5575,"&!(":5576,"&!*":5577,"!!!!!!!!!!!/^`":5578,"55555":5579,"+!!!#":5580,"```>!!!":5581,"!!!!!!!!!!!!!!+]`":5582,"```<!!!":5583,"```?!!!!!!!!!!!!!":5584,"!!!!!!!;````":5585,"_`____`_":5586,"__`____`":5587,"___`____`____":5588,".!\"":5589,".!#":5590,":-":5591,";\"!!!!!!!!!!!":5592,"<%!!!!!!!!!":5593,"='":5594,"UII":5595,"XVV":5596,"[]``":5597,"[+!!!!!!!!":5598,"\\!!!!!!!":5599,"\\%!!!!!!!!!!!":5600,"\\-!!!!!!!!!":5601,"]!!!!!!!!!!!!":5602,"]'!!!!!!!!":5603,"])!!!!!!!!":5604,"]-!!!!!!!!":5605,"]-!!!!!!!":5606,"^!!!!!!!!!":5607,"^-!!!!!!":5608,"_,!!!!!!!!!":5609,"_.!!!!!!!!!":5610,"`#!!!!!!":5611,"`$!!!!!!!!!":5612,"!!!!?```":5613,"!!!```":5614,"````!!!!!!!!!!":5615,"!!!!!!!!!!!```":5616,"```$!!!!!!!!!!!":5617,"```;!!!!!!!!!!!!":5618,"!!!!!?```":5619,"!!!!!!!!!!!!!!`__":5620,"!!!!!!!!!!!!!!!!!,``":5621,"`^,!!!!!!!":5622,"!!!!!!!!!!!!!!!!!!?":5623,"`[&!!!!!!!!!!!":5624,"`\\)!!!!!!!!!!":5625,"\"!!!!!)":5626,"KKKY":5627,"`@!!!!!!!!!!!!!!!!!":5628,"!!!!!!!!!&\\`":5629,"``?!!":5630,"!!!!!!!!!!!$=":5631,"!!!!!!!!!(]`":5632,"GGQ":5633,"!!!!!!!(]`":5634,"!!!!!!!!!!!!!#``":5635,"%!!!!(":5636,"\"!+":5637,"```_]":5638,"aYD":5639,"&&&&&":5640,"!!!!!!!!!!!)``":5641,"%!!!%":5642,"!!!!!!!!!.```":5643,"!!!!!!!!.```":5644,"!!!!!!)``":5645,"!!!!!!+]`":5646,"&!)":5647,"'!!%":5648,"!!!!!!!!!!!!!!+[`":5649,"+!!+":5650,"!!!!(`":5651,")!!&":5652,"!!!!*`":5653,"!!!!!!!!?````":5654,"^````````^":5655,"`_`_`_`_`":5656,"CCCCCC":5657,">>>>>>":5658,"*^`":5659,"+!!!!\"":5660,",]":5661,",!!!\"":5662,".<":5663,".!!\"":5664,":%!!!!!!!!!!":5665,";@":5666,"<#!!!!!!!!":5667,"=&!!!!!!!!":5668,"=&!!!!!!!":5669,"?#":5670,"?&":5671,"?#!!!!!!!!!!":5672,"?'!!!!!!!":5673,"UTT":5674,"[%!!!!!!!!!!":5675,"[-!!!!!!!":5676,"\\(!!!!!!!!":5677,"\\%!!!!!!!":5678,"\\`````\\":5679,"]!!!!!!!!":5680,"^`````````````":5681,"^```````^":5682,"_,!!!!!!!!!!":5683,"`\"!!!!!":5684,"`&!!!!!!!!!!!!":5685,"!!>`":5686,"``'!!!!!!!!!!!!!!":5687,"!!!:``":5688,"!!!/``":5689,"````<!!!!!!!!!!!":5690,"```:!!!!!!!!!!!!":5691,"!!!!!\\``":5692,"aaAA":5693,"!!!!!!!!!!!!!``:!!!!!!!!!!!!":5694,"!!!!!!!!!!!!!![``":5695,"`_!!!!!!":5696,"`_.!!!!!!!!":5697,"`_,!!!!!!!!!!":5698,"`^.!!!!!!":5699,"`^+!!!!":5700,"`]*!!!!!!!!!!!":5701,"`[?":5702,"`\\!!!!!!":5703,"`\\&!!!!!!!":5704,"`\\)!!!!!!!!":5705,"`\\/!!!!!!":5706,"`\\.!!!!!!!!!!":5707,"!!!!!!!\"-":5708,"!!!!!!!!\"(":5709,"!!!!!!!!$``":5710,"!!!!!!!!!!$;":5711,"!!!!!!!!!%``":5712,"!!!!!\">":5713,"!!!!!!!!!!!%:":5714,"!!!!!!!*````":5715,"!!!!!!!!+[``":5716,"%!!!!&":5717,"!!!!!!!!-^":5718,"!!!!!!!!!!!+[`":5719,"!!!!!!!!!!!!!([":5720,"!!!!!!!!!!!-[":5721,"!!!!!!!,```":5722,"```=!!!":5723,"!!!!!!!!!=````":5724,"AaaaaaaaaaaaP":5725,"!!!!!!!!!?````":5726,"Paaaaaaaaaaa":5727,"_`____`___":5728,"AaaaPA":5729,"111111":5730,"DDDDDD":5731,"((((((":5732,"!?`":5733,"!:`":5734,")\"!!!!!!!!!!":5735,"*!!!!!#":5736,",-":5737,",\\":5738,",\"!!!!!!!!":5739,":<":5740,":%!!!!!!!!!":5741,";-":5742,";=":5743,"<%!!!!!!!!!!":5744,"?<":5745,"?\\`":5746,"@\"!!!!!!":5747,"ZPP":5748,"\\-!!!!!!!!":5749,"]^``":5750,"](!!!!!!!!!!!":5751,"``/!!":5752,"``,!!":5753,"````*!!!!!!!":5754,"````>!!!!!!!!":5755,"!!!!!!!!!]``":5756,"```'!!!!!!!!!":5757,"```-!!!!!!":5758,"!!!!!``````":5759,"!!!!!!!!!!!!!!>```":5760,"__```":5761,"`````!!!":5762,"]`__":5763,"!!!!!!!!!!!!!!!!!!>``":5764,"`]'!!!!!!!!!":5765,"`]*!!!!!!!":5766,"`]-!!!!!!!!!!":5767,"`[&!!!!!!!!!":5768,"`\\!!!!!!!":5769,"aaaaaaaaaaaaA":5770,"___!!!!!!!!!!!!!":5771,"#!!!!!!%":5772,"!!!!!!\"?":5773,"`>!!!!!!!!!!!!!!!!":5774,"!!!!!!!!!!!#-":5775,"``<!":5776,"``;!!!!!!!!!!!!!!!":5777,"!!!!!!!!!!%>":5778,"SSX":5779,"!!!!!!!'[`":5780,"$!!!!&":5781,"!!!!!!!!!!!!$[`":5782,"#!!!(":5783,"!!!!!!!!!*]`":5784,"!!!!!!!!!!*^":5785,"(!!!!\"":5786,"!!!!!!!!!,^":5787,"!!!!!!!!!!)```":5788,"!!!!!!!!!!!+^`":5789,"!!!!!!!!!!!!!(```":5790,"!!!!!!!!!/_":5791,"$!!*":5792,"!!!!!!!!!!!!!&`":5793,"!!!!!!-^`":5794,"!!!!!!.```":5795,"AAAAAAA":5796,"!!!!!!!!!!!!!!!!&`":5797,"]``````\\":5798,"!!!!+`":5799,"!!!!!!>````":5800,"\"!!!!!!!\"":5801,"#=":5802,")^`":5803,")!!#":5804,"*^":5805,",!!#":5806,"-/":5807,"/!#":5808,";$!!!!!!!":5809,";%!!!!!!":5810,">=":5811,">#!!!!!!!!!":5812,"RaaD":5813,"XRR":5814,"[`````````````":5815,"\\]``":5816,"^```````_":5817,"_!!!!!!!!!!!!":5818,"_-!!!!!!!!!!":5819,"`[`":5820,"`$!!!!!!!":5821,"`\"!!!!!!!!!!!!":5822,"`)!!!!!!!!!!!!!":5823,"````;!!!!!!":5824,"````;!!!!!!!!!!":5825,"```/!!!!!!!!!!!!!":5826,"!!!!!!!!!!!!!!!?```":5827,"`_/!!!!!!!!!!!!":5828,"`_:!!!!":5829,"`[=":5830,"`[(!!!!!!!!!!!!":5831,"`\\!!!":5832,"`\\%!!!!!!":5833,"`\\&!!!!!!!!!!":5834,"``_?":5835,"\"!!!!!&":5836,"!!!!!!!!!!#?":5837,"!!!!!!!!!$?":5838,"FFL":5839,"!!!!!\"<":5840,"!!!!!!$```":5841,"#!!!!(":5842,"!!!!!!!*]`":5843,"!!!!!!!!!!!!%``@!!!!!!!!!!!!":5844,"```\\!!!!!!!!!!":5845,"!!!!!!!!!+```":5846,"!!!!!!!!-[`":5847,"!!!!!!!!!!!*\\`":5848,"#!,":5849,"(!!!\"":5850,"!!!!!!!!!._":5851,"!!!!!!!!!!!!!+]`":5852,"!!!!!!!!!!!!)`":5853,"!!!!!!!!!!!!/]`":5854,"!!!!!!!!!!!!!!'```":5855,"!!!!!)`":5856,"/!!!(":5857,"!!!!!!!!!!!!!!!%``":5858,"``````````````\\":5859,"!!!!!,```":5860,",!!!%":5861,")!!'":5862,"-!!-":5863,"__`_)!!!!!!!!!!":5864,"AaPA":5865,"!!!-``":5866,")\"!!!!!!!!!":5867,"*\"!!!!!!":5868,"*!$":5869,"+!!!\"":5870,".=":5871,":;":5872,";[":5873,"<$":5874,"<$!!!!!!!!!!":5875,"=<":5876,"=&!!!!!!!!!":5877,"=(!!!!!!!!!!!!":5878,">:":5879,"RQQ":5880,"[!!!!!!!!!!!!!!":5881,"[^``":5882,"['!!!!!!!!!":5883,"\\&!!!!!!!!":5884,"\\__`":5885,"](!!!!!!!":5886,"]'!!!!!!!!!":5887,"^_``":5888,"^*!!!!!!!!":5889,"_@!!!!!!!!!!":5890,"`\\`":5891,"`$!!!!!!":5892,"`.!!!!!!!!!!!!!!":5893,"!!!!!!!!^":5894,"``!!!!!!!!!!!!!!!":5895,"!!!!!!!!!!!!!!!!!!!!!!#":5896,"!!!!!!\\":5897,"```,!!!!!!!":5898,"!!!!!``[":5899,"`_.!!!!!!!!!":5900,"`^.!!!!!!!!!!":5901,"`^/!!!!":5902,"!!!!!!!!!!!!!!!!!![`":5903,"`]-":5904,"`]'!!!!!!":5905,"`](!!!!!!!!!!!":5906,"`].!!!!!!!!":5907,"`]+!!!!":5908,"`[$!!!!!!!!":5909,"`[*!!!!!!!":5910,"`[(!!!!":5911,"`[-!!!!!!!!!!!":5912,"``[(!!!!!!!!!":5913,"!!!!!!!!!!\"(":5914,"!!!!!!!!!#;":5915,"!!!!!!!!#-":5916,"!!!!!!!!!!!\")":5917,"!!!!!!!#`":5918,"!!!!!!\"=":5919,"!!!!!!!!%>":5920,"!!!!!!!!!!!#=":5921,"!!!!!!!!!!!!!!!!!!!!/":5922,"!!!!!!!!!!!!\"/":5923,"`<!!!!!!!!!!!!!!!!":5924,"``>!!!!!!!!!!!!!!!!":5925,"IIZ":5926,"!!!!!!!!!!%<":5927,"`;!":5928,"!!!!!!!!!!!$:":5929,"WWY":5930,"!!!!!!!'?":5931,"%!!!!!#":5932,"%!!!!!%":5933,"\"!!,":5934,"\"!!-":5935,"!!!!!!!!!,```":5936,"!!!!!!!!!!+]":5937,"!!!!!!!)```":5938,"!!!!!%`":5939,"&!!!+":5940,"!!!!!!!!!!.```":5941,"!!!!!!!!!!!!!!%`":5942,"!!!!!!!!!!!!!-```":5943,"!!!!!!!!!!!!!!-^`":5944,"RaC":5945,"!!!!!!!!!!!!!!!!$``":5946,"!!!!!!!!!!!!!!!+[`":5947,"AaaaaaaaaaaA":5948,"!!!!!!!!!:```":5949,"!!!!!!!!!@````":5950,"APaaaaA":5951,"''''''":5952,"!?``":5953,"\";":5954,"(\"!!!!!!!!!":5955,")]`":5956,")!&":5957,"*\\":5958,"*!&":5959,",```":5960,",!%":5961,":*":5962,":#!!!!!!!!!!":5963,";_``":5964,";$!!!!!!!!!!":5965,";%!!!!!!!!!!":5966,"<%!!!!!!!!":5967,"=#!!!!!!!!!":5968,">+":5969,">?":5970,">!!!!!!!!!!!!!!!!":5971,">&!!!!!!!!":5972,"@__":5973,"@[`":5974,"[___":5975,"[-!!!!!!!!":5976,"\\'!!!!!!!!!!":5977,"\\'!!!!!!!!!!!":5978,"]!!!!!!!!!!!":5979,"](!!!!!!!!!":5980,"]+!!!!!!!!":5981,"]*!!!!!!!!!!!":5982,"^+!!!!!!!!":5983,"`'!!!!!!!!!!!!":5984,"`+!":5985,"!!!!!!!!\\``":5986,"``'!!!":5987,"!!!!!!!!!!!!!!!!<```":5988,"!!!!!!!!!!\\``":5989,"!!!!!!]":5990,"```/!!!!!!!!!!!!":5991,"`_.!!!!!!!!!!!":5992,"!!!!!!!!!!!!!!!!!<``":5993,"`^=":5994,"`^/!!!!!!!!!!!!":5995,"`]'!!!!!!!!":5996,"`](!!!!!":5997,"`]/!!!!!!!!!":5998,"`])!!!!!":5999,"`[+!!!!!!!!!!!":6000,"`[+!!!!!!!!!!!!":6001,"AAaaaa":6002,"``[@":6003,"!!!!!!!!!!\"'":6004,"#!!!!!!(":6005,"!!!!!!!!!!!\",":6006,"!!!!!!!!!!!\":":6007,"!!!!!!\".":6008,"!!!!!!!!!!!#?":6009,"!!!!!!!!!%:":6010,"!!!!!!!%[":6011,"IIV":6012,"!!!!!!!!!([":6013,"!!!!!!!!!(\\`":6014,"!!!!!!!&=":6015,"#!!!*":6016,"!!!!!!!!!!!!(]`":6017,"$!!!+":6018,"!!!!!!!!!!-[`":6019,"$!+":6020,"&!!+":6021,"%!+":6022,"&!-":6023,"(!&":6024,"*!!!%":6025,"!!!!!!!!!!!!!*[`":6026,"!!!!!!!!!!!!!/_":6027,"*!!(":6028,"Aaaaaaaaaaaaa":6029,"!!!!!!!!!!!!!!!)``":6030,"!!!!-``":6031,"\\``````\\":6032,"!!!!!!!!!!!?````":6033,"!!!!.`":6034,"!!!!!!!!!!!!!!!!.``":6035,"#<":6036,"']":6037,"'!!!!!!#":6038,",!#":6039,"-#!!!!!!!!":6040,"-!$":6041,".:":6042,".\"!!!!!!":6043,"=&":6044,"=\"!!!!!!!!!!!":6045,"?%!!!!!!!!":6046,"MCC":6047,"QII":6048,"ZVV":6049,"]^`":6050,"^``````````````":6051,"_.":6052,"_!!!!!!!!!!":6053,"`]`":6054,"`.!!":6055,"!!>``":6056,"``$!!!!!!!!!!!!":6057,"``(!":6058,"!!!/`":6059,"````=!!!!!!!!!":6060,"````=!!!!!!!!!!":6061,"```$!!!!!!!":6062,"```&!!!!!!!!!!!!!":6063,"```:!!!!":6064,"!!!!!_``":6065,"!!!!!!!!!!!!!\\":6066,"!!!!!!!!!!!!!`_":6067,"!!!!!!!!!!!!!!![":6068,"`_!!!!!":6069,"`_/!!!!!!!!!!":6070,"aaaaR":6071,"`````!!!!!!!!":6072,"`^*!!!!!!!!!!":6073,"!!!!!!!!!!!!!!!!!!/`":6074,"`]+!!!!!!!!!!!!":6075,"`['!!!!!!!!!":6076,"`['!!!!!!!!!!!":6077,"`[-!!!!!!!":6078,"`\\&!!!!!!!!!":6079,"``^!!!!!":6080,"!!!!!!!!!!!!!!!!!!!:":6081,"!!!!!!!!!!!!!!!!!!!`":6082,"!!!!!!!!!!!!!!!!!!!?`":6083,"______`____":6084,"``[(!!!!!!!!":6085,"!!!!!!!!\":":6086,"!!!!!!!!!!#=":6087,"!!!!!!!!!!#>":6088,"!!!!!!!!%\\`":6089,"!!!!!!!!&=":6090,"!!!!!!!!!!!!\";":6091,"!!!!!!!$;":6092,"&!!!!!!&":6093,"``<!!":6094,"`;!!!!!!!!!!!!!!!!":6095,"!!!!!!!!([``":6096,"!!!!!!!!!!!%```":6097,"SSI":6098,"!!!!!!!'\\`":6099,"%!!!!!$":6100,"!!!!!!!*`````":6101,"!!!!!!!!)\\`":6102,"!!!!!!!!!!!!'[`":6103,"!!!!!!!!!!!!&[`":6104,"$!!!)":6105,"!!!!!!'[`":6106,"'!!!!!%":6107,"#!/":6108,"!!!!!!!!!!-\\`":6109,"&!!!$":6110,"!!!!!!!!/_":6111,"!!!!!!)```":6112,"!!!!!!)___":6113,"!!!!!!!!!!/^`":6114,"$!)":6115,"!!!!!!!!!!!!)\\`":6116,"/!!!!/":6117,"!!!!!!/^`":6118,"*!!!'":6119,"!!!!!!!!!!!!!/```":6120,"!!!!!!!!!!!!.^`":6121,"`___!!!!!!!!!!!":6122,"!!!!!!!=````":6123,"```?!!!!":6124,"AaaaaaaaaaaaA":6125,"!!!!!!!!!<````":6126,"]````````[":6127,"^``````[":6128,"_``````\\":6129,"!!+`":6130,"!!!!!!!!!!!!!=```":6131,"____`____`":6132,"(\"!!!!!!!!":6133,"-#!!!!!!!!!":6134,":$!!!!!!!!":6135,";`^":6136,"<_``":6137,"<\"!!!!":6138,"=?":6139,"><":6140,"?$!!!!!!!!":6141,"?\"!!!!":6142,"@%":6143,"@`````":6144,"PCC":6145,"Yaaaaaaa":6146,"ZWW":6147,"[$!!!!!!!!":6148,"[%!!!!!!!!":6149,"[%!!!!!!!!!":6150,"[(!!!!!!!!!!":6151,"[``````]":6152,"\\'!!!!!!!!!":6153,"](!!!!!!":6154,"^*!!!!!!!!!!!":6155,"^-!!!!!":6156,"_/!!!!!!":6157,"_/!!!!!!!!!!!":6158,"`#!!!!!!!":6159,"`#!!!":6160,"`*!!!!!!!!!!!!!!!":6161,"!!!!!!!!!!!!````":6162,"```.!!!!!!!!!!!!":6163,"`_.!!!!!!!":6164,"`][":6165,"`[>":6166,"`[!!!!!!!!!!!!!!":6167,"`[,!!!!!!!!!!!":6168,"`\\+!!!!!!!!":6169,"!!!!!!!!!!!!!!!!!!!@`":6170,"``[+!!!!!!!!":6171,"``\\!!!!!":6172,"aaaaaaaaaaaaaaaa":6173,"aaaaaaaaaaaaP":6174,"!!!!!!!!$<":6175,"!!!!!!!!!!!#(":6176,"!!!!!!!%\\`":6177,"!!!!!!!!!!!!\"=":6178,"`:!!!!!!!!!!!!!!!!":6179,"$!!!!%":6180,"YYZ":6181,"!!!!!!!(\\`":6182,"!!!!!!!!+]":6183,"!!!!!!!!!*]":6184,"!!!!!!!!!*\\`":6185,"!!!!!!!!*]`":6186,"\"!-":6187,"!!!!!$`":6188,"!!!!!!!!!,[`":6189,"!!!!!!!!!,\\`":6190,"#!!*":6191,"!!!!!!(]`":6192,"#!-":6193,"!!!!!!!!!!!-^":6194,"!!!!!!!!/````":6195,"%!!!'":6196,"(!!!)":6197,"!!!!!!!!!!!!!+[`":6198,"UUW":6199,"!!!!!!)`":6200,"'!!!(":6201,"/!!!!(":6202,"!!!!!!-[`":6203,"!!!!!)```":6204,"!!!!!!!!!!!._`":6205,")!!!$":6206,"!!!!%``":6207,"/!!(":6208,"/!!/":6209,"!!!!!!!!!!!=````":6210,"*!'":6211,"]````````]":6212,"!!!!!!!@__`":6213,"PaPA":6214,"!!!-`":6215,"::::::":6216,"(*":6217,"(!!!!!!!!!!!!!!!!!!!":6218,"(#!!!!!!!!!!":6219,"+!%":6220,",[":6221,"-?":6222,".[``":6223,".#!!!!!!!!":6224,".\"!!!!!!!!!!!":6225,"/!!\"":6226,":'":6227,":\"!!!!!!!!!":6228,";#":6229,";\"!!!!!!!!!!":6230,"<\\``":6231,"=#":6232,"?&!!!!!!!!!":6233,"?'!!!!!!!!":6234,"@'":6235,"@\"!!!!":6236,"AFF":6237,"VaK":6238,"XPP":6239,"[!!":6240,"[``````````````":6241,"](!!!!!!!!!!":6242,"]+!!!!!!!":6243,"],!!!!!!!!":6244,"](!!!!!!!!!!!!":6245,"],!!!!!!!!!!":6246,"]```````]":6247,"_`````````````":6248,"!!!!`____":6249,"``_``":6250,"``.!!!!!!!!!!!!!!":6251,"````!!":6252,"````?!!!!!!!":6253,"!!!!!!!!!!!!!!![``":6254,"`````>":6255,"!!!!!!!!!!!!!!!!!!=``":6256,"`]/!!!!!!!!!!!":6257,"`]-!!!!!":6258,"`[)!!!!!!!":6259,"`\\)!!!!!!!":6260,"`\\(!!!!":6261,"`\\.!!!!!!!!":6262,"`\\'!!!!!!!!!!!!":6263,"``]+!!!!!!!":6264,"``_>":6265,"!!!!!!!\",":6266,"!!!!!!!!\"'":6267,"!!!!!!!!!#``":6268,"!!!!!!!!#<":6269,"#!!!!!)":6270,"!!!!!!!!!!$?":6271,"CCX":6272,"!!!!!!!!!!!!\"``<!!!!!!!!!!!!":6273,"!!!!!!!$`":6274,"``:!":6275,"!!!!!!!!!!%:":6276,"RRV":6277,"#!!!!)":6278,"!!!!!!!!(]":6279,"!!!!!!%;":6280,"!!!!!!%\\`":6281,"!!!!!!!!!!!&=":6282,"!!!!!!!!!)]`":6283,"!!!!!!!!!)\\`":6284,"\"!!+":6285,"!!!!!!!!)]":6286,"!!!!!!!!!!!!!#`":6287,"%!!!!$":6288,"&!!!!%":6289,"!!!!!!!!!!!*]``":6290,"!!!!!!(\\`":6291,"!!!!!!!!!!)\\`":6292,"!!!!!!!!!-_":6293,"!!!!!!!!!!!!*__":6294,"44444":6295,"!!!!!!!!!!!!!!$`":6296,"!!!!!!!!!!!!!'`":6297,"!!!!!!!!!!!!/^`":6298,"(!!/":6299,"!!!!!!!!!!!,_":6300,"-!!!!#":6301,"APAA":6302,",!!$":6303,")!'":6304,"_``````[":6305,"!!!!!!;````":6306,"!!!!!!!!!!!!<````":6307,"aaaaaPA":6308,"!;`":6309,"&@":6310,"(\"!!!!!!!!!!":6311,")!!!!!#":6312,"+!!!!!#":6313,",!$":6314,"-#!!!!!!!!!!":6315,":%!!!!!!!!!!!":6316,"<$!!!!!!!!!":6317,"<$!!!!!!!!!!!!":6318,"@&":6319,"@!!!!!!!!!!!!!!!!":6320,"@#!!!!!!!!!":6321,"YCC":6322,"[\\``":6323,"[(!!!!!!!!":6324,"[*!!!!!!":6325,"[-!!!!!!!!!!!":6326,"\\&!!!!!!!":6327,"\\&!!!!!!!!!":6328,"\\%!!!!!!!!!!":6329,"\\`````[":6330,"^,!!!!!!":6331,"^+!!!!!":6332,"_;!!!!!!!!":6333,"_`_`_`":6334,"`\"!!!!!!!!!!!":6335,"`*!!!!!!!!!!!!!":6336,"`/!!!!!!!!!!!!!!!":6337,"``[`":6338,"``[``":6339,"``+!!":6340,"``-!!!!!!!!!!!!!!":6341,"!!!!!!!!!!!!\\":6342,"````;!!!!!!!!":6343,"!!!!!!!!!!`_":6344,"```%!!!!!!!!!":6345,"```;!!!!!!!!!!!!!":6346,"!!!!!````````":6347,"!!!!!``\\":6348,"!!!!!!!!!!!!!!_``":6349,"__!!!!!!!!!!!!":6350,"`_-!!!!!!!!!!!":6351,"`_=!!!!!!!!!":6352,"`_@!!!!!!!":6353,"!!!!!!!!!!!!!!!!!^`":6354,"``````@":6355,"`^]":6356,"`^!!!":6357,"`^.!!!!!!!!!!!!":6358,"`]*!!!!!!":6359,"`]-!!!!!!!!":6360,"`[-":6361,"`[;":6362,"`[*!!!!!!!!!":6363,"`\\$!!!!!!!":6364,"`\\,!!!!!!!!!":6365,"`\\*!!!!!!!!!!!":6366,"``^]":6367,"``\\*!!!!!!!!!!":6368,"``\\.!!!!!!!!!!":6369,"!!!!!!!!#@":6370,"!!!!!!!!%:":6371,"\"!!!!(":6372,"`_`_!!!!!!!!!!!":6373,"!!!!!!!!!%\\":6374,"``>!!":6375,"$!!!!!$":6376,"$!!!!!%":6377,"%!!!!!!%":6378,"FFQ":6379,"FFV":6380,"``:!!!!!!!!!!!!!!!!":6381,"``?!!!!!!!!!!!!!!!!":6382,"!!!!!!!!']`":6383,"!!!!!!!!!!!%[`":6384,"!!!!!!!*\\`":6385,"!!!!!!!!!!!!$```'!!!!!!!!!!!":6386,"!!!!!!!!!!!!!\"?":6387,"!!!!!!!!!!*\\`":6388,"!!!!!!!!*^":6389,"(!!!!/":6390,"!!!!!!!!-````":6391,"!!!!!!!!!,[":6392,"!!!!!!!!!!-\\":6393,"&!!!'":6394,"!!!!!!!!!!!)[`":6395,"(!!!+":6396,"!!!!!!!!!!!!!!#`":6397,"!!!!!!!!!!!!*^`":6398,"!!!!!!!/^`":6399,"$!,":6400,")!!!!%":6401,"!!!!!!!!!!!,^`":6402,"!!!!!*```":6403,"^_]":6404,"!!!!!!!!!!!!,\\`":6405,"!!!!!!!!!!!!!!-``-!!!!!!!!!!":6406,"!!!!!!!!!!!!!._":6407,"!!!!)``":6408,"PaaaaaaaaaaA":6409,"!!!!!!!!@````":6410,"!!!!:```":6411,"RRRRRR":6412,"!!!!!!!!!!!!<```!!!!!!!!!!!!":6413,"!>`":6414,"%@":6415,",+":6416,"/#!!!!!!!!!":6417,"/!!#":6418,":\"":6419,":\"!!!!!!":6420,":$!!!!!!!":6421,"<$!!!!!!!":6422,"=#!!!!!!!!":6423,"=$!!!!!!!!!":6424,"=$!!!!!!!!!!!":6425,"?-":6426,"?@":6427,"@\\`":6428,"@#!!!!!!":6429,"AKK":6430,"UQQ":6431,"[-":6432,"['!!!!!!!!":6433,"[*!!!!!":6434,"\\^``":6435,"\\/!!!!!!!!!!":6436,"^+!!!!!!!":6437,"^)!!!!!!!":6438,"^-!!!!!!!!!!!":6439,"^/!!!!!":6440,"^+!!!!":6441,"_+!!!!!!!!!":6442,"_.!!!!!!!!!!":6443,"_/!!!!!!!!!!!!":6444,"`)":6445,"`\"!!!!!!!!":6446,"`/!":6447,"!!:``":6448,"!!!!_`":6449,"!!!!!!!![```":6450,"``!":6451,"``_`":6452,"``\"!!!!!!!!":6453,"!!!!!!!!!!!!!!!!^":6454,"!!!!!!!!!!!!!!!!!!!!!+":6455,"!!!>``":6456,"````$!!!!!!":6457,"````?!!!!!!!!!":6458,"````=!!!!!!":6459,"````>!!!!!":6460,"!!!!!!]```":6461,"```$!!!!":6462,"```*!!!!!!!!!!!":6463,"!!!!!!!!!!!!!_``":6464,"`^)!!!!!!!!":6465,"`^)!!!!!":6466,"!!!!!!!!!!!!!!!!!!.`":6467,"!!!!!!!!!!!!!!!!!!+`":6468,"`]!!!":6469,"`]!!!!!!!!!!!!!!":6470,"`]&!!!!!!!!!":6471,"`]/!!!!!!!!!!":6472,"`[$!!!!!!!":6473,"`[&!!!!!!!!!!":6474,"`[)!!!!!!!!":6475,"`\\$!!!!!!!!!":6476,"`\\'!!!!!!!!!":6477,"`\\/!!!!!!!!":6478,"``^!!!!!!!!":6479,"``][":6480,"!!!!!!!!!!!!!!!!!!!;":6481,"!!!!!!!!!!!!!!!!!!!>":6482,"\"!!!!!!!#":6483,"___!!!!!!!!":6484,"!!!!!!!!!\"(":6485,"!!!!!!!!!\",":6486,"KKD":6487,"!!!!!!\"/":6488,"!!!!!!!!!!!!!!!!!!!!-":6489,"!!!!!!!!!%[":6490,"`<!":6491,"$!!!!!'":6492,"IIO":6493,"IIS":6494,"!!!!!\":":6495,"!!!!!\";":6496,"!!!!!\"=":6497,"``?!":6498,"!!!!!!!!'>":6499,"\"!!!-":6500,"!!!!!!!!!(]":6501,"(!!!!!!(":6502,"!!!!!!!!!!'\\`":6503,"!!!!!!!(]":6504,"!!!!!!!!)^`":6505,"!!!!!!!!!!!'\\`":6506,"!!!!!!!!!!!!(\\`":6507,"!!!!!!!!-_":6508,"`__-!!!!!!!!!!!":6509,"!!!!!!&=":6510,"_`_[":6511,"#!!+":6512,"!!!!!!!!!!!*]":6513,"!!!!!!!!!!!-]":6514,"!!!!!!!+]``":6515,"!!!!!!!!!!!!*__`;!!!!!!!!!!!":6516,"!!!!!!!!!!!!/_":6517,"(!!)":6518,"*!!!!#":6519,"!!!!!!/_":6520,"!!!!!!!!!!!!!)]":6521,"!!!!!!!!!!!!,^`":6522,"!!!!!!!!!!!!,[`":6523,"!!!!!!!!!!!!!!+```":6524,"!!!!!!!!!!!!.[`":6525,"AaaaAA":6526,"```?!!!!!":6527,"-!!'":6528,"AaaaaaaaaaaaaA":6529,",!!%":6530,"_`````````_":6531,"!!!!!=```":6532,"PaaaPA":6533,"!!!!!!!!!!!!!<``\"!!!!!!!!!!!":6534,"\"=":6535,"#>":6536,"([":6537,"*\"!!!!!":6538,"-[``":6539,".!!#":6540,"/\"!!!!!!!!!!!":6541,"/!!!!\"":6542,":%!!!!!!!":6543,":#!!!!!!!!!!!":6544,";\"!!!!":6545,"<\"":6546,"<\"!!!!!!!!!!!!":6547,"=%":6548,">%!!!!!!!!!":6549,">$!!!!!!!!!!":6550,"?$":6551,"?[``":6552,"@`^":6553,"@'!!!!!!":6554,"DYa":6555,"[&!!!!!!":6556,"[(!!!!!!!":6557,"[+!!!!!!!":6558,"[(!!!!!":6559,"])!!!!!!":6560,"^-":6561,"^!!!!!!!":6562,"^)!!!!!!!!":6563,"^/!!!!!!!!!":6564,"^/!!!!!!!!":6565,"^-!!!!":6566,"_+!!!!!!!!":6567,"_/!!!!!!!":6568,"_@!!!!!!!!!":6569,"`#!!!!!!!!!!!":6570,"`*!":6571,"!!!!!!!!````":6572,"``\\`":6573,"``#!!!!!!!!!!!!!":6574,"``.!!":6575,"!!!!!!!!!!!!]":6576,"!!!!!!!!!!!!^":6577,"````(!!!!!!!!!":6578,"````*!!!!!!!!":6579,"!!!!!!!\\``":6580,"```+!!!!!!":6581,"!!!!!]":6582,"!!!!!!!!!!!!!!^":6583,"__````":6584,"`_!!!!":6585,"`_-!!!!!!!!!":6586,"`^*!!!!!!!":6587,"`^,!!!!!!":6588,"`].":6589,"`]/!!!!!!!!":6590,"`[-!!!!!!":6591,"`[+!!!!!":6592,"`\\(!!!!!!!!!!!":6593,"`\\-!!!!!!!":6594,"`\\/!!!!!!!":6595,"_______`____":6596,"!!!!!!!\"+":6597,"!!!!!!!\":":6598,"\"!!!!!!'":6599,"aaaaaaaaaaaaaaa":6600,"!!!!!!!!!#@":6601,"#!!!!!!$":6602,"$!!!!!!$":6603,"!!!!!!!!%<":6604,"!!!!!!!!%[":6605,"!!!!!!!!$`":6606,"!!!!!!!!!$=":6607,"``=!":6608,"DDM":6609,"RRX":6610,"\"!!!/":6611,"`:!!!!!!!!!!!!!!!!!":6612,"#!!!!+":6613,"!!!!!!!!!!!%>":6614,"SSD":6615,"!!!!!!!']`":6616,"&!!!!!$":6617,"(!!!!!(":6618,"!!!!!!!!+\\`":6619,"!!!!!!!!!!!!(```.!!!!!!!!!!!":6620,"`__[":6621,"!!!!!!'```":6622,"!!!!!!([":6623,"!!!!!!!!!!!+]":6624,"!!!!!!*[`":6625,"AaaaaAA":6626,"!!!!!!!!!!!!!%;":6627,"\\\\\\\\\\":6628,"'!!!!'":6629,"AaaAA":6630,"!!!!!!!!!!,]`":6631,"!!!!!(`":6632,"!!!!!!!!!!!!!'\\`":6633,"!!!!!!!!!!!!!)\\`":6634,"'!+":6635,"!!!!!-```":6636,"/!!!/":6637,"-!!!$":6638,"!!!!!!!!!!!!!,```":6639,"!!!!!!!!!!!!!!!'```":6640,")!!%":6641,"!!!!!!!!!!!!!!!+]`":6642,"Aaaaaaaaaaaaaa":6643,"!!!!!!!!!:````":6644,"PaaaaaaaaaaP":6645,"!!!!!!!!!!!!!!!!'``":6646,")!+":6647,"!!!!!!!!!!!!!<_`_":6648,"APaaaaaP":6649,",,,,,,":6650,"!=`":6651,"!=``":6652,"'!!!!!!\"":6653,"'!!!!!#":6654,"'!!!!!$":6655,"()":6656,"(```":6657,"(!!!!!\"":6658,")\\`":6659,"*\"!!!!!!!!":6660,"+\"!!!!!!!!!":6661,"+!!!!!!$":6662,",!&":6663,":$!!!!!!!!!!!!":6664,";?":6665,";\\``":6666,";%!!!!!!!!!!!!!":6667,"<%!!!!!!!":6668,"=(!!!!!!!!!":6669,">`````":6670,"?\"":6671,"?#!!!!!!!!":6672,"?::":6673,"@$!!!!!!!!!!":6674,"@\"!!!!!!!!!!!":6675,"VGG":6676,"YKKK":6677,"ZXX":6678,"[^```":6679,"[``````_":6680,"[```````]":6681,"\\!!!!!":6682,"\\(!!!!!!!!!":6683,"]!!!!!!!!!!!!!":6684,"]*!!!!!!!":6685,"]'!!!!!!!!!!":6686,"])!!!!!!!":6687,"]+!!!!!!":6688,"])!!!!!!!!!!!":6689,"^!!!!!!":6690,"^,!!!!!!!!!!":6691,"_!!!!!!!!!!!":6692,"_+!!!!!!!":6693,"_-!!!!!!!":6694,"_/!!!!!!!!!!":6695,"`&":6696,"`&!!":6697,"`*!!":6698,"`&!!!!!!!!!!!!!!":6699,"`-!":6700,"``)!!!!!!!!!!!!!!":6701,"!!!!!!!!!!!!!!!!!!!!!)":6702,"!!!<``":6703,"````,!!!!!!!!":6704,"````:!!!!!!!!":6705,"````:!!!!!!!":6706,"````@!!!!!!!!!!":6707,"!!!!!!!!!!![```":6708,"!!!!!!@```":6709,"```&!!!!!!!!!!!":6710,"```,!!!!!!":6711,"```'!!!!!!!!!!!!":6712,"!!!!!!!!!!!!!!!@```":6713,"`_``":6714,"aaaaD":6715,"`````?!!!!!!!!":6716,"_`;":6717,"`^*!!!!!":6718,"`^*!!!!!!!!!!!":6719,"`^,!!!!!":6720,"^`=":6721,"^`?":6722,"`]&!!!!!!!!!!":6723,"`]*!!!!!":6724,"`[&!!!!!!":6725,"`[%!!!!!!!!!!!":6726,"`[,!!!!!":6727,"`\\?":6728,"`\\%!!!!!":6729,"`\\'!!!!!!!!!!":6730,"`\\/!!!!!!!!!":6731,"`\\)!!!!!!":6732,"`\\.!!!!!!!":6733,"`\\*!!!!!":6734,"`\\-!!!!!!!!!!!":6735,"``[-!!!!!!!!":6736,"``\\(!!!!!!!!":6737,"``\\,!!!!!!!!":6738,"!!!!!!!!!!\"%":6739,"KKT":6740,"!!!!!!!!#/":6741,"!!!!!!!!!!#@":6742,"`=!!!!!!!!!!!!!!!!!":6743,"!!!!!!!!$;":6744,"!!!!!!#@":6745,"!!!!!!!$```":6746,"DDY":6747,"!!!!!!!!'?":6748,"\"!!!+":6749,"!!!!!!!!(\\`":6750,"!!!!!!!!!!!%[":6751,"!!!!!!!&>":6752,"$!!!!*":6753,"!!!!!!!!!!'[`":6754,"!!!!!!!!!!!!!\":":6755,"!!!!!!!!!!!!!\"<":6756,"!!!!!!!([":6757,"!!!!!!!!!!*=":6758,"!!!!!!!!*\\":6759,"!!!!!!!!*[`":6760,"```_\\":6761,"!!!!!!!!!+_":6762,"!!!!!$```":6763,"!!!!!!!!-^`":6764,"PaaaaPA":6765,"!!!!!!!)^`":6766,"!!!!!!*]`":6767,"!!!!!!!!!-^":6768,"!!!!!!!+^`":6769,"%!!!(":6770,"!!!!!!!!!!,^":6771,"!!!!!!!/_":6772,"!!!!!!!/]`":6773,"%!!*":6774,"(!!-":6775,"!!!!!!!!!!!/_":6776,"!!!!!!,]`":6777,"!!!!!!!!!!!!!)`":6778,"!!!!!!!!!!!!,]`":6779,"'!!*":6780,"-!!!#":6781,"!!!!!/```":6782,"!!!!!!!!!!!!!!!([`":6783,"AAAAAAAA":6784,"_[!!!!!!!!!":6785,"!!!!!!!!?`````":6786,"!!!!.``":6787,"__`____`____`_":6788,"!!!!!!!!!!!!!!!!!(``":6789,"APaaaaa":6790,"GGGGGG":6791,"!!!!!!!!!!!!!<```!!!!!!!!!!!":6792,"!@`":6793,"&!!!!!!#":6794,"'\"!!!!!!!":6795,"'!!!!!!!#":6796,"-<":6797,"/!!!\"":6798,"565":6799,":#":6800,":&!!!!!!!!":6801,":$!!!!!!!!!!!":6802,";%!!!!!!!!!!!!":6803,"=\\```":6804,"?'!!!!!!":6805,"OII":6806,"Raaaaaaaa":6807,"YRR":6808,"ZRR":6809,"['!!!!!!!":6810,"[*!!!!!!!":6811,"\\*!!!!!!!":6812,"]!!!!!!!!!!":6813,"]&!!!!!!!!":6814,"]&!!!!!!!!!!":6815,"^/!!!!!!!":6816,"^+!!!!!!":6817,"_.!!!!!!!!!!!":6818,"`$!!!!!!!!!!!":6819,"!!``":6820,"!!:`":6821,"``]`":6822,"``\"!!!!":6823,"``\"!!!!!!!!!!!!":6824,"!!!!!!!!!!!!!!!!]":6825,"!!!!!!!!!!!!!!!!!!!!!,":6826,"!!![`":6827,"!!!,``":6828,"````.!!!!!!!!!!":6829,"````:!!!!!!!!!":6830,"!!!!!!!_":6831,"!!!!!!!````":6832,"```(!!!!!!!!!!!!":6833,"!!!!!!!!!!!!!^``":6834,"!!!!!!!!!!!!!!!]":6835,"`^``":6836,"`^!!!!!!!!!!!!!!":6837,"`^)!!!!!!!!!!":6838,"`])!!!!!!":6839,"`],!!!!!!!!!!!":6840,"`],!!!!!":6841,"`[#!!!!!!!!!":6842,"`[#!!!!!!!!!!!":6843,"`[)!!!!!!!!!":6844,"`[,!!!!!!!!!!!!":6845,"`\\'!!!!!":6846,"`\\-!!!!!!!!!!!!!!":6847,"``^;":6848,"``[?":6849,"``_;":6850,"``\\!!!!!!":6851,"#!!!!!!&":6852,"!!!!!!\"<":6853,"`_`_!!!!!!":6854,"!!!!!!!!!&```":6855,"!!!!!!!$````":6856,"!!!!!\"@":6857,"!!!!!!!!'@":6858,"!!!!!!!!!!!$;":6859,"`:!":6860,"!!!!!!!!!!!%\\`":6861,"``@!!":6862,"!!!!!#``":6863,"!!!!!!!!!)````":6864,"\"!!.":6865,"!!!!!!!!)]`":6866,"```_[":6867,"(!!!!&":6868,"!!!!!!!!!!!([``":6869,"!!!!!!!!!,^`":6870,"!!!!!!!!!!)]`":6871,"!!!!\">":6872,"!!!!!!!!!!!!!%``%!!!!!!!!!!!":6873,"TTZ":6874,"$!!,":6875,"OOZ":6876,"(!!!'":6877,"!!!!!!!!,\\`":6878,"NNNNN":6879,"!!!!!!!!!!,[``":6880,"!!!!!!!!!!/_":6881,"%!-":6882,"!!!!!!!!!!.\\`":6883,"*!!!!%":6884,"!!!!!!!!!!!/````":6885,"!!!!!!!!!!!/_`":6886,"!!!!!!!!!!!!!!%[`":6887,"(!*":6888,"(!+":6889,"!!!!!!!!!!!!!!(`":6890,"!!!!!!!!!!!._":6891,"+!!!%":6892,"'!)":6893,"``````````````^":6894,"!!!!!!!!!!!!!!*```":6895,"!!!!!!!!!!!!._`":6896,"!!!!!!!!!!!!!!!-]`":6897,"!!!!!!!!!!?````":6898,"!!!!!!!!!!!!!!!/_`":6899,"!!!!!=````":6900,"!!!!!;````":6901,"!!!,`":6902,"BBBBBB":6903,"!!!!!!!!!!!!'``/!!!!!!!!!!!!":6904,";;;;;;":6905,"!,``":6906,"\">":6907,"#!!!!!!!\"":6908,"%!!!!!!\"":6909,"(<":6910,"(!!!!!!#":6911,")[`":6912,"+\"!!!!!!!!":6913,"+\"!!!!!!":6914,"/!%":6915,":%!!!!!!":6916,"<#!!!!!!!":6917,"<$!!!!!!!!":6918,"=\"":6919,"=>":6920,"=`````":6921,"=(!!!!!!!":6922,">%!!!!!!!":6923,">&!!!!!!!!!!!!":6924,"@^```":6925,"XDD":6926,"[$!!!!!!!":6927,"[(!!!!!!!!!!!!":6928,"[,!!!!!!!!!!":6929,"\\_```":6930,"\\%!!!!!":6931,"]-!!!!!!!!!!":6932,"],!!!!!!!":6933,"],!!!!!!":6934,"^!!!":6935,"^.!!!!!!!!":6936,"^+!!!!!!!!!!!":6937,"_-!!!!!!!!":6938,"_=!!!!!!!!!":6939,"_=!!!!!!!!!!":6940,"`\"!!!!!!":6941,"!!!!>```":6942,"``&!":6943,"!!!!!!!!!!!!!!!!!!!!!!(":6944,"````'!!!!!!!":6945,"````+!!!!!!!!":6946,"````*!!!!!!!!!":6947,"````)!!!!!!!":6948,"````.!!!!!!":6949,"```&!!!!!":6950,"```.!!!!":6951,"```;!!!":6952,"!!!!!^":6953,"`_!!!":6954,"aaaaY":6955,"aaaaaR":6956,"!!!!!!!!!!!!!!!!!_`":6957,"`^-":6958,"`^&!!!!!!!!":6959,"`^)!!!!!!!":6960,"`^.!!!!!":6961,"`^+!!!!!!!!!!!!!":6962,"^`;!!!!!!!!!":6963,"!!!!!!!!!!!!!!!!!!`":6964,"`]+":6965,"`](!!!!!!!!!":6966,"`]-!!!!!!!!!":6967,"`].!!!!!!!":6968,"`]*!!!!!!!!!!!!":6969,"`[#!!!!!!!!":6970,"`[$!!!!!!!!!!!":6971,"`[+!!!!!!!!!!!!!":6972,"`\\<":6973,"`\\&!!!!!!":6974,"`\\%!!!!!!!!!!!":6975,"`\\,!!!!!!!!!!":6976,"`\\*!!!!!!!!!!!!":6977,"``]-!!!!!!!!":6978,"``]-!!!!!!!!!!":6979,"^``!!!!":6980,"AAaaaP":6981,"!!!!!!!!!!\"+":6982,"!!!!!!!!!\"+":6983,"!!!!!!!!!#<":6984,"DDP":6985,"!!!!!!!!!!%\\`":6986,"!!!!!!!!'\\":6987,"EEX":6988,"RRY":6989,"!!!!!!!!!([``":6990,"WWZ":6991,"!!!!!!!!!!!!!\".":6992,"!!!!!!!!!!!!!\">":6993,"!!!!!!!!!!!!'````":6994,"\"!.":6995,"(!!!!$":6996,"`__(!!!!!!!!!":6997,"`___`___":6998,"#!!/":6999,"!!!!!!!!!-[`":7000,"!!!!!!!!!!-\\``":7001,"!!!!!!!!!!!-]`":7002,"!!!!!!!+\\`":7003,"!!!!!!!!!!!!!%``@!!!!!!!!!!!":7004,"TTY":7005,"!!!!!!!!!!,[`":7006,"!!!!!&`":7007,"'!!!*":7008,"!!!!!!!,[`":7009,"%!!+":7010,"(!!'":7011,"!!!!!!!!!!!!!-[`":7012,"!!!!!-[`":7013,"/!!!%":7014,"!!!!!!!!!!!!!!-[`":7015,"!!!!!!!!!!!!!.```":7016,"!!!!!!!!!!!!!.^`":7017,"+!!%":7018,"!!!!!!!!!!!!!!!!%``":7019,"!!!!!!!!!!!!!!/^`":7020,"-!!&":7021,"!!!!!!!!!;````":7022,"!!!+``":7023,"!!!!!!!!!!!!!!!!!&`":7024,"!!!!!!@__":7025,"------":7026,"%\"!!!!!!!!":7027,"(\"!!!!":7028,")#!!!!!!!!":7029,",\"!!!!!!!!!":7030,",!!!!\"":7031,".!!%":7032,":&!!!!!!!":7033,"<#":7034,"<&!!!!!!!!":7035,"=$!!!!!!!!":7036,"=#!!!!!!!!!!":7037,"=\"!!!!":7038,"=*!!!!!!!!!":7039,">&!!!!!!!!!":7040,"@'!!!!!!!":7041,"Kaaaaaaaa":7042,"MYY":7043,"YII":7044,"[&!!!!!!!":7045,"[&!!!!!!!!!!!":7046,"[-!!!!":7047,"\\!!!!":7048,"\\&!!!!!!!!!!!":7049,"]&!!!!!!!!!":7050,"]^```":7051,"_!!!!!!!!!!!!!":7052,"_?!!!!!!!!":7053,"_```````^":7054,"_```````[":7055,"``*!!!!!!!!!!!!!!":7056,"!!!!!!!!!!!!!!!!!!!!!!&":7057,"````>!!!!!!!!!":7058,"!!!!!!!!!!]":7059,"!!!!!!!!!!!]``":7060,"!!!!!!!!!!!\\```":7061,"!!!!!!!!!!!!!!^``":7062,"aaaaaK":7063,"!!!!!!!!!!!!!!!!!^":7064,"`^&!!!!!!!!!":7065,"`^)!!!!!!!!!":7066,"!!!!!!!!!!!!!!!!!!/``":7067,"`])!!!!!!!!!!!!":7068,"`[,!!!!!!!!!!":7069,"`[,!!!!!!":7070,"`[-!!!!!":7071,"`[,!!!!":7072,"`[(!!!!!!!!!!!!!":7073,"`\\-!!!!":7074,"``]+!!!!!!!!":7075,"!!!!!!!!!!!!!!!!!!!;`":7076,"AAaa":7077,"``[(!!!!!!!!!!!":7078,"``[-!!!!!!!!!":7079,"``[-!!!!!!!":7080,"``\\!!!!":7081,"``\\!!!!!!!!":7082,"``\\/!!!!!!!":7083,"#!!!!!!!#":7084,"\"!!!!!'":7085,"!!!!!!!!!#.":7086,"!!!!!!!!!!!\"(":7087,"!!!!!!!!&:":7088,"!!!!!!!!!!$.":7089,"!!!!!!!!!!!!!!!!!!!!,":7090,"!!!!!!!!!!!!\"@":7091,"FFW":7092,"FFZ":7093,"!!!!!!!!!!([":7094,"!!!!!#`":7095,"!!!!!!!!!!!&\\":7096,"!!!!!!!!!!!&\\`":7097,"!!!!!!!!!)]":7098,"!!!!!!!!!!!!!\"/":7099,"!!!!!!!!!!!!']`":7100,"!!!!!!!!+```":7101,"!!!!!!!!!!*]":7102,"!!!!!!!!!!*^`":7103,"%!!!!+":7104,"!!!!!!!!*\\`":7105,"!!!!!!!!!!!([":7106,"!!!!!!!!-\\`":7107,"!!!!!!!!!,\\``":7108,"_`_@!!!!!!":7109,"!!!!\"``":7110,"!!!!!!!+[`":7111,"%!!!*":7112,"!!!!!!!!,```":7113,"!!!!!!!!!.\\`":7114,"!!!!!!!!!!!!-^":7115,"'!!!!%":7116,"!!!!!!!!!!!!*\\`":7117,"!!!!!!!!!!/_`":7118,"!!!!!!!!!!/]`":7119,"'!!!'":7120,"'!!!-":7121,"!!!!!!!.[`":7122,"!!!!!!!,^`":7123,"*!!!$":7124,"*!!!&":7125,"+!!!(":7126,"!!!!!!!!!!!!!*^`":7127,"!!!!!-^`":7128,"!!!!!!!!!!!!!!!%[`":7129,")!!!%":7130,"```<!!!!!!!!!!!!!!":7131,"```=!!!!!!!!!!!!!!":7132,"!!!!!!!!!!!!._":7133,"`___`_":7134,"!!!!!!!!!!!!!!!-[`":7135,"!!!!!!!!!!!!!!!-\\`":7136,"+!'":7137,"!!!!!!!!!!<````":7138,"!!!!!!!?````":7139,"aaYD":7140,"!!!*``":7141,"!!!!!!!!!!!<````":7142,"!!!!!!!>````":7143,"__`_)!!!!!!":7144,"!!!!!!!!!!!!!!!!!*``":7145,"!!!!!!!!!!!!!``/!!!!!!!!!!!!":7146,"HHHHHH":7147,"999999":7148,"#?":7149,"&!!!!!!\"":7150,"(#!!!!!!!!!":7151,"(\"!!!!!!!":7152,")]":7153,",\"!!!!!!":7154,"-\\``":7155,".\"!!!!!":7156,".\"!!!!!!!!!!!!":7157,".!$":7158,":``^":7159,":&!!!!!":7160,"<!!!!!!!!!!!!!!!!!":7161,"<%!!!!!":7162,"=\\``":7163,">#!!!!!!!!!!":7164,"?%!!!!!!!!!":7165,"@#!!!!!!!":7166,"TLL":7167,"YaaaK":7168,"[]`":7169,"[_```":7170,"[+!!!!!":7171,"[``````^":7172,"\\^`":7173,"\\'!!!!!!":7174,"\\/!!!!!!!!!":7175,"]*!!!!!!!!!":7176,"]+!!!!!!!!!":7177,"^!!!!!!!!":7178,"^(!!!!!!!!!":7179,"^,!!!!!!!!!!!":7180,"_.!!!!!!!":7181,"_,!!!!!!!!!!!":7182,"_@!!!!!!":7183,"`$!!!!!!!!!!!!":7184,"`*!!!!!!!!!!!!!!":7185,"!!!![":7186,"!!!!````````":7187,"!!!!``````":7188,"``^`":7189,"``&!!":7190,"``*!!":7191,"!!!!!!!!!!!!!!!!!!!!!/":7192,"````*!!!!!!!!!!":7193,"````_^":7194,"````;!!!!!!!!!":7195,"!!!!!!!!!]":7196,"!!!!!!!!!^`":7197,"!!!!!!!_``":7198,"!!!!!!!!!!^":7199,"!!!!!!!!!!]``":7200,"!!!!!!!!!!`____":7201,"```#!!!!!!!!!!":7202,"```%!!!!!!!!!!":7203,"```&!!!":7204,"!!!!!``_":7205,"!!!!!!!!!!!!!`_`":7206,"!!!!!!!!!!!!!!@```":7207,"`_!!!!!!!!!!!!!!":7208,"`_+!!!!!!!!!":7209,"`_/!!!!!":7210,"`_.!!!!!!":7211,"!!!!!!!!!!!!!!!!!]":7212,"!!!!!!!!!!!!!!!!!`":7213,"_`>!!!!!!!!!":7214,"``````?!!!!!!!!!":7215,"`^^":7216,"`^'!!!!!!!":7217,"!!!!!!!!!!!!!!!!!!^`":7218,"`]%!!!!!!":7219,"`](!!!!!!!!!!":7220,"`[)!!!!!!!!!!!":7221,"`\\+!!!!!!":7222,"``[*!!!!!!!!":7223,"``[(!!!!!!":7224,"``\\-!!!!!!!!!":7225,"!!!!!!!!\"-":7226,"!!!!!!!#<":7227,"!!!!!!\"*":7228,"!!!!!!!!%/":7229,"!!!!!!!!&\\`":7230,"!!!!!!!!!$``":7231,"!!!!!!!!!!$`":7232,"!!!!!!!!!%<":7233,"!!!!!!!!!%@":7234,"!!!!!!!!!&:":7235,"!!!!!!!!!&?":7236,"``>!":7237,"%!!!!!!&":7238,"``=!!!!!!!!!!!!!!!!":7239,"!!!!!\"?":7240,"!!!!!!!!!!&>":7241,"!!!!!!!!!!&[`":7242,"!!!!!!!!!!!$.":7243,"PPZ":7244,"!!!!!!!&[`":7245,"!!!!!!!'>":7246,"$!!!!(":7247,"YYK":7248,"```[!!!!!!":7249,"!!!!!!!!!!!!%[":7250,"!!!!!!!!!)[`":7251,"!!!!!!!([``":7252,"!!!!!!!!!!*]``":7253,"!!!!!!!!!!!(]`":7254,"!!!!!!!!!+]``":7255,"!!!!!!&>":7256,"!!!!!!&[`":7257,"#!!,":7258,"!!!!!!!!!!!*[`":7259,"!!!!!!!!!!!+^":7260,"!!!!!!!!!!!!!$=":7261,"!!!!!!!!!/````":7262,"!!!!!!!!!!!!!!\"``":7263,"%!!!)":7264,"!!!!!!!!,]`":7265,"!!!!!!!!!._`":7266,"!!!!!!!/````":7267,"!!!!!!!!!!!!)^`":7268,"!!!!!(```":7269,")!!!!)":7270,"!!!!!!!,[``":7271,"PaN":7272,"!!!!!!!!!!!/]`":7273,"!!!!!!,\\`":7274,".....":7275,"!!!!!*]`":7276,"!!!!!!!!!!!!!!&`":7277,"!!!!!!!!!!!!,\\":7278,"!!!!!!!!!!!!,[``":7279,"'!,":7280,"!!!!!!!!!!!!!!-```":7281,"!!!!!!!!!!!!!!!!#`":7282,"```?!!!!!!!!!!!!!!":7283,"!!!!!!!!!!!!!!!-^`":7284,"!!!!!!!!!!!!!!.```":7285,"-!!%":7286,"!!!!!!!!;`````":7287,"```@!!!!":7288,"_````````^":7289,"!!!!!!!!!!!!!!!!!(`":7290,"!!!!!!!!!!!!!!!!!)``":7291,"!!!!!<````":7292,"ZZZZZZ":7293,"))))))":7294,"!!!!!!!!!!!!!+``+!!!!!!!!!!!":7295,"!!!!!!!!!!!!!!]`<!!!!!!!!!!!":7296,"!!!!!!!!!!!!!:``!!!!!!!!!!!!":7297,"&[`":7298,"'!!!!!!!!!!!!!!!!!!!":7299,"(!!!!!#":7300,"*!!!!!$":7301,",\"!!!!!":7302,",!!!!!\"":7303,"-,":7304,"/[":7305,"/^":7306,"/[``":7307,":`_":7308,":#!!!!!!!!":7309,":\"!!!!!!!!!!":7310,";:":7311,";`````":7312,"<$!!!!!!":7313,"<&!!!!!!!!!!":7314,"<$!!!!!!!!!!!!!":7315,"=&!!!!!!":7316,">&!!!!!!!":7317,">'!!!!!!!!":7318,">&!!!!!!!!!!!":7319,"?%!!!!!!!!!!":7320,"EZa":7321,"Gaa":7322,"NSS":7323,"WPP":7324,"[+!!!!!!!!!":7325,"\\*!!!!!!!!!":7326,"\\/!!!!!!!!":7327,"]!!!":7328,"]'!!!!!!!":7329,"]'!!!!!!!!!!!":7330,"]/!!!!!!!!!!":7331,"]/!!!!!!!!!!!":7332,"])!!!!":7333,"^!!!!!":7334,"^+!!!!!!!!!!!!":7335,"^,!!!!!!!!!!!!":7336,"_^`":7337,"_;!!!!!!!!!!":7338,"`+!!!!!!!!!!!!!!!":7339,"!!-`":7340,"!!!!`_":7341,"``)!!":7342,"``*!!!!!!!!!!!!!!!":7343,"````-!!!!!!!":7344,"````.!!!!!!!!!":7345,"````@!!!!!!!!!":7346,"!!!!!!\\``":7347,"```-!!!!!!!!!!!!":7348,"```/!!!":7349,"aaF":7350,"!!!!!!!!!!!!!!\\``":7351,"`_-!!!!!!!":7352,"`_,!!!!!!!!!":7353,"`_)!!!!!":7354,"`_=!!!!!!!":7355,"_`=":7356,"`^'!!!!!!!!!":7357,"`^,!!!!!!!!!!!!":7358,"`^/!!!!!!!!!!!!!":7359,"`]'!!!!!!!!!!!":7360,"`])!!!!!!!!!!!":7361,"`],!!!!":7362,"`[)!!!!!!":7363,"`[*!!!!!":7364,"`[-!!!!":7365,"`[-!!!!!!!!!!!!!":7366,"`[*!!!!!!!!!!!!!":7367,"\\`?":7368,"`\\,!!!!!!":7369,"``^[":7370,"``]\\":7371,"``]-!!!!!!":7372,"!!!!!!!!!!!!!!!!!!!``":7373,"____!!!!":7374,"____!!!":7375,"``['!!!!!!!":7376,"``[(!!!!!!!!!!":7377,"``[-!!!!!":7378,"``\\(!!!!!!!!!":7379,"``\\+!!!!!!!":7380,"!!!!!!!\"`":7381,"!!!!!!!!!!\"``":7382,"!!!!!!!!\"%":7383,"!!!!!!!!\"*":7384,"\"!!!!!*":7385,"!!!!!!!!!#=":7386,"!!!!!!!!#>":7387,"aaPAA":7388,"```^>":7389,"!!!!!!!!%\\":7390,"!!!!!!!!!!!#*":7391,"!!!!!!!!!!!#:":7392,"!!!!!!!!!!!!!!!!!!!!.":7393,"!!!!!!!!!!!!\"`":7394,"IIQ":7395,"DDT":7396,"!!!!!!!!'[`":7397,"!!!!!!!!!!&```":7398,"!!!!!!$\\`":7399,"!!!!!!!!!(=":7400,"!!!!!!!!!(\\":7401,"!!!!!!!!!!!!#*":7402,"!!!!!!!!!!!!#`":7403,"$!!!!)":7404,"$!!!!.":7405,"(!!!!!$":7406,"!!!!!!!!!!!!!\";":7407,"!!!!!!!!+_":7408,"!!!!!!!!!*^`":7409,"!!!!!!!!!!!(=":7410,"!!!!!!!!!+^":7411,"!!!!!!!!!!!!(=":7412,"!!!!!!!!!!!!([":7413,"$!!!-":7414,"!!!!!!!-^":7415,"!!!!!!!-]``":7416,"!!!!!!!)\\`":7417,"!!!!!!!!!!!!!(]`":7418,"!!!!!!*\\`":7419,"AaaaaPA":7420,"&!!!(":7421,"!!!!!!!!/_`":7422,"!!!!!!!!!/]`":7423,"OOV":7424,"!!!!!!!!!!!)]":7425,"\\\\_``":7426,"!!!!!!!!!.^":7427,"!!!!!!!!!.[`":7428,"!!!!!!!!!!!!!+]":7429,"!!!!!!!/_`":7430,"!!!!!!!!!!!!!!$```":7431,"!!!!!!!!!!!!)]`":7432,"!!!!!([`":7433,"!!!!!!!,]`":7434,"&!+":7435,"*!!!!)":7436,"!!!!!!!!!!!!!!([":7437,"!!!!!!!!!!!!!*\\":7438,"!!!!!+]":7439,"-!!!&":7440,"!!!!!!!!=````":7441,"!!!!!!!!!!!!!!!*^`":7442,"!!!!!!!!!;`````":7443,"!!!!!!!!!!!!!!!,^`":7444,"!!!!!!!!!!!!!!!!-^`":7445,"!!!!!!!!!!!!!!!!-``-!!!!!!!!":7446,"!!!!!!!!!@`````":7447,"!!!!!!!!>````":7448,"!!!*`":7449,"!!!+`":7450,"!!!!!!!!!!@````":7451,"^```````\\":7452,"__`____`___":7453,"=======":7454,"SSSSSS":7455,"`____`____`":7456,"FFFFFF":7457,"WWWWWW":7458,"******":7459,"!!!!!!!!!!!!!+``*!!!!!!!!!!!":7460,"++++++":7461,"MMMMMM":7462,"!<`":7463,"\"<":7464,"%!!!!!!!#":7465,"'\\":7466,"'!!!!!!$":7467,")\"!!!!!!":7468,"+[``":7469,",!(":7470,"-\"!!!!!!!!":7471,"-!!!!\"":7472,".!!!!\"":7473,".!&":7474,"/\\":7475,"/#!!!!!!!!!!":7476,"/%!!!!!!!!":7477,"/#!!!!!!!!!!!":7478,">[``":7479,">'!!!!!!!!!":7480,">+!!!!!!!!!!!":7481,"?!!!!!!!!!!!!!!!!!":7482,"?`^":7483,"?$!!!!!!!!!":7484,"@\\``":7485,"SNN":7486,"VMM":7487,"WOO":7488,"XCC":7489,"YVV":7490,"[!!!!!!!!!!!!!!!":7491,"[&!!!!!!!!!!":7492,"[-!!!!!!!!!":7493,"\\(!!!!!!!":7494,"\\*!!!!!!!!!!":7495,"\\-!!!!!!!":7496,"\\(!!!!!!!!!!!!":7497,"])!!!!!!!!!!":7498,"],!!!!!!!!!!!":7499,"^!!!!":7500,"^/!!!!!!!!!!":7501,"_*!!!!!!!":7502,"_.!!!!!!":7503,"_.!!!!":7504,"_>!!!!!!!!":7505,"_?!!!!!!!!!":7506,"aAA":7507,"!!!!!!!!_":7508,"``-!!":7509,"``+!":7510,"``(!!!!!!!!!!!!!!":7511,"``/!":7512,"!!!!!!!!!!!!_":7513,"!!!!!!!!!!!![```":7514,"````'!!!!!!!!!":7515,"````+!!!!!!!!!":7516,"````'!!!!!!!!!!!":7517,"````+!!!!!!!!!!":7518,"````-!!!!!!!!!!":7519,"````,!!!!!":7520,"!!!!!!!!!!!_`":7521,"```#!!!!!!!!":7522,"```&!!!!":7523,"!!!!!```````":7524,"!!!!![```":7525,"aaO":7526,"!!!!!!!!!!!!!__":7527,"`_+!!!!!!!":7528,"`_)!!!!!!!":7529,"`_.!!!!!!!!!!!!":7530,"_`___`___":7531,"`^&!!!!!!":7532,"`^(!!!!!!!":7533,"`^)!!!!!!":7534,"`^-!!!!!!!!!!!!":7535,"`^-!!!!!!!!!!!!!":7536,"!!!!!!!!!!!!!!!!!!-``":7537,"`]+!!!!!!!!!!!!!":7538,"`[$!!!!!!":7539,"`[.!!!!!!!!!":7540,"`\\/":7541,"`\\/!!!!":7542,"``^!!!!":7543,"]``!!!!":7544,"``]!!!!!!!!!!!":7545,"``]-!!!!!!!!!!!":7546,"[``!!!!!!!!":7547,"!!!!!!!!!!!!!!!!!!!;``":7548,"``[(!!!!!!!":7549,"``\\,!!!!!!!":7550,"\"!!!!!!$":7551,"___[":7552,"$!!!!!!!$":7553,"!!!!!!!!#+":7554,"!!!!!!!!!!#;":7555,"\"!!!!*":7556,"!!!!!!!!!$<":7557,"!!!!!!!!!!$=":7558,"!!!!!!!!!!!!!!!!!!!!=":7559,"//;":7560,"EEI":7561,"RRZ":7562,"!!!!!!!!!!(]":7563,"```]!!!!!!":7564,"!!!!!!!*^`":7565,"!!!!!!!!!!!!%:":7566,"!!!!!!!!!)^":7567,"!!!!!!!!)[`":7568,"--=":7569,"aaaPAA":7570,"!!!!!!!!!!!!!#+":7571,"&!!!!)":7572,"!!!!!!!!*````":7573,"!!!!!!!!-_`":7574,"!!!!!!!!-]``":7575,"`__(!!!!!":7576,"!!!!!!&```":7577,"!!!!!!!!!!+_":7578,"!!!!!!!!!!+````":7579,"!!!!!!!!!!+[``":7580,"XXY":7581,"!!!!!!!!!!!*^`":7582,"!!!!!!!!!!)_":7583,"!!!!!!!!!-_`":7584,"!!!!!!!!!!-]":7585,"!!!!!!!!!!!-[``":7586,"!!!!!!!+^":7587,"!!!!!!!!!!!!+=":7588,"!!!!!!!!!!!!+^`":7589,"!!!!!!!!!!!)```":7590,"!!!!!!!!!!!)___`":7591,"!!!!!!!!,[`":7592,"!!!!!!)^`":7593,"!!!!!!)]`":7594,"$!-":7595,"!!!!!!!!!!!!!&=":7596,"!!!!!!!!!!!!/_`":7597,"+!!!!#":7598,"!!!!!!-]`":7599,"&!.":7600,"!!!!!!!!!!.````":7601,"!!!!!!,````":7602,"!!!!!*[`":7603,"!!!!!!!!!!!!!)]`":7604,"PaaAA":7605,"'!!(":7606,"!!!!!+]`":7607,"``````````````_":7608,"!!!!!!!!!!!!!!!!\"``":7609,"!!!!!!!!!!!!!!!']`":7610,",!!!$":7611,")!!)":7612,"!!!!!!!!!!!!!!._":7613,"PaaaAA":7614,"]````````^":7615,"Paaaaaaaaaaaa":7616,"^````````]":7617,"_````````]":7618,"!!!!!!!!!!!!!!!!+]`":7619,"!!(`":7620,"!!!!!!!!!!>````":7621,"!!!!!!!!!!!<_":7622,"_`____`____`":7623,"!!!!!!!!!!!!!!!!!'`":7624,"!!!!!!!!!!!!!!=```":7625,"XXXXX":7626,"VVVVVV":7627,"!!!!!!!!!!!!![``%!!!!!!!!!!!":7628,"!``":7629,"!,`":7630,"%!!!!!!!!!!!!!!!!!!!":7631,"(\"!!!!!":7632,")\"!!!!!!!!!!!":7633,"*\"!!!!!!!":7634,",\"!!!!!!!!!!":7635,",!!!#":7636,"-_`":7637,"-#!!!!!!!":7638,"-$!!!!!!!!!":7639,"-#!!!!!!!!!!!":7640,".!!!\"":7641,".!%":7642,":$!!":7643,";$!!!!!":7644,";\"!!!!!!!!!!!!!":7645,"=(!!!!!!!!!!!":7646,"=&!!!!!!!!!!!!":7647,"?#!!!!!!!":7648,"?$!!!!!!!!!!":7649,"BGG":7650,"Daaaaaaaa":7651,"DKY":7652,"KCC":7653,"NMM":7654,"VTT":7655,"XGG":7656,"XTT":7657,"[[`":7658,"[$!!!!!!!!!":7659,"[&!!!!!!!!!":7660,"[$!!!!!!!!!!":7661,"\\!!!!!!":7662,"\\```````[":7663,"],!!!!!!!!!":7664,"]```````[":7665,"^.!!!!!!!":7666,"_/!!!!":7667,"_=!!!!!!!":7668,"`$!!!!!!!!":7669,"!!<``":7670,"!!@``":7671,"!!-``":7672,"!!!!\\":7673,"!!!!^`":7674,"``]``":7675,"````+!!!!!!!!!!!":7676,"````@!!!!!!!!!!!":7677,"````<!!!!!":7678,"!!!!!!!!!^``":7679,"!!!!!!![```":7680,"!!!!!!``````````":7681,"!!!!!`_`_":7682,"!!!!!!!!!!!!!!!^":7683,"__!!!!!!!!":7684,"__`^":7685,"`_+!!!!!!!!!!":7686,"`_)!!!!!!!!!!":7687,"`````:":7688,"`````>!!!!!!!!":7689,"`^&!!!!!!!!!!":7690,"`^'!!!!!!!!!!":7691,"`^*!!!!!!":7692,"`^-!!!!!!!!!!!!!!":7693,"`[/!!!!!!!":7694,"`[*!!!!!!!!!!!":7695,"`\\&!!!!!":7696,"`\\/!!!!!!!!!!":7697,"`\\/!!!!!":7698,"]``.!!!!!!!!!":7699,"``]+!!!!!":7700,"``[;":7701,"``[!!!":7702,"``_<":7703,"``\\?":7704,"``\\!!!!!!!!!!!!":7705,"``\\!!!":7706,"``\\-!!!!!!!!":7707,"!!!!!!!!!!\"&":7708,"___\\":7709,"!!!!!!!!!#/":7710,"!!!!!!!!!#`":7711,"!!!!!!!!!!#*":7712,"!!!!!!!!!!#,":7713,"!!!!!!!!!!#.":7714,"```^]":7715,"`>!!!!!!!!!!!!!!!!!":7716,"!!!!!!!!$:":7717,"!!!!!!!!$>":7718,"!!!!!!!!&]":7719,"!!!!!!!!!!!#@":7720,"!!!!!!!!!$[`":7721,"!!!!!!!%@":7722,"DDJ":7723,"!!!!!!!!!!%\\":7724,"!!!!!!!!']":7725,"!!!!!!!!!!&?":7726,"!!!!!!$=":7727,"SSZ":7728,"!!!!!!!*\\":7729,"!!!!!!!!!)^`":7730,"!!!!!!!!!!!!$:":7731,"!!!!!!!!+^":7732,"&!!!!'":7733,"`__(!!!!":7734,"!!!!!!!!!!+=":7735,"!!!!!!!!!!+^`":7736,"!!!!!!!-_`":7737,"!!!!!!!!!!)]":7738,"!!!!!!!!!!!+]``":7739,"!!!!\"<":7740,"!!!!!!!!/]`":7741,"!!!!!!!!!/_`":7742,"!!!!!!!!!!!)\\``":7743,"%!!!,":7744,"!!!!!!!!!!!!!+_`":7745,"!!!!!!!!!!!!*^":7746,"UUV":7747,"!!!!!!!!.[`":7748,"%!,":7749,"!!!!!!!!!!._":7750,"!!!!!!!!!!!/]``":7751,"!!!!!!!!!!!!!-]":7752,"!!!!!)___":7753,"!!!!!!!!!!!.[`":7754,"!!!!!!!!!!!!!*_`":7755,"!!!!!!!!!!!!!*]`":7756,"!!!!!!!!!!!!!/_`":7757,"!!!!!!!!!!!!!._`":7758,"!!!!!!!!!!!!!,]`":7759,"!!!!!!!!!!!!!,[``":7760,"!!!!!!!!!!!!.\\`":7761,"*!!'":7762,"*!!*":7763,"!!!!!!!!!!!!!!!-^":7764,"!!!!!!!!!!!!!!.]`":7765,"-!!$":7766,"+!)":7767,"]````````_":7768,"PaaaaaaaaaaaA":7769,"!!!!!!!!<_`":7770,"!!!!!!!!!!!!!!!!+[`":7771,"!!!!!!!!!!!!@_":7772,"!!!!!!!!!!!!!!!!)``":7773,"!!!!!!!>_`":7774,"!!!!!!!!!!!>````":7775,"!+``":7776,"[[[[[[":7777,"??????":7778,"aaaaaaaPA":7779,"333333":7780,"_________`____":7781,"\"?":7782,"#:":7783,"$!!!!!!!\"":7784,"&\"!!!!!!!":7785,"'\"!!!!!!!!!":7786,")!!!!!\"":7787,"*!!!!!!#":7788,"+#!!!!!!":7789,"+\"!!":7790,"-\"!!!!!":7791,"-!(":7792,".!!!!$":7793,"/\\``":7794,"/#!!!!!!!!":7795,":\"!!!!":7796,":\\```":7797,":&!!!!":7798,"<`````":7799,"<#!!!!!!!!!":7800,"<\"!!!!!!!!!!!!!":7801,"=#!!!!!!!":7802,"=$!!!!!!!!!!":7803,"=*!!!!!!!!!!":7804,">&!!!!!!!!!!":7805,"KYY":7806,"Kaaaaaaa":7807,"MII":7808,"PCCC":7809,"QHH":7810,"Raaaaaaa":7811,"RaaaK":7812,"TKK":7813,"VFF":7814,"[(!!!!!!!!!":7815,"[$!!!!!!!!!!!":7816,"[%!!!!!":7817,"[,!!!!!!!!!":7818,"[,!!!!!!!":7819,"\\.!!!!!!!!!":7820,"\\___`":7821,"\\_]":7822,"\\__`_":7823,"\\```````_":7824,"]'!!!!!!":7825,"]/!!!!!!!!":7826,"]-!!!!!!":7827,"])!!!!!":7828,"^!!!!!!!!!!!!":7829,"^^`":7830,"^*!!!!!!!":7831,"^-!!!!!!!!!!!!":7832,"_:!!!!!!!!!!":7833,"_=!!!!!":7834,"`!":7835,"`'":7836,"`%!!!!!!!!!!!!!!":7837,"!!`":7838,"``\\``":7839,"!!!!!!!!!!!!!!!!!!!!!!%":7840,"````<!!!!!!!":7841,"````:!!!!!!!!!!!":7842,"!!!!!!!!!`````":7843,"!!!!!!!!!!!_``":7844,"!!!!!!_":7845,"```,":7846,"```#!!!!!":7847,"```%!!!!!!":7848,"!!!!!!!!!!!!!!``@!!!!!!!!!!!":7849,"!!!!!!!!!!!!!!!;```":7850,"`_+!!!!!!!!":7851,"`_*!!!!!!!!":7852,"`_*!!!!!!!!!":7853,"`_-!!!!!!!!!!":7854,"`_-!!!!!!":7855,"`_@!!!!!!!!":7856,"^`.!!!!!!!!":7857,"!!!!!!!!!!!!!!!!!!,`":7858,"`].!!!!!!!!!!!":7859,"`]*!!!!":7860,"`[``":7861,"`[!!!!!!!!!!!!!!!":7862,"`[\"!!!!!!!!!!!":7863,"`[*!!!!!!!!!!":7864,"`[.!!!!!!":7865,"`[(!!!!!!!!!!!!!!":7866,"`\\,!!!!!!!!!!!!!":7867,"``^=":7868,"``^.!!!!!!!":7869,"``^/!!!!!!!":7870,"``]?":7871,"``]@":7872,"!!!!!!!!!!!!!!!!!!!<":7873,"``[-!!!!!!!!!!":7874,"!!!!!!!!!!\")":7875,"#!!!!!!!&":7876,"!!!!!!!!!#)":7877,"!!!!!!!!!#*":7878,"!!!!!!!!#`":7879,"!!!!!!!!#``":7880,"!!!!!!!!!!!\"&":7881,"!!!!!!!!!!!\"'":7882,"!!!!!!!!!!!\"`":7883,"$!!!!!!%":7884,"!!!!!!\"+":7885,"!!!!!!!!!!!#/":7886,"!!!!!!!!!!$<":7887,"!!!!!!!!!&[":7888,"!!!!!!!!!!!!\"(":7889,"!!!!!!!$[":7890,"$!!!!!(":7891,"DDV":7892,"!!!!!!!!!!%@":7893,"!!!!!\"(":7894,"!!!!!!!!!!&:":7895,"!!!!!!!!!!&[":7896,"!!!!!!!!!'>":7897,"!!!!!!!!!'\\":7898,"!!!!!!!!(=":7899,"!!!!!!!!!!!!#?":7900,"[[_``":7901,"!!!!!!!'\\":7902,"!!!!!!!!!!([``":7903,"YYL":7904,"!!!!!!!!!!!!!\"(":7905,"!!!!!!!!)^":7906,"!!!!!!!!+]``":7907,"!!!!!!!!!*^":7908,"!!!!!!!!!*````":7909,"%!!!!,":7910,"```\\!!!!!!!!!!!":7911,"(!!!!'":7912,"!!!!!!!!!+?":7913,"!!!!!!!!-^``":7914,"VVW":7915,"#!!.":7916,"!!!!!!!)]":7917,"!!!!!!!)_`":7918,"!!!!!!!)]`":7919,"!!!!!!!!!!!+=":7920,"!!!!!!!!!!-_":7921,"!!!!!!!!!!!-_":7922,"!!!!!!!!!!!-````":7923,"!!!!!!!!!!!-\\`":7924,"!!!!!!!!!!!-^``":7925,"TTV":7926,"OOX":7927,"/!!!!!(":7928,"!!!!!!!!!.^``":7929,"!!!!!!!!!!!!-_":7930,"!!!!!!!!!!!!-\\`":7931,"!!!!!!!!!!!!!+^`":7932,"!!!!!!!!!!!!!+[``":7933,"QQY":7934,"!!!!!!!!._":7935,"!!!!!!!!._`":7936,"$!.":7937,"!!!!!'[`":7938,"!!!!!!!!!!.^`":7939,"!!!!!!!!!!!,[`":7940,"!!!!!!/````":7941,"!!!!!!!!!!!!!)[`":7942,"(!,":7943,"'!*":7944,"```>!!!!!!!!!!!!!!":7945,"!!!!!!!!!!!!!!)\\`":7946,"!!!!!!!!!=`^":7947,",!!!'":7948,"*!!&":7949,"+!!$":7950,"+!!*":7951,"!!!!!!!:````":7952,"!!!!!!!!!!!!!!._`":7953,"/!!$":7954,"+!*":7955,"aZD":7956,"-!'":7957,"!!!!!!!!!!!!:_`":7958,"!!!!!!!!!!!!!!!!)`":7959,"!!!!!!!!!!!@````":7960,"]```````\\":7961,"!!!!!!!!!!!!!!!!!+``":7962,"!!!!!!!!!!!!!:^`":7963,"WWWWWWW":7964,"YYYYY":7965,"!!!!!!!!!!!!!@``%!!!!!!!!!!!":7966,"#\"!!!!!!!!!!!":7967,"%\"!!!!!!!":7968,"&\"!!!!!":7969,")\"!!!!!!!":7970,")!!!!!$":7971,")!(":7972,"+\"!!!!!":7973,"+$!!!!!!!":7974,",#!!!!!!!!":7975,",#!!!!!!!":7976,".\"!!!":7977,".!!!!#":7978,"/#!!!!!!!!!!!!":7979,"322":7980,":%!!!!!!!!":7981,":\"!!!!!!!!!!!":7982,":#!!!!!!!!!!!!":7983,";[`":7984,"<&!!!!!!!!!":7985,"<]```":7986,"<%!!!!":7987,"=(!!!!!!":7988,"=&!!!!!":7989,"=\"!!!!!!!!!!!!":7990,"=!!!(":7991,">'!!!!!!!":7992,"?&!!!!!!!!!!":7993,"?\"!!!!!!!!!!!!":7994,"CEE":7995,"DCCC":7996,"Kaaaaa":7997,"XII":7998,"[%!!!!!!":7999,"[(!!!!!!!!!!!":8000,"[(!!!!!!":8001,"[,!!!!!!":8002,"\\&!!!!!!":8003,"\\)!!!!!!!!!":8004,"\\'!!!!!":8005,"\\'!!!!!!!!!!!!":8006,"]]`":8007,"]]``":8008,"]*!!!!!!!!":8009,"]*!!!!":8010,"]-!!!!":8011,"_,!!!!!!!!":8012,"_,!!!!!!!":8013,"_-!!!!!":8014,"_=!!!!!!!!":8015,"_<!!!!!!!!":8016,"_@!!!!!":8017,"`.!":8018,"!!!!```````":8019,"!!!!\\``":8020,"``+!!!!!!!!!!!!!!!":8021,"``-!!!!!!!!!!!!!!!":8022,"````)!!!!!!!!!":8023,"````<!!!!!!!!":8024,"````<!!!!!!":8025,"````>!!!!!!!!!!":8026,"!!!!!!`__":8027,"```$!!!!!!!!!!":8028,"```)!!!!":8029,"```)!!!":8030,"```)!!!!!!!!!!!!!":8031,"```:!!!!!!!!!!!!!":8032,"!!!!!``]":8033,"!!!!!````````````````":8034,"!!!!!!!!!!!!!!!^``":8035,"___``":8036,"__`;":8037,"`_/":8038,"`````!!!!!":8039,"_`@!!!!!!!!":8040,"`^_`":8041,"`^*!!!!!!!!!!!!":8042,"`^,!!!!!!!!!!!!!":8043,"`^.!!!!!!!!!!!!!":8044,"`],!!!!!!!!!!!!":8045,"`]+!!!":8046,"aaaPP":8047,"`[)!!!!":8048,"`\\$!!!!!!!!":8049,"`\\.!!!!!!!!!!!":8050,"``^/!!!!!!!!!":8051,"``^/!!!!!!!!!!":8052,"``]!!!!!!!!!!!!!":8053,"``]+!!!!!!":8054,"!!!!!!!!!!!!!!!!!!!=``":8055,"!!!!!!!!!!!!!!!!!!!:`":8056,"``[%!!!!!!!":8057,"``[+!!!!!!!!!":8058,"``[(!!!!!":8059,"``[)!!!!!!!!!":8060,"``[)!!!!!!!!!!":8061,"``[-!!!!!!":8062,"``\\;":8063,"\"!!!!!!&":8064,"aaaaaaaaaaaaaP":8065,"!!!!!!!!!\"%":8066,"!!!!!!!!!#&":8067,"!!!!!!!!!#:":8068,"$!!!!!!!#":8069,"!!!!!!!!#)":8070,"!!!!!!\":":8071,"\"!!!!-":8072,"!!!!!!!!!$.":8073,"CCS":8074,"!!!!!!!!!%/":8075,"!!!!!!!!!%?":8076,"!!!!!!!!!&]":8077,"!!!!!!!%/":8078,"!!!!!!!!!!!!\"[`":8079,"``;!":8080,"!!!!!!!!!!%/":8081,"!!!!!\".":8082,"`;!!!!!!!!!!!!!!!!!":8083,"!!!!!!$;":8084,"!!!!!!!!!!!$+":8085,"!!!!!!!!!']`":8086,"!!!!!!!!!!!!#/":8087,"!!!!!!!&^`":8088,"!!!!!!!'[":8089,"$!!!!-":8090,"!!!!!!!!!!!&^`":8091,"&!!!!!+":8092,"(!!!!!%":8093,"!!!!!!!!!!!!%;":8094,"!!!!!!!!+^`":8095,"!!!!!!!!!!*````":8096,"%!!!!)":8097,"!!!!!!!!*]":8098,"!!!!!!!!!!!!&\\":8099,"!!!!!!!!!!+_`":8100,"#!!-":8101,"!!!!!!!-````":8102,"!!!!!!*````":8103,"!!!!!!!!!!!-\\":8104,"!!!!!!!!!!!-\\``":8105,"!!!!!!!!/`_":8106,"!!!!!!!!/^`":8107,"!!!!!!!!/\\`":8108,"OOS":8109,"%!!!&":8110,"%!!!+":8111,"!!!!!!!!!!!!!+^":8112,"!!!!!!!!!!/]":8113,"!!!!!!!!!!/````":8114,"!!!!!!!!!!/\\`":8115,"!!!!!!!!!!!!!&\\`":8116,"!!!!!!!._":8117,"+!!!!&":8118,"(!!*":8119,"%!.":8120,"!!!!!!!!!!._`":8121,"JJJJJ":8122,"^_[":8123,"(!)":8124,"*!!!*":8125,"!!!!!!._`":8126,"!!!!!!!!!!!!!/``=!!!!!!!!!!!":8127,"/!!!$":8128,"``````````````]":8129,"!!!!%`":8130,",!!!)":8131,"*!!.":8132,"!!!!'`":8133,"!!!!!!!!:````":8134,"ZaL":8135,"ZaU":8136,"!!!!!!!!!!!!!!,^`":8137,"!!!!!!!!!!;````":8138,"!!!!!!!!!!;`````":8139,"!!!!!!!!!!?`_":8140,"!!!!!!!@````":8141,")!*":8142,"!!!!!!!!!!!!!!!!-]`":8143,"-!)":8144,"!!!!!!!!!!!!<_`":8145,"aaaaaAA":8146,"!!+``":8147,"!!!!!!?````":8148,"!!!!!!!!!!!!!!!!!)`":8149,"!!!!!!!!!!!!/``.!!!!!!!!!!!!":8150,"DDDDDDD":8151,"XXXXXX":8152,"____`____`_":8153,"PPPPPP":8154,"`.!!!!!!!!!!!!!!!!":8155,"&!!!!!!!!!!!!!!!!!!!":8156,"(\\":8157,"*!!!!!!!!!!!!!!!!!!!":8158,"*\"!!!!":8159,"+\"!!!!!!!!!!":8160,"+!!!!!!#":8161,",\"!!!":8162,",#!":8163,"-\"!!!!!!":8164,"-\"!!!!!!!":8165,"-!!!!!#":8166,"/#!!!!!!":8167,"/\"!!!!":8168,":&!!!!!!":8169,"<#!!!!!!!!!!":8170,"<$!!!!!":8171,"=_``":8172,">$!!!!!!!!":8173,">%!!!!!":8174,">&!!!!!!!!!!!!!":8175,"?(":8176,"?\\``":8177,"?#!!!!!!!!!":8178,"@[``":8179,"@%!!!!!!!!":8180,"@%!!!!!!!!!!":8181,"@#!!!!!!!!!!!":8182,"DCC":8183,"RaaaR":8184,"SII":8185,"UKK":8186,"XSS":8187,"YWWW":8188,"ZDD":8189,"[+!!!!!!!!!!":8190,"\\,!!!!!!!!!":8191,"]_````":8192,"],!!!!!":8193,"^,":8194,"^_```":8195,"^'!!!!!!!!!!":8196,"^/!!!!!!":8197,"_!!!":8198,"_!!!!!!!":8199,"_)!!!!!!!!!":8200,"_-!!!!!!":8201,"_/!!!!!":8202,"_?!!!!!!!":8203,"`%!!":8204,"`-!!!!!!!!!!!!!!!":8205,"!!,``":8206,"``&":8207,"!!!!!!!!!!!!!!!!?```":8208,"!!!!!!!!!!!!^``":8209,"````?!!!!!!!!!!":8210,"````?!!!!!!":8211,"!!!!!!!\\```":8212,"!!!!!!!!!!`___":8213,"!!!!!!``````":8214,"```\"!!!!!!!!!":8215,"```\"!!!!!!!!!!":8216,"```#!!!!!!!":8217,"```%!!!!!!!!!!!":8218,"```%!!!!!":8219,"```)!!!!!!!!!!!!":8220,"!!!!!^``":8221,"!!!!!!!!!!!!!!`_":8222,"!!!!!!!!!!!!!!``:!!!!!!!!!!!":8223,"__!!!":8224,"__`````":8225,"166":8226,"`_!!!!!!!!!":8227,"`_/!!!!":8228,"`_:!!!!!!!!":8229,"`_;!!!!!!!!!!!":8230,"`````;":8231,"_`?!!!!!!!!":8232,"_`>!!!!!!!!":8233,"`^(!!!!!!!!!!!":8234,"`^)!!!!!!!!!!!":8235,"`^*!!!!":8236,"`]&!!!!!!!!":8237,"`](!!!!!!!!!!!!":8238,"`]+!!":8239,"`[[":8240,"`[%!!!!!":8241,"`[&!!!!!":8242,"`[*!!!!!!":8243,"`[&!!!!":8244,"`[&!!!!!!!!!!!!":8245,"`[-!!!!!!!!!!!!":8246,"`[-!!!":8247,"`\\.!!!!!!!!!!!!":8248,"``^-!!!!!!!!!":8249,"``^-!!!!!!!!":8250,"``^.!!!!!!!!":8251,"``^+!!!!!!!!!!!":8252,"``^-!!!!!!!!!!!":8253,"``]'!!!!!!!":8254,"``])!!!!!!!!!":8255,"``],!!!!!!!!":8256,"AAPaaa":8257,"AAaaaaP":8258,"________`____":8259,"``[+!!!!!!":8260,"``_^^":8261,"``_\\\\":8262,"``\\!!!!!!!!!!!!!!":8263,"!!!!!!!!!\")":8264,"!!!!!!!!#?":8265,"!!!!!!!!#[":8266,"!!!!!!!!!!#(":8267,"`?!!!!!!!!!!!!!!!!!":8268,"!!!!!!!!$+":8269,"!!!!!!!!$?":8270,"!!!!!!!!!!!!!!!!!!!!``":8271,"!!!!!!!!!&^`":8272,"!!!!!!!%:":8273,"!!!!!!!%]`":8274,"!!!!!!!!!!!!\"+":8275,"``=!!!!!!!!!!!!!!!!!":8276,"FFX":8277,"!!!!!!!!!!%?":8278,"!!!!!!!!!!&\\`":8279,"!!!!!!!!!!!$<":8280,"\"!!!.":8281,"!!!!!!!!!']":8282,"!!!!!!!!!'[`":8283,"!!!!!!!!!!!!#-":8284,"$!!!!,":8285,"!!!!!#@":8286,"```[<":8287,"!!!!!!!!!!'```":8288,"!!!!!!!!!)?":8289,"!!!!!!!!!!!!$;":8290,"!!!!!!!!!!!!!\"`":8291,"!!!!!!!!!*[``":8292,"!!!!!!!!*?":8293,"!!!!!!!!*`````":8294,"!!!!!!!!*^`":8295,"!!!!!!!!*[``":8296,"]]_`":8297,"!!!!!!!!!!!!&\\`":8298,"!!!!!!!!!+[":8299,"!!!!!!!!!+\\`":8300,"!!!!!!!!!,>":8301,"`__]":8302,"!!!!!!'?":8303,"!!!!!!!!!!+^":8304,"_`_@!!!!!":8305,"!!!!!!!!!!!*^":8306,"!!!!!!!-[":8307,"PaaaaAA":8308,"!!!!!%\\`":8309,"!!!!!!!!!!!!!(\\`":8310,"!!!!!!!!!-\\":8311,"!!!!!!!!!!-=":8312,"!!!!!!!!!!-````":8313,"!!!!!!!+```":8314,"!!!!!!!!!!!!!%[`":8315,"!!!!!!!!!!!!+]``":8316,"$!!-":8317,"/!!!!!/":8318,"(!!!*":8319,"!!!!!!!!!.]`":8320,"!!!!!!!!!!!!-]``":8321,"'!!!!)":8322,"!!!!!!!!!!/]``":8323,"!!!!!!!!!!!!!']`":8324,"!!!!!!!,\\`":8325,"+!!!!+":8326,"!!!!!!,^`":8327,"!!!!!!!!!!!!!-\\`":8328,"!!!!!!!!!!!.\\`":8329,"/!!!#":8330,"!!!!!!!!!!!!!!*^`":8331,"!!!!!!!!!!!!!!!*^":8332,"!!!!!!!!!!:_`":8333,".!!!&":8334,"!!!!!!!!!!;_":8335,"!!!!!!!!!!!:_":8336,"[``````\\":8337,"!!!'`":8338,"!!!!!!!!!!<_`":8339,"!!!!!!!?`````":8340,"!!!!!!!!!!!!!!!!!%`":8341,"!!!!!!!!!!!!!!!!!$``":8342,"\\````````\\":8343,"\\````````_":8344,"!!!!!!!!!!!!>_`":8345,"!!!!!!!!!!!!!!!!!*`":8346,"YYYYYY":8347,"!!!!!!!!!!!!(``(!!!!!!!!!!!!":8348,"VVVVV":8349,"$$$$$$":8350,"![`":8351,"#\"\"":8352,"%\"!!!!!!!!!!":8353,"+\"!!!!!!!!!!!":8354,",$!!!!!!!!!!!":8355,"-!&":8356,".!!!!!\"":8357,".!!'":8358,"/%!!!!!!!!!":8359,"/!$":8360,":^``":8361,":[``":8362,":\"!!!!!!!!!!!!":8363,";\"!!!":8364,"<#!!!!!!":8365,"=!!!!!!!!!!!!!!!!!!":8366,">$!!!!!!!":8367,"?+!!!!!!!!!":8368,"@&!!!!!!!!!":8369,"@#!!!!!":8370,"@'!!!!!!!!!":8371,"DVV":8372,"EaN":8373,"WEE":8374,"WBB":8375,"YTT":8376,"Yaaaaa":8377,"ZSS":8378,"[&!!!!!!!!":8379,"[]```":8380,"[*!!!!!!!!!!":8381,"[,!!!!!!!!!!!":8382,"\\/":8383,"\\/!!!!!!!":8384,"\\-!!!!!!":8385,"]+!!!!!!!!!!":8386,"].!!!!!!":8387,"]+!!!!!":8388,"^^``":8389,"^.!!!!!!!!!":8390,"^.!!!!!!!!!!!":8391,"^/!!!!!!!!!!!!!":8392,"^_`__":8393,"_*!!!!!!!!!":8394,"_+!!!!!!!!!!!":8395,"_:!!!!!!!!":8396,"_=!!!!!!!!!!!":8397,"`'!!!":8398,"`)!!!!!!!!!!!!!!":8399,"``(!!":8400,"``,!!!!!!!!!!!!!!!":8401,"!!!!!!!!!!!!!!!!```":8402,"````(!!!!!!!!":8403,"````&!!!!!!!":8404,"````)!!!!!!!!":8405,"````)!!!!!!":8406,"````=!!!!!!!!!!!":8407,"````;!!!!!":8408,"````>!!!!!!":8409,"!!!!!![```":8410,"```(!!!!!!":8411,"```%!!!!":8412,"```(!!!!":8413,"```'!!!!!":8414,"```+!!!!!":8415,"```:!!!":8416,"!!!!!`____`____":8417,"!!!!!!!!!!!!!!!_``":8418,"__!!!!!!!!!":8419,"__`;!!!!!!!":8420,"```````````````]":8421,"`_,!!!!!!!!":8422,"`_/!!!!!!!!!!!!!":8423,"`_.!!!!!!!!!!!!!":8424,"`_:!!!!!!!!!!!!!":8425,"`````$!!!!!":8426,"`````(!!!!!!!!!!":8427,"`````.!!!!!!!!":8428,"`````>!!!!!!!":8429,"!!!!!!!!!!!!!!!!!.``":8430,"_`.!!!!!!!!":8431,"_`:!!!!!!!!":8432,"`^/":8433,"`^&!!!!!!!":8434,"`^%!!!!!!!":8435,"`^(!!!!!!":8436,"`^.!!!!!!!!!!!!!!":8437,"^`.!!!!!!!!!":8438,"]`>":8439,"`]``":8440,"`]%!!!!!!!!!":8441,"`].!!!!!!!!!":8442,"`].!!!!!!!!!!!!":8443,"`[*":8444,"`[+":8445,"`[\"!!!!!!!!":8446,"`[)!!!!!!!!!!!!":8447,"`\\#!!!!!!!!":8448,"`\\+!!!!!!!!!":8449,"`\\-!!!!!!":8450,"`\\(!!!!!!!!!!!!":8451,"`\\-!!!!!!!!!!!!!":8452,"``^:":8453,"``^!!!!!!!!!!!!!":8454,"``]*!!!!!!!!!":8455,"``],!!!!!!":8456,"AAP":8457,"\\``!!!":8458,"____!!!!!!!!!":8459,"``[&!!!!!!!!":8460,"``_!!!!!!!!!!!!":8461,"``\\'!!!!!!!!":8462,"``\\*!!!!!!!":8463,"#!!!!!!!!\"":8464,"!!!!!!!\")":8465,"!!!!!!!!!!\"-":8466,"___!!!!!":8467,"!!!!!!!!\"&":8468,"!!!!!!!!!\"$":8469,"\"!!!!!+":8470,"!!!!!!!!!#,":8471,"!!!!!!!!!!#/":8472,"!!!!!!!#,":8473,"!!!!!!!#-":8474,"!!!!!!\"-":8475,"#!!!!!(":8476,"!!!!!!!!&[":8477,"!!!!!!!!!$```":8478,"!!!!!!#/":8479,"!!!!!!#<":8480,"CCK":8481,"!!!!!!!$<":8482,"&!!!!!!$":8483,"FFU":8484,"!!!!!\"```":8485,"EES":8486,"!!!!!!$>":8487,"!!!!!!!!!'\\``":8488,"#!!!!,":8489,"!!!!!!!!!!!!#@":8490,"%!!!!!&":8491,"!!!!!#?":8492,"!!!!!!!!!!!&?":8493,"((>":8494,"```[!!!!!":8495,"!!!!!!!!!!'=":8496,"!!!!!!!!!!'\\":8497,"!!!!!!!*^":8498,"!!!!!!!*[``":8499,"!!!!!!!!!!!!$,":8500,"!!!!!!!(^`":8501,"!!!!!!!!!!!!!#-":8502,"!!!!!!!!!*[`":8503,"!!!!!!!!!!!'[`":8504,"%!!!!-":8505,"&!!!!+":8506,"]]_``":8507,"!!!!!!!!!!!!([``":8508,"!!!!!!!!!,]":8509,"MMT":8510,"!!!!!!!!!!+[":8511,"!!!!!!!-[``":8512,"!!!!!!!!!-[":8513,"!!!!!!!!!-\\`":8514,"!!!!!!!!!!-[":8515,"!!!!!!!!!!-]`":8516,"TTU":8517,"!!!!!!!!!!!!!$\\`":8518,"!!!!!!!!!/\\`":8519,"!!!!!!!!,[``":8520,"NNV":8521,"'!!!!&":8522,"!!!!!!!!!!!!*@":8523,"!!!!!!!/^":8524,"!!!!!!!!.^":8525,"LLLLL":8526,"/!!!!#":8527,"!!!!!!!.^`":8528,"%!!,":8529,"(!!+":8530,"*!!!!*":8531,"!!!!!!!!!!!/^``":8532,"````^?":8533,"!!!!!!!!!!!!,_`":8534,"!!!!!!!!!!!!!!'\\`":8535,"!!!!!!!!!!!!!!(]":8536,"!!!!!!!!!!!.\\``":8537,"'!!.":8538,"!!!!!!!!!!!!!!-]`":8539,")!!!&":8540,"!!!!!!!!!!!!!!*]`":8541,"!!!!!/````":8542,"!!!!!!!!!!!!!!!*]`":8543,"!!!!!!!!!!!!!!/```":8544,"```@!!!!!!!!!!!!!":8545,"+!+":8546,"*!+":8547,"!!!!!!!!@_":8548,"!!!!!!!!@`_":8549,"!!!!!!=````":8550,"!!!!!!!!!!!!!!!/_":8551,"!!!!!!!!!!!!!!!,^":8552,"!!!!!!!!!!!!!!!._":8553,"!!!!!!!!!>````":8554,"!!!!!!!!!!!!!!!!-[`":8555,"`_`_`_`_`_`":8556,"`_`_`_`_`_`_`_":8557,"[````````[":8558,"!+`":8559,"_```````\\":8560,"656":8561,"\\```````\\":8562,"!!!!!?````":8563,"!!!!!!!!!!!!!!!!!!'`":8564,"&&&&&&":8565,"UUUUUU":8566,"!!!!!!!!!!!!!,``,!!!!!!!!!!!":8567,"!!!!!!!!!!!!!]`<!!!!!!!!!!!!":8568,"!!!!!!!!!!!!!!!,``'!!!!!!!!!":8569,"___`___`___`":8570,"!@``":8571,"!-``":8572,"%!!!!!!!\"":8573,"&\"!!!!!!!!!":8574,"&\"!!!!":8575,"']`":8576,"(\"!":8577,")!!!!!%":8578,"*$!!!!!!!!":8579,",$!!!!!!!!!!":8580,"-\"!!!!!!!!!!":8581,"-#!!":8582,".$!!!!!!!":8583,".!!!%":8584,".!'":8585,":%!!!!!":8586,":$!!!":8587,";\"":8588,";``^":8589,";%!!!":8590,"<\"!!!":8591,"<%!!!!!!!!!!!":8592,"<\"!":8593,"=__":8594,"=)!!!!!!!!!!":8595,">`_":8596,">#!!!!!!":8597,"?&!!!!!!!!":8598,"@``\\":8599,"@#!!!!!!!!!!":8600,"@%!!!!!!!":8601,"@$!!!!!!!!!!!":8602,"DSS":8603,"DPa":8604,"HaX":8605,"SDD":8606,"VUU":8607,"XEE":8608,"[%!!!!!!!!!!!":8609,"[+!!!!!!":8610,"[-!!!!!!!!!!!!!!":8611,"\\!!!":8612,"\\!!!!!!!!!!!!!!":8613,"\\$!!!!!!!!":8614,"\\(!!!!":8615,"\\_`_":8616,"\\.!!!!!!":8617,"\\``````]":8618,"]%!!!!!!!!!":8619,"]/!!!!!!!!!":8620,"](!!!!":8621,"].!!!!!!!!":8622,"]-!!!!!!!!!!!":8623,"])!!!!!!!!!!!!":8624,"^.!!!!!!!!!!":8625,"^.!!!!":8626,"_!!!!":8627,"_*!!!!!!!!!!":8628,"_*!!!!!!!!!!!":8629,"_/!!!":8630,"`#!!!!!!!!!!!!!":8631,"`(!!!!!!!!!!!!!!!":8632,"!!,`":8633,"!!!!=```":8634,"``$!!!":8635,"!!!!!!!!!!!!!!!!!!!!!!$":8636,"````(!!!!!!!!!!":8637,"````^^":8638,"````@!!!!!!!":8639,"````@!!!!!!!!":8640,"````;!!!!":8641,"!!!!!!!!![```":8642,"!!!!!!!`_`_":8643,"```/":8644,"```%!!!!!!!!":8645,"!!!!!]```":8646,"!!!!!!!!!!!!!_":8647,"!!!!!!!!!!!!!`___":8648,"`_^``":8649,"`_^^":8650,"`_>!!!!!!!":8651,"aaaaaaY":8652,"_`.!!!!!!!":8653,"``````!!!!":8654,"`^(!!!!!!!!!!":8655,"`^:!!!!!!!!":8656,"^`?!!!!!!!!":8657,"]`>!!!!!!!!":8658,"!!!!!!!!!!!!!!!!!!@``":8659,"[`!!!!!!!!!":8660,"[`;!!!!!!!!":8661,"`](!!!!":8662,"`[,":8663,"`[#!!!!!!!!!!":8664,"`[.!!!!!!!!":8665,"`[)!!!!!":8666,"`[*!!!!!!!!!!!!":8667,"`\\$!!!!!!!!!!":8668,"`\\-!!!":8669,"`\\*!!!!!!!!!!!!!":8670,"``^``":8671,"``^/!!!!!!":8672,"``]!!!":8673,"``],!!!!!!!!!":8674,"AAaaA":8675,"AAaP":8676,"____!!!!!!!!":8677,"``[%!!!!!!!!!":8678,"``\\)!!!!!!!!!!!":8679,"\"!!!!!!!!\"":8680,"!!!!!!!\"&":8681,"!!!!!!!\"'":8682,"!!!!!!!!!!\"*":8683,"___!!!!!!!!!!":8684,"!!!!!!!!!\"-":8685,"#!!!!!!!$":8686,"!!!!!!!!!!#:":8687,"!!!!!!!!!!!\"+":8688,"!!!!!!!#(":8689,"!!!!!!!#?":8690,"!!!!!!\"`":8691,"\"!!!!.":8692,"#!!!!!*":8693,"#!!!!!+":8694,"!!!!!!!!!!!#>":8695,"!!!!!!!!!!$/":8696,"CCN":8697,"!!!!!!!!!%```":8698,"!!!!!!!!!&;":8699,"!!!!!!!!!!!!\"$":8700,"&!!!!!!'":8701,"$!!!!!&":8702,"IIK":8703,"DDW":8704,"PPX":8705,"!!!!!!!!!(^`":8706,"!!!!!!!&:":8707,"!!!!!!!&\\`":8708,"[[````":8709,"!!!!!!!!!!(````":8710,"!!!!!!%:":8711,"%!!!!!)":8712,"!!!!!!!!!!!&___":8713,"!!!!!!!!!!!&___`":8714,"```]!!!!!!!!!!":8715,"!!!!!!!!!!']":8716,"!!!!!!!!!!']`":8717,"!!!!!!!*]":8718,"!!!!!!!!!!!!%```":8719,"#!!!.":8720,"!!!!!!!!!!!!!#/":8721,"&!!!!(":8722,"]]!!!!!!!!!!!!":8723,"!!!!!!!!!+_`":8724,"!!!!!!!!!!!!(```!!!!!!!!!!!!":8725,"VVY":8726,"!!!!!!&^`":8727,"XXZ":8728,"!!!!!!!!!!!!!(```.!!!!!!!!!!":8729,"!!!!!!!!!!!!!%[":8730,"!!!!!!!!!!!!+\\``":8731,"!!!!!!!!!/^`":8732,"OOR":8733,"!!!!!!!!!!!!!!\"<":8734,"!!!!!!!!!!!!-```.!!!!!!!!!!!":8735,"!!!!!!!!!!!!*\\":8736,"!!!!!!!!!!,_":8737,"!!!!!!!!!!,\\`":8738,"!!!!!!!/\\`":8739,"!!!!!!!!.]`":8740,"!!!!!!!!!!/^":8741,"'!!!+":8742,"LLT":8743,"!!!!!!+^`":8744,"!!!!!!!!!!!!!'\\":8745,"!!!!!!!,_":8746,",!!!!#":8747,",!!!!$":8748,"!!!!!!-\\`":8749,"&!,":8750,"!!!!!!!!!!!,_`":8751,"-!!!!&":8752,"!!!!!!!!!!!!!!!#`":8753,"!!!!!!!!!!!!!!&>":8754,"!!!!!!!!!!!.^`":8755,"!!!!!-]`":8756,"````\\!!!!!!!!!!":8757,"!!!!!!!!!!!!!!-```$!!!!!!!!!":8758,"!!!!!!!!!!!!!!)]`":8759,"!!!!!!!!!!!!!.]`":8760,"!!!!!,]`":8761,"!!!!!,[``":8762,"!!!!!!!!!!!!!!!(\\`":8763,"!!!!!!!!=_":8764,",!!!(":8765,"]_`````":8766,"!!!!!!!!!!=`_":8767,"!!!!!!!!!!=``````":8768,"!!!!!!!!!!!!!!/_`":8769,")!!+":8770,"!!!!!!!!!!:^`":8771,"!!!!!!!!!;_":8772,"/!!=":8773,"!!!!!!!!!!!!!!,^":8774,",!!)":8775,",!!*":8776,"AaaPAA":8777,"*!)":8778,"!!!(`":8779,"!!!(``":8780,"!!!!!!!!!@```````":8781,"!!!!!!!!!!!@_":8782,"!!!!!!!!!!>_":8783,"!!!!!!!!!!@_":8784,"__`____`____`":8785,"!!!!!!!!!!!!!!!!!'``":8786,"6666666":8787,"!!!.``":8788,"APaaaaaA":8789,",,,,,,,":8790,"!!!!!!!!!!!!!/``.!!!!!!!!!!!":8791,"000000":8792,"\"\"\"\"\"":8793,"_`_`_`_`":8794,"!!!!!!!!!!!!!```(!!!!!!!!!!!":8795,"!/``":8796,"#;":8797,"'!!!!!!!\"":8798,"+!!!!!!!!!!!!!!!!!!!":8799,"+#!!!!!!!!!!!":8800,"+!!!!!\"":8801,",#!!!!!!!!!!!":8802,"-#!!!!!!":8803,"/%!!!!!!!!!!":8804,"/\"!!!":8805,"/\"!":8806,":\"!!!!!":8807,";$!!!!!!":8808,"<&!!!!!!!!!!!!":8809,"=]```":8810,">\"":8811,">#":8812,">;":8813,">`^":8814,">%!!!!!!!!":8815,">$!!!!!!!!!!!!":8816,"?`]":8817,"?``[":8818,"?\"!!!":8819,"?'!!!!!!!!!!":8820,"?'!!!!!!!!!!!!!":8821,"@`]":8822,"@'!!!!!!!!!!":8823,"DYY":8824,"FZa":8825,"FQF":8826,"KFF":8827,"KaaaK":8828,"KaaaR":8829,"SaF":8830,"UCC":8831,"VQQ":8832,"YKKKK":8833,"ZQQ":8834,"[,!!!!!":8835,"\\*!!!!!!!!":8836,"\\(!!!!!!!!!!!":8837,"\\(!!!!!":8838,"\\-!!!!!!!!!!!!!!":8839,"](!!!":8840,"]-!!!!!":8841,"](!!!!!!!!!!!!!":8842,"^)!!!!!!":8843,"_!!!!!!":8844,"_)!!!!!!!!!!":8845,"_;!!!!!!!!!!!":8846,"`$!!!":8847,"`'!!!!!!!!!!!!!!":8848,"`,!!!!!!!!!!!!!!!":8849,"`.!!!!!!!!!!!!!!!":8850,"!![`":8851,"!!;``":8852,"!!!!]":8853,"!!!!]``":8854,"``%":8855,"``\"!!!":8856,"``'!!!!!!!!!!!!!":8857,"``-!":8858,"``&!!!!!!!!!!!!!!!":8859,"!!!!!!!!!!!!!!!!!!!!!!'":8860,"!!!!!!!!!!!!!!!!!!!!!-":8861,"!!!;``":8862,"````__":8863,"````/!!!!":8864,"````:!!!!!!!!!!":8865,"````:!!!!!!":8866,"````;!!!!!!!!!!!":8867,"````@!!!!!!":8868,"````>!!!!":8869,"!!!!!!!!!`_":8870,"!!!!!!!!!`__":8871,"!!!!!!!]```":8872,"!!!!!!!!!!![````":8873,"!!!!!!`_":8874,"!!!!!!`____":8875,"```\"!!!!!!!!!!!":8876,"```'!!!!":8877,"```+!!!!!!!!!!!!":8878,"```+!!!!":8879,"!!!!!``````````":8880,"!!!!!!!!!!!!!!!``:!!!!!!!!!!":8881,"__!!!!":8882,"033":8883,"`_;!!!!!!!!!":8884,"`_@!!!!!!!!!":8885,"`````=!!!!!!!!":8886,"`````?!!!!!!!":8887,"!!!!!!!!!!!!!!!!![``":8888,"_`<!!!!!!!!!!!":8889,"`^(!!!!!!!!!":8890,"`^,!!!!":8891,"]`___":8892,"]`.!!!!!!!!":8893,"]`.!!!!!!":8894,"!!!!!!!!!!!!!!!!!!]`":8895,"`]&!!!!!!!":8896,"`]%!!!!!!!!!!":8897,"`]$!!!!!!!!!!!":8898,"`]'!!!!!!!!!!":8899,"`])!!!!":8900,"`]'!!!!!!!!!!!!!":8901,"`[\"!!!!!!!!!":8902,"`[.!!!!!!!":8903,"`[*!!!!":8904,"`\\)!!!!!":8905,"`\\+!!!!!":8906,"`\\+!!!!!!!!!!!!":8907,"`\\,!!!!!!!!!!!!":8908,"``^\\":8909,"``]*!!!!!!!!!!":8910,"!!!!!!!!!!!!!!!!!!!?":8911,"AAaaP":8912,"``[%!!!!!!!!":8913,"``[,!!!!!!!!!":8914,"``\\&!!!!!!!":8915,"``\\+!!!!!!":8916,"\"!!!!!!,":8917,"aaaaaaaaaaaaaaA":8918,"\"!!!!!!!$":8919,"\"!!!!!!!%":8920,"#!!!!!!)":8921,"!!!!!!!!#.":8922,"!!!!!!!!!!!\"$":8923,"!!!!!!!#=":8924,"$!!!!!!)":8925,"!!!!!!!!%@":8926,"!!!!!!!!%```":8927,"!!!!!!!!!!!#'":8928,"!!!!!!!!!$[":8929,"!!!!!!!!!&\\":8930,"!!!!!!!!!&[``":8931,"!!!!!!!%>":8932,"!!!!!!!!'^":8933,"EEU":8934,"!!!!!!!!!!&;":8935,"!!!!!!$:":8936,"!!!!!!$?":8937,"!!!!!!!!!'````":8938,"#!!!!-":8939,"!!!!!!!!([":8940,"!!!!!!!!!!!%]`":8941,"'!!!!!!'":8942,"SSY":8943,"ZZI":8944,"!!!!!!!!!!(@":8945,"$!!!!+":8946,"BBP":8947,"!!!!!!!!!!'>":8948,"#!!!,":8949,"!!!!!!!!!!!!!\"``<!!!!!!!!!!!":8950,"!!!!!!!!!!!'=":8951,"&!!!!*":8952,"!!!!!!!!!,?":8953,"!!!!!!&:":8954,"MMU":8955,"aYK":8956,"^^[":8957,"!!!!!!!-_":8958,"!!!!!!(=":8959,"!!!!!!!!!!);":8960,"!!!!!!!!!!)\\":8961,"!!!!!!!!!!)^`":8962,"!!!!!!!!!!!+@":8963,"!!!!!!!!!-]":8964,"!!!!!!!!!-^``":8965,"!!!!!!!!!-[``":8966,"!!!!!!!!!!-[``":8967,"!!!!!!!!!!!-]``":8968,"!!!!\".":8969,"!!!!\"?":8970,"!!!!!!!+[``":8971,"!!!!!!!!!!!!!%<":8972,"!!!!!!!!!!!!+>":8973,"(!!!=":8974,"!!!!!!!!!.]":8975,"!!!!!!!!!.````":8976,"!!!!!!!!!!,[":8977,"+!!!!!'":8978,"!!!!!!)\\`":8979,"!!!!!!+]":8980,"!!!!!!+[`":8981,"!!!!!!+]``":8982,"!!!!!!!.^":8983,"!!!!!!!.[``":8984,")!!!!$":8985,"&!!,":8986,"&!!/":8987,"!!!!!!-```":8988,"!!!!!!,[`":8989,"!!!!!!!!!!!,^":8990,"!!!!!!/]`":8991,"!!!!!!!!!!!!,_":8992,"!!!!!!!!!!!!!!'[`":8993,"!!!!!!!!!!!!!!!$`":8994,"+!!!$":8995,"!!!!!!!!!!!!!*^":8996,"'!!,":8997,"'!-":8998,")!!!'":8999,")!!!(":9000,"!!!!!!!!!!!!!,^`":9001,"!!!!!,[`":9002,"!!!!&``":9003,"!!!!!!!!!!=_":9004,"!!!!!!!!!!!!!!!-[":9005,"!!!!!!!!!!!!!!!*```":9006,")!!*":9007,"-!!)":9008,"!!!!!!!!;``````":9009,"```@!!!!!!!!!!!!!!":9010,"*!(":9011,"!!!!!!!!!?_":9012,"]``````[":9013,"!!!!!!!!!!?`````":9014,"!!!!!!!!!!?``````":9015,"!!!!!!!!!!!!!!!!!%``":9016,"!!!!!!!!!!!@_`":9017,"[````````_":9018,"!!!!!!!!!!!>_`":9019,"KKKD":9020,"!!!!!!!!!!!!!!!:```":9021,"____`____`__":9022,"!!!!!!!!!!!!![`.!!!!!!!!!!!!":9023,"$$$$$":9024,"NNNNNN":9025,"!!!!!!!!!!!!'```+!!!!!!!!!!!":9026,"!!!!!!!!!!!!!!!:``!!!!!!!!!!":9027,"!:``":9028,"\"@":9029,"#\"!!!!!!!!!!":9030,"'\"!!!!!!":9031,"(!!!!!!\"":9032,"(&&":9033,")!!!!!!!!!!!!!!!!!!!":9034,")!!!!!!#":9035,")!!!!!!$":9036,"*#!!!!!!!":9037,"+$!!!!!!!!!":9038,"+!!!!!%":9039,",\"!!!!!!!!!!!":9040,",\"!!":9041,".#!!!!!!!":9042,".$!!!!!!!!":9043,".!!!!%":9044,".!!$":9045,"/\"!!":9046,":#!!!!!!!!!":9047,":#!!!!!!!":9048,":$!!!!!!":9049,":]```":9050,"<$!!!!!!!!!!!":9051,"<--":9052,"=$!!!!!!":9053,"=%!!!!!!!!!!":9054,"=(!!!!!":9055,"=!(":9056,">$!!!!!!!!!":9057,">&!!!!!!":9058,">-!!!!!!!!!!":9059,">\"!!!!!!!!!!!!":9060,"@+!!!!!!!!!!":9061,"DaaaK":9062,"PII":9063,"RaaaY":9064,"TaF":9065,"TKKK":9066,"WFF":9067,"[!":9068,"[#!!!!!!!!!":9069,"['!!!!!!":9070,"[^````":9071,"[-!!!!!!!!!!!!":9072,"[-!!":9073,"\\$!!!!!!!":9074,"\\(!!!!!!!!!!":9075,"\\'!!!!":9076,"\\-!!!!!!!!!!!!":9077,"\\``````````````":9078,"\\=!!!!!!!!":9079,"]^^":9080,"^*!!!!!!":9081,"^)!!!!!!!!!!":9082,"^_````":9083,"^,!!!!!":9084,"^@!!!!!!!!!":9085,"_^``":9086,"_(!!!!!!!!!":9087,"_(!!!!!!!!!!":9088,"_*!!!!!!!!!!!!":9089,"_-!!!!!!!!!!!!":9090,"_;!!!!!!!!!":9091,"`(!!!!!!!!!!!!!!":9092,"`&!!!!!!!!!!!!!!!":9093,"!!=``":9094,"!!/``":9095,"!!!!``````````":9096,"``!!!!!!!!!!!!!!!!!":9097,"``(!!!!!!!!!!!!!":9098,"!!!!!!!!!!!!!!!!^`":9099,"````*!!!!!!":9100,"!!!!!!!!!!!^``":9101,"!!!!!!````````":9102,"```/!!!!!!!!!!!":9103,"```)!!!!!!!!!!!":9104,"!!!!!``@":9105,"!!!!!!!!!!!!!`_`_!!!!!!!!!!!":9106,"````````;!!!!!!!!":9107,"`_+!!!!!!!!!!!!":9108,"`_=!!!!!!":9109,"`_:!!!!!!":9110,"`_=!!!!!":9111,"`````!!!!!!!!!":9112,"`````)!!!!!!":9113,"`````=!!!!!!!!!!":9114,"`````<!!!!!!!!!!":9115,"_`=!!!!!!!":9116,"`^'!!!!!":9117,"`^+!!!!!!!!!!!!!!":9118,"`^:!!!!!!!!!!!!!":9119,"^`<!!!!!!!!!!":9120,"[`?!!!!!!!!":9121,"`]]":9122,"`]!!!!!!!!!!!!!!!!":9123,"`]/!!!!!!!":9124,"`]-!!!!":9125,"`]-!!!!!!!!!!!!":9126,"`[\"!!!!!!!!!!":9127,"`[.!!!!!!!!!!":9128,"`['!!!":9129,"`[-!!!!!!!!!!!!!!":9130,"`\\-":9131,"`\\!!":9132,"`\\$!!!!!!!!!!!":9133,"`\\,!!!!!!!!!!!":9134,"`\\-!!!!!":9135,"`\\)!!!!!!!!!!!!":9136,"``^!!!":9137,"``^/!!!!!!!!!!!!!":9138,"``]'!!!!!!!!":9139,"``],!!!!!!!":9140,"[``!!!!!!!!!":9141,"!!!!!!!!!!!!!!!!!!![`":9142,"!!!!!!!!!!!!!!!!!!!<`":9143,"!!!!!!!!!!!!!!!!!!!:``":9144,"AAPA":9145,"``[=":9146,"``[!!!!!!!!!!!!!!":9147,"``_=":9148,"``\\!!!!!!!":9149,"``\\'!!!!!!!":9150,"``\\%!!!!!!!!!!":9151,"``\\)!!!!!!!!":9152,"``\\/!!!!!!!!!":9153,"``\\-!!!!":9154,"KKA":9155,"!!!!!!!#/":9156,"!!!!!!!#```":9157,"!!!!!!!#[`":9158,"$!!!!!!&":9159,"`=!!!!!!!!!!!!!!!!!!":9160,"!!!!!!\"(":9161,"%!!!!!!!%":9162,"\"!!!!,":9163,"!!!!!!!!$[":9164,"!!!!!!!!&\\":9165,"`_`_!!!!!!!!!":9166,"!!!!!!!!!$/":9167,"!!!!!!!!!!$-":9168,"!!!!!!!!!!!!!!!!!!!!>":9169,"!!!!!!!!!%.":9170,"!!!!!!!!!%]`":9171,"!!!!!!!!!!!!\":":9172,"`<!!!!!!!!!!!!!!!!!":9173,"@`__":9174,"IIW":9175,"//?":9176,"!!!!!!!!!!%(":9177,"!!!!!!$<":9178,"RRK":9179,"RRU":9180,"!!!!!!!!!(;":9181,"!!!!!!!!!'[":9182,"!!!!!!!!!!!!#+":9183,"!!!!!!!!!!!!#=":9184,"!!!!!!!!!!!%[``":9185,"GGB":9186,"GGL":9187,"ZZK":9188,"!!!!!!%>":9189,"%!!!!!'":9190,"```][":9191,"&!!!!!'":9192,"&!!!!!(":9193,"(!!!!!/":9194,"!!!!!!!!!!'````":9195,"!!!!!!!!!)\\``":9196,"!!!!!!!!!!!!'^`":9197,"!!!!!!!!!!!!!#)":9198,"!!!!!!!!!!!!!#*":9199,"!!!!!!!!!*=":9200,"!!!!!!!!!*\\":9201,"!!!!!!!!!!*\\":9202,"!!!!!!!!!!!'^":9203,"]]^":9204,"!!!!!!!!!!!(\\`":9205,"!!!!!!!!!!!!&>":9206,"!!!!!!!!!+=":9207,"!!!!!!!!!+\\":9208,"!!!!!!!!!+````":9209,"VVA":9210,"!!!!!!!!!,\\":9211,"$!!!*":9212,"!!!!!!'\\`":9213,"!!!!!!!!!!!!!(\\":9214,"!!!!!!!!!!-^``":9215,"!!!!!!!!!!!-_`":9216,"!!!!!!!!!!!!+^":9217,"!!!!!!!!!/^":9218,"!!!!!!!!!/\\``":9219,"$!!/":9220,"!!!!!!!!!!!)[":9221,"!!!!!!!!!!!!!!\":":9222,"!!!!!!!!!!!!!!\"`":9223,"!!!!!!!!!.[":9224,"!!!!!!!!!!!!*[``":9225,"UUD":9226,"!!!!!!!!!!,]":9227,"!!!!!!!!!!!!)^":9228,"!!!!!([``":9229,"!!!!!!!!!!!!!'```":9230,"!!!!!!!,^":9231,"!!!!!!!,_`":9232,"!!!!!!!!!!!!/\\":9233,"%!!.":9234,"&!!*":9235,"&!!.":9236,"!!!!!!-^":9237,"!!!!!!-]``":9238,"*!!!!$":9239,"!!!!!!!!!!!/\\":9240,"!!!!!!!!!!!,\\`":9241,"!!!!!!/_`":9242,"!!!!!!!!!!!!!-_`":9243,"!!!!!!!!!!!!!)^":9244,"JJY":9245,"^_`````":9246,"!!!!!!!!!!!!!!(]`":9247,"*!!!)":9248,"*!!!,":9249,"!!!!!)^`":9250,"!!!!!)\\`":9251,"!!!!$:":9252,"!!!!!!!!!!!.[``":9253,"+!!!'":9254,"'!/":9255,"!!!!!!!!!!!!!/]`":9256,"!!!!!!!!!!!!!!!&``>!!!!!!!!!":9257,"-!!!%":9258,"!!!!!!!!!!!!!!+]":9259,"```<!!!!!!!!!!!!!!!":9260,"!!!!!!!!!!!!!,^":9261,"!!!!!!!!!!!!!,\\`":9262,"!!!!!!!!!!!!!!*[`":9263,"!!!!!!!!=`````":9264,"*!!)":9265,"]^`````":9266,"!!!!!!!!:_":9267,"```?!!!":9268,"!!!!!!!!!!!!!!!*]":9269,"!!!!!!!!!!!!!!/_":9270,"ZaW":9271,"!!!!!!!!!!!!!!!+^":9272,"!!!!!!!!!;^":9273,"/!!&":9274,"!!!!!!!!!!!!!!!!&``;!!!!!!!!":9275,"!!!!!!!!!:^`":9276,"!!!!!._`":9277,"\\^!!!!!!!!!!":9278,"!!!!!!!!!!;^":9279,"*!*":9280,"!!!!!!!!!!!!!!!)[`":9281,"!!!!!!!!!<_":9282,"!!!!!!!!!<`````":9283,"!!!!!!!!!!?^":9284,"!!!!!!!!!!!:^":9285,"_`````````^":9286,"!!!!!!!!!@^":9287,"!!!!!!!!!!>`````":9288,"!!*``":9289,"___`____`____`__":9290,"RRRX":9291,"!!!!!!!!!!!!!!!=```":9292,"!!!!!!!!!!!!/``!!!!!!!!!!!!!":9293,"__`___`":9294,"```:!!!!!!!!!!!!!!!":9295,"888888":9296,"TTTTT":9297,"777777":9298,"!!!!!!!!!!!!!!!!:``.!!!!!!!!":9299,"!!!!!!!!!!!!!!!!!-``-!!!!!!!":9300,"!;``":9301,"!<``":9302,"%!!!!!!#":9303,"&!!!!!!!#":9304,"&#!!!!!!!!!!":9305,"(\"!!!!!!!!!!!":9306,")!!!!!!\"":9307,",#!!!!!!!!!":9308,",!!!!!!\"":9309,"-#!!!!":9310,"-#!!!!!!!!!!!!":9311,"-&&":9312,"-!!!!!%":9313,".$!!!!!!":9314,".%!!!!!!!!":9315,".!!!!!#":9316,".!!!!&":9317,".!!!$":9318,".!!&":9319,":%!!!!!!!!!!!!":9320,";&!!!!!!!!":9321,";,,":9322,"<^```":9323,"<%!!!!!!":9324,"=\"!!!":9325,">$!!!!!!":9326,">$!!!!!!!!!!!":9327,">'!!!!!!":9328,"?&!!!!!!!":9329,"?%!!!!!!":9330,"@\"":9331,"@``^":9332,"@(!!!!!!!!!":9333,"BVV":9334,"CZZ":9335,"DKR":9336,"ISS":9337,"KaaaY":9338,"QDD":9339,"USS":9340,"Xaa":9341,"YBB":9342,"ZaR":9343,"[(!!!!!!!!!!!!!":9344,"[```````_":9345,"\\\\``":9346,"\\-!!!!!!!!!!":9347,"\\.!!!!!!!!":9348,"\\-!!!!!!!!!!!":9349,"\\___`__":9350,"^/":9351,"^(!!!!!!!!":9352,"^%!!!!!!!!":9353,"^(!!!!!!!":9354,"^*!!!!!":9355,"^;!!!!!!!!":9356,"^*!!!!!!!!!!!!!":9357,"^?!!!!!!!!":9358,"^?!!!!!!!!!":9359,"_/":9360,"_'!!!!!!!!!!":9361,"_*!!!!!!":9362,"_.!!!!!":9363,"_/!!!!!!!!!!!!!":9364,"_>!!!!!!!!!":9365,"_?!!!!!!!!!!!":9366,"`(!!!!!!!!!!!!!":9367,"`/!!!!!!!!!!!!!!!!":9368,"!!!!`____`____":9369,"``'":9370,"``'!!":9371,"!!!!!!!!!!!!!!!!]``":9372,"!!!!!!!!!!!!!!!!!!!!!!!(":9373,"!!!!!!!!!!!!!!!!>```":9374,"!!!!!!!!!!!!!!!!=```":9375,"!!!!!!!!!!!!!!!!``:!!!!!!!!!":9376,"!!!````":9377,"````'!!!!!!!!":9378,"````/!!!!!!!!":9379,"````:!!!!!":9380,"!!!!!!!!!_":9381,"!!!!!!!!!``````":9382,"!!!!!!!!!!`````":9383,"!!!!!!!!!!^``":9384,"!!!!!!^``":9385,"!!!!!!\\```":9386,"```#!!!!":9387,"```,!!!!!!!!!!!!!":9388,"```:!!!!!!!!!!!!!!":9389,"!!!!!```]":9390,"!!!!!!!!!!!!!!!``@!!!!!!!!!!":9391,"`_!!!!!!!!!!!!!!!":9392,"`_]`":9393,"`_'!!!!!!!!!":9394,"`_'!!!!!!!!!!":9395,"`_-!!!!!!!!":9396,"`_)!!!!!!!!!":9397,"`_)!!!!!!!!!!!":9398,"`_)!!!!":9399,"`_;!!!!!!!!":9400,"`_>!!!!!!!!!!!":9401,"`````;!!!!!!!":9402,"`````;!!!!!!!!!!":9403,"`````>!!!!!!!!!":9404,"_`;!!!!!!!!":9405,"_`>!!!!!!":9406,"``````?!!!!!!!!":9407,"`^(!!!!!!!!":9408,"`^%!!!!!!!!!!!":9409,"`^.!!!!":9410,"^`+!!!!!!!!":9411,"^`=!!!!!!!!!":9412,"^`@!!!!!!!!!":9413,"!!!!!!!!!!!!!!!!!!?``":9414,"`]\\":9415,"`]$!!!!!!!":9416,"`]'!!!!":9417,"`].!!!!!!!!!!":9418,"`](!!!!!!!!!!!!!":9419,"`[!!!!!!!!!!!!!!!!":9420,"`\\+!!!!!!!!!!":9421,"`\\&!!!!":9422,"`\\.!!!!!!":9423,"`\\,!!!!":9424,"``^+!!!!!!!":9425,"``^+!!!!!":9426,"^``!!!":9427,"!!!!!!!!!!!!!!!!!!!>`":9428,"!!!!!!!!!!!!!!!!!!!@``":9429,"AAaaaaA":9430,"``[+!!!!!!!!!!":9431,"``[+!!!!!!!!!!!":9432,"``\\[":9433,"``\\!!!!!!!!!!!!!":9434,"``\\(!!!!!!!":9435,"``\\)!!!!!!!!!!":9436,"``\\-!!!":9437,"!!!!!!!\"```":9438,"!!!!!!!!!!\"#":9439,"661":9440,"___```":9441,"\"!!!!!(":9442,"$!!!!!!!%":9443,"KKW":9444,"!!!!!!!!#*":9445,"!!!!!!!!!!#[`":9446,"!!!!!!!!!!!\"\"":9447,"$!!!!!!(":9448,"!!!!!!!!$\\`":9449,"!!!!!!!!!!!#<":9450,"`_`_!!!!!!!":9451,"!!!!!!!!!$>":9452,"!!!!!!#*":9453,"!!!!!!#,":9454,"!!!!!!!!!!!!!!!!!!!![`":9455,"!!!!!!!!!&/":9456,"!!!!!!!!!&<":9457,"!!!!!!!%\\":9458,"!!!!!!!!!!!!\",":9459,"!!!!!!!$,":9460,"``<!!!!!!!!!!!!!!!!":9461,"!!!!!!!!!!%^`":9462,"EEY":9463,"!!!!!!!!!!&^":9464,"\"!!!,":9465,"!!!!!!!!!'@":9466,"#!!!!.":9467,"!!!!!!!!!!!%@":9468,"``@!":9469,"!!!!!!!&?":9470,",,<":9471,"<<[``":9472,"!!!!!!!']":9473,":``!!!!!!!!":9474,"%!!!!!+":9475,"!!!!!!!!!!!&<":9476,"&!!!!!)":9477,"!!!!!!!!!!!!%<":9478,"!!!!!!!!!)\\":9479,"!!!!!!!!!!!!!\"%":9480,"!!!!!!!!!!!!!\"``\"!!!!!!!!!!!":9481,"!!!!!!!(^":9482,"!!!!!!!!+\\``":9483,"!!!!!!!!!!!!!#[":9484,"!!!!!!!!!!!'>":9485,"!!!!!!!!!!!']`":9486,"]]^``":9487,"!!!!!!!!!!!(^`":9488,"!!!!!!!!!!!!&:":9489,"!!!!!!!!!!!!&<":9490,"::?":9491,"$!!!,":9492,"$!!!/":9493,"!!!!!!&\\`":9494,"!!!!!!'@":9495,"!!!!!!'\\":9496,"!!!!!!!!!!+?":9497,"'!!!!!'":9498,"^^_`":9499,"!!!!!!!-\\``":9500,"!!!!!!!)^":9501,"!!!!!!!)[`":9502,"!!!!!!!!!-````":9503,"#!.":9504,"&!!!*":9505,"!!!!!!!!!/]``":9506,"!!!!!!!!!!!)\\":9507,"!!!!!!!!!!!)^":9508,"!!!!!!!!!!!)]`":9509,"!!!!!!!!!!!!!!\",":9510,"%!!!.":9511,"!!!!!!!!!.\\":9512,"!!!!!!!!!!,````":9513,"!!!!!!!!!!,_`":9514,"___`]":9515,"___`___`___":9516,"!!!!!!)[`":9517,"330":9518,"!!!!!&[`":9519,"'!!!)":9520,"LLC":9521,"LLG":9522,"##\"":9523,"!!!!!!+\\`":9524,",!!!!'":9525,"%!!-":9526,"+!!!!%":9527,"!!!!!!!!!!.^":9528,"!!!!!!,]":9529,"!!!!!!!!!!!!!-]``":9530,"!!!!!!!!!!!!!)```":9531,"!!!!!!!!!!!!!!&]":9532,"!!!!!!!!!!!!!!&]`":9533,"!!!!!!!!!!!!!!&[`":9534,"(!=":9535,"!!!!!!!!!!!!,[":9536,"!!!!!)[`":9537,"!!!!!!!!!!!.```":9538,"+!!!)":9539,"!!!!!!!!!!!!!*\\`":9540,"'!!+":9541,"!!!!!!.[``":9542,"!!!!!+```":9543,"!!!!!!!!!!!!!,[":9544,"!!!!!!!!!!!!!!*^":9545,"!!!!!!!!!!!!.\\":9546,"!!!!!,^`":9547,"!!!!&`":9548,"!!!!!!!!!=_`":9549,"+!!'":9550,"+!!)":9551,"!!!!!!!!!!=^":9552,"!!!!'```":9553,"!!!!!!!!!!!!!!/]`":9554,")!!(":9555,"-!!(":9556,"!!!!!!!!!!:^":9557,"!!!!!!!!!!:````":9558,"/!!%":9559,"!!!!!!!!!!!!!!,\\`":9560,",!!&":9561,"!!!!!!!!!!!=_":9562,"!!!!-```":9563,"aVB":9564,"]```````````````":9565,"!(`":9566,"PaaaaaaaaaaaP":9567,"Paaaaaaaaaaaaa":9568,"^````````_":9569,"!!!!!!!!!!!!!!!/]`":9570,"!!!!!!!!!!!!!!!._`":9571,"_``````````_":9572,"/!)":9573,"!!!!!!!!!!!!!<`?!!!!!!!!!!!!":9574,"-!+":9575,"!!!!!!!!!!!!!!!!!#`":9576,"!!!!!!!!!!!?_`":9577,"_`____`____`_":9578,"IXa":9579,"aaaaPAA":9580,"!!!!!>````":9581,"!!.``":9582,"CCCCCCC":9583,"IIIIIII":9584,"EEEEEEE":9585,"!!!!!!!!!!!!!!!!:```":9586,"HHHHHHH":9587,"@@@@@@":9588,"222222":9589,"!!!!!!!!!!!!!!```*!!!!!!!!!!":9590,"UUUUU":9591,"!!!!!!!!!!!!:``!!!!!!!!!!!!!":9592,"......":9593,"_`_`_`_`_`_":9594,"!`":9595,"!/`":9596,"$\"!!!!!!!!":9597,"&\"!!!!!!":9598,"(!!!!!!$":9599,")#!!!!!!!":9600,"*[":9601,"*#!!!!!!!!":9602,"*#!!!!!!!!!!":9603,"+#!!!!!!!!":9604,"+!!!!!!\"":9605,"+\"!!!!":9606,",\"!":9607,"-$!!!!!!!!!!":9608,"-#!":9609,".!!!!!!!!!!!!!!!!!!!":9610,".$!!!!!!!!!":9611,".!!+":9612,"/$!!!!!!!!!!":9613,":_``":9614,":\"!!!":9615,":)!!!!!!!!!":9616,":\"!!!!!!!!!!!!!":9617,";>":9618,";#!!!!!!!!!":9619,";#!!!!!!!!":9620,";%!!!!!":9621,";)!!!!!!!!":9622,";%!!!!":9623,"<(!!!!!!!!":9624,"<*!!!!!!!!!!":9625,"=#!!!!!!":9626,"=(!!!!!!!!":9627,"=!!/":9628,">#!!!!!":9629,">\"!!":9630,"?$!!!!!!":9631,"?]```":9632,"?#!!!!!!!!!!!":9633,"?\"!!!!!!!!!!!!!":9634,"@$!!!!!!!":9635,"@(!!!!!!!":9636,"@,!!!!!!!!!":9637,"AXX":9638,"CWa":9639,"GVV":9640,"KaaaD":9641,"PZZ":9642,"SOO":9643,"TPP":9644,"WHH":9645,"XOO":9646,"YaaaY":9647,"ZCC":9648,"ZUU":9649,"[_````":9650,"[+!!!!":9651,"\\+!!!!!!!!!!!":9652,"\\)!!!!!!!!!!":9653,"\\+!!!!!!":9654,"\\/!!!!!!!!!!!":9655,"\\)!!!!!!!!!!!":9656,"\\.!!!!!!!!!!!":9657,"\\__`__":9658,"]-!!!!!!!!!":9659,"]&!!!!!!!!!!!":9660,"]+!!!!!!!!!!!":9661,"]'!!!!!":9662,"].!!!!!!!!!!!":9663,"]+!!!!":9664,"](!!!!!!!!!!!!!!":9665,"^&!!!!!!!":9666,"^(!!!!!!!!!!!!":9667,"^)!!!!!":9668,"^/!!!!":9669,"^+!!!":9670,"^,!!!":9671,"^```````[":9672,"`&!":9673,"!!!!!!!!`_`":9674,"``,!":9675,"!!!!!!!!!!!!!!!!!!!!!!!#":9676,"!!!^`":9677,"!!!\\`":9678,"!!!:```":9679,"````&!!!!!!!!":9680,"````-!!!!!!":9681,"````,!!!!!!!!!!!":9682,"````.!!!!!":9683,"````=!!!!!":9684,"````?!!!!":9685,"!!!!!!!!!_`":9686,"!!!!!!!!!`_`_":9687,"!!!!!!!`````":9688,"!!!!!!!!!!!]":9689,"!!!!!!!!!!!````":9690,"```*!!!":9691,"```-!!!!!!!!!!!!!":9692,"!!!!!```````````":9693,"__=":9694,"__`]":9695,"`_^`":9696,"`_[[":9697,"`_,!!!!!!!":9698,"`_-!!!!!!!!!!!!":9699,"`````!!!!!!!!!!!!":9700,"`````&!!!!!!!":9701,"`````)!!!!!!!":9702,"`````=!!!!!!!!!":9703,"`````:!!!!!!!":9704,"_`;!!!!!!!":9705,"``````>!!!!!!!!!!":9706,"`^%!!!!!!!!!":9707,"]`<!!!!!!!!!!!":9708,"!!!!!!!!!!!!!!!!!!\\":9709,"!!!!!!!!!!!!!!!!!!\\``":9710,"!!!!!!!!!!!!!!!!!!*`":9711,"```````>!!!!!!!!!":9712,"`]&!!!!!!!!!!!":9713,"`]/!!!!!!":9714,"`].!!!!!!":9715,"`])!!!!!!!!!!!!!":9716,"`[!!":9717,"`[#!!!!!!!":9718,"`[$!!!!!":9719,"`['!!!!":9720,"\\`>!!!!!!!!":9721,"`\\/!!!!!!!!!!!":9722,"`\\*!!!!":9723,"]``=!!!!!!!!!":9724,"``]+!!!!!!!!!":9725,"``])!!!!!!!!":9726,"_``!!!!":9727,"AAU":9728,"______`___":9729,"``['!!!!!!!!":9730,"``[*!!!!!!!!!":9731,"``[+!!!!!!!!!!!!":9732,"``_!!!!":9733,"``\\.!!!!!!!!":9734,"``\\.!!!!!!!!!":9735,"`````````!!!":9736,"#!!!!!!!!!&":9737,"!!!!!!!!!!\"\"":9738,"668":9739,"!!!!!!!!\"$":9740,"!!!!!!!!\")":9741,"!!!!!!!!!\"\"\"":9742,"#!!!!!!!)":9743,"!!!!!!!!!#(":9744,"!!!!!!!!#&":9745,"!!!!!!!!#:":9746,"!!!!!!!!#=":9747,"(!!!!!!!!(":9748,"!!!!!!!#'":9749,"!!!!!!!#;":9750,"!!!!!!!#[":9751,"!!!!!!\"'":9752,"!!!!!!\",":9753,"!!!!!!!!%,":9754,"!!!!!!!!%]`":9755,"!!!!!!!!%[``":9756,"'!!!!!!!$":9757,"!!!!!!!!!$`":9758,"!!!!!!!!!!$\\":9759,"!!!!!!!!!!$[`":9760,"!!!!!!#?":9761,"!!!!!!!!!!!!\"#":9762,"IIA":9763,"DDX":9764,"``;!!!!!!!!!!!!!!!!!":9765,"EER":9766,"!!!!!!!!!!&\\":9767,"!!!!!!!!!!&]`":9768,"!!!!!!$````":9769,"!!!!!!!!!!!$,":9770,"!!!!!!!!!!!$```":9771,"PPY":9772,"!!!!!!!!!!!!#:":9773,"!!!!!!!!!!!!#[":9774,"!!!!!!!!!!!%]":9775,"'!!!!!!%":9776,"!!!!!!!'@":9777,"!!!!!!!!!!!&>":9778,"!!!!!!!!!!!&\\``":9779,"!!!!!!!(\\":9780,"!!!!!!!!!*_":9781,"!!!!!!!!!!!(]":9782,"!!!!!!!!!!!!&]":9783,"!!!!!!!!!!!!&^`":9784,"!!!!!!!!!!!!(]":9785,"!!!!!!!!!,_":9786,"_`_@!!!!!!!":9787,"!!!!!!!!!!)^":9788,"!!!!!!!!!!)\\``":9789,"!!!!!!!!!!!+?":9790,"!!!!!!!!!!!!!(````":9791,"!!!!!!!!!!!!!(``'!!!!!!!!!!!":9792,"!!!!!!*]":9793,"!!!!!!!!!-=":9794,"*!!!!!'":9795,"!!!!!!!!/^":9796,"!!!!!!!!/\\``":9797,"!!!!!!!!!!!!!%\\":9798,"TTX":9799,"!!!!!!!!!/`_":9800,"!!!!!!!!!!!!!!\"%":9801,"!!!!!!!!!!!!!!\";":9802,"!!!!!!!!,_":9803,"!!!!!!!!,_`":9804,"NNX":9805,"!!!!!!!!!!!!-_`":9806,"'!!!!,":9807,",!!!!!&":9808,"!!!!!!!!!!/\\":9809,"!!!!!!!!!!/^``":9810,"!!\";":9811,"!!!!!!!!!!!!)]":9812,"!!!!!(\\`":9813,"!!!!!!+^``":9814,"PaT":9815,"%!/":9816,"!!!!!!-]":9817,"!!!!!!!!!!.^``":9818,"!!!!!!!!!!.\\``":9819,"!!!!!!!!!!!/^":9820,"!!!!!!,]``":9821,"!!!!!!,[``":9822,"!!!!!!!!!!!!!!%<":9823,"!!!!!!!!!!!!!!%[":9824,"!!!!!!!!!!!!!!&^`":9825,"!!!!!!._":9826,"!!!!!+[`":9827,"!!!!!!!!!!!!!!-[":9828,"!!!!!!!!!!!!!!+[``":9829,"!!!!!!!!!!!!!.\\`":9830,"!!!!!!!!!!!!!,[`":9831,"!!!!!!!!!!!!.^":9832,"!!!!&:":9833,"!!!!!!!!!!!!!!!(```":9834,"!!!!!!!!!=`````":9835,"!!!!!!!!=``````":9836,"DaT":9837,"!!!!!!!!!!!!!!!-_":9838,"!!!!!!!!!!!!!!!-``-!!!!!!!!!":9839,"!!!!!!!!!!!!!!!*\\`":9840,"!!!!!!!!!!!!!!/``=!!!!!!!!!!":9841,")!!,":9842,"!&`":9843,"!!!!!!!!;_":9844,"!!!!!!!!;_`":9845,"YKR":9846,"!!!!!!!!?`^":9847,"!!!!!!!!!?_`":9848,"!!!&``":9849,"!!!!!!!!!!!:````":9850,"!!!!!!!!!!!:^`":9851,"!!!!!!!@_":9852,"^`````````_":9853,"^``````````_":9854,"!!!!!!!!!>`````":9855,"!!!!!!!!!!!!!<_":9856,"!!!!!!!!!!<_":9857,"!!!!!!!!!!!!:````":9858,"!!!!!!!!!!!!@````":9859,",!'":9860,"!!!!!!!!>``````":9861,"_`____`____`__":9862,"[````````]":9863,"!!!!!!!!!!@`````":9864,"!!!!!!!!!!!!!!!!/```":9865,"!!!!!!!!!!!!!!!!/``=!!!!!!!!":9866,"!!!!!!<````":9867,"!!!!!!!!!!!!>````":9868,"___`____`___":9869,"___`____`____`_":9870,"!!!!!!!!!!!!?_":9871,"!!!!!!!!!!!!?````":9872,"DDDZ":9873,"1111111":9874,"========":9875,"APaaaaaaa":9876,"__`___`___":9877,"!!!!!!!!!!!!-``-!!!!!!!!!!!!":9878,"!!!!!!!!!!!!%``%!!!!!!!!!!!!":9879,"!!!!!!!!!!!!\"``\"!!!!!!!!!!!!":9880,"\"\"!!!!!!!!!!":9881,"$!!!!!!!!!!!!!!!!!!!!":9882,"'\"!!!":9883,")\\":9884,")\"!!!!!!!!":9885,")#!!!!!!":9886,")#!!!!!":9887,")#!!!!!!!!!!!!":9888,"*\"!!!!!!!!!!!":9889,"*!!!!!\"":9890,"*!!!!!!$":9891,"*\"!":9892,"+#!!!!!!!":9893,"+$!!!!!!!!":9894,"+!!!!!$":9895,",#!!!!":9896,",!!!!!%":9897,"-$!!!!!!!!":9898,"-#!!!!!":9899,"-\"!!!!!!!!!!!":9900,".$!!!!!!!!!!!":9901,"/`_":9902,"/$!!!!!!!!":9903,"/$!!!!!!!!!":9904,"/!!!!!!(":9905,"466":9906,"56565":9907,"833":9908,":!!!!!!!!!!!!!!!!!!":9909,";]```":9910,";//":9911,";\"!!":9912,"<&!!!!!!!":9913,"<&!!!!!!!!!!!":9914,"=%!!!!!!!!!!!!":9915,"=(!!":9916,">\\``":9917,">#!!!!!!!!":9918,">%!!!!!!!!!!!":9919,">$!!!!":9920,"?$!!!!!!!":9921,"?%!!!!!!!":9922,"?\"!!":9923,"?'!!!!!!!!!!!!":9924,"@``]":9925,"@%!!!!!!!!!":9926,"@'!!!!!!!!":9927,"@(!!!!!":9928,"@-!!!!!!!!!":9929,"@'!!!!!!!!!!!":9930,"@*!!!!!!!!!!":9931,"DSX":9932,"EYY":9933,"Faa":9934,"FYY":9935,"JTT":9936,"JQQ":9937,"MaR":9938,"ONN":9939,"QYY":9940,"SQQ":9941,"TRR":9942,"ULL":9943,"WDD":9944,"YSS":9945,"YXXXX":9946,"YaaaD":9947,"[.":9948,"[#!!!!!!!!":9949,"[*!!!!!!!!":9950,"[*!!!!!!!!!":9951,"[(!!!!":9952,"['!!!!!":9953,"[<!!!!!!!!!!":9954,"[-!!!!!!!!!!!!!!!":9955,"\\$!!!!":9956,"\\```````]":9957,"\\_`__":9958,"]%!!!!!!!!!!":9959,"]+!!!!!!!!!!!!":9960,"](!!":9961,"]=!!!!!!!":9962,"^!!!!!!!!!!!!!":9963,"^(!!!!!!!!!!":9964,"^(!!!!!!":9965,"_+!!!!!!!!!!":9966,"_,!!!!!":9967,"_=!!!!!!":9968,"_=!!!!!!!!!!!!":9969,"_=!!!!":9970,"`-!!!!!!!!!!!!!!!!":9971,"!!/`":9972,"!!.`":9973,"!!!!!!!!_``":9974,"``!!!!!!!!!!!!!!!!!!":9975,"``#!!":9976,"``%!!!!!!!!!!!!!":9977,"``*!":9978,"``.!":9979,"!!!!!!!!!!!!!!!!!!!!!!+":9980,"!!!!!!!!!!!!!!!!@```":9981,"!!!!!!!!!!!!````!!!!!!!!!!!!":9982,"!!!;```":9983,"````+!!!!!!!":9984,"````-!!!!!!!!!":9985,"````,!!!!!!!!!":9986,"````,!!!!":9987,"````<!!!!!!!!!":9988,"!!!!!!!!!!`____`____":9989,"!!!!!!```````":9990,"```_``":9991,"```&!!!!!!!!!!!!":9992,"```-!!!!!":9993,"!!!!!````````````":9994,"!!!!!!!!!!!!!!`___":9995,"!!!!!!!!!!!!!!]]!!!!!!!!!!!!":9996,"228":9997,"099":9998,"```````````````^":9999,"`_*!!!!!!!":10000,"`_*!!!!!!!!!!!":10001,"`_,!!!!!!!!!!!":10002,"`_*!!!!!!!!!!!!":10003,"`_=!!!!!!!!":10004,"`_:!!!!!!!!!":10005,"`_=!!!!!!!!!!":10006,"`_;!!!!!!":10007,"`_;!!!!!!!!!!":10008,"`_>!!!!!!!!!":10009,"`_<!!!!!!!!!":10010,"aaaaaaK":10011,"`````<":10012,"`````!!!!!!!":10013,"`````(!!!!!!!!":10014,"`````)!!!!!":10015,"`````<!!!!!!!!!":10016,"_`;!!!!!!!!!":10017,"``````>!!!!!!!!!":10018,"`^_":10019,"`^^`":10020,"`^%!!!!!!!!!!":10021,"`^&!!!!!!!!!!!":10022,"^`=!!!!!!!!":10023,"^`>!!!!!!!!":10024,"^`<!!!!!!!!":10025,"^`<!!!!!":10026,"]`<!!!!!!!":10027,"[`!!!!!!!!":10028,"`],":10029,"`]]`":10030,"`]'!!!!!":10031,"`]*!!!!!!!!!!!!!":10032,"aaaYK":10033,"`[!":10034,"`[%!!!!!!!!!!!!!":10035,"`\\``":10036,"`\\!!!!!!!!!!!!!!!":10037,"`\\\"!!!!!!!!!":10038,"`\\$!!!!!!":10039,"`\\$!!!!!":10040,"`\\(!!!":10041,"``^+!!!!!!":10042,"]``!!!":10043,"]``?!!!!!!!":10044,"``]*!!!!!!!!":10045,"``]+!!!!!!!!!!!":10046,"^``!!!!!!!!":10047,"AAPP":10048,"``[*!!!!!!!!!!":10049,"``_;!!!!!!!!":10050,"``\\&!!!!!!!!":10051,"``\\(!!!!!!":10052,"``\\(!!!!!":10053,"``\\*!!!!!!":10054,"``\\/!!!!!!":10055,"``\\.!!!!!!":10056,"!!!!!!!\"(":10057,"aaaaaaaaaaaaaaP":10058,"664":10059,"669":10060,"___!!!!!!!!!!!":10061,"!!!!!!!!\"+":10062,"!!!!!!!!!#'":10063,"!!!!!!!!#;":10064,"```^\\":10065,"!!!!!!\"&":10066,"!!!!!!\"```":10067,"!!!!!!!!&[``":10068,"!!!!!!!!!!!#$":10069,"!!!!!!!!!!!#,":10070,"`_`_!!!!!!!!":10071,"`_`_!!!!!!!!!!!!":10072,"!!!!!!!!!!$\\`":10073,"!!!!!!!!!!!!!!!!!!!!?":10074,"!!!!!!!!!!!!!!!!!!!!=`":10075,"CCA":10076,"CCF":10077,"!!!!!!!!!!!!\"&":10078,"!!!!!!!!!!!!\"*":10079,"!!!!!!!$:":10080,"!!!!!!!$[`":10081,"&!!!!!!%":10082,"IIY":10083,"(!!!!!!!(":10084,"``;!!!!!!!!!!!!!!!!":10085,"!!!!!\"&":10086,"!!!!!!!!!!&]":10087,"!!!!!!!!!(\\``":10088,"!!!!!!!!(;":10089,"!!!!!!!!!!!%/":10090,"WWB":10091,"!!!!!!!!!!(=":10092,"YYD":10093,"((.":10094,"(!!!!!+":10095,"!!!!!!!!!!!!$```":10096,"!!!!!!!!!!!!!\"+":10097,"!!!!!!!(```":10098,"!!!!!!!!)_":10099,"!!!!!!!!!!!!']":10100,"!!!!!!!!!*[":10101,"```\\:":10102,"&!!!!-":10103,"```_^":10104,"(!!!!=":10105,"VVZ":10106,"`__(!!!!!!":10107,"MMN":10108,"!!!!!!!!!!+@":10109,"_`_!!!!!!!":10110,"_`_!!!!!!!!!!!":10111,"!!!!!!!!!!!*[":10112,"!!!!!!!!!!!*\\":10113,"!!!!!!!-]```":10114,"!!!!!!!)\\":10115,"!!!!!!(```":10116,"!!!!!!*]``":10117,"!!!!!!!!!-\\``":10118,"!!!!!!!!!!!!+]":10119,"!!!!!!!!!!!!+_":10120,"!!!!!!!!!!!!!$:":10121,"!!!!!!!!!!!!!$<":10122,"!!!!!!!!!!!!!$[`":10123,"OOU":10124,"!!!!!!!!,^":10125,"!!!!!!!!,`^":10126,"!!!!!!!!!!!!!!#``":10127,"!!!!!!!!!!!!-[":10128,"!!!!!!!!!!!!!+]``":10129,"!!!!!!!!!!!!*```":10130,"+!!!!!&":10131,"!!!!!!!!.^``":10132,"!!!!!!!!!!!!!!$]`":10133,"!!!!!(=":10134,"!!!!!(]`":10135,"!!!!!!+^":10136,"!!!!!!!!!!!!!'^`":10137,"!!!!!!!._`":10138,")!!!!&":10139,")!!!!'":10140,",!!!!%":10141,",!!!!,":10142,"PaV":10143,"!!!!!!!!!!!!/]":10144,"&!!-":10145,"(!!,":10146,"!!!!!!-_":10147,"-!!!!$":10148,"!!!!!!!!!!!!!!&\\`":10149,"!!!!!!!!!!!!,^":10150,"!!!!!!!!!!!!,``<!!!!!!!!!!!!":10151,"!!!!!!!!!!!!!!'\\":10152,"!!!!!!!!!!!!!!(\\":10153,"*!!!(":10154,"!!!!!!!!!!!.^":10155,"````_]":10156,"!!!!!!.]`":10157,"/!!!*":10158,"/!!!=":10159,"!!!!!!!!!!!!!!!&[`":10160,"!!!!!!!!!!!!!!-]``":10161,")!!!)":10162,"-!!!'":10163,"-!!!+":10164,"!!!!!!!!!!!!!!+^`":10165,"!!!!!!!!!!!!!!)[":10166,"!!!!!!!!!!!!!!)```":10167,"!!!!!!!!!!!!.]":10168,"!!!!!!!!!!!!.\\``":10169,"!!!!!/_`":10170,"!!!!!!!!=_`":10171,"*!!+":10172,"ZaZ":10173,"KYK":10174,"!!!$``":10175,"AaaaaaaaaaaaaaA":10176,",!!(":10177,".!!!'":10178,"!!!!!!!!!!!!!!!)^`":10179,"!!!!!!!!?``````":10180,"!!!!!!!!!<_`":10181,"!!&:":10182,"!!!!!!!!!!!:_`":10183,"!!!!!!!!!!!!!!!/^`":10184,"!!!!!!!!!!!!!!!,[``":10185,"_````````\\":10186,"/!.":10187,"!!!!!!!!!@_":10188,"```````````````\\":10189,"!!!!!!!!!!!?_":10190,"!!!!!!!!!!>_`":10191,"!!!!!!>_":10192,"[`````````^":10193,"!!!!!!!!!!!;_":10194,"!!!!!!!!!!!>`````":10195,"!!!)``":10196,"!!!!!!!!!!!!!:``:!!!!!!!!!!!":10197,"!!!!!!!!!!!!!!:```":10198,"<<<<<<<":10199,"BPB":10200,"!!!!!!!!!!!!=``/!!!!!!!!!!!!":10201,"!!!!!!!!!!!!,``!!!!!!!!!!!!!":10202,"]]]]]]":10203,"PaaaaaPA":10204,"######":10205,"!.`":10206,"#`":10207,"$@":10208,"%\"!!!!!!!!!":10209,"&!!!!!!!!#":10210,"&\"!!":10211,")!!!!!!!!#":10212,")#!!!!!!!!!!!!!":10213,"*\"!!!!!!!!!":10214,"+\"!!!!!!!":10215,"+\"!!!":10216,",#!!!!!!!!!!":10217,"-&!!!!!!!!":10218,"-(!!!!!!!!!":10219,"-!!!!!!#":10220,"-$!!!!!!!!!!!":10221,".#!!!!!!!!!":10222,".#!!!!!!":10223,".\"!":10224,".!(":10225,".!*":10226,"/!!!!!#":10227,"/#!!":10228,"611":10229,"877":10230,":\"!!!!!!!":10231,":(!!!!!!!!":10232,":(!!!!!!!!!!!":10233,":&!!!":10234,";(!!!!!!!!":10235,"<`^":10236,"=%!!!!!!!!":10237,"=%!!!!!!!":10238,"=%!!!!!":10239,"='!!!!!!!!!!!":10240,"=$!!!!!!!!!!!!":10241,"=(!!!":10242,">!!!!!!!!!!!!!!!!!":10243,">#!!!!!!!":10244,">)!!!!!!!":10245,"?#!!!!!":10246,"?+!!!!!!!!":10247,"?'!!!!!":10248,"?'!!!!":10249,"@_```":10250,"@\"!!!":10251,"@(!!!!!!":10252,"CPa":10253,"CYa":10254,"Eaa":10255,"EZZ":10256,"GQQ":10257,"HZa":10258,"IHH":10259,"MZZ":10260,"PEE":10261,"PaK":10262,"QEE":10263,"QVV":10264,"RGG":10265,"Saa":10266,"UFF":10267,"URR":10268,"WRR":10269,"ZII":10270,"ZOO":10271,"[,":10272,"['!!!!!!!!!!":10273,"[]````":10274,"\\!!!!!!!!!!!!!!!":10275,"\\)!!!!!!":10276,"\\/!!!!":10277,"\\.!!!!!!!!!!!!":10278,"\\'!!!!!!!!!!!!!":10279,"]&!!!!!!!":10280,"]/!!!!!":10281,"].!!!!!!!!!!":10282,"]_`__":10283,"^'!!!!!!!!":10284,"^/!!!!!!!!!!!":10285,"^@!!!!!!!!":10286,"_!!!!!!!!":10287,"_)!!!!!!":10288,"_:!!!!!!!!!":10289,"_>!!!!!!!":10290,"`(":10291,"`'!!!!!!!!!!!!!!!":10292,"!!!!``^":10293,"!!!!``]":10294,"!!!!!!!!]```":10295,"``\"!!!!!!!!!!!!!":10296,"``*!!!!!!!!!!!!!":10297,"``/!!!!!!!!!!!!!!!!":10298,"!!!!!!!!!!!!!!!!!!!!!!!!":10299,"````-!!!!!!!!!!!":10300,"````/!!!!!!":10301,"````.!!!!!!!!!!!":10302,"````?!!!!!!!!!!!":10303,"!!!!!!!!!!!_":10304,"```[``":10305,"```\"!!!!":10306,"```(!!!!!":10307,"```+!!!":10308,"aaYK":10309,"232":10310,"`_*!!!!!!":10311,"`_]]":10312,"`_:!!!!!!!":10313,"`_.!!!":10314,"`````(!!!!!!!!!":10315,"`````&!!!!!!!!!!":10316,"`````.!!!!!!!":10317,"`````.!!!!!!":10318,"`````@!!!!!!!":10319,"_`'!!!!!!!!!":10320,"_`+!!!!!!!":10321,"_`?!!!!!!!!!":10322,"_`:!!!!!!":10323,"`^%!!!!!!":10324,"`^/!!!!!!!!!!!!!!":10325,"]`:":10326,"!!!!!!!!!!!!!!!!!!<``":10327,"[`;!!!!!!!!!":10328,"`],!!!!!!!!!!!!!!":10329,"`[\"!!!!!":10330,"`[#!!!!!!":10331,"`[%!!!!":10332,"`[/!!!!!!!!":10333,"`[-!!":10334,"\\`>!!!!!!!!!":10335,"`\\'!!!!":10336,"`\\-!!!!!!!!!!!!":10337,"`\\&!!!!!!!!!!!!!!":10338,"``^&!!!!!!!!!":10339,"``^+!!!!!!!!":10340,"``]/!!!!!!!!":10341,"``].!!!!!!!!!":10342,"``]\\\\":10343,"_``!!!":10344,"``[!!!!!!!!!!!!!":10345,"``[$!!!!!!!!!":10346,"``[/!!!!!!!!":10347,"``[/!!!!!!!":10348,"``[+!!!!!!!!!!!!!":10349,"``_@!!!!!!!!!":10350,"``\\>":10351,"``\\)!!!!!!!!!":10352,"``\\.!!!!!!!":10353,"``\\*!!!!!!!!!!!":10354,"``\\,!!!!!!":10355,"`````````=!!!!!!!!":10356,"\"!!!!!!!!#":10357,"!!!!!!!\"%":10358,"\"!!!!!!+":10359,"aaaaaaaaPA":10360,"\"!!!!!!!&":10361,"___!!!!!!!!!!!!":10362,"KKKR":10363,"``````````!!!!":10364,"``````````!!!!!!!!":10365,"!!!!!!!!!!!\"-":10366,"```^@":10367,"!!!!!!\"%":10368,"!!!!!!!!$\\":10369,"!!!!!!!!$[`":10370,"!!!!!!!!&<":10371,"!!!!!!!!&?":10372,"!!!!!!!!&^`":10373,"`_`_!!!!!":10374,"!!!!!!!!!$*":10375,"!!!!!!#=":10376,"!!!!!!!!!!!!!!!!!!!!@":10377,"CCV":10378,"!!!!!!!%[``":10379,"!!!!!!!$+":10380,"!!!!!!!$.":10381,"!!!!!!!$\\`":10382,"&!!!!!!+":10383,"IIM":10384,"EEZ":10385,"!!!!!!!!!!&^`":10386,"!!!!!!$.":10387,"!!!!!!!!!!!$-":10388,"!!!!!!!!!(:":10389,"!!!!!!!!!'^`":10390,"!!!!!!!!(:":10391,"``@!!!!!!!!!!!!!!!!":10392,"'!!!!!!)":10393,",,?":10394,"ZZT":10395,"!!!!!!!!!!(-":10396,"!!!!!#-":10397,"```]>":10398,"```]]":10399,"```]!!!!!":10400,"BBR":10401,"BBW":10402,"BBY":10403,"#!!!/":10404,"!!!!!!!!!!!!'=":10405,"!!!!!!!!!!!!'\\":10406,"!!!!!!!!!!!!!#```":10407,"!!!!!!!!!*<":10408,"!!!!!!!!!!!'@":10409,"!!!!!!!!!!!']":10410,"```\\=":10411,"\"!/":10412,"HHC":10413,"(!!!!)":10414,"(!!!!*":10415,"!!!!!!!!!+^`":10416,"!!!!!!!!-`````":10417,"$!!!.":10418,"`___`__":10419,"MMZ":10420,"_`_@!!!!!!!!!!!":10421,"!!!!!!!!!!!*\\``":10422,"!!!!!!!)>":10423,"!!!!!!!)_":10424,"!!!!!!!!!!)[`":10425,"!!!!!!!!!!)]``":10426,"!!!!!%;":10427,"!!!!!!!!!!!!!(=":10428,"!!!!!!!!!!!!!(]":10429,"!!!!!!!!!!!!!([``":10430,"!!!!!!!!!!!!!(``?!!!!!!!!!!!":10431,"!!!!!!*[":10432,"!!!!!!*\\":10433,"&!!!,":10434,"!!!!\":":10435,"!!!!\"=":10436,"!!!!!!!!!/`````":10437,"!!!!!!!!!/_``":10438,"$!!.":10439,"!\")":10440,"!!!!!!!!,?":10441,"!!!!!!!!,[":10442,"NNA":10443,"NNS":10444,"!!!!!!!!!!!!->":10445,"!!!!!!!!!!!!*]``":10446,"QQW":10447,"!!!!!!!!.\\":10448,"!!!!!&:":10449,"!!!!!!!!!!!!)[`":10450,"!!!!!!!!!!!!!&[`":10451,"KaT":10452,"!!!!!!+[``":10453,"!!!!!!!,]":10454,"!!!!!!!!!!!!!!!\";":10455,"%!!/":10456,"!!!!!!-[":10457,"&!/":10458,"!!!!!!!!!!.[`":10459,"!!!!!!,_":10460,"!!!!!!!!!!!,[``":10461,"!!!!!!/[``":10462,"!!!!!!!!!!!!!-[":10463,"!!!!!!!!!!!!!-_":10464,"!!!!!!!!!!!!!!']`":10465,"!!!!!!!!!!!!!!(\\`":10466,"!!!!!-_`":10467,"!!!!!-\\`":10468,"!!!!!!!!!!!!!!+]``":10469,"!!!!!!!!!!!!!!)^":10470,"!!!!!!!!!!!!!!)^`":10471,"!!!!!!!!!!!!!.\\":10472,"!!!!!!!!!!!!!.]":10473,"```=!!!!!!!!!!!!!!!":10474,"!!!!!!!!!!!!!!!'[`":10475,"!!!!!!!!!!!!!!*\\`":10476,"!!!!!,````":10477,"!!!!!!!!!=_":10478,"!!!!!!!!!=`_":10479,"!!!!!!!!=`_":10480,"!!!!(```":10481,"!!!!([`":10482,"!!!!!!!!!!!!!!!!!!!!!.":10483,"!!!!!!!=`````":10484,"!!!!!!!!!!!!!!!-\\":10485,"!!!!!!!:`````":10486,"!!!!!!!:``````":10487,"ZaF":10488,"!!!!!!!!;```````":10489,"!!!!!!!!!;`_":10490,"!!!!!!!!!;``````":10491,"!!!!*]`":10492,".!!!(":10493,"!!!!!!!!?`]":10494,"!!!!!!!!!?^":10495,"!!!!+```":10496,"!!!([":10497,"PaaaaaaaaaaaaA":10498,")!,":10499,"_``````````^":10500,"!!!!!!!!!!!!!<_`":10501,"aZE":10502,"!!!!!!!!!!!!!!!!-]":10503,"!!!!!!!!!!<``````":10504,"!!!!,[``":10505,"!!'`":10506,"\\``````[":10507,"```````````````_":10508,"!!!!!!!!!!!?`````":10509,"!!!!!!!!!!>``````":10510,"!!!!!!!!!!!!<_":10511,"__`_@!!!!!!!!!!":10512,"!!!!!!!!!!!!!!!!/^`":10513,"!!*`":10514,"!!!!!!!!!!!!!@``@!!!!!!!!!!!":10515,"PPPT":10516,"APaaaaaaaA":10517,"!!!!!!!!!!!!!!!!!!&`":10518,"GQG":10519,"!!!!!!!!!!!!!!!!!!(`":10520,">>>>>>>":10521,"9999999":10522,"TTTTTT":10523,"!!!!!!!!!!!!!!!!@__":10524,"%%%%%%":10525,"555555":10526,".-.":10527,"!!!!!!!!!!!!!!:``!!!!!!!!!!!":10528,"#\"!!!!!!!!!!!!":10529,"%``":10530,"%\"!!!!!!!!!!!!":10531,"&\"!!!!!!!!":10532,"&\"!!!":10533,"'#!!!!!!!!!!":10534,"'\"!!":10535,")#!!!!!!!!!":10536,")!!!!!!!\"":10537,")#!!!!!!!!!!!":10538,")\"!!!!!!!!!!!!":10539,"*\"!!!!!!!!!!":10540,"+((":10541,"+#!!!!!!!!!!!!":10542,",'!!!!!!!!!":10543,"-^``":10544,"-\"!!!!":10545,"/%!!!!!!":10546,"722":10547,":'!!!!!!!!":10548,":&!!!!!!!!!!":10549,":$!!!!!!!!!!!!!":10550,";&&":10551,";$!!!!!!!!!!!!":10552,"<[```":10553,"<+!!!!!!!!!!":10554,"<**":10555,"='!!!!!!!!!!":10556,"=-!!!!!!!!":10557,"=(!":10558,"=!!!/":10559,">//":10560,">'!!!!!!!!!!":10561,"?``]":10562,"@$!!!!!!!!!":10563,"@%!!!!!":10564,"CPC":10565,"DaaaR":10566,"HCC":10567,"JaG":10568,"MDD":10569,"QAA":10570,"QFFF":10571,"RKY":10572,"SRR":10573,"SaV":10574,"YPP":10575,"ZNN":10576,"ZLL":10577,"[$!!!!":10578,"[)!!!!!!!":10579,"[&!!!!!":10580,"[&!!!!!!!!!!!!":10581,"[```````[":10582,"\\\\`":10583,"\\$!!!!!!!!!":10584,"\\*!!!!!!":10585,"\\,!!!!!!!!":10586,"\\'!!!":10587,"\\=!!!!!!!!!":10588,"]!!":10589,"]*!!!!!!":10590,"].!!!!!!!":10591,"]/!!!!!!!":10592,"]/!!!!!!!!!!!!":10593,"]:!!!!!!!!":10594,"^&!!!!!!!!!":10595,"^'!!!!!!!!!":10596,"^'!!!!!!!!!!!":10597,"^_`_":10598,"^.!!!!!!":10599,"^+!!!!!!!!!!!!!":10600,"^:!!!!!!!!!":10601,"^?!!!!!!!!!!":10602,"_!!!!!!!!!":10603,"_'!!!!!!!!!":10604,"_*!!!!!!!!":10605,"_(!!!!":10606,"_<!!!!!!!!!":10607,"_.!!!!!!!!!!!!!":10608,"_?!!!!!!!!!!":10609,"_@!!!!!!!!!!!":10610,"`!!!!!!!!!!!!!!!!!":10611,"`\"!!!!":10612,"`(!!":10613,"`%!!!!!!!!!!!!!":10614,"`,!!!!!!!!!!!!!!!!":10615,"!!\\":10616,"!!```":10617,"!!!!_":10618,"!!!!````````````````":10619,"!!!!!!!!!!!!!!!!!!!!!!!\"":10620,"````&!!!!!!!!!":10621,"````$!!!!":10622,"````-!!!!!!!!":10623,"````]]":10624,"````/!!!!!!!":10625,"````*!!!!!":10626,"````\\\\":10627,"!!!!!!!!!^":10628,"!!!!!!!!!``````````":10629,"!!!!!!!!!!--":10630,"```!!!!!!!!!!!!!!!":10631,"```\"!!!!!":10632,"```;!!!!!!!!!!!!!!":10633,"!!!!!`````````":10634,"!!!!!```\\":10635,"!!!!!`````````````":10636,"!!!!!``````````````":10637,"!!!!!`_`":10638,"__``````":10639,"`_%!!!!!!!!!!!":10640,"`_-!!!!":10641,"`_>!!!!!!!!!!":10642,"`_:!!!!!!!!!!!":10643,"`_;!!!!!!!!!!!!":10644,"`````?!!!!!!!!!":10645,"`````=!!!!!!":10646,"!!!!!!!!!!!!!!!!!_":10647,"!!!!!!!!!!!!!!!!!;```":10648,"!!!!!!!!!!!!!!!!!>```":10649,"``````!!!!!":10650,"`^$!!!!!!!!!!":10651,"`^(!!!!!":10652,"`^?!!!!!!!!!":10653,"]`;!!!!!!!!":10654,"!!!!!!!!!!!!!!!!!!\\`":10655,"!!!!!!!!!!!!!!!!!!,``":10656,"```````!!!!":10657,"`])":10658,"`]%!!!!!!!":10659,"`]:!!!!!!!!":10660,"`]-!!!!!!!!!!!!!":10661,"`].!!!!!!!!!!!!!":10662,"`[/":10663,"`[(!!!":10664,"`['!!!!!!!!!!!!":10665,"`[,!!!":10666,"`\\*":10667,"`\\%!!!!!!!!!!!!!":10668,"`\\/!!!!!!!!!!!!!":10669,"``^+!!!!!!!!!":10670,"``^-!!!!!!!!!!":10671,"``^,!!!!!!!!!!":10672,"``^.!!!!!!!!!!":10673,"``]+!!!!":10674,"!!!!!!!!!!!!!!!!!!!>``":10675,"AAV":10676,"AAPaa":10677,"AAAaaa":10678,"AAAP":10679,"______`__":10680,"``[&!!!!!!!":10681,"``[)!!!!!!!":10682,"``[*!!!!!!":10683,"``[-!!!!!!!!!!!":10684,"``[/!!!!!":10685,"``\\%!!!!!!!":10686,"``\\-!!!!!!!":10687,"``\\/!!!!!!!!":10688,"``\\+!!!!!!!!!!!":10689,"``\\.!!!!!!!!!!!":10690,"\"!!!!!!!!&":10691,"#!!!!!!!!#":10692,"!!!!!!!!!!\"$":10693,"\"!!!!!!!'":10694,"!!!!!!!!!\"\"":10695,"#!!!!!!'":10696,"!!!!!!!!#'":10697,"!!!!!!!!!!#$":10698,"!!!!!!!!!!!\"```":10699,"!!!!!!!#+":10700,"%!!!!!!!$":10701,"!!!!!!!!%]":10702,"!!!!!!!!&@":10703,"!!!!!!!!!!!#``":10704,"!!!!!!!!!$,":10705,"!!!!!!!!!!$*":10706,"!!!!!!!!!!!!!!!!!!!!:":10707,"!!!!!!!!!%\\``":10708,"!!!!!!!%^`":10709,"!!!!!!!!!!!!\"\"":10710,"$!!!!!.":10711,"DDI":10712,"!!!!!!!!!!%.":10713,"!!!!!\",":10714,"!!!!!!!!'[":10715,"!!!!!!!!!!!$[":10716,"!!!!!!!!!!!$[`":10717,"PPV":10718,"!!!!!!!!!(^":10719,"!!!!!!!!!']``":10720,"!!!!!!!!!!!%^`":10721,"[[_`":10722,"GGX":10723,"(!!!!!!&":10724,"!!!!!!!!!!(\\":10725,"!!!!!!%/":10726,"!!!!!!!!!!!&]":10727,"!!!!!!!!!!!&]`":10728,"```[!!!!!!!!!!!":10729,"```]<":10730,"```]!!!!!!!!":10731,"```]!!!!!!!!!":10732,"```]\\\\":10733,"BBA":10734,"BBU":10735,"!!!!!!!*=":10736,"!!!!!!!*\\``":10737,"!!!!!!!!!)[":10738,"`____!!!!!!!!":10739,"!!!!!!!!!!!!$@":10740,"!!!!!!!!!!!!$\\":10741,"!!!!!!!!!!!!$]`":10742,"!!!!!!!!!!!!!\"$":10743,"!!!!!!!!)[``":10744,"!!!!!!!!!!!!'@":10745,"!!!!!!!!+?":10746,"!!!!!!!!+[```":10747,"!!!!!!!!!!!'[":10748,"HHQ":10749,")!!!!!!)":10750,"!!!!!!!!!!!!&[``":10751,"!!!!!!!!!,````":10752,"!!!!!!!!!,`_":10753,"`__`":10754,"!!!!!!'=":10755,"MMS":10756,"MMV":10757,"!!!!!!!!!!+]``":10758,"aYA":10759,"'!!!!!+":10760,"^^_``":10761,"!!!!!!!!!!!*__`_":10762,"!!!!!!!!!!!+_":10763,"!!!!!!!!!!!+[``":10764,"!!!!!!!!!!!+```!!!!!!!!!!!!!":10765,"!!!!!!*_":10766,"&!!!-":10767,"!!!!!!!!!!!!!%```":10768,"!!!!!!!!!!!!!%\\`":10769,"!!!!!!!!!!!!+_`":10770,"!!!!!!!!!!!!+\\`":10771,")!!!!!'":10772,"!!!!!!!!!!!)>":10773,"!!!!!!!!!!!)^`":10774,"!!!!!!!!!!!!!!\".":10775,"!!!!!!!!!!!!!!\">":10776,"%!!!-":10777,"!!!!!!!!!!!!!!#*":10778,"!!!!!!!!!!!!-^``":10779,"!!!!!!!!!!!!!+\\`":10780,"!!!!!!!!!!!!*^``":10781,"!!!!!!!!!!!!*__`_)!!!!!!!!!!":10782,"!!!!!!!!!!,\\``":10783,"___`^":10784,"___`___`_":10785,"!!!!!!!/\\``":10786,"!!!!!!)\\":10787,"!!!!!!)_`":10788,"!!!!!!!!!!/`````":10789,"338":10790,"!!!!!&^`":10791,"!!\">":10792,"!!!!!!!!!!!!)\\``":10793,"KaF":10794,"!!!!!!!!!!!!!'?":10795,"!!!!!!-[``":10796,"*!!!!&":10797,"*!!!!(":10798,"!!!!!*^`":10799,"!!!!!!!!!!!!!-`:!!!!!!!!!!!!":10800,"-!!!!%":10801,"!!!\">":10802,"(!.":10803,"!!!!!!!!!!!!!!(=":10804,"+!!!+":10805,"!!!!!!!!!!!!!*```":10806,"!!!!!!.]":10807,"!!!!!!.^":10808,"!!!!!!.^`":10809,"!!!!!!!!!!!!!/^`":10810,"!!!!!!!!!!!!!!!%[":10811,"!!!!!!!!!!!!!!!&\\`":10812,"!!!!!!!!!!!!!!-]":10813,")!!!,":10814,"!!!!!!!!!!!!!!)[`":10815,"!!!!!!!!!!!!!!)``?!!!!!!!!!!":10816,"!!!!!!!!!!!!!,_`":10817,"!!!!!!!!!!!!!,\\``":10818,"!!!!!/_":10819,"!!!!!!!!!!!!!!!([":10820,"*!!-":10821,"+!!(":10822,"!!!!([":10823,"!!!!!!!=`^":10824,")!!.":10825,"!!!!!!!:_`":10826,"!!!!!!!!;`^":10827,"!!!!!!!!!!!!!!,\\``":10828,"AaaaaaaaaaaaaaP":10829,"!!!!!!!!!!!=`_":10830,"!!!!!.]`":10831,"!!!!!!:_`":10832,"!!!!!!!!!!!!!!!)]`":10833,"!!!!!!!!!?``````":10834,"!!!!!!!!!?```````":10835,"!!!!-^`":10836,"]````````\\":10837,"]``````````_":10838,"!!!!!!!!<_`_":10839,")!)":10840,"!!!!!!!!!!!!!!!,]`":10841,"!!!!!!!!!>````````":10842,"!!!!!!!!!!!!!<````":10843,"!!!'``":10844,"!!!!!!!!!!!!!!!!+]":10845,"!!!!!!!!!!!!!!!!-[":10846,"!!!!,^`":10847,"!!!!!!!!!!!!!!!!)[`":10848,"!!'``":10849,"!!!!!!!!>_`":10850,"!!!!!!!!!!!?_``":10851,"!!!!!!!!!!!<``````":10852,"[``````````^":10853,"!!!!!!!!!!@``````":10854,"!!!!!!!!!!!>_":10855,"!*``":10856,"RYD":10857,"66666666":10858,"!!!!!!!!!!!!!:```":10859,"aaaaaaaK":10860,"APaaaaaa":10861,"!!!!!!!!!!!!!<``,!!!!!!!!!!!":10862,"\"\"\"\"\"\"":10863,"AaaaaaPA":10864,"LLLLLL":10865,"!!!!!!!!!!!!!!!]``.!!!!!!!!!":10866,"!-`":10867,"\"\"!!!!!!!!":10868,"%[`":10869,"&!!!!!!!\"":10870,"&\"!!!!!!!!!!!":10871,"&\"!!!!!!!!!!!!":10872,"&\"!!!!!!!!!!!!!":10873,"'#!!!!!!!!!":10874,"(#!!!!!!":10875,"(!!!!!!!!#":10876,"(#!!!!!!!!!!!!":10877,")\"!!!!":10878,"*$!!!!!!!!!!":10879,"*\"!!!!!!!!!!!!":10880,"*!!!!!%":10881,"+\\":10882,"+\"!":10883,"+&&":10884,"+\"!!!!!!!!!!!!!":10885,",_`":10886,",%!!!!!!!":10887,".#!!!!!!!!!!":10888,".\"!!!!":10889,".!!!!!!$":10890,".''":10891,".\"!!!!!!!!!!!!!":10892,"/#!!!!":10893,"399":10894,"733":10895,":`^":10896,":#!!!!":10897,":#!!!!!!!!!!!!!":10898,":&!!":10899,"<`_":10900,"<&!!!!!!":10901,"<//":10902,"<+!!!!!!!!!!!":10903,"<,!!!!!!!":10904,"<%%":10905,"<,!!!!!!!!!!!!":10906,"<%!!!!!!!!!!!!!":10907,"=`^":10908,"=``_":10909,"=((":10910,"=!!!!(":10911,">`]":10912,">_```":10913,">*!!!!!!!!":10914,">)!!!!!!!!!!":10915,">\"!!!!!!!!!!!!!":10916,">%!!!!!!!!!!!!":10917,">$!!!!!!!!!!!!!":10918,"?(!!!!!!!!":10919,"?$!!!!!!!!!!!":10920,"?)!!!!!!!!!!!!":10921,"@$":10922,"@$!!!!!!!!":10923,"@&!!!!!!!!":10924,"@[```":10925,"@\"!!!!!!!!!!!!":10926,"@#!!!!!!!!!!!!":10927,"AQQ":10928,"BGQ":10929,"CPP":10930,"DUU":10931,"DaaaY":10932,"FUU":10933,"IaF":10934,"JRR":10935,"KRR":10936,"LEE":10937,"RZZ":10938,"RKKKK":10939,"SCC":10940,"VDDD":10941,"WaF":10942,"XZZ":10943,"XUU":10944,"XWWW":10945,"YaaaR":10946,"ZWWW":10947,"[[``":10948,"[$!!!!!!":10949,"[\\```":10950,"[)!!!!!!!!!":10951,"[&!!!!":10952,"\\$!!!!!!!!!!!":10953,"\\&!!!!":10954,"\\.!!!!!!!":10955,"\\_````":10956,"\\*!!!!!!!!!!!":10957,"\\/!!!!!":10958,"]%!!!!!!!":10959,"]]```":10960,"],!!!!":10961,"]'!!!!!!!!!!!!":10962,"^.":10963,"^%!!!!!!!!!":10964,"^%!!!!!!!!!!":10965,"^,!!!!":10966,"^.!!!!!":10967,"^-!!!":10968,"_(!!!!!!!!":10969,"_,!!!!":10970,"_.!!!!!!!!!!!!":10971,"_;!!!!!!!":10972,"_@!!!!!!!!":10973,"_@!!!!!!!!!!!!":10974,"!!!!^":10975,"!!!!@```":10976,"!!!!!!!!\\```":10977,"!!!!!!!!!!!!!!!![``":10978,"!!!!!!!!!!!!!!!!!!!!!!*":10979,"!!!\\":10980,"````!!!!!!!!!!!!!!":10981,"````$!!!!!!!!!":10982,"````$!!!!!":10983,"````&!!!!!!!!!!":10984,"````,!!!!!!!":10985,"````/!!!!!":10986,"````,!!!!!!":10987,"````;!!!!!!!!!!!!":10988,"````=!!!!":10989,"````?!!!!!":10990,"!!!!!!!``````":10991,"```!":10992,"```-":10993,"```%!!!!!!!":10994,"```[[":10995,"```$!!!!!!!!!!!!":10996,"```/!!!!!!!!!!!!!!":10997,"!!!!!!!!!!!!!!!`__":10998,"`_&!!!!!!!!":10999,"`_<!!!!!!!!!!":11000,"`_=!!!!!!!!!!!":11001,"`_;!!!!!!!!!!!!!!":11002,"aaaaaaD":11003,"`````__":11004,"`````+!!!!!!!!!":11005,"`````)!!!!!!!!":11006,"!!!!!!!!!!!!!!!!!\\":11007,"!!!!!!!!!!!!!!!!!``:!!!!!!!!":11008,"_`+!!!!!!":11009,"_`>!!!!!!!!!!":11010,"``````!!!":11011,"``````=!!!!!!!!!":11012,"``````=!!!!!!!!!!":11013,"`^!!":11014,"`^&!!!!":11015,"`^'!!!!!!!!!!!!":11016,"`^-!!!":11017,"`^+!!!!!!!!!!!!!!!":11018,"`^-!!!!!!!!!!!!!!!":11019,"^`+!!!!!!":11020,"^`?!!!!!!!!!":11021,"]`<!!!!!!!!":11022,"[`?!!!!!!!":11023,"`]!!":11024,"`]/!!!!!":11025,"`]'!!!!!!!!!!!!":11026,"`])!!!":11027,"`]+!!!!!!!!!!!!!!":11028,"`])!!!!!!!!!!!!!!":11029,"`[$!!!!":11030,"`[/!!!!!!":11031,"`[+!!!!":11032,"`[*!!!":11033,"`[,!!":11034,"`[*!!!!!!!!!!!!!!":11035,"`[,!":11036,"`[,!!!!!!!!!!!!!!!":11037,"\\`;!!!!!!!!":11038,"\\`>!!!!!!!":11039,"`\\_":11040,"`\\%!!!!!!!!!!!!":11041,"`\\/!!!!!!!!!!!!":11042,"`\\'!!!!!!!!!!!!!":11043,"`\\%!!!!!!!!!!!!!!!":11044,"``^'!!!!!!!!!!!":11045,"``^/!!!!!!!!":11046,"``^/!!!!!":11047,"``^+!!!!!!!!!!!!":11048,"]``!!!!!!!!":11049,"``](!!!!!!!":11050,"``])!!!!!!!!!!":11051,"``].!!!!!!!!!!!":11052,"``]-!!!!!!!!!!!!":11053,"_``=!!!!!!!!!":11054,"_``?!!!!!!!!!":11055,"_``>!!!!!!!!!":11056,"!!!!!!!!!!!!!!!!!!!?``":11057,"!!!!!!!!!!!!!!!!!!!/`":11058,"``['!!!!!!":11059,"``[%!!!!!!!!!!!":11060,"``[)!!!!!!!!":11061,"``['!!!!!":11062,"``_;!!!!!!!":11063,"``\\&!!!!!!!!!":11064,"``\\(!!!!!!!!!!":11065,"``\\+!!!!!!!!":11066,"``\\*!!!!!!!!!":11067,"``\\*!!!!!":11068,"``\\-!!!!!":11069,"`````````!!":11070,"\"!!!!!!!!'":11071,"!!!!!!!\"[`":11072,"\"!!!!!!!)":11073,"!!!!!!!!\"`":11074,"KKU":11075,"!!!!!!!!#[`":11076,"!!!!!!!!!!#+":11077,"!!!!!!!!!!!\"\"\"":11078,"!!!!!!!#:":11079,"!!!!!!!#>":11080,"```^!!!!!!!":11081,"$!!!!!!*":11082,"%!!!!!!!!$":11083,"!!!!!!!!%\\``":11084,"!!!!!!!!!!!#.":11085,"`_`_!!!!!!!!!!":11086,"!!!!!!!!!$-":11087,"!!!!!!!!!!$+":11088,"!!!!!!#'":11089,"!!!!!!!!!%,":11090,"!!!!!!!!!!!!\"'":11091,"!!!!!!!$?":11092,"$!!!!!,":11093,"%!!!!!!)":11094,"IIC":11095,"FFS":11096,"``:!!!!!!!!!!!!!!!!!":11097,"EEC":11098,"PPE":11099,"!!!!!!!!!(`````":11100,"!!!!!!!!!(^``":11101,"!!!!!!!!(\\":11102,"!!!!!!!!!!!!#<":11103,"!!!!!!!!!!!%%":11104,"!!!!!!!&]`":11105,"SSN":11106,"SSSI":11107,"(!!!!!!/":11108,"!!!!!!%[":11109,":``!!!!!!!!!":11110,"!!!!!#[`":11111,"```]\\":11112,"BBV":11113,"!!!!!!!!!!!!%/":11114,"!!!!!!!!!!!!$?":11115,"#!!!-":11116,"!!!!!!!!!!!!!\",":11117,"!!!!!!!!!!!!!\"[`":11118,"!!!!!!!!);":11119,"!!!!!!!!)\\":11120,"!!!!!!!!)\\``":11121,"--!!!!!!!":11122,"!!!!!!!!!!!!'````'!!!!!!!!!!":11123,"!!!!!!!!!!!!!#'":11124,"!!!!!!!!!!*[":11125,"!!!!!!!!!!*[``":11126,"!!!!!!!!!!!'\\":11127,"```\\!!!!!!!!!":11128,"!!!!!!!!*]``":11129,"HHO":11130,"HHY":11131,"!!!!!!!!!!!(>":11132,"!!!!!!!!!!!(^":11133,"!!!!!!!!!!!!&[":11134,"!!!!!!!!-[":11135,"VVC":11136,"VVX":11137,"_`_!!!!!!!!!":11138,"_`_)!!!!!!":11139,"!!!!!!!!!!!*@":11140,"!!!!!!!-^``":11141,"PaaaaaaaPA":11142,"!!!!!!!);":11143,"!!!!!!!)\\``":11144,"!!!!!!(^`":11145,"!!!!!%<":11146,"!!!!!!!!!!!!!(```!!!!!!!!!!!":11147,"!!!!!!*[``":11148,"!!!!!!*__`_":11149,"!!!!!!!+\\":11150,"!!!!!!!!/]":11151,"!!!!!!!!!!!!!$```":11152,"!!!!!!!!,\\":11153,"!!!!!!!!,````":11154,"NNP":11155,"%%*":11156,"!!!!!!!!!!!!-[``":11157,"!!!!!!!!!!!!!+=":11158,"!!!!!!!!!!!!!+>":11159,"!!!!!!!!!!!!*]":11160,"!!!!!!!!!!,@":11161,"!!!!!!!/`````":11162,"!!!!!!!!.[":11163,"$!/":11164,"'!!!,":11165,"!!!!!!!!!!!!!!$``.!!!!!!!!!!":11166,"!!!!!!!!!!!!)=":11167,"!!!!!!!!!!!!!&>":11168,"!!!!!!!!!!!!!&\\":11169,"!!!!!(]":11170,"/!!!!$":11171,"!!!!!!!!!!!!!'[`":11172,"!!!!!!!.]`":11173,"!!!!!!!,]``":11174,"!!!!!!!!!!!!!!!\"``":11175,"!!!!!!!!!!!!/\\`":11176,"+!!!!$":11177,"!!!!!!-^``":11178,"!!!!!!!!!!!/\\`":11179,"!!!!!!!!!!!/\\``":11180,"!!!!!*\\`":11181,"!!!!!!/^":11182,"!!!!!!!!!!!!!-[``":11183,"-!!!!'":11184,"^_\\":11185,"^_^":11186,"!!!!!!!!!!!!!!&[":11187,"(!-":11188,"!!!!!!!!!!!!,]``":11189,"!!!!!!!!!!!!,^``":11190,"!!!!!!!!!!!!!!!$\\`":11191,"!!!!!!!!!!!.]`":11192,"!!!!!!.[`":11193,"!!!!!!!!!!!!!/^":11194,"!!!!!!!!!!!!!/\\`":11195,"!!!!!!!!!!!!!!!&```":11196,"!!!!!!!!!!!!!!!&``/!!!!!!!!!":11197,"!!!!!!!!!!!!!!-\\`":11198,"!!!!!!!!!!!!!!-\\``":11199,"!!!!!!!!!!!!!!)]":11200,"!!!!!!!!!!!!!.[`":11201,"!!!!!!!!!!!!!.`[!!!!!!!!!!!!":11202,"!#/":11203,"!!!!%;":11204,"AaaaPP":11205,"APaaPA":11206,"!!!!!!!!!!!!!!!(]`":11207,",!!!&":11208,"!%`":11209,"!!!!!!!=```````":11210,"!!!!!!!!:`````":11211,"!!!!!!!!:```````":11212,"!!!!!!!!!!!!!!!-]":11213,"!!!!!!!!!!!!!!!*[`":11214,"!!!!!!!:^":11215,"!!!!!!!!!!!!!!.^`":11216,"!!!!!!!!;````````":11217,"!!!!!!!!!!!!!!!+^`":11218,"!!!!!!!!!;```````":11219,"```@!!!":11220,"!!!!!!!!!!!!!!,```":11221,"!!!!!!!!!!!!!!,]`":11222,"!!!!!!!!!!!!!!,[`":11223,"AaaaaaaaaaaaaP":11224,",!!-":11225,"+!-":11226,"+!.":11227,"!!!%`":11228,"!!!!*=":11229,"!!!!!!!!!:_":11230,"!!!!!!!!!!!=^":11231,"PaaPAA":11232,"!!!!!!:````":11233,"!!!!)`":11234,"*!-":11235,"!!!!!!!!!?`_":11236,"!!!!!!!!!?`````":11237,"!!!!-[`":11238,"aVA":11239,"]`````````^":11240,"!!!!!!!!!!?````````":11241,"!!!!!!!;_":11242,"!!!!!!!@_`":11243,"!!!!!!!!!!!!!!!!'```":11244,"^``````````^":11245,"!!!!!!!!<``````":11246,"!!!!!!!!!!!!!!!/\\`":11247,"!!!!!!!!!!!!!!!,[`":11248,"!!!!!!!!!!!!!!!.[`":11249,"!!!!!!!!!!!!=_":11250,"!!!!!!!!!>``````":11251,"!!!!!!!?`^":11252,"!!!!,```":11253,"!!!!!!!!!!!!:^`":11254,"!!!!!!!<````":11255,"!!!!!!!<`^":11256,"!!!!!!>```````":11257,"!!!!!!!>_":11258,"!!!!!!!>`````":11259,"[````````^":11260,"!!!-[`":11261,"!!!!!!!!!!!;````":11262,"AVa":11263,"!!!!!!!!!!!!!!!!/_":11264,"SaQ":11265,"KKKT":11266,"IIIQ":11267,"!!!!!!!!!!!!?_`":11268,"QFA":11269,"PPPV":11270,"APaaaaaaP":11271,"`____`____`__":11272,"aMD":11273,"///////":11274,"!!!!!!!!!!!!!!!!!!(``":11275,"!.``":11276,"!!!!!!!!!!!!!!!!!!)``":11277,"!!!!!!!!!!!!![`!!!!!!!!!!!!!":11278,"???????":11279,"aaaaaaPA":11280,"!!!!!!!!!!!!+``-!!!!!!!!!!!!":11281,"QQQQQ":11282,"!!!!!!!!!!!!!!/``%!!!!!!!!!!":11283,"RaaaaK":11284,"!!!!!!!!!!!!!!!!:``!!!!!!!!!":11285,"JJJJJJ":11286,"!!!!!!!!!!!!;```#!!!!!!!!!!!":11287,"#\"!!!!!!!!!":11288,"#\"!!!!":11289,"$!!!!!!!!\"":11290,"'[`":11291,"(]":11292,"(#!!!!!!!":11293,"(%!!!!!!!!":11294,")\"!!!!!":11295,")$!!!!!!!!":11296,")!!!!!!!#":11297,"*!!!!!!!\"":11298,"+!!!!!!&":11299,"+$!!!!!!!!!!!!!":11300,",$!!!!!!":11301,",#!!!!!!!!!!!!":11302,"-\"!!!!!!!!!":11303,".#!!!!!!!!!!!":11304,".#!!":11305,"/&!!!!!!!":11306,"/#!!!!!":11307,"/#!":11308,"688":11309,"811":11310,":#!!!!!!":11311,":$!!!!!":11312,";``````":11313,";#!!!!!!!!!!":11314,";(!!!!!!!!!":11315,";&!!!!!!!!!!":11316,";$!!!!!!!!!!!!!":11317,"<#!!!!!!!!!!!":11318,"<\"!!":11319,"<$!!!":11320,"<,!!!!!!!!!!!":11321,"<\"!!!!!!!!!!!!!!":11322,"='!!!!!!!!!":11323,"='!!!!!!":11324,"=*!!!!!!!":11325,"=-!!!!!!!!!":11326,"=)!!!!!!!!!":11327,"=+!!!!!!!!!!!":11328,"=*!!!!!":11329,"=+!!!!!!!!!!!!":11330,">#!!!!!!!!!!!":11331,">\"!!!":11332,">&!!!!!":11333,">&&":11334,">,!!!!!!":11335,"?'!!!!!!!!!!!":11336,"?+!!!":11337,"@!!!!!!!!!!!!!!!!!":11338,"@``_":11339,"@+!!!!!!!!!!!":11340,"@)!!!!!!!!!!!":11341,"@^_":11342,"@'!!!!!!!!!!!!!":11343,"CWW":11344,"DWW":11345,"DaaaD":11346,"ERR":11347,"FQQ":11348,"HaL":11349,"IYY":11350,"MaZ":11351,"NaV":11352,"OEE":11353,"RWW":11354,"TaN":11355,"Vaa":11356,"VOO":11357,"XLL":11358,"YMM":11359,"Yaaaaaa":11360,"[$!!!!!":11361,"['!!!!!!!!!!!":11362,"[.!!!!!!!":11363,"[)!!!!!":11364,"[(!!!":11365,"[%!!!!!!!!!!!!":11366,"['!!!!!!!!!!!!!":11367,"[+!!!!!!!!!!!!!":11368,"\\]```":11369,"\\+!!!!!!!":11370,"\\,!!!!!!!":11371,"\\.!!!!!!!!!!":11372,"\\-!!!!!!!!!!!!!":11373,"]/":11374,"]$!!!!!!!!":11375,"]%!!!!!!!!":11376,"]&!!!!!!":11377,"]+!!":11378,"]&!!!!!!!!!!!!!!":11379,"^(!!!!!!!!!!!":11380,"^)!!!!!!!!!!!":11381,"^*!!!!!!!!!!!!":11382,"^-!!!!!!!!!!!!!!":11383,"_]]":11384,"_<!!!!!!!!!!":11385,"`#!!!!!!!!!!!!!!":11386,"!!!!^``":11387,"!!!!``_":11388,"!!!!```````````":11389,"!!!!!!!!`_":11390,"!!!!!!!!`````":11391,"``#":11392,"``.!!!!!!!!!!!!!!!":11393,"!!!!!!!!!!!!!!!!!!!!!!!$":11394,"!!!!!!!!!!!!!!!!!!!!!!,":11395,"!!!!!!!!!!!!!!!!!!!!!!/":11396,"!!![":11397,"!!!`````":11398,"!!!.`":11399,"````:!!!!!!!!!!!!":11400,"!!!!!!!!!]```":11401,"!!!!!!!`_`":11402,"!!!!!!!!!!````````":11403,"!!!!!!!!!!!++":11404,"```]`":11405,"```\"!!!!!!":11406,"```#!!!!!!":11407,"```*!!!!":11408,"```+!!!!!!!!!!!!!":11409,"```.!!!!!!!!!!!!!":11410,"!!!!!`[":11411,"!!!!!```[":11412,"__!!!!!!!!!!!!!":11413,"__`[":11414,"__`@":11415,"__(!!!!!":11416,"188":11417,"````````=!!!!!!!!":11418,"`_-!!!!!":11419,"`_<!!!!!!!!!!!":11420,"`_>!!!!!!":11421,"aaaaaaR":11422,"`````!!!!!!!!!!":11423,"`````*!!!!!!!":11424,"`````<!!!!!!!":11425,"`````@!!!!!!!!":11426,"`````@!!!!!!!!!!!":11427,"!!!!!!!!!!!!!!!!![":11428,"_`:":11429,"_`!!!!!!!!!":11430,"_`<!!!!!!!":11431,"``````!!!!!!!!":11432,"``````_]":11433,"``````:!!!!!!!!!!":11434,"``````>!!!!!!!!":11435,"``````@!!!!!!!!!":11436,"`^'!!!!!!":11437,"`^&!!!!!":11438,"`^,!!!":11439,"`^*!!!!!!!!!!!!!":11440,"`^:!!!!!!!!!!":11441,"`^.!!!":11442,"^`@!!!!!!!!":11443,"[`=!!!!!!!!":11444,"`]/":11445,"`]#!!!!!!!!!":11446,"`]&!!!!!!!!!!!!":11447,"`]-!!!!!!!!!!!!!!":11448,"`]+!!!!!!!!!!!!!!!":11449,"`[&":11450,"`[\"!!!!!!":11451,"`[\"!!!!!!!":11452,"`[%!!!!!!!!!!!!":11453,"`[.!!!!!!!!!!!!":11454,"`[.!!!!!":11455,"`\\.":11456,"`\\*!!!":11457,"`\\(!!!!!!!!!!!!!":11458,"`\\/!!!":11459,"``^^":11460,"``^'!!!!!!!":11461,"``^,!!!!!!!!":11462,"``^]]":11463,"``^.!!!!!!!!!":11464,"``^.!!!!!!!!!!!":11465,"``^?!!!!!!":11466,"]``!!!!!!!!!":11467,"]``&!!!!!!!":11468,"``]^`":11469,"``](!!!!!":11470,"``]+!!!!!!!!!!":11471,"``].!!!!!!!!!!":11472,"``]-!!!!!":11473,"``].!!!!!!!!!!!!":11474,"!!!!!!!!!!!!!!!!!!!-``":11475,"AAZ":11476,"AAPaaA":11477,"AAaaaaaa":11478,"``[/":11479,"``[[":11480,"``[$!!!!!!!!!!!":11481,"``['!!!!!!!!!":11482,"``[,!!!!!!!":11483,"``[.!!!!!!!!!":11484,"``[,!!!!!!!!!!!":11485,"``[,!!!!!!":11486,"``[,!!!!!":11487,"``[+!!!!!":11488,"``[-!!!!":11489,"``_)!!!!!!!!":11490,"``_;!!!!!!":11491,"``_>!!!!!!!!!!!":11492,"``\\<":11493,"``\\-!!!!!!!!!!":11494,"`````````!!!!":11495,"aaaaaaaaaaaaaaaA":11496,"aaaaaaaaaaaaaaaaaa":11497,"!!!!!!!!!\"&":11498,"!!!!!!!!!#[":11499,"$!!!!!!!'":11500,"!!!!!!!!#,":11501,"!!!!!!!!!!!\"%":11502,"!!!!!!!!!!!\"*":11503,"!!!!!!!#]`":11504,"&!!!!!!!%":11505,"```^!!!!!!!!!!":11506,"!!!!!!\")":11507,"!!!!!!!!$,":11508,"!!!!!!!!&````":11509,"!!!!!!!!&]`":11510,"!!!!!!!!&\\``":11511,"!!!!!!!!!!$,":11512,"!!!!!!#)":11513,"!!!!!!#:":11514,"!!!!!!!!!%(":11515,"!!!!!!!!!&^":11516,"!!!!!!!%,":11517,"!!!!!!!%=":11518,"!!!!!!!%?":11519,"!!!!!!!%]":11520,"!!!!!!!!!!!!\"%":11521,"!!!!!!!!!!!!\")":11522,"%!!!!!!$":11523,"IIU":11524,"FFY":11525,"DDG":11526,"!!!!!\"/":11527,"``?!!!!!!!!!!!!!!!!!":11528,"!!!!!!!!!!&<":11529,"!!!!!!$[`":11530,"!!!!!!!!!',":11531,"#!!!!/":11532,"!!!!!!!!!!!%\\":11533,"(!!!!!!)":11534,"!!!!!!!'````":11535,";``&!!!!!!!":11536,"!!!!!!!!!!(^":11537,"!!!!!!%=":11538,"!!!!!!!!!!!&-":11539,"!!!!!!!!!!!&:":11540,"!!!!!!!*__`_":11541,"!!!!!!!!!!!!%?":11542,"!!!!!!!!!!!!%_`":11543,"!!!!!!!!!);":11544,"!!!!!!!!!)<":11545,"!!!!!!!!!)>":11546,"\"!!/":11547,"!!!!!!!!!!!!!\"*":11548,"!!!!!!!(=":11549,"*!!!!!!*":11550,"!!!!!!!!!!!!'[":11551,"!!!!!!!!+^``":11552,"!!!!!!!!!!!!!#,":11553,"!!!!!!!!!*?":11554,"!!!!!!!!!*`````":11555,"!!!!!!!!!*_`":11556,"!!!!!!!!!!*@":11557,"!!!!!!!!!!!'^`":11558,"!!!!!!!!*`_":11559,"!!!!!!!!*_`":11560,"HHR":11561,"HHT":11562,"!!!!!!!!!!!(-":11563,"992":11564,"!!!!!$:":11565,"!!!!!$=":11566,"VVE":11567,"++.":11568,"++=":11569,"!!!!!!!!!,_`":11570,"!!!!!!!!!,]``":11571,"`__\\":11572,"**/":11573,"!!!!!!'````":11574,"MMX":11575,"!!!!!!!!!!+[```":11576,"XXXY":11577,"^^^^^":11578,"!!!!!!(\\":11579,"!!!!!!(]":11580,"!!!!!!!!!!)[":11581,"!!!!!!!!!!!+[":11582,"!!!!!!!!!-]``":11583,"!!!!!!!!!-\\```":11584,"#!:":11585,"*!!!!!&":11586,"!!!!\"+":11587,"!!!!!!!!!!!!!%:":11588,"!!!!!!!!!!!!+?":11589,"!!!!!!!!!!!!!$-":11590,"!!!!!!!!!!!!!$;":11591,"!!!!!!!!!!!!!$``$!!!!!!!!!!!":11592,"!!!!!!!!!/]":11593,"!!!!!!!!!!!)=":11594,"!!!!!!!!!!!!!!#]`":11595,"QQZ":11596,",!!!!!+":11597,"!!!!!!!!.\\`":11598,"!!!!!!)]":11599,"!!!!!!!!!!!!!!$-":11600,"!!!!!!!!!!!!!&:":11601,"!!!!!!!!!!!!!&]":11602,"!!!!!([":11603,"/!!!!&":11604,"!!!!!!!!!!!!!'@":11605,")!!!!+":11606,"!!!!!!!!!!!!/]``":11607,"(!!.":11608,"!!!!!!!!!!.[``":11609,"*!!!!'":11610,"!!!!!!!!!!!/]":11611,"!!!!!!!!!!!/`````":11612,"!!!!!!!!!!!,[":11613,"!!!!!!!!!!!,]`":11614,"!!!!!!!!!!!!!!%;":11615,"-!!!!(":11616,"!!!!!!!!!!!!!)^`":11617,"!!!!!!!!!!!!!)\\``":11618,"!!!!!!!!!!!!!!!#``":11619,"!!!!!!!!!!!!!!&```":11620,"!!!!!!!!!!!!,]":11621,"!!!!#`":11622,"!!!!!!!!!!!!!*_":11623,"!!!!!!.]``":11624,"!!!!!!!!!!!!!!!%]`":11625,"!!!!!!!!!!!!!!-_":11626,"-!!!)":11627,"!!!!!!!!!!!!!.^":11628,"!!!!!!!!!!!!!!*_`":11629,"!!!!!!!!!!!!.[``":11630,"!!!!!,^":11631,"?```$!!!!!!":11632,"APaaaaaaaa":11633,"!!!!!/\\`":11634,"!!!!!!!!=```````":11635,"!!!!!!!!!!=`````":11636,"!!!!!!!!!!=_`":11637,"!!!!!!!=`_":11638,"!!!!!!!!:`_":11639,"!!!!!!!!:_`":11640,"!!!!!!!!!!!!!!.\\":11641,"!!!!!!!!!!!!!!.[`":11642,"-!!*":11643,"[_``````":11644,"!!!!!!!!!!!!!!!!$`":11645,"!!!!!!!!!!!!!!!+]":11646,"`````_[":11647,"!!!!!!!!!!!=`````":11648,"!!!!!!!!!!;`_":11649,"!!!!!!!!!!;`^":11650,"!!!!!!!!?_`":11651,"!!!!!!!!?`\\":11652,"!!!!!!!!?`````````":11653,"!!$``":11654,"!!!&`":11655,"!!!!!!!!@`^":11656,"!!!!!!!!@``````````":11657,")!-":11658,"_```````````````":11659,"/!'":11660,"!!!!!!!!!>```````":11661,"!!!!!!!!!>`\\":11662,"!!!!!!!!!@``````":11663,"-!*":11664,"!!!!!!!?``]":11665,"!!!!!!!!!!!@`````":11666,"!!!!!!!!>`````":11667,"!!!+[`":11668,"!!!!!!!!!!!<_`":11669,".!!)":11670,"!!!)`":11671,"!!!!!!!!!!!!!!!!,[`":11672,"___`____`____`":11673,"!!!!!!!!!!!!!!:_`":11674,"WVX":11675,"__`___`__":11676,"CCCCCCCC":11677,"!!!!!!!!!!!!!!!!!-[":11678,"!!!!!!!!!!!!!!!!!!'``":11679,"FFFFFFF":11680,"-------":11681,":::::::":11682,"@@@@@@@":11683,"``,!!!!!!!!!!!!!!!!!":11684,"444444":11685,"YaaaaK":11686,"!!!!!!!!!!!!(````(!!!!!!!!!!":11687,"\"!!!!!!!!!!!!!!!!!!!!":11688,"#@":11689,"#``":11690,"$`":11691,"$\"!!!!!!!":11692,"&\"!":11693,"'[":11694,"'#!!!!!!!":11695,"(!!!!!!!!!!!!!!!!!!!!":11696,"(\"!!!":11697,"(\"!!!!!!!!!!!!":11698,")\"!":11699,"*!!!!!!\"":11700,"*#!!!!!!!!!!!":11701,"*#!!!!":11702,"*&&":11703,"+]``":11704,"+$!!!!!":11705,"+\"!!!!!!!!!!!!":11706,",\"!!!!":11707,",!!!!!!%":11708,"-!!!!!!\"":11709,"-!!!!!$":11710,".%!!!!!!!":11711,".#!!!!!":11712,".$!!!!!":11713,".\"!!":11714,".!!!!!$":11715,".$!!!!!!!!!!!!":11716,".!!!!!'":11717,".!!(":11718,".!)":11719,"/^``":11720,"/$!!!!!!!":11721,"/%!!!!!!!":11722,"/,,":11723,"/%!!!!!!!!!!!":11724,"/%!!!!!":11725,"/&&":11726,"/%!!!!!!!!!!!!!":11727,"2888":11728,
[...]
