{"version":"1.0","truncation":null,"padding":null,"added_tokens":[{"id":0,"special":true,"content":"</s>","single_word":false,"lstrip":false,"rstrip":false,"normalized":false},{"id":1,"special":true,"content":"<pad>","single_word":false,"lstrip":false,"rstrip":false,"normalized":false}],"normalizer":null,"pre_tokenizer":{"type":"ByteLevel","add_prefix_space":false,"trim_offsets":true},"post_processor":{"type":"ByteLevel","add_prefix_space":true,"trim_offsets":false},"decoder":{"type":"ByteLevel","add_prefix_space":true,"trim_offsets":true},"model":{"dropout":null,"unk_token":null,"continuing_subword_prefix":null,"end_of_word_suffix":null,"fuse_unk":false,"vocab":{"</s>":0,"<pad>":1,"!":2,"\"":3,"#":4,"$":5,"%":6,"&":7,"'":8,"(":9,")":10,"*":11,"+":12,",":13,"-":14,".":15,"/":16,"0":17,"1":18,"2":19,"3":20,"4":21,"5":22,"6":23,"7":24,"8":25,"9":26,":":27,";":28,"<":29,"=":30,">":31,"?":32,"@":33,"A":34,"B":35,"C":36,"D":37,"E":38,"F":39,"G":40,"H":41,"I":42,"J":43,"K":44,"L":45,"M":46,"N":47,"O":48,"P":49,"Q":50,"R":51,"S":52,"T":53,"U":54,"V":55,"W":56,"X":57,"Y":58,"Z":59,"[":60,"\\":61,"]":62,"^":63,"_":64,"`":65,"a":66,"b":67,"c":68,"d":69,"e":70,"f":71,"g":72,"h":73,"i":74,"j":75,"k":76,"l":77,"m":78,"n":79,"o":80,"p":81,"q":82,"r":83,"s":84,"t":85,"u":86,"v":87,"w":88,"x":89,"y":90,"z":91,"{":92,"|":93,"}":94,"~":95,"¡":96,"¢":97,"£":98,"¤":99,"¥":100,"¦":101,"§":102,"¨":103,"©":104,"ª":105,"«":106,"¬":107,"®":108,"¯":109,"°":110,"±":111,"²":112,"³":113,"´":114,"µ":115,"¶":116,"·":117,"¸":118,"¹":119,"º":120,"»":121,"¼":122,"½":123,"¾":124,"¿":125,"À":126,"Á":127,"Â":128,"Ã":129,"Ä":130,"Å":131,"Æ":132,"Ç":133,"È":134,"É":135,"Ê":136,"Ë":137,"Ì":138,"Í":139,"Î":140,"Ï":141,"Ð":142,"Ñ":143,"Ò":144,"Ó":145,"Ô":146,"Õ":147,"Ö":148,"×":149,"Ø":150,"Ù":151,"Ú":152,"Û":153,"Ü":154,"Ý":155,"Þ":156,"ß":157,"à":158,"á":159,"â":160,"ã":161,"ä":162,"å":163,"æ":164,"ç":165,"è":166,"é":167,"ê":168,"ë":169,"ì":170,"í":171,"î":172,"ï":173,"ð":174,"ñ":175,"ò":176,"ó":177,"ô":178,"õ":179,"ö":180,"÷":181,"ø":182,"ù":183,"ú":184,"û":185,"ü":186,"ý":187,"þ":188,"ÿ":189,"Ā":190,"ā":191,"Ă":192,"ă":193,"Ą":194,"ą":195,"Ć":196,"ć":197,"Ĉ":198,"ĉ":199,"Ċ":200,"ċ":201,"Č":202,"č":203,"Ď":204,"ď":205,"Đ":206,"đ":207,"Ē":208,"ē":209,"Ĕ":210,"ĕ":211,"Ė":212,"ė":213,"Ę":214,"ę":215,"Ě":216,"ě":217,"Ĝ":218,"ĝ":219,"Ğ":220,"ğ":221,"Ġ":222,"ġ":223,"Ģ":224,"ģ":225,"Ĥ":226,"ĥ":227,"Ħ":228,"ħ":229,"Ĩ":230,"ĩ":231,"Ī":232,"ī":233,"Ĭ":234,"ĭ":235,"Į":236,"į":237,"İ":238,"ı":239,"Ĳ":240,"ĳ":241,"Ĵ":242,"ĵ":243,"Ķ":244,"ķ":245,"ĸ":246,"Ĺ":247,"ĺ":248,"Ļ":249,"ļ":250,"Ľ":251,"ľ":252,"Ŀ":253,"ŀ":254,"Ł":255,"ł":256,"Ń":257,"ĠT":258,"er":259,"in":260,"ĠA":261,"ĠS":262,"es":263,"ĠC":264,"an":265,"on":266,"or":267,"ĠW":268,"he":269,"ĠB":270,"ĠF":271,"ĠI":272,"ar":273,"ĠM":274,"at":275,"ing":276,"en":277,"ĠP":278,"ĠO":279,"ĠD":280,"ou":281,"ĠH":282,"al":283,"ĠR":284,"it":285,"is":286,"ed":287,"ĠL":288,"ic":289,"ĠTo":290,"ĠG":291,"re":292,"om":293,"ĠThe":294,"il":295,"ĠIn":296,"ĠN":297,"as":298,"el":299,"ĠE":300,"'s":301,"ay":302,"et":303,"ion":304,"ow":305,"le":306,"ĠY":307,"ac":308,"ot":309,"ĠOf":310,"st":311,"ĠSt":312,"id":313,"ol":314,"nd":315,"am":316,"ent":317,"ĠTh":318,"Ġt":319,"ĠYou":320,"Ġ'":321,"ĠRe":322,"ig":323,"ĠTr":324,"um":325,"ur":326,"ut":327,"ĠFor":328,"ve":329,"ers":330,"and":331,"ad":332,"ir":333,"ĠU":334,"est":335,"ĠK":336,"ĠIs":337,"ĠOn":338,"Ġ(":339,"ter":340,"ly":341,"ak":342,"im":343,"ec":344,"ess":345,"oo":346,"ill":347,"ĠJ":348,"ĠPr":349,"ĠV":350,"ĠAnd":351,"us":352,"ith":353,"ĠCh":354,"ĠNe":355,"The":356,"ts":357,"th":358,"ver":359,"ĠBe":360,"ĠSh":361,"op":362,"ump":363,"ĠWh":364,"ch":365,"ĠWith":366,"ge":367,"os":368,"ce":369,"ld":370,"Ġthe":371,"ear":372,"iv":373,"ation":374,"ul":375,"ate":376,"ĠFr":377,"igh":378,"ĠDe":379,"Ġto":380,"if":381,"un":382,"ist":383,"of":384,"OT":385,"PH":386,"ĠYour":387,"ap":388,"OTO":389,"ĠTrump":390,"PHOTO":391,"ack":392,"ie":393,"oc":394,"ab":395,"ĠAn":396,"ĠAt":397,"ip":398,"ee":399,"for":400,"all":401,"out":402,"ia":403,"ĠAb":404,"Ġof":405,"PHOTOS":406,"ain":407,"ies":408,"ĠNew":409,"ĠCon":410,"ays":411,"ĠWor":412,"ĠAl":413,"ost":414,"ct":415,"end":416,"ĠSp":417,"em":418,"Ġand":419,"Wh":420,"ight":421,"Ġ2":422,"ĠCl":423,"ity":424,"mer":425,"ans":426,"ous":427,"ĠHe":428,"ake":429,"ĠSu":430,"'t":431,"âĢ":432,"ĠFrom":433,"ks":434,"ust":435,"ĠCom":436,"ore":437,"ive":438,"av":439,"ĠIt":440,"ĠAbout":441,"ood":442,"ould":443,"ud":444,"ĠEx":445,"ey":446,"ag":447,"ard":448,"ĠAre":449,"her":450,"ĠBr":451,"ast":452,"ob":453,"ant":454,"ĠPar":455,"ĠAs":456,"ĠAf":457,"og":458,"ĠCan":459,"Ġa":460,"ort":461,"ĠPl":462,"ide":463,"od":464,"ĠThat":465,"ĠCr":466,"ind":467,"our":468,"ĠLe":469,"Ġin":470,"ĠWe":471,"ep":472,"ice":473,"ial":474,"ome":475,"ik":476,"How":477,"ian":478,"ĠDr":479,"ect":480,"ĠAr":481,"ere":482,"ĠOut":483,"ĠDon":484,"Ġ1":485,"âĢĻ":486,"ĠBl":487,"Ġ20":488,"ĠSe":489,"Th":490,"ave":491,"ell":492,"ĠAd":493,"ĠMar":494,"Ġfor":495,"ment":496,"ine":497,"ov":498,"ald":499,"ĠDo":500,"pp":501,"ook":502,"gh":503,"ĠGr":504,"ĠNot":505,"ary":506,"ĠAfter":507,"iz":508,"ail":509,"ĠThis":510,"ĠGet":511,"EO":512,"ally":513,"ĠCar":514,"meric":515,"ash":516,"ace":517,"ĠUp":518,"ub":519,"ID":520,"Ġ201":521,"ings":522,"aw":523,"ĠOff":524,"ĠRep":525,"age":526,"ĠWill":527,"ĠUn":528,"ĠDay":529,"ry":530,"ĠMe":531,"IDEO":532,"ĠHer":533,"ress":534,"ĠSc":535,"eek":536,"ĠWom":537,"mp":538,"ove":539,"ong":540,"ass":541,"reat":542,"ue":543,"ions":544,"ĠMore":545,"hen":546,"VIDEO":547,"ound":548,"ton":549,"ick":550,"ĠMy":551,"ĠOver":552,"ib":553,"ild":554,"Tr":555,"ens":556,"ĠHis":557,"ĠWhat":558,"own":559,"ite":560,"ĠDis":561,"ence":562,"ĠTe":563,"per":564,"ons":565,"ff":566,"ĠGo":567,"ure":568,"ents":569,"ĠHow":570,"uc":571,"ife":572,"ĠSays":573,"ĠPol":574,"ĠUs":575,"alth":576,"ike":577,"ew":578,"ĠBy":579,"St":580,"ĠRes":581,"ĠAll":582,"ĠAg":583,"ĠMake":584,"ĠQ":585,"ime":586,"ĠPh":587,"ign":588,"pl":589,"ĠAmeric":590,"ĠWho":591,"oy":592,"ĠShow":593,"art":594,"ĠYear":595,"ond":596,"ors":597,"ĠRec":598,"ĠBest":599,"ra":600,"ame":601,"Why":602,"ber":603,"ĠEn":604,"ele":605,"ĠCol":606,"ĠPe":607,"ĠWeek":608,"oun":609,"ĠMan":610,"ĠEver":611,"ach":612,"ire":613,"ning":614,"ĠHave":615,"ath":616,"bam":617,"ĠTw":618,"one":619,"ĠFl":620,"ĠKid":621,"What":622,"ĠKn":623,"Ġ-":624,"ĠAc":625,"ĠJust":626,"ĠHealth":627,"ĠWorld":628,"ĠThan":629,"app":630,"ance":631,"ting":632,"ĠHas":633,"up":634,"This":635,"ĠFir":636,"ory":637,"ang":638,"ool":639,"ty":640,"..":641,"ĠDonald":642,"ĠInt":643,"ĠOr":644,"ict":645,"ĠWomen":646,"ĠMom":647,"ink":648,"iss":649,"ĠHel":650,"ople":651,"ese":652,"00":653,"oot":654,"ish":655,"Trump":656,"ĠStud":657,"ĠNeed":658,"ĠPer":659,"ĠAct":660,"az":661,"ĠWar":662,"ding":663,"als":664,"ock":665,"ĠLife":666,"amp":667,"ating":668,"Ch":669,"ĠOne":670,"ĠShould":671,"br":672,"ĠWork":673,"ll":674,"ĠPre":675,"ouse":676,"qu":677,"ates":678,"In":679,"ations":680,"are":681,"ĠHelp":682,"ough":683,"ĠLike":684,"ĠGu":685,"akes":686,"ĠQu":687,"bama":688,"au":689,"Ġon":690,"ĠPeople":691,"ĠAtt":692,"ĠPres":693,"able":694,"ĠMay":695,"ner":696,"ĠChild":697,"lic":698,"Don":699,"ĠSur":700,"ĠBack":701,"ise":702,"ĠSec":703,"ident":704,"ĠWas":705,"ips":706,"ĠCould":707,"man":708,"ĠKids":709,"ets":710,"ase":711,"oss":712,"ĠFirst":713,"ĠStr":714,"atch":715,"air":716,"anc":717,"ĠTheir":718,"ich":719,"ĠHol":720,"ĠWhy":721,"its":722,"ĠTime":723,"ĠAgain":724,"other":725,"ri":726,"ĠKnow":727,"ful":728,"ĠPhot":729,"irl":730,"ĠSch":731,"ĠWin":732,"ĠAm":733,"Ġ--":734,"ĠBut":735,"ĠWays":736,"ĠCo":737,"aking":738,"ĠMost":739,"lect":740,"ĠMed":741,"ĠApp":742,"ree":743,"ug":744,"ĠOur":745,"ork":746,"ern":747,"ĠCont":748,"ĠAw":749,"ublic":750,"ants":751,"ĠSex":752,"ĠBre":753,"iving":754,"ĠAcc":755,"ious":756,"act":757,"inton":758,"ĠLove":759,"ĠNo":760,"ren":761,"ĠTal":762,"ĠMon":763,"ĠJo":764,"ical":765,"ĠCall":766,"ives":767,"etter":768,"ĠLaw":769,"amil":770,"ade":771,"ĠThings":772,"urn":773,"ism":774,"ĠStar":775,"ĠEm":776,"ord":777,"ĠFind":778,"ange":779,"orn":780,"ose":781,"ĠSw":782,"ĠEvery":783,"ĠIns":784,"ĠWed":785,"An":786,"OP":787,"Ġ5":788,"ĠImp":789,"itt":790,"ĠDiv":791,"ĠInter":792,"ĠClinton":793,"les":794,"ĠMus":795,"ower":796,"ĠShe":797,"ĠOp":798,"att":799,"rist":800,"ĠEv":801,"ĠSo":802,"10":803,"ina":804,"ĠHome":805,"ĠInto":806,"ĠBig":807,"elf":808,"uss":809,"ĠWhen":810,"ĠFood":811,"ĠFe":812,"ĠPlan":813,"els":814,"ĠHapp":815,"ah":816,"ĠBec":817,"rat":818,"ĠVot":819,"Ġ&":820,"ria":821,"hn":822,"ĠLook":823,"ro":824,"Donald":825,"cer":826,"ĠKill":827,"ĠBlack":828,"ĠPresident":829,"ĠNow":830,"elebr":831,"ĠHouse":832,"ics":833,"ĠDem":834,"oll":835,"ĠChe":836,"ists":837,"old":838,"New":839,"ĠWay":840,"ĠSm":841,"ual":842,"aul":843,"day":844,"ĠSay":845,"ĠDown":846,"pr":847,"ope":848,"ĠFamil":849,"ĠBill":850,"my":851,"Ġ$":852,"ely":853,"ĠSty":854,"augh":855,"iew":856,"Ġ3":857,"ason":858,"ĠSchool":859,"avel":860,"ĠHear":861,"ĠChar":862,"ĠGl":863,"ĠThr":864,"ends":865,"ĠAmerica":866,"ĠSl":867,"ĠUnd":868,"ims":869,"ok":870,"ĠObama":871,"Pr":872,"ĠEnd":873,"ĠComm":874,"ĠâĢ":875,"ĠVide":876,"use":877,"ĠPlay":878,"ĠBan":879,"enn":880,"ĠCare":881,"ax":882,"son":883,"ĠWedding":884,"ĠLead":885,"ĠProt":886,"ĠDoes":887,"se":888,"ĠBab":889,"ĠDec":890,"ĠThey":891,"ĠDes":892,"ĠSer":893,"ĠGood":894,"aut":895,"ĠHar":896,"ĠArt":897,"get":898,"ĠCamp":899,"illary":900,"ount":901,"ĠReal":902,"io":903,"ĠRo":904,"ĠReport":905,"ĠWant":906,"ĠCour":907,"ile":908,"form":909,"ne":910,"ĠFin":911,"land":912,"ĠDef":913,"uff":914,"wn":915,"ĠBus":916,"ĠId":917,"ĠProb":918,"ti":919,"eth":920,"ĠTravel":921,"ities":922,"ĠRem":923,"ights":924,"ott":925,"imate":926,"fect":927,"ĠComp":928,"ĠGirl":929,"ger":930,"ĠWr":931,"orce":932,"ams":933,"ĠAgainst":934,"ric":935,"Ġ10":936,"ther":937,"ĠIm":938,"int":939,"ĠTrans":940,"ale":941,"ashion":942,"ater":943,"ames":944,"ĠRel":945,"ret":946,"ness":947,"ĠMov":948,"ĠChange":949,"ĠStudy":950,"ational":951,"ix":952,"ĠSy":953,"oup":954,"ĠWhite":955,"ney":956,"ĠSk":957,"Here":958,"ĠDeb":959,"ĠUnder":960,"ĠMill":961,"ĠShoot":962,"ĠVideo":963,"iday":964,"ĠElect":965,"ocrat":966,"pect":967,"ĠCelebr":968,"ĠZ":969,"eep":970,"ĠAttack":971,"ather":972,"uring":973,"ĠSupp":974,"ĠHigh":975,"'re":976,"ĠGOP":977,"ĠTips":978,"...":979,"ĠGay":980,"ĠYears":981,"ated":982,"ĠRef":983,"ĠState":984,"co":985,"ĠStill":986,"ĠDead":987,"Re":988,"af":989,"ĠFamily":990,"ĠSand":991,"ĠYork":992,"ition":993,"ox":994,"ĠFace":995,"ĠChrist":996,"ĠReally":997,"Ġat":998,"ĠNews":999,"ĠInv":1000,"ull":1001,"ying":1002,"ĠSee":1003,"iness":1004,"ĠInd":1005,"ĠDeath":1006,"ĠEd":1007,"uck":1008,"und":1009,"ĠRet":1010,"ark":1011,"ĠWoman":1012,"een":1013,"ĠSome":1014,"ĠRecip":1015,"eet":1016,"ĠInc":1017,"riage":1018,"ĠAdv":1019,"ible":1020,"ĠBaby":1021,"err":1022,"ĠSum":1023,"ĠFall":1024,"ĠPart":1025,"ĠShows":1026,"ĠTake":1027,"sc":1028,"ĠMen":1029,"ĠâĢĺ":1030,"leep":1031,"ĠLess":1032,"ĠRun":1033,"ĠSuper":1034,"ĠPo":1035,"view":1036,"orth":1037,"ĠBir":1038,"ody":1039,"ĠDress":1040,"ett":1041,"ms":1042,"enc":1043,"ĠIts":1044,"Sh":1045,"king":1046,"ĠWon":1047,"olut":1048,"ĠConf":1049,"ĠLeg":1050,"ĠSpe":1051,"ĠFashion":1052,"rem":1053,"ĠStyle":1054,"ĠBu":1055,"by":1056,"ĠRed":1057,"ĠBeing":1058,"ier":1059,"leg":1060,"ĠPolice":1061,"ĠPhotos":1062,"ĠBetter":1063,"ling":1064,"ĠTop":1065,"ĠStop":1066,"ĠCourt":1067,"ĠBeaut":1068,"Is":1069,"ĠGets":1070,"ĠBar":1071,"ĠFight":1072,"ĠIf":1073,"erson":1074,"ied":1075,"xt":1076,"gn":1077,"pt":1078,"ĠPower":1079,"Ġ4":1080,"ift":1081,"ĠChildren":1082,"ĠDid":1083,"ivers":1084,"ned":1085,"Year":1086,"ins":1087,"ĠWould":1088,"ery":1089,"ĠPost":1090,"oth":1091,"ady":1092,"ĠDivorce":1093,"ĠContr":1094,"Bl":1095,"ĠLear":1096,"ĠHot":1097,"ooks":1098,"ards":1099,"ĠParent":1100,"fore":1101,"iff":1102,"pir":1103,"ĠDuring":1104,"Old":1105,"itter":1106,"ĠStep":1107,"ĠTell":1108,"ĠAnn":1109,"ĠRepublic":1110,"ult":1111,"ĠOffic":1112,"gest":1113,"ĠExpl":1114,"ute":1115,"olog":1116,"ĠFil":1117,"ĠMiss":1118,"ĠFinds":1119,"hip":1120,"ene":1121,"ĠToo":1122,"hel":1123,"aid":1124,"ĠMin":1125,"ues":1126,"ĠReve":1127,"ĠCancer":1128,"ĠBreak":1129,"We":1130,"ĠGreat":1131,"ĠHist":1132,"ĠBefore":1133,"aign":1134,"ĠMarriage":1135,"ĠSen":1136,"ĠRight":1137,"ream":1138,"ands":1139,"Americ":1140,"der":1141,"ines":1142,"ĠGun":1143,"ĠOther":1144,"ures":1145,"ĠIde":1146,"ĠParents":1147,"ris":1148,"AT":1149,"ĠSing":1150,"ĠMc":1151,"ĠCampaign":1152,"ex":1153,"ĠRis":1154,"Br":1155,"ĠMem":1156,"ĠDep":1157,"ĠNight":1158,"uch":1159,"ush":1160,"ĠCons":1161,"ĠQuest":1162,"ĠKeep":1163,"ert":1164,"ĠSupport":1165,"ĠAmerican":1166,"ĠMod":1167,"ĠOwn":1168,"ĠAss":1169,"ĠAir":1170,"ĠPolit":1171,"ĠWants":1172,"ĠSoc":1173,"iet":1174,"ones":1175,"ĠMakes":1176,"ĠAny":1177,"ĠHeart":1178,"ause":1179,"Ġ7":1180,"ĠMor":1181,"ĠHere":1182,"ech":1183,"ĠAnti":1184,"cess":1185,"It":1186,"ĠNever":1187,"acy":1188,"asons":1189,"Ġ2012":1190,"ĠDemocrat":1191,",'":1192,"ĠSummer":1193,"ief":1194,"LL":1195,"ĠSleep":1196,"ĠSeason":1197,"igr":1198,"ĠMil":1199,"uct":1200,"My":1201,"ane":1202,"ĠCal":1203,"These":1204,"ĠBad":1205,"ĠRuss":1206,"ĠLong":1207,"ges":1208,"ank":1209,"con":1210,"ĠHom":1211,"ĠMother":1212,"unch":1213,"outh":1214,"ĠEar":1215,"ĠSn":1216,"ender":1217,"ĠDel":1218,"ĠClimate":1219,"ĠSecret":1220,"ĠPat":1221,"ĠPerfect":1222,"ram":1223,"any":1224,"ĠInst":1225,"Ġ6":1226,"BT":1227,"ails":1228,"ĠTax":1229,"ĠFound":1230,"ĠDad":1231,"ĠGuide":1232,"Jo":1233,"ĠBoy":1234,"ize":1235,"ĠRecipes":1236,"ĠDog":1237,"vern":1238,"ĠOpen":1239,"ĠEas":1240,"ĠProtest":1241,"ĠBirth":1242,"Con":1243,"ann":1244,"Be":1245,"GBT":1246,"gy":1247,"ient":1248,"ĠElection":1249,"ĠHillary":1250,"idd":1251,"ops":1252,"red":1253,"ittle":1254,"ĠReasons":1255,"For":1256,"ience":1257,"ĠStory":1258,"hed":1259,"ows":1260,"ĠFri":1261,"ĠParty":1262,"uth":1263,"aces":1264,"gress":1265,"ĠThink":1266,"ĠCity":1267,"ĠMade":1268,"iol":1269,"iest":1270,"ĠCla":1271,"ians":1272,"ĠResp":1273,"ĠPut":1274,"ĠThem":1275,"ĠSim":1276,"ĠThese":1277,"ains":1278,"Ġ9":1279,"orts":1280,"aughter":1281,"ĠDoesn":1282,"edly":1283,"ĠFun":1284,"ĠHair":1285,"ĠVict":1286,"ĠCalls":1287,"ars":1288,"ĠTim":1289,"ĠMillion":1290,"ler":1291,"ĠCount":1292,"ĠDeal":1293,"ph":1294,"ĠGen":1295,"eg":1296,"ĠTurn":1297,"ĠHead":1298,"ĠCle":1299,"ĠBel":1300,"ital":1301,"ds":1302,"ional":1303,"ĠImm":1304,"ĠCost":1305,"Watch":1306,"ĠGre":1307,"way":1308,"ĠSon":1309,"ĠJob":1310,"ats":1311,"mas":1312,"ĠLa":1313,"etw":1314,"ley":1315,"And":1316,"lymp":1317,"ĠVis":1318,"ĠConv":1319,"aving":1320,"reme":1321,"hood":1322,"ĠAlleg":1323,"ĠBeh":1324,"ĠNext":1325,"bs":1326,"eral":1327,"ĠMa":1328,"ĠGot":1329,"ĠLive":1330,"Fr":1331,"ears":1332,"ĠCongress":1333,"uge":1334,"ares":1335,"oes":1336,"ĠCap":1337,"ĠRac":1338,"ĠPay":1339,"ĠGovern":1340,"ĠBusiness":1341,"ĠHim":1342,"avor":1343,"ĠDoc":1344,"Mar":1345,"Obama":1346,"ĠTest":1347,"ĠTerr":1348,"ipp":1349,"ĠTakes":1350,"lege":1351,"000":1352,"iver":1353,"ĠThrough":1354,"less":1355,"You":1356,"ĠShooting":1357,"ĠArr":1358,"ĠLast":1359,"ĠEl":1360,"ĠCand":1361,"ĠHon":1362,"ĠRest":1363,"ĠCut":1364,"ĠStor":1365,"ĠStre":1366,"book":1367,"ĠExper":1368,"IS":1369,"eal":1370,"ĠLat":1371,"Ġ2013":1372,"ually":1373,"ĠProble":1374,"ĠHistory":1375,"ĠWal":1376,"ĠProp":1377,"ĠSign":1378,"ince":1379,"ĠAp":1380,"ĠMoney":1381,"ape":1382,"ĠJohn":1383,"ĠSanders":1384,"ĠNational":1385,"ĠViol":1386,"ĠExp":1387,"ĠMuch":1388,"line":1389,"ĠMedia":1390,"ball":1391,"Rep":1392,"ĠVal":1393,"iforn":1394,"ron":1395,"Ġ8":1396,"ft":1397,"ĠSexual":1398,"ĠRa":1399,"ma":1400,"ĠMag":1401,"ĠHad":1402,"ĠMusic":1403,"olution":1404,"lor":1405,"ĠLittle":1406,"ĠGame":1407,"ĠGetting":1408,"As":1409,"ĠMess":1410,"ĠRights":1411,"ison":1412,"ĠHoliday":1413,"Man":1414,"ĠInvest":1415,"ĠFilm":1416,"ĠRob":1417,"ĠHum":1418,"ising":1419,"ĠSuc":1420,"ifornia":1421,"ĠMind":1422,"Wom":1423,"oon":1424,"ĠSurpr":1425,"ĠLooks":1426,"ys":1427,"Ġ\"":1428,"ĠTalk":1429,"When":1430,"ĠFar":1431,"ative":1432,"ĠList":1433,"ĠEmp":1434,"orr":1435,"Ar":1436,"ĠDaughter":1437,"ĠTwo":1438,"earch":1439,"ernie":1440,"ĠCreat":1441,"ĠTwitter":1442,"De":1443,"ĠAdd":1444,"'ve":1445,"ĠOlymp":1446,"owing":1447,"ĠWithout":1448,"On":1449,"over":1450,"ality":1451,"ĠCover":1452,"ĠPass":1453,"opp":1454,"erv":1455,"yn":1456,"ĠFut":1457,"ĠIsn":1458,"yan":1459,"ĠDays":1460,"Ġ2014":1461,"Post":1462,"uit":1463,"Ġor":1464,"ĠWall":1465,"thing":1466,"ĠWorst":1467,"ĠDisc":1468,"ĠIntern":1469,"ael":1470,"'ll":1471,"ĠSelf":1472,"ator":1473,"ĠLost":1474,"ĠBeauty":1475,"ana":1476,"ĠThing":1477,"ĠCru":1478,"ĠDet":1479,"ĠOnly":1480,"ĠLet":1481,"ĠChristmas":1482,"ĠSal":1483,"ĠPerson":1484,"Sc":1485,"aff":1486,"ony":1487,"ĠOld":1488,"let":1489,"ĠSug":1490,"ĠAmericans":1491,"ĠFavor":1492,"ĠAdm":1493,"ĠNorth":1494,"ĠMust":1495,"ĠLetter":1496,"ĠChang":1497,"ĠEven":1498,"Ex":1499,"ĠSurv":1500,"PO":1501,"ĠGive":1502,"ments":1503,"ĠThreat":1504,"ĠCollege":1505,"ĠHall":1506,"used":1507,"ĠGlob":1508,"eor":1509,"ven":1510,"ĠMaking":1511,"ĠSpr":1512,"overs":1513,"ward":1514,"ĠStart":1515,"ĠBo":1516,"'m":1517,"vel":1518,"ĠFuture":1519,"Ph":1520,"ĠDrug":1521,"Ġ2016":1522,"ĠOfficial":1523,"ĠFree":1524,"ĠLGBT":1525,"ĠWhere":1526,"ĠReg":1527,"ĠAround":1528,"ĠPhoto":1529,"ĠTV":1530,"ises":1531,"ĠThere":1532,"ĠEp":1533,"ury":1534,"ĠTeach":1535,"ĠRul":1536,"ention":1537,"fl":1538,"ĠMark":1539,"iel":1540,"20":1541,"ĠMight":1542,"eets":1543,"ĠTour":1544,"ĠIdeas":1545,"ĠProm":1546,"ival":1547,"ĠClass":1548,"ĠRace":1549,"ited":1550,"omb":1551,"ĠDidn":1552,"ĠImmigr":1553,"ird":1554,"anger":1555,"ĠFem":1556,"allen":1557,"irect":1558,"ran":1559,"ĠTreat":1560,"ichael":1561,"11":1562,"off":1563,"here":1564,"ardash":1565,"ĠTeen":1566,"ĠBeen":1567,"ĠDebate":1568,"ĠVir":1569,"ĠThanks":1570,"ĠRele":1571,"ĠUse":1572,"ĠRisk":1573,"oid":1574,"ĠInspir":1575,"ico":1576,"ĠVac":1577,"ĠMovie":1578,"ĠWatch":1579,"ida":1580,"Tw":1581,"ĠBody":1582,"ĠTur":1583,"ĠGroup":1584,"ĠEng":1585,"He":1586,"ST":1587,"ĠSte":1588,"ĠStress":1589,"Ġan":1590,"ĠGoing":1591,"Cl":1592,"ĠFire":1593,"ĠKardash":1594,"ogr":1595,"oves":1596,"ĠBow":1597,"ĠAv":1598,"ĠHur":1599,"ĠChallen":1600,"ĠSup":1601,"ĠVote":1602,"ides":1603,"ĠSus":1604,"ĠMass":1605,"ĠCris":1606,"ĠDesign":1607,"ĠSave":1608,"ĠSaf":1609,"ington":1610,"ĠDiff":1611,"ĠHard":1612,"iting":1613,"ases":1614,"itch":1615,"ĠYoun":1616,"ĠWere":1617,"wood":1618,"ĠSouth":1619,"ĠCase":1620,"ces":1621,"ĠFre":1622,"ĠWest":1623,"ĠWhile":1624,"ĠTalks":1625,"ĠGold":1626,"ĠTweets":1627,"ĠArrest":1628,"Hillary":1629,"Top":1630,"Ġw":1631,"omin":1632,"ĠGoes":1633,"ĠReveals":1634,"Un":1635,"ĠCook":1636,"oming":1637,"uffPost":1638,"ĠQue":1639,"ĠActually":1640,"ĠMove":1641,"istr":1642,"yp":1643,"ĠKim":1644,"ĠKore":1645,"oub":1646,"ĠJour":1647,"ĠWrong":1648,"ĠMur":1649,"ĠDirect":1650,"ĠSocial":1651,"Al":1652,"aur":1653,"ĠCommun":1654,"Sp":1655,"ĠBecause":1656,"ĠMidd":1657,"ĠLiving":1658,"SA":1659,"aster":1660,"ĠStand":1661,"ects":1662,"ĠHealthy":1663,"ĠCrisis":1664,"To":1665,"ĠInterview":1666,"ĠCent":1667,"ĠWeight":1668,"ĠFeel":1669,"ĠRelations":1670,"John":1671,"Ad":1672,"ility":1673,"Are":1674,"gle":1675,"ense":1676,"ĠBook":1677,"ĠSimp":1678,"ĠKardashian":1679,"Ã©":1680,"ior":1681,"ĠWater":1682,"ĠBur":1683,"No":1684,"erg":1685,"eter":1686,"ĠCandid":1687,"eless":1688,"Ġv":1689,"ont":1690,"ĠDen":1691,"ĠEat":1692,"ĠRead":1693,"ĠPro":1694,"ĠLos":1695,"ai":1696,"ots":1697,"ĠAnother":1698,"ĠEmail":1699,"ĠHappen":1700,"ĠFail":1701,"ĠStudents":1702,"ĠStreet":1703,"ĠWear":1704,"ĠRound":1705,"Car":1706,"Gr":1707,"ought":1708,"ĠKilled":1709,"ĠFather":1710,"ĠMonth":1711,"ency":1712,"SN":1713,"ĠCur":1714,"ĠBehind":1715,"ĠSpeech":1716,"Bill":1717,"ude":1718,"ĠMorning":1719,"led":1720,"ĠRock":1721,"gan":1722,"inks":1723,"ental":1724,"ĠRev":1725,"ĠOffice":1726,"ĠFavorite":1727,"ember":1728,"':":1729,"ĠPast":1730,"Can":1731,"ĠFear":1732,"ĠSong":1733,"ecut":1734,"ĠProd":1735,"ried":1736,"ĠTimes":1737,"ming":1738,"yl":1739,"ĠExt":1740,"ĠLives":1741,"icks":1742,"ĠPain":1743,"ĠSuccess":1744,"ĠSet":1745,"ĠPregn":1746,"ĠStars":1747,"ny":1748,"ĠIss":1749,"ĠTeam":1750,"atter":1751,"ĠMeet":1752,"ĠAsk":1753,"ĠCrit":1754,"ĠSol":1755,"ites":1756,"ĠKey":1757,"Dem":1758,"urity":1759,"immy":1760,"ĠDin":1761,"ama":1762,"ject":1763,"side":1764,"ĠPublic":1765,"ĠGives":1766,"ĠGirls":1767,"ĠPot":1768,"ĠStates":1769,"ĠJud":1770,"ized":1771,"acare":1772,"uses":1773,"bamacare":1774,"ĠRepublicans":1775,"ĠNeeds":1776,"ĠViolence":1777,"ĠStay":1778,"ĠLeaders":1779,"CH":1780,"vey":1781,"Ġ19":1782,"ĠAmaz":1783,"ĠOsc":1784,"ĠHand":1785,"ĠProtect":1786,"ged":1787,"ĠAway":1788,"ĠReturn":1789,"Dr":1790,"ĠBey":1791,"ably":1792,"ĠYoung":1793,"gin":1794,"Ġ#":1795,"ages":1796,"ĠMean":1797,"ounds":1798,"jor":1799,"ĠCountry":1800,"ĠSpring":1801,"ĠDiffer":1802,"med":1803,"ĠCy":1804,"ĠSenate":1805,"ĠClaims":1806,"erm":1807,"ĠMis":1808,"ĠLink":1809,"unt":1810,"ĠCome":1811,"aught":1812,"orable":1813,"ider":1814,"imin":1815,"ĠPerform":1816,"bert":1817,"ĠPropos":1818,"ves":1819,"ĠHost":1820,"ending":1821,"Do":1822,"ino":1823,"ĠCre":1824,"elly":1825,"ĠCompl":1826,"ĠCalifornia":1827,"Ġwith":1828,"ĠPop":1829,"ĠDream":1830,"unk":1831,"umb":1832,"ĠActiv":1833,"ĠProblem":1834,"WAT":1835,"ĠTrail":1836,"aves":1837,"ĠRecord":1838,"ĠColor":1839,"ĠRussia":1840,"erc":1841,"ĠPolic":1842,"ĠSecond":1843,"attle":1844,"ĠLearned":1845,"ĠSteps":1846,"ograp":1847,"SNL":1848,"ck":1849,"ham":1850,"riend":1851,"ĠRespons":1852,"ices":1853,"ĠSpec":1854,"ĠParenting":1855,"ĠDest":1856,"Star":1857,"ĠMusl":1858,"ĠHuman":1859,"ĠFranc":1860,"ĠImport":1861,"ĠFinally":1862,"ĠEduc":1863,"ĠQuestions":1864,"ĠFriends":1865,"WATCH":1866,"FL":1867,"dd":1868,"ĠDav":1869,"ĠHit":1870,"iful":1871,"ĠFac":1872,"ĠMoms":1873,"ĠRefuge":1874,"ĠMilit":1875,"self":1876,"ault":1877,"erry":1878,"ster":1879,"cept":1880,"iam":1881,"ĠSil":1882,"ena":1883,"aker":1884,"ĠInvestig":1885,"room":1886,"cl":1887,"ns":1888,"ĠFoot":1889,"akers":1890,"osp":1891,"ĠComing":1892,"ĠSuggest":1893,"ĠBowl":1894,"ĠEy":1895,"ĠLaws":1896,"ĠAut":1897,"ĠPaul":1898,"ica":1899,"ilar":1900,"ĠPresidential":1901,"ĠBirthday":1902,"giving":1903,"ular":1904,"ĠMedit":1905,"ĠFund":1906,"aud":1907,"down":1908,"ĠIll":1909,"ĠMo":1910,"ĠOb":1911,"very":1912,"FF":1913,"ific":1914,"ĠEasy":1915,"nal":1916,"oice":1917,"ĠTrip":1918,"ĠVery":1919,"ĠMarch":1920,"ĠAdvice":1921,"ĠRules":1922,"Af":1923,"ĠProg":1924,"ĠGrand":1925,"ĠNY":1926,"oof":1927,"ĠJames":1928,"ĠWeekend":1929,"ĠAwards":1930,"ĠRepublican":1931,"12":1932,"ĠRom":1933,"ĠRyan":1934,"ĠParis":1935,"ĠWell":1936,"ĠDemocrats":1937,"ĠKorea":1938,"Par":1939,"aylor":1940,"ĠAng":1941,"Black":1942,"conom":1943,"ĠSan":1944,"urs":1945,"GOP":1946,"ology":1947,"na":1948,"ĠGift":1949,"ouple":1950,"ĠAnnoun":1951,"Le":1952,"ĠSecurity":1953,"ancy":1954,"Wor":1955,"ĠFest":1956,"oween":1957,"ĠNear":1958,"ĠServ":1959,"ging":1960,"key":1961,"ĠAge":1962,"ĠPoll":1963,"ĠSame":1964,"ĠLessons":1965,"ĠAvoid":1966,"que":1967,"lywood":1968,"15":1969,"If":1970,"ced":1971,"ĠWash":1972,"oul":1973,"ĠWins":1974,"ĠFacebook":1975,"ĠSupreme":1976,"ĠUr":1977,"ocks":1978,"oga":1979,"Com":1980,"ĠBoo":1981,"ĠLoss":1982,"ĠMajor":1983,"Get":1984,"rael":1985,"American":1986,"PD":1987,"ĠEqu":1988,"ĠReportedly":1989,"ĠWild":1990,"ared":1991,"ĠInstag":1992,"ral":1993,"sh":1994,"ĠSom":1995,"ased":1996,"be":1997,"ke":1998,"ĠEconom":1999,"ument":2000,"ĠClos":2001,"ĠEnt":2002,"ĠControl":2003,"Ġvs":2004,"sw":2005,"ĠIS":2006,"ĠBrain":2007,"ĠFlor":2008,"ister":2009,"Your":2010,"ĠCor":2011,"aged":2012,"ression":2013,"ĠTex":2014,"tion":2015,"ĠObamacare":2016,"ĠJe":2017,"ask":2018,"Just":2019,"ĠFed":2020,"ĠMet":2021,"ĠPal":2022,"ER":2023,"ners":2024,"Ġ2015":2025,"Week":2026,"ĠSingle":2027,"ĠReview":2028,"ĠTrain":2029,"ĠShares":2030,"iously":2031,"ĠBeautiful":2032,"ĠCult":2033,"ĠRise":2034,"ĠMany":2035,"ĠFat":2036,"oph":2037,"aily":2038,"ĠWinter":2039,"ĠBuild":2040,"ĠReveal":2041,"ĠRoundup":2042,"etween":2043,"ĠTot":2044,"ĠCoun":2045,"ĠMist":2046,"ĠHal":2047,"ĠLo":2048,"urch":2049,"Step":2050,"ĠPrev":2051,"Free":2052,"ĠPress":2053,"ĠHappy":2054,"ĠVisit":2055,"Women":2056,"Paul":2057,"ĠBox":2058,"str":2059,"ĠBeach":2060,"ĠMoment":2061,"oke":2062,"Ġas":2063,"ĠBall":2064,"ĠMatt":2065,"ĠLaunch":2066,"ĠTar":2067,"ĠJen":2068,"ĠAnim":2069,"ĠStudent":2070,"ĠModel":2071,"ering":2072,"ĠTown":2073,"ĠBrown":2074,"ĠGovernment":2075,"HU":2076,"atur":2077,"ĠName":2078,"ĠAssault":2079,"ĠTrailer":2080,"ĠCa":2081,"ĠBud":2082,"ĠLab":2083,"ĠToday":2084,"ĠRoad":2085,"ĠTerror":2086,"ĠFrancis":2087,"ĠDi":2088,"hing":2089,"uly":2090,"ĠShot":2091,"ĠScience":2092,"ision":2093,"ieve":2094,"White":2095,"FFPO":2096,"HUFFPO":2097,"ĠDies":2098,"Su":2099,"ij":2100,"ĠCast":2101,"ĠTrib":2102,"iana":2103,"ĠCruz":2104,"Pol":2105,"ĠUnivers":2106,"ease":2107,"ĠBetween":2108,"ĠShut":2109,"ĠPark":2110,"IV":2111,"urope":2112,"order":2113,"ĠQuestion":2114,"ĠGreen":2115,"ĠSimple":2116,"fits":2117,"ĠPle":2118,"ĠExpect":2119,"ĠOnline":2120,"One":2121,"ĠCou":2122,"ĠBene":2123,"ĠFit":2124,"ĠOpp":2125,"ung":2126,"ondon":2127,"opping":2128,"ĠHalloween":2129,"orm":2130,"ifer":2131,"ĠCond":2132,"ĠWars":2133,"eed":2134,"oe":2135,"head":2136,"ĠIran":2137,"ĠTom":2138,"ĠEff":2139,"ĠTells":2140,"Col":2141,"loy":2142,"ĠFoll":2143,"ĠHate":2144,"ĠHotel":2145,"ĠLatest":2146,"ĠCool":2147,"ĠNomin":2148,"ĠProf":2149,"inds":2150,"ething":2151,"ĠPick":2152,"ĠRich":2153,"ĠFormer":2154,"izz":2155,"ĠCarol":2156,"ples":2157,"ĠEveryone":2158,"ĠBecome":2159,"ĠISIS":2160,"gender":2161,"ĠHosp":2162,"ĠHilar":2163,"oved":2164,"ĠSeries":2165,"ĠEducation":2166,"Wed":2167,"Will":2168,"ĠJack":2169,"ĠBring":2170,"Am":2171,"ĠPoss":2172,"ĠPolitical":2173,"fr":2174,"ĠRu":2175,"ĠEating":2176,"ĠPowerful":2177,"ĠLinked":2178,"ĠCop":2179,"ĠTruth":2180,"ĠDoct":2181,"Ġby":2182,"iter":2183,"ĠBreast":2184,"eorge":2185,"ĠInstagram":2186,"ential":2187,"entine":2188,"lam":2189,"ichel":2190,"ĠReason":2191,"ode":2192,"ĠAttacks":2193,"Gay":2194,"ĠPush":2195,"ĠPrison":2196,"uce":2197,"ara":2198,"lyn":2199,"ĠClean":2200,"ĠJenner":2201,"Bre":2202,"ĠMichael":2203,"ĠCommunity":2204,"fort":2205,"ĠGlobal":2206,"HuffPost":2207,"ĠFans":2208,"aps":2209,"ette":2210,"ĠAmazing":2211,"ĠHope":2212,"ries":2213,"ĠLand":2214,"ĠInj":2215,"ĠJustice":2216,"gether":2217,"Bernie":2218,"uel":2219,"ĠLine":2220,"ĠTogether":2221,"ĠOrder":2222,"RA":2223,"Up":2224,"ĠCouple":2225,"ĠPos":2226,"reen":2227,"aks":2228,"ĠYourself":2229,"ford":2230,"ennifer":2231,"ĠCapt":2232,"Se":2233,"ways":2234,"ĠVoters":2235,"ĠComes":2236,"ortion":2237,"izing":2238,"ĠSpecial":2239,"ĠWashington":2240,"ĠWa":2241,"ĠChina":2242,"ĠSub":2243,"ĠSwift":2244,"ĠBiggest":2245,"ĠMessage":2246,"ĠVacation":2247,"All":2248,"El":2249,"ĠMad":2250,"ĠRoy":2251,"ĠVeg":2252,"ults":2253,"acks":2254,"ĠAren":2255,"ĠEverything":2256,"ĠArrested":2257,"World":2258,"ĠPan":2259,"ĠRoom":2260,"ĠThanksgiving":2261,"ĠTexas":2262,"com":2263,"ĠMatter":2264,"asts":2265,"ĠLearn":2266,"ĠEarth":2267,"ĠFriend":2268,"ĠWalk":2269,"ĠJournal":2270,"Let":2271,"ĠUsing":2272,"ĠHonor":2273,"ĠDirector":2274,"ĠMilitary":2275,"There":2276,"erman":2277,"ĠLik":2278,"ĠNet":2279,"ĠWorking":2280,"ĠBuy":2281,"ĠSuggests":2282,"ĠFore":2283,"ĠAff":2284,"ĠLeave":2285,"ĠVictims":2286,"ĠFlorida":2287,"At":2288,"iction":2289,"AC":2290,"Best":2291,"ators":2292,"ĠPet":2293,"ĠStun":2294,"aper":2295,"izes":2296,"ĠAccused":2297,"Em":2298,"Sex":2299,"ĠHollywood":2300,"ĠBush":2301,"America":2302,"ichelle":2303,"Mom":2304,"ĠBattle":2305,"rets":2306,"ĠImpr":2307,"lex":2308,"ĠCities":2309,"ording":2310,"tern":2311,"ĠInternet":2312,"istration":2313,"Sen":2314,"ĠMental":2315,"ĠNetw":2316,"ĠPolicy":2317,"ĠView":2318,"ĠAbuse":2319,"ĠWorth":2320,"ĠContin":2321,"ĠConvers":2322,"ole":2323,"sy":2324,"tr":2325,"vil":2326,"ĠMoments":2327,"13":2328,"Meet":2329,"ories":2330,"ĠGiving":2331,"Ġ12":2332,"ĠCommon":2333,"Republic":2334,"ĠRelationship":2335,"ĠImportant":2336,"bre":2337,"ĠHaving":2338,"ĠAdorable":2339,"ĠInside":2340,"ĠMagaz":2341,"ĠTast":2342,"ĠDrink":2343,"ĠRestaur":2344,"ĠCops":2345,"ĠAfric":2346,"Not":2347,"ĠCEO":2348,"ĠTweet":2349,"ĠFoods":2350,"ĠMurder":2351,"esome":2352,"itive":2353,"ĠIsland":2354,"ĠChief":2355,"berg":2356,"ĠEnough":2357,"After":2358,"ĠCarolina":2359,"ĠCrash":2360,"ĠRole":2361,"Celebr":2362,"Russ":2363,"iant":2364,"pet":2365,"port":2366,"ĠNFL":2367,"ĠTry":2368,"ĠSmall":2369,"ĠDemocratic":2370,"ĠAllegedly":2371,"ĠEmploy":2372,"ĠAdmin":2373,"ĠColbert":2374,"ĠEmot":2375,"Ne":2376,"band":2377,"esh":2378,"ĠLib":2379,"raq":2380,"ĠSweet":2381,"Democrat":2382,"IC":2383,"ĠCam":2384,"ĠEr":2385,"ĠEurope":2386,"ĠChurch":2387,"ifts":2388,"ĠLeast":2389,"ĠStories":2390,"ĠCouples":2391,"ĠSaid":2392,"ĠWife":2393,"atic":2394,"ĠKing":2395,"ĠShare":2396,"come":2397,"ĠLou":2398,"artment":2399,"ĠImmigration":2400,"Kate":2401,"ĠCust":2402,"anda":2403,"ĠMex":2404,"intage":2405,"BC":2406,"itc":2407,"ĠMedic":2408,"Dis":2409,"IY":2410,"iams":2411,"ĠSide":2412,"ature":2413,"aine":2414,"ĠResearch":2415,"ĠAnt":2416,"Former":2417,"ĠDam":2418,"ĠRub":2419,"ĠReform":2420,"ĠBillion":2421,"ĠChallenge":2422,"ĠResponse":2423,"House":2424,"Je":2425,"Kim":2426,"ĠTaking":2427,"ĠCat":2428,"ĠDanger":2429,"ĠShort":2430,"ĠCompany":2431,"ĠControvers":2432,"ATE":2433,"ĠRespond":2434,"ein":2435,"nect":2436,"eng":2437,"ĠCloth":2438,"ĠExplains":2439,"ss":2440,"ĠFull":2441,"stand":2442,"ĠReady":2443,"ement":2444,"ĠDisease":2445,"ĠColl":2446,"ĠRunning":2447,"ĠBid":2448,"istan":2449,"ago":2450,"ĠMarried":2451,"oving":2452,"ĠPhil":2453,"ĠMarket":2454,"Go":2455,"ĠSav":2456,"ĠFour":2457,"ola":2458,"andal":2459,"ĠAnsw":2460,"ĠWilliams":2461,"ĠIncl":2462,"Ġis":2463,"ĠFan":2464,"ĠPu":2465,"ads":2466,"ĠWorkers":2467,"lection":2468,"back":2469,"ĠTou":2470,"orter":2471,"ĠTodd":2472,"ĠYet":2473,"ada":2474,"ĠPlace":2475,"ĠTransgender":2476,"ĠSigns":2477,"ĠSomething":2478,"50":2479,"BI":2480,"ĠBac":2481,"ĠBomb":2482,"ĠLight":2483,"ĠYoga":2484,"ĠAccording":2485,"iety":2486,"ĠMagazine":2487,"Rec":2488,"por":2489,"ĠBal":2490,"stem":2491,"ĠSpace":2492,"ĠPeace":2493,"ĠPrep":2494,"ĠKilling":2495,"PDATE":2496,"ĠNetwork":2497,"ĠAdministration":2498,"arl":2499,"ĠMel":2500,"ata":2501,"ĠGar":2502,"ĠTrue":2503,"ĠPriv":2504,"Ġ100":2505,"ĠStrug":2506,"ĠStyl":2507,"ĠLeader":2508,"ĠCelebrate":2509,"Life":2510,"bo":2511,"ĠAirl":2512,"rew":2513,"ĠKind":2514,"oop":2515,"ĠTalking":2516,"ĠHarass":2517,"ĠPolitics":2518,"'d":2519,"cent":2520,"ĠDating":2521,"edit":2522,"anta":2523,"ĠOpens":2524,"ĠCharl":2525,"ĠBeat":2526,"ĠSkin":2527,"ĠHomeless":2528,"ĠDifferent":2529,"ĠHospital":2530,"lt":2531,"vin":2532,"ints":2533,"ĠWish":2534,"ĠLoc":2535,"ĠLose":2536,"ĠExecut":2537,"Ġ2017":2538,"ĠResc":2539,"ĠAction":2540,"Jimmy":2541,"NC":2542,"Pe":2543,"ĠHits":2544,"ĠLate":2545,"une":2546,"ĠAlb":2547,"ĠPret":2548,"ĠQueer":2549,"ĠPO":2550,"ĠMuslim":2551,"Pl":2552,"ĠSpot":2553,"ĠLeft":2554,"ĠThose":2555,"ĠTrying":2556,"lying":2557,"ĠPlaces":2558,"ĠLegal":2559,"ĠFemale":2560,"ĠFootball":2561,"Div":2562,"ĠBernie":2563,"ĠOl":2564,"ĠLar":2565,"ĠIsrael":2566,"oogle":2567,"ĠPrim":2568,"ĠWords":2569,"ĠBrit":2570,"ĠDoing":2571,"ĠBank":2572,"Every":2573,"Fl":2574,"Me":2575,"Or":2576,"most":2577,"ĠBed":2578,"ĠIce":2579,"eness":2580,"ĠPort":2581,"icide":2582,"ĠNon":2583,"lear":2584,"ĠAwesome":2585,"ĠHab":2586,"ily":2587,"ĠJew":2588,"ĠSpir":2589,"Ins":2590,"Ġ50":2591,"ĠDinner":2592,"ĠTribute":2593,"ĠMeditation":2594,"ĠFestival":2595,"ores":2596,"ench":2597,"ĠAccess":2598,"More":2599,"ĠSell":2600,"ĠMal":2601,"ĠPounds":2602,"ĠDark":2603,"aly":2604,"ĠLondon":2605,"ricane":2606,"nes":2607,"ĠDiet":2608,"ĠHorr":2609,"ĠRid":2610,"ĠLow":2611,"ept":2612,"ĠSyria":2613,"ĠJudge":2614,"friend":2615,"gg":2616,"ĠSent":2617,"arks":2618,"ured":2619,"uts":2620,"ĠOrgan":2621,"ĠGuy":2622,"Health":2623,"Stephen":2624,"ĠFix":2625,"irst":2626,"ĠChic":2627,"ĠMeans":2628,"era":2629,"ĠDie":2630,"ivil":2631,"ĠPlans":2632,"ĠReality":2633,"ĠOlympics":2634,"ĠBeyond":2635,"Mil":2636,"ky":2637,"ĠWhe":2638,"ĠRoll":2639,"ĠLawm":2640,"ĠSchools":2641,"ĠSlams":2642,"gr":2643,"Ġi":2644,"ĠCub":2645,"ĠCup":2646,"ĠProbably":2647,"ĠSystem":2648,"From":2649,"ĠPOLL":2650,"ĠLot":2651,"ĠLawy":2652,"ĠPlayer":2653,"ĠIndust":2654,"ĠSurviv":2655,"ĠBudget":2656,"abeth":2657,"others":2658,"ĠGovernor":2659,"leton":2660,"ĠCritic":2661,"Game":2662,"rian":2663,"ĠRap":2664,"ĠGender":2665,"ĠInf":2666,"ĠTher":2667,"ĠThinks":2668,"umer":2669,"ĠExerc":2670,"ials":2671,"agement":2672,"ĠIdea":2673,"mel":2674,"tain":2675,"ogue":2676,"ĠMakeup":2677,"ĠStrate":2678,"ĠArtist":2679,"ĠValentine":2680,"uthor":2681,"ĠService":2682,"ĠTotally":2683,"Wedding":2684,"Che":2685,"go":2686,"ĠPull":2687,"ĠCandidate":2688,"App":2689,"Cr":2690,"Cal":2691,"usband":2692,"ĠAlways":2693,"ĠProduc":2694,"ĠCulture":2695,"PS":2696,"ĠPict":2697,"ĠDate":2698,"ĠNation":2699,"ĠReb":2700,"echn":2701,"Who":2702,"ĠSmith":2703,"ĠFinal":2704,"ĠPersonal":2705,"**":2706,"Dear":2707,"lin":2708,"ĠPen":2709,"ĠVintage":2710,"ended":2711,"ĠFemin":2712,"ĠSuspect":2713,"ĠAust":2714,"ĠBag":2715,"ĠOil":2716,"amed":2717,"chool":2718,"ĠUnion":2719,"ĠMyth":2720,"ĠTurns":2721,"Ġfr":2722,"incess":2723,"onc":2724,"ece":2725,"ĠOlympic":2726,"ĠMoore":2727,"IN":2728,"ergy":2729,"ĠHour":2730,"ĠRape":2731,"idays":2732,"ĠFront":2733,"ĠCraz":2734,"ĠCarpet":2735,"ĠAmid":2736,"oring":2737,"ĠGod":2738,"ĠOffers":2739,"ĠFamilies":2740,"ouble":2741,"ĠMiddleton":2742,"ĠPerformance":2743,"ĠAngel":2744,"Ġfrom":2745,"ening":2746,"aked":2747,"ĠUsed":2748,"UPDATE":2749,"bers":2750,"to":2751,"ĠPred":2752,"ĠFinanc":2753,"anye":2754,"ĠJobs":2755,"ĠSurprising":2756,"Har":2757,"ania":2758,"oric":2759,"utes":2760,"ĠUlt":2761,"essions":2762,"ĠMart":2763,"ghan":2764,"ĠRecipe":2765,"ĠPossible":2766,"ĠSince":2767,"ready":2768,"ĠDisney":2769,"flix":2770,"ĠFox":2771,"ĠThree":2772,"onder":2773,"ĠEndors":2774,"cover":2775,"ĠExplain":2776,"ĠRacist":2777,"ĠMiddle":2778,"ĠTre":2779,"acher":2780,"ĠVeter":2781,"ĠDavid":2782,"ĠRad":2783,"ĠAlready":2784,"izabeth":2785,"ĠHolidays":2786,"cr":2787,"edy":2788,"ades":2789,"uson":2790,"ĠPhotograp":2791,"ĠRelig":2792,"ĠMissing":2793,"ĠOscar":2794,"ĠIndustry":2795,"Time":2796,"uary":2797,"ini":2798,"illy":2799,"ĠStew":2800,"Chris":2801,"ĠIncre":2802,"ĠFriday":2803,"Ġ11":2804,"ĠBlood":2805,"Woman":2806,"erguson":2807,"ih":2808,"oad":2809,"anks":2810,"ĠScott":2811,"ĠUses":2812,"Love":2813,"yle":2814,"ĠBull":2815,"imes":2816,"ĠSports":2817,"Ġ24":2818,"ĠBlog":2819,"ientists":2820,"ĠFederal":2821,"iny":2822,"ĠWine":2823,"ote":2824,"ĠWeird":2825,"ĠSecrets":2826,"ĠAppr":2827,"ĠRefugees":2828,"ĠFake":2829,"ĠHaw":2830,"ĠAnnivers":2831,"ĠBelieve":2832,"ĠHappened":2833,"So":2834,"ĠFast":2835,"ĠJones":2836,"apan":2837,"ĠAbs":2838,"ĠSpl":2839,"ĠBlock":2840,"offee":2841,"ville":2842,"pite":2843,"stein":2844,"ulous":2845,"ousands":2846,"uction":2847,"ĠRussian":2848,"ĠEarly":2849,"ield":2850,"ĠTreatment":2851,"ĠNYC":2852,"Bey":2853,"Where":2854,"ĠPerry":2855,"ĠConfir":2856,"North":2857,"Some":2858,"Te":2859,"uana":2860,"ĠSick":2861,"ĠFaces":2862,"aring":2863,"ĠMid":2864,"ĠIslam":2865,"uclear":2866,"velop":2867,"ĠSusp":2868,"ĠAnniversary":2869,"ients":2870,"irt":2871,"ĠHappiness":2872,"ĠDepression":2873,"Bab":2874,"ĠHack":2875,"ills":2876,"ensive":2877,"ĠThrones":2878,"ĠSnow":2879,"ĠPregnancy":2880,"ĠPrevent":2881,"inc":2882,"ĠMir":2883,"ised":2884,"ĠOnce":2885,"ization":2886,"ences":2887,"ĠHotels":2888,"ĠConserv":2889,"ĠGener":2890,"ĠLGBTQ":2891,"ĠProposal":2892,"ĠBoost":2893,"dings":2894,"ĠCard":2895,"ĠBen":2896,"ĠFair":2897,"ĠGifts":2898,"ĠReact":2899,"ressed":2900,"Christ":2901,"ijuana":2902,"sych":2903,"14":2904,"Res":2905,"orial":2906,"ically":2907,"Ġ15":2908,"ĠEdit":2909,"ĠConversation":2910,"ĠAhead":2911,"ĠOw":2912,"ĠDaily":2913,"upt":2914,"ĠSinger":2915,"ĠCostum":2916,"ĠSurprise":2917,"ĠChanged":2918,"itchen":2919,"ĠStewart":2920,"ki":2921,"ĠTechn":2922,"idence":2923,"ĠSeen":2924,"ĠSmart":2925,"ĠBabies":2926,"ĠProblems":2927,"ĠPregnant":2928,"ĠLikely":2929,"ĠSpirit":2930,"Jennifer":2931,"Min":2932,"hem":2933,"ĠRepl":2934,"ĠApple":2935,"ĠCreate":2936,"amous":2937,"ĠShopping":2938,"ified":2939,"ĠHelps":2940,"ĠEvolution":2941,"ĠGolden":2942,"ĠHarassment":2943,"ĠWel":2944,"ĠBi":2945,"ĠFive":2946,"ĠIraq":2947,"ĠDig":2948,"ĠDance":2949,"ĠTrends":2950,"ĠKelly":2951,"Pres":2952,"olutions":2953,"ĠSafe":2954,"Divorce":2955,"rick":2956,"ĠTaylor":2957,"ĠCake":2958,"ĠHero":2959,"han":2960,"ĠHusband":2961,"edom":2962,"Trans":2963,"ĠVoter":2964,"People":2965,"Hol":2966,"ĠCivil":2967,"ĠRum":2968,"ĠComments":2969,"ĠResign":2970,"ĠDefends":2971,"ĠRaise":2972,"ĠRelease":2973,"ving":2974,"atives":2975,"ĠRally":2976,"ĠGal":2977,"ety":2978,"essica":2979,"ĠChick":2980,"ĠExc":2981,"ikes":2982,"ĠWorkout":2983,"ĠPrem":2984,"ĠCalled":2985,"ĠPlanned":2986,"Cra":2987,"RE":2988,"ĠNames":2989,"ĠThird":2990,"ĠThought":2991,"ĠRece":2992,"ĠJail":2993,"ĠDev":2994,"ocol":2995,"ĠProbe":2996,"ĠClaim":2997,"ĠIssues":2998,"ĠLawsuit":2999,"bola":3000,"ĠAuthor":3001,"ĠSearch":3002,"ĠCock":3003,"ĠBath":3004,"ĠDre":3005,"ĠKick":3006,"ĠPract":3007,"ipe":3008,"ĠWeddings":3009,"ĠHappens":3010,"ĠCelebrity":3011,"Police":3012,"ĠBenefits":3013,"ĠHilarious":3014,"DA":3015,"En":3016,"Girl":3017,"gers":3018,"oom":3019,"anies":3020,"reg":3021,"iger":3022,"ired":3023,"oose":3024,"ĠJuly":3025,"ĠDevelop":3026,"ĠDiscuss":3027,"list":3028,"utr":3029,"ĠAlmost":3030,"ĠBrings":3031,"ĠHarvey":3032,"ĠIdent":3033,"ĠTouch":3034,"BA":3035,"Cong":3036,"Off":3037,"ees":3038,"ique":3039,"ĠMos":3040,"ĠData":3041,"thlet":3042,"ĠWorks":3043,"ĠAlbum":3044,"Sm":3045,"la":3046,"ĠX":3047,"ĠSqu":3048,"het":3049,"isc":3050,"ĠEmer":3051,"ĠAbortion":3052,"ĠConnect":3053,"ĠDrag":3054,"ĠRepeal":3055,"ĠDepartment":3056,"anna":3057,"ĠUltimate":3058,"Big":3059,"ĠTrad":3060,"ado":3061,"ĠPhone":3062,"ĠStrong":3063,"ĠDogs":3064,"ĠIssue":3065,"ef":3066,"ĠWood":3067,"ĠHelped":3068,"ĠAmong":3069,"ĠMovies":3070,"ĠRubio":3071,"ĠDangerous":3072,"bor":3073,"ched":3074,"kin":3075,"ĠChoice":3076,"ĠMarijuana":3077,"Str":3078,"ĠLouis":3079,"Pre":3080,"light":3081,"ining":3082,"ĠIgn":3083,"ĠDan":3084,"ĠEast":3085,"ĠTeens":3086,"ĠEnv":3087,"ĠApolog":3088,"STER":3089,"ĠCenter":3090,"ĠFinancial":3091,"Part":3092,"ĠCatch":3093,"ĠReun":3094,"ĠProve":3095,"ĠAffect":3096,"ĠOutside":3097,"ĠFallon":3098,"LLSTER":3099,"ĠDads":3100,"ĠTurkey":3101,"ĠAnnounces":3102,"ĠTarget":3103,"HUFFPOLLSTER":3104,"ĠEmotional":3105,"ĠPretty":3106,"Act":3107,"rus":3108,"ĠLim":3109,"ĠNuclear":3110,"umber":3111,"ĠKitchen":3112,"ĠJon":3113,"abb":3114,"ĠConc":3115,"ĠScandal":3116,"ĠConsider":3117,"ĠAddress":3118,"Super":3119,"ĠPrimary":3120,"Bar":3121,"PA":3122,"fit":3123,"ĠSun":3124,"ĠRen":3125,"ĠScr":3126,"ĠWarns":3127,"ĠHelping":3128,"ĠFighting":3129,"ĠParenthood":3130,"Two":3131,"ĠDesigner":3132,"ĠDestr":3133,"ĠInvestigation":3134,"IF":3135,"Ind":3136,"Tom":3137,"oor":3138,"ĠSoul":3139,"ĠEle":3140,"ests":3141,"ĠFrench":3142,"ĠSea":3143,"ĠFlight":3144,"ĠAcr":3145,"ĠGuns":3146,"ĠFacts":3147,"ination":3148,"ĠYouth":3149,"ĠClose":3150,"ĠShouldn":3151,"ĠDivers":3152,"Should":3153,"ĠProgram":3154,"ĠEffect":3155,"ĠStunning":3156,"Republicans":3157,"mon":3158,"more":3159,"ĠThen":3160,"ĠEss":3161,"ĠTroll":3162,"ĠJoy":3163,"ĠNeg":3164,"ĠNothing":3165,"ĠMedical":3166,"ĠKills":3167,"ĠAirport":3168,"ĠSecretary":3169,"ĠOscars":3170,"ĠMistakes":3171,"board":3172,"First":3173,"Michael":3174,"ĠTech":3175,"ĠLif":3176,"ĠLater":3177,"ĠStaff":3178,"ĠKate":3179,"ĠJr":3180,"ĠChair":3181,"ĠDocument":3182,"ĠMeeting":3183,"ĠEquality":3184,"Democrats":3185,"ĠHabits":3186,"ocolate":3187,"Back":3188,"Most":3189,"aith":3190,"gia":3191,"omes":3192,"olf":3193,"ĠMaher":3194,"Law":3195,"NN":3196,"ĠStore":3197,"ĠGrow":3198,"Ġ30":3199,"ĠSomeone":3200,"niest":3201,"ĠBooks":3202,"ĠPin":3203,"ĠEsc":3204,"ĠVe":3205,"emy":3206,"ĠCold":3207,"ĠIncred":3208,"ĠOfficer":3209,"ĠLonger":3210,"ĠHalf":3211,"Rob":3212,"Sw":3213,"inger":3214,"ĠForce":3215,"usive":3216,"thers":3217,"ĠWhich":3218,"osed":3219,"aging":3220,"ĠBrid":3221,"ĠAsks":3222,"ĠLeaves":3223,"ĠUnited":3224,"ĠPercent":3225,"ĠActress":3226,"ĠBreaks":3227,"ĠSenator":3228,"ĠUniversity":3229,"oncÃ©":3230,"Mus":3231,"Our":3232,"ted":3233,"ĠCause":3234,"ĠCoffee":3235,"outs":3236,"ĠEgg":3237,"illing":3238,"ify":3239,"ĠPlane":3240,"ĠMcC":3241,"ĠEpis":3242,"ĠMatters":3243,"ĠTherap":3244,"With":3245,"ym":3246,"ered":3247,"ĠGames":3248,"ids":3249,"ager":3250,"ĠAds":3251,"raight":3252,"ĠHurricane":3253,"ĠReturns":3254,"ĠAutism":3255,"ĠCockt":3256,"ĠWent":3257,"itiz":3258,"enting":3259,"ĠReach":3260,"ĠRequ":3261,"ĠForg":3262,"ube":3263,"icted":3264,"Twitter":3265,"ĠSafety":3266,"ĠMexico":3267,"Congress":3268,"cle":3269,"ĠAthlet":3270,"ĠBurn":3271,"ĠFBI":3272,"ural":3273,"ooking":3274,"ĠGuil":3275,"ĠPresid":3276,"ĠMuse":3277,"ĠRemember":3278,"ĠImage":3279,"ĠUnderstand":3280,"ĠPoor":3281,"ĠProgress":3282,"ĠMartin":3283,"Ben":3284,"Des":3285,"eat":3286,"ved":3287,"inese":3288,"ĠIcon":3289,"ently":3290,"ĠProv":3291,"ĠProves":3292,"Ġ14":3293,"ĠScreen":3294,"ĠWarren":3295,"ĠVoting":3296,"ĠLooking":3297,"ĠDecision":3298,"ĠCompanies":3299,"ĠTransform":3300,"ĠInternational":3301,"ĠOfficials":3302,"Baby":3303,"LGBT":3304,"Tex":3305,"ĠHuge":3306,"ĠProc":3307,"ĠBeer":3308,"Ġ13":3309,"Stud":3310,"ĠVirgin":3311,"Ab":3312,"time":3313,"ux":3314,"ston":3315,"ĠTried":3316,"iron":3317,"ĠPros":3318,"ĠVol":3319,"ĠCheck":3320,"ĠDeadly":3321,"ĠCyrus":3322,"Face":3323,"Miss":3324,"Michelle":3325,"Pope":3326,"ĠTyp":3327,"ĠPers":3328,"ĠFraud":3329,"oston":3330,"ĠRecover":3331,"ĠFeat":3332,"mys":3333,"ĠCharged":3334,"helor":3335,"ĠSupporters":3336,"ĠAcross":3337,"ium":3338,"ĠSeek":3339,"ĠSold":3340,"ona":3341,"oria":3342,"using":3343,"ĠChris":3344,"aven":3345,"ucky":3346,"ĠKimmel":3347,"aii":3348,"ĠExercise":3349,"Rel":3350,"Tre":3351,"ĠBul":3352,"ĠTrick":3353,"ĠChamp":3354,"ĠDecor":3355,"ĠRemind":3356,"ĠMoving":3357,"de":3358,"hips":3359,"ĠPur":3360,"ĠDIY":3361,"aying":3362,"ĠPrince":3363,"empt":3364,"llen":3365,"ĠMayor":3366,"ĠAppear":3367,"Real":3368,"ĠProject":3369,"ĠImprove":3370,"School":3371,"ĠSett":3372,"orge":3373,"arah":3374,"ĠLam":3375,"ĠTold":3376,"ĠInfl":3377,"ĠTrial":3378,"ĠUS":3379,"ĠDeep":3380,"ifying":3381,"ĠEye":3382,"ĠVegas":3383,"Day":3384,"bur":3385,"nell":3386,"zz":3387,"ĠBas":3388,"ĠMu":3389,"ĠMac":3390,"ĠHIV":3391,"ĠWord":3392,"ĠCanc":3393,"appy":3394,"apped":3395,"ĠNoah":3396,"ĠJoe":3397,"ĠCandidates":3398,"ĠCustom":3399,"Good":3400,"dom":3401,"feed":3402,"ĠWonder":3403,"aries":3404,"ota":3405,"ivity":3406,"ĠAnx":3407,"ĠTeacher":3408,"ĠCelebrities":3409,"reds":3410,"ĠLabor":3411,"100":3412,"?'":3413,"ĠFoc":3414,"arre":3415,"ato":3416,"icious":3417,"eline":3418,"ĠTrend":3419,"ĠCrime":3420,"ĠBlue":3421,"aug":3422,"lando":3423,"ĠNetflix":3424,"Sur":3425,"Sec":3426,"ined":3427,"ĠPsych":3428,"ĠRing":3429,"ĠGave":3430,"ided":3431,"aming":3432,"ĠCoach":3433,"ĠCareer":3434,"ĠDecl":3435,"ĠBoys":3436,"ĠLaunches":3437,"vers":3438,"ĠFact":3439,"ĠMot":3440,"ĠPack":3441,"ĠHims":3442,"ession":3443,"ĠEnergy":3444,"ĠModern":3445,"ĠJohnson":3446,"ĠToddler":3447,"ironment":3448,"ĠHimself":3449,"aty":3450,"tha":3451,"ability":3452,"ogn":3453,"ĠCredit":3454,"ĠActor":3455,"ĠPoint":3456,"ĠBiden":3457,"ĠChicago":3458,"ĠLawyer":3459,"NY":3460,"Wal":3461,"dy":3462,"iers":3463,"ĠHa":3464,"ĠHun":3465,"ĠEbola":3466,"ĠHold":3467,"ĠPlanning":3468,"ĠLegend":3469,"ĠProtests":3470,"ĠMindful":3471,"Phone":3472,"ĠMovement":3473,"ĠEconomy":3474,"Inspir":3475,"California":3476,"ĠChicken":3477,".'":3478,"Does":3479,"Find":3480,"Jud":3481,"ban":3482,"ĠIr":3483,"ĠOthers":3484,"ĠRow":3485,"estic":3486,"illed":3487,"ĠSuicide":3488,"ĠBrand":3489,"ika":3490,"ĠGram":3491,"ĠAgre":3492,"ĠProtesters":3493,"ĠExperience":3494,"ĠFreedom":3495,"ĠCrazy":3496,"hio":3497,"ocking":3498,"orney":3499,"ĠCelebrates":3500,"ĠLegacy":3501,"ĠStorm":3502,"ĠViral":3503,"ĠMuseum":3504,"Dad":3505,"Gu":3506,"hol":3507,"erve":3508,"ĠGeorge":3509,"iles":3510,"igan":3511,"ĠKnew":3512,"ĠCommitt":3513,"rimin":3514,"arian":3515,"ĠMatch":3516,"ĠTrade":3517,"ĠBecomes":3518,"ĠDespite":3519,"ĠSoccer":3520,"ĠExperts":3521,"Phot":3522,"ĠComplet":3523,"ĠPopular":3524,"Weekly":3525,"ĠCos":3526,"ĠCream":3527,"ĠBreat":3528,"ĠHuffPost":3529,"ĠLes":3530,"ires":3531,"ĠJimmy":3532,"obe":3533,"ĠCrow":3534,"Stop":3535,"ĠSurvey":3536,"ances":3537,"ĠFunniest":3538,"Art":3539,"ĠAsked":3540,"President":3541,"fast":3542,"ĠTed":3543,"ĠSit":3544,"ĠCitiz":3545,"ĠHous":3546,"ĠEf":3547,"ĠEth":3548,"imp":3549,"istic":3550,"obby":3551,"ĠAfghan":3552,"ĠReporter":3553,"ĠFlag":3554,"ĠWanted":3555,"pected":3556,"Ed":3557,"ead":3558,"ĠCame":3559,"ored":3560,"ĠHell":3561,"rey":3562,"ĠVan":3563,"ĠCrack":3564,"epend":3565,"ĠResults":3566,"ĠDivor":3567,"ĠMoves":3568,"ĠPuts":3569,"ĠChanges":3570,"ĠJeff":3571,"ĠAirlines":3572,"ĠSplit":3573,"Bay":3574,"Even":3575,"See":3576,"UD":3577,"Ġ[":3578,"ĠBorder":3579,"ĠDoll":3580,"ĠClub":3581,"ĠAdop":3582,"ucks":3583,"ĠThank":3584,"ĠDoctor":3585,"ĠEpisode":3586,"Cons":3587,"James":3588,"US":3589,"zen":3590,"ĠHop":3591,"ĠLoves":3592,"ĠGard":3593,"ĠForm":3594,"abama":3595,"ansas":3596,"astic":3597,"ĠDish":3598,"ĠPlayers":3599,"ĠGeneral":3600,"audi":3601,"Spr":3602,"Sleep":3603,"instein":3604,"ĠFerguson":3605,"ĠFamous":3606,"ĠPence":3607,"ĠPope":3608,"ĠEach":3609,"ĠJump":3610,"ĠShop":3611,"ĠReports":3612,"ĠEnter":3613,"ancing":3614,"ĠRetire":3615,"eorgia":3616,"ĠInspiration":3617,"ĠForeign":3618,"ĠRestaurant":3619,"ĠResponds":3620,"!'":3621,"High":3622,"Over":3623,"Que":3624,"house":3625,"nam":3626,"we":3627,"ĠWears":3628,"itions":3629,"owers":3630,"lec":3631,"ĠStage":3632,"ocr":3633,"ĠCross":3634,"ĠMinutes":3635,"ĠHistoric":3636,"ĠBoard":3637,"ĠDrugs":3638,"Senate":3639,"EA":3640,"Food":3641,"par":3642,"erk":3643,"ĠSam":3644,"ĠII":3645,"ĠRain":3646,"ĠTook":3647,"ĠChocolate":3648,"ĠArg":3649,"Ste":3650,"ĠDefense":3651,"ĠDresses":3652,"erto":3653,"ĠReleases":3654,"ĠMassive":3655,"ĠLosing":3656,"ĠMonths":3657,"ĠSongs":3658,"ĠRomney":3659,"izza":3660,"ĠDreams":3661,"ĠIncredible":3662,"Flor":3663,"Rem":3664,"ĠObs":3665,"ĠStraight":3666,"ĠTrack":3667,"ĠPra":3668,"abet":3669,"ĠWorse":3670,"ĠBroad":3671,"ĠUpd":3672,"ĠPatients":3673,"ĠRacism":3674,"cast":3675,"tim":3676,"ued":3677,"esity":3678,"ĠFew":3679,"ĠStat":3680,"oos":3681,"ĠSure":3682,"ĠCoast":3683,"oken":3684,"ĠHomes":3685,"ĠAllegations":3686,"ĠNearly":3687,"ĠFitness":3688,"ĠDestroy":3689,"TV":3690,"ble":3691,"vor":3692,"zy":3693,"ĠDu":3694,"ĠLunch":3695,"otic":3696,"ĠVIDEO":3697,"ĠWhole":3698,"ĠCompet":3699,"ĠAdvent":3700,"ĠVictory":3701,"ĠDiscrimin":3702,"ĠLocal":3703,"Texas":3704,"Tal":3705,"Work":3706,"mar":3707,"ya":3708,"ĠCell":3709,"asc":3710,"owa":3711,"ĠBeg":3712,"ĠFrank":3713,"Ġ21":3714,"Ġ25":3715,"ĠDone":3716,"ĠGrad":3717,"ĠAward":3718,"ĠSoon":3719,"ĠJourney":3720,"ILL":3721,"Making":3722,"Qu":3723,"Ted":3724,"ĠRout":3725,"ĠInn":3726,"ĠSpending":3727,"ĠScene":3728,"ĠVideos":3729,"ĠClassic":3730,"orgeous":3731,"Taylor":3732,"Tube":3733,"res":3734,"ĠFig":3735,"ĠMike":3736,"itut":3737,"ican":3738,"ĠGag":3739,"eck":3740,"ighter":3741,"ĠComey":3742,"ĠNote":3743,"Brit":3744,"ĠPolitic":3745,"ĠAlleged":3746,"ĠCuts":3747,"ĠEyes":3748,"Rac":3749,"ĠSale":3750,"ĠDia":3751,"ĠKiss":3752,"alls":3753,"ĠSund":3754,"ĠGrowing":3755,"onday":3756,"ĠLesson":3757,"ĠAfrica":3758,"ĠHours":3759,"feeding":3760,"ES":3761,"Fashion":3762,"ĠBase":3763,"ĠHands":3764,"ĠVers":3765,"ĠAfford":3766,"ĠFired":3767,"ĠAccount":3768,"ĠInsur":3769,"ĠSaying":3770,"ĠCharges":3771,"ĠPlaying":3772,"ĠChristian":3773,"ronic":3774,"ĠTaste":3775,"ihanna":3776,"Tur":3777,"Ġe":3778,"ĠWat":3779,"ĠBoss":3780,"ĠHam":3781,"rep":3782,"elt":3783,"acter":3784,"ĠJapan":3785,"ĠShoes":3786,"osis":3787,"emon":3788,"Ġ200":3789,"ĠAttorney":3790,"ĠEmb":3791,"idden":3792,"ĠPutin":3793,"ĠEpic":3794,"ĠActivists":3795,"ĠRefugee":3796,"ophob":3797,"atural":3798,"ĠContinues":3799,"16":3800,"ĠTy":3801,"ĠBott":3802,"aken":3803,"ĠSuff":3804,"âĢĺ":3805,"ĠWeather":3806,"ĠSchumer":3807,"ĠCheese":3808,"ĠLeads":3809,"ĠDebt":3810,"ĠSandy":3811,"ĠChanging":3812,"ĠEngagement":3813,"FO":3814,"George":3815,"coming":3816,"evin":3817,"iat":3818,"where":3819,"inal":3820,"ĠSanta":3821,"ĠDom":3822,"ĠGoogle":3823,"asy":3824,"ĠOutr":3825,"ĠUnt":3826,"rene":3827,"ĠEvent":3828,"ĠPlanet":3829,"ĠInspired":3830,"ĠTechnology":3831,"Ac":3832,"Friend":3833,"ĠTack":3834,"ĠBik":3835,"oud":3836,"oma":3837,"lement":3838,"igen":3839,"ĠForward":3840,"ĠComb":3841,"ĠArab":3842,"ĠEmbr":3843,"pril":3844,"Friday":3845,"ĠTeachers":3846,"ĠCorpor":3847,"ĠAnimal":3848,"ĠAustral":3849,"25":3850,"Im":3851,"Mon":3852,"South":3853,"War":3854,"rod":3855,"erence":3856,"ĠNeigh":3857,"ived":3858,"ĠBecame":3859,"ĠChef":3860,"Being":3861,"ĠCosts":3862,"ĠRacial":3863,"ĠAddiction":3864,"ĠRoyal":3865,"ĠSaved":3866,"Fox":3867,"rie":3868,"ĠTit":3869,"ĠNumber":3870,"elist":3871,"ading":3872,"ĠBegin":3873,"Ġ16":3874,"oking":3875,"Americans":3876,"ĠIllness":3877,"ĠRule":3878,"ĠAnxiety":3879,"Red":3880,"ĠMob":3881,"ita":3882,"oms":3883,"otes":3884,"ĠTries":3885,"ester":3886,"ĠVoice":3887,"Ġ18":3888,"ĠOffer":3889,"ĠOrlando":3890,"ĠGreatest":3891,"ĠConvention":3892,"ĠTraining":3893,"Elizabeth":3894,"Gen":3895,"Hom":3896,"Hear":3897,"Teen":3898,"erts":3899,"ĠBand":3900,"ĠNail":3901,"ooper":3902,"ĠPrincess":3903,"aint":3904,"ĠCrimin":3905,"ĠAmb":3906,"ĠMembers":3907,"ĠInstead":3908,"ĠCountries":3909,"ĠCongressman":3910,"ipping":3911,"ĠSales":3912,"ĠFollow":3913,"Recipe":3914,"ĠPrivate":3915,"ĠEnvironment":3916,"Out":3917,"ĠTick":3918,"ĠLower":3919,"icer":3920,"ĠChance":3921,"ĠConcer":3922,"ĠBride":3923,"antic":3924,"ĠDriver":3925,"ashes":3926,"ĠBanks":3927,"ĠBreakfast":3928,"ĠDeliver":3929,"ĠBehav":3930,"ĠTherapy":3931,"Gl":3932,"Mad":3933,"lish":3934,"ĠTaught":3935,"ĠAud":3936,"ĠFaith":3937,"ĠMount":3938,"ĠPride":3939,"ables":3940,"ĠHeal":3941,"road":3942,"ĠSpeaks":3943,"ĠGroups":3944,"ĠSanct":3945,"ĠDoctors":3946,"ĠControversial":3947,"ĠProducts":3948,"Inspired":3949,"Sup":3950,"oint":3951,"ĠChann":3952,"istance":3953,"ĠDrops":3954,"ichigan":3955,"Ġ40":3956,"ĠGlobes":3957,"ĠAffair":3958,"ĠBathroom":3959,"ĠDiversity":3960,"CA":3961,"Dav":3962,"Famil":3963,"Mike":3964,"NA":3965,"hy":3966,"hold":3967,"kward":3968,"ĠFails":3969,"ĠMey":3970,"ĠGerman":3971,"ander":3972,"ĠJan":3973,"elling":3974,"Report":3975,"ĠCruise":3976,"Weekend":3977,"ĠLawmakers":3978,"Facebook":3979,"Trevor":3980,"kes":3981,"erate":3982,"ĠSessions":3983,"ĠCele":3984,"ĠTow":3985,"elves":3986,"emen":3987,"eller":3988,"ibility":3989,"ĠCollection":3990,"ĠAccident":3991,"ĠModels":3992,"Getting":3993,"ĠRumors":3994,"ĠFeatures":3995,"Air":3996,"Home":3997,"MA":3998,"ĠPi":3999,"ĠOK":4000,"ĠHILL":4001,"ĠLip":4002,"ĠNamed":4003,"ĠStone":4004,"ĠDisorder":4005,"ĠFlood":4006,"ĠSurger":4007,"ĠFinding":4008,"ĠImpact":4009,"ĠGlass":4010,"ĠCreative":4011,"ĠFrancisco":4012,"HUFFPOST":4013,"ĠConcern":4014,"Florida":4015,"reprene":4016,"Make":4017,"Win":4018,"cy":4019,"ĠCorr":4020,"arr":4021,"itude":4022,"iser":4023,"ĠGorgeous":4024,"acts":4025,"ummer":4026,"ĠWeap":4027,"That":4028,"ĠCarson":4029,"ĠDiscover":4030,"azi":4031,"ĠCalling":4032,"ĠChem":4033,"ĠSlow":4034,"ĠâĢĶ":4035,"ĠDefin":4036,"ĠSyrian":4037,"ĠBars":4038,"Joe":4039,"gypt":4040,"ĠAdmits":4041,"ĠMuslims":4042,"ĠAnimals":4043,"ormal":4044,"RAPH":4045,"ĠClothing":4046,"Miley":4047,"Supreme":4048,"iere":4049,"miss":4050,"rop":4051,"ĠHang":4052,"ĠLady":4053,"ĠGround":4054,"place":4055,"ĠFlu":4056,"ĠOrd":4057,"oughts":4058,"ĠSexy":4059,"ĠMillenn":4060,"ĠWearing":4061,"ĠBuilding":4062,"ĠAnswer":4063,"ĠWhether":4064,"RAPHIC":4065,"Daily":4066,"Pat":4067,"Yes":4068,"win":4069,"ze":4070,"inations":4071,"ĠCab":4072,"ĠWind":4073,"ĠPink":4074,"ĠPizza":4075,"ĠDistr":4076,"ersey":4077,"ĠPrice":4078,"usion":4079,"ĠComedy":4080,"ĠBrother":4081,"Ġ17":4082,"Inside":4083,"undreds":4084,"ĠPoints":4085,"ĠDavis":4086,"ĠEconomic":4087,"ĠMyths":4088,"ĠInflu":4089,"19":4090,"Fed":4091,"Kelly":4092,"jects":4093,"oices":4094,"inary":4095,"ĠSad":4096,"ĠCards":4097,"ĠWil":4098,"ĠWake":4099,"itz":4100,"uments":4101,"oft":4102,"ĠDraw":4103,"ĠUnex":4104,"ĠAccept":4105,"apping":4106,"ĠDemand":4107,"ĠMillions":4108,"ĠImmigrants":4109,"ĠQueen":4110,"ĠeBay":4111,"Friendly":4112,"Hot":4113,"Kn":4114,"May":4115,"Seth":4116,"ĠBiz":4117,"ĠFears":4118,"ĠNBA":4119,"ague":4120,"ĠAllow":4121,"ounts":4122,"oots":4123,"ĠJoin":4124,"ĠCheap":4125,"Prot":4126,"ĠAnything":4127,"Justin":4128,"ĠNominee":4129,"Minute":4130,"ĠDomestic":4131,"17":4132,"RT":4133,"cing":4134,"ha":4135,"non":4136,"Ġit":4137,"ero":4138,"ĠCute":4139,"ĠDoor":4140,"Ġ2018":4141,"away":4142,"ĠDisaster":4143,"ĠResolutions":4144,"ordan":4145,"ĠKiller":4146,"ĠSteve":4147,"ĠChallenges":4148,"ĠFollowing":4149,"ĠBritish":4150,"David":4151,"GRAPHIC":4152,"Sam":4153,"Und":4154,"aire":4155,"ĠPenn":4156,"ĠPaid":4157,"alian":4158,"ils":4159,"ĠInaug":4160,"ĠVill":4161,"osing":4162,"ella":4163,"athon":4164,"ĠQuit":4165,"ĠContest":4166,"Anti":4167,"ĠHarry":4168,"ĠKeeps":4169,"ĠHurt":4170,"ĠAnnounce":4171,"Russia":4172,"ĠExecutive":4173,"ĠPremiere":4174,"ĠGuilty":4175,"ĠMeyers":4176,"fire":4177,"riss":4178,"ye":4179,"ĠAid":4180,"ĠMix":4181,"ĠPicks":4182,"ĠDun":4183,"ĠLas":4184,"iculous":4185,"ĠIne":4186,"ĠNA":4187,"ĠStuff":4188,"idel":4189,"ieber":4190,"ction":4191,"ĠChildhood":4192,"fully":4193,"ĠThrow":4194,"ĠDetails":4195,"ĠSugar":4196,"ĠStrugg":4197,"ĠStruggle":4198,"ĠDigital":4199,"ĠVirginia":4200,"Finding":4201,"Judge":4202,"ocracy":4203,"Mother":4204,"joy":4205,"ĠPun":4206,"iring":4207,"ĠMeets":4208,"ĠEnc":4209,"ĠKnows":4210,"ĠShel":4211,"ĠImag":4212,"ĠAdvoc":4213,"ĠSpeak":4214,"Beaut":4215,"ĠInclud":4216,"Men":4217,"ci":4218,"gency":4219,"lim":4220,"ĠTies":4221,"ĠTem":4222,"ĠCaught":4223,"once":4224,"ĠBorn":4225,"ĠFur":4226,"ĠFish":4227,"ĠGas":4228,"ĠGap":4229,"ĠJersey":4230,"ĠExact":4231,"ĠBeck":4232,"ĠIndepend":4233,"ĠLatin":4234,"ĠSilence":4235,"ĠRescue":4236,"ĠDocumentary":4237,"Bu":4238,"FW":4239,"Hel":4240,"Mark":4241,"ĠPorn":4242,"ĠLies":4243,"ĠEve":4244,"ĠThousands":4245,"ĠTrust":4246,"andon":4247,"emic":4248,"ĠWeinstein":4249,"rying":4250,"ĠSky":4251,"ĠChristie":4252,"ĠLearning":4253,"ĠOpening":4254,"ĠMagic":4255,"ĠMisc":4256,"ĠEntreprene":4257,"ĠEmployees":4258,"ĠSurvivors":4259,"Jessica":4260,"ĠApril":4261,"heim":4262,"ĠPump":4263,"ĠPath":4264,"ĠYouTube":4265,"ĠUN":4266,"ively":4267,"abor":4268,"ĠDrive":4269,"ĠArm":4270,"ĠBlame":4271,"Child":4272,"Charl":4273,"ĠAttention":4274,"ĠCharacter":4275,"ĠTerrible":4276,"ylie":4277,"ĠReligious":4278,"ĠEssential":4279,"ĠConcert":4280,"ĠSurgery":4281,"Right":4282,"Sy":4283,"Too":4284,"care":4285,"rome":4286,"Ġ...":4287,"ĠTough":4288,"ĠCord":4289,"ĠHat":4290,"isher":4291,"China":4292,"ĠSerious":4293,"ĠMeaning":4294,"ĠProfess":4295,"ĠClothes":4296,"ĠHawaii":4297,"ĠVeget":4298,"ĠInsurance":4299,"Mind":4300,"lights":4301,"mit":4302,"mart":4303,"ĠTable":4304,"enes":4305,"ĠHyp":4306,"terest":4307,"ĠConst":4308,"ĠCry":4309,"ooklyn":4310,"ĠAgo":4311,"ĠJustin":4312,"aza":4313,"ĠArtists":4314,"ĠCourse":4315,"ĠHigher":4316,"uesday":4317,"ĠCapital":4318,"ĠSurvive":4319,"ĠWatching":4320,"Op":4321,"Vide":4322,"sp":4323,"ĠIowa":4324,"ĠMic":4325,"iti":4326,"ĠTraff":4327,"ĠForget":4328,"ĠKanye":4329,"imal":4330,"ĠFrance":4331,"ĠScientists":4332,"aham":4333,"ĠFeminist":4334,"ĠVeterans":4335,"ĠOwner":4336,"Craft":4337,"abetes":4338,"30":4339,"Kids":4340,"rupt":4341,"ari":4342,"ĠDying":4343,"ĠHill":4344,"idents":4345,"irty":4346,"ĠVows":4347,"ĠChinese":4348,"ĠAttr":4349,"ĠDelicious":4350,"ĠVictim":4351,"ĠLoses":4352,"ĠUrges":4353,"ĠAfrican":4354,"ĠiPhone":4355,"ĠGeneration":4356,"ĠCriminal":4357,"rissy":4358,"90":4359,"Five":4360,"hib":4361,"rence":4362,"uation":4363,"arter":4364,"ĠRide":4365,"olic":4366,"ĠAltern":4367,"ĠScar":4368,"ĠWinner":4369,"Prince":4370,"ĠDebut":4371,"Connell":4372,"ylv":4373,"ĠRevealed":4374,"ĠRestaurants":4375,"ĠOutrage":4376,"Family":4377,"Happy":4378,"Tod":4379,"bow":4380,"ĠTatt":4381,"anne":4382,"orry":4383,"ĠBell":4384,"ĠBald":4385,"ĠMigr":4386,"ĠLiter":4387,"asing":4388,"lee":4389,"aining":4390,"ĠAlone":4391,"ĠExpert":4392,"opped":4393,"ĠDifference":4394,"ĠPicture":4395,"ĠCommittee":4396,"Less":4397,"Like":4398,"Sn":4399,"host":4400,"onna":4401,"ĠBieber":4402,"ĠRips":4403,"ished":4404,"ĠEst":4405,"ĠUK":4406,"ĠSpre":4407,"ĠCommer":4408,"ĠSeat":4409,"ĠDisapp":4410,"ocked":4411,"ĠStrike":4412,"ĠButter":4413,"Another":4414,"ĠSynd":4415,"aft":4416,"ĠMemorial":4417,"ĠTurned":4418,"ĠRelationships":4419,"ĠObesity":4420,"ĠEntire":4421,"ĠCitizens":4422,"ĠGaga":4423,"'?":4424,"hic":4425,"so":4426,"ĠRico":4427,"ĠTheory":4428,"ĠNav":4429,"ĠBrief":4430,"aste":4431,"ĠDrop":4432,"IDS":4433,"ĠOrig":4434,"ĠDenies":4435,"ĠLeadership":4436,"ĠJackson":4437,"Breaking":4438,"ĠForever":4439,"ĠCharlott":4440,"ĠStrateg":4441,"ĠStrategy":4442,"ĠPresidency":4443,"Video":4444,"kr":4445,"ker":4446,"ĠSense":4447,"ĠIv":4448,"ĠMothers":4449,"eling":4450,"acing":4451,"ĠJune":4452,"ĠBee":4453,"ĠPlus":4454,"ĠTeigen":4455,"ĠHealthier":4456,"ĠAppar":4457,"ĠJoke":4458,"ĠEvidence":4459,"ĠBecoming":4460,"ĠEasier":4461,"ĠVacc":4462,"Celebrity":4463,"ĠStylelist":4464,"ĠApologizes":4465,"ĠLesb":4466,"Put":4467,"She":4468,"gl":4469,"ĠDoub":4470,"ĠRare":4471,"ĠTool":4472,"ivia":4473,"unity":4474,"ems":4475,"obb":4476,"ĠPhys":4477,"ĠQuiz":4478,"ĠCoal":4479,"Ang":4480,"ĠEnds":4481,"ĠZika":4482,"ĠIndia":4483,"ĠMinister":4484,"ĠFarm":4485,"ĠRevolution":4486,"ĠDestinations":4487,"ĠWalker":4488,"Healthy":4489,"ĠCuba":4490,"ĠAfghanistan":4491,"ĠDiagn":4492,"ĠBizarre":4493,"ĠSyndrome":4494,"ius":4495,"ĠAlex":4496,"ĠSix":4497,"ĠCer":4498,"ĠBoth":4499,"aron":4500,"entucky":4501,"ĠDeals":4502,"ĠAlive":4503,"ardr":4504,"ĠMary":4505,"ĠSurf":4506,"ĠApps":4507,"ĠAwkward":4508,"ĠPatrick":4509,"ĠClear":4510,"ĠEmpower":4511,"ĠThreats":4512,"ĠBreastfeeding":4513,"ĠControversy":4514,"ĠFocus":4515,"ĠUnexpected":4516,"Dog":4517,"Dressed":4518,"Want":4519,"ga":4520,"ĠSel":4521,"ĠSend":4522,"ĠSite":4523,"ĠFant":4524,"areness":4525,"ĠMat":4526,"ĠLee":4527,"uration":4528,"ĠForces":4529,"ĠVogue":4530,"ĠArch":4531,"ĠOutfits":4532,"ĠInterest":4533,"ĠMusical":4534,"rated":4535,"anka":4536,"ĠRaises":4537,"Climate":4538,"aska":4539,"ĠPuerto":4540,"ĠHorror":4541,"ĠAngeles":4542,"Harry":4543,"ĠUntil":4544,"ylvania":4545,"Bad":4546,"Mod":4547,"San":4548,"ĠCir":4549,"ĠCNN":4550,"arm":4551,"ouston":4552,"ĠRod":4553,"ĠChoose":4554,"ulian":4555,"ĠFresh":4556,"emade":4557,"oda":4558,"inking":4559,"reek":4560,"ĠFeels":4561,"ĠPlease":4562,"Jeb":4563,"ĠEditor":4564,"Little":4565,"Ryan":4566,"ĠSends":4567,"ĠSister":4568,"ĠFab":4569,"ĠMach":4570,"edic":4571,"ĠLines":4572,"eld":4573,"ĠThoughts":4574,"ĠSues":4575,"ourt":4576,"ĠMarathon":4577,"ĠTale":4578,"ĠJoins":4579,"ĠElse":4580,"ĠThreatens":4581,"ĠOfficially":4582,"ĠWait":4583,"ĠPractice":4584,"ĠExactly":4585,"Great":4586,"Sl":4587,"zheim":4588,"ĠTiny":4589,"ĠWage":4590,"ĠBoston":4591,"ĠMichelle":4592,"ĠPil":4593,"ĠPays":4594,"ĠOhio":4595,"ĠDess":4596,"ĠLi":4597,"ained":4598,"ĠWeigh":4599,"ĠWebs":4600,"ĠUnl":4601,"ĠEnjoy":4602,"ĠAccus":4603,"ĠLawrence":4604,"ĠBird":4605,"enced":4606,"olutely":4607,"Conf":4608,"ĠExpensive":4609,"ooney":4610,"IVE":4611,"ĠCostume":4612,"ĠProsecut":4613,"ĠCrowd":4614,"ĠSunday":4615,"zheimer":4616,"Iran":4617,"do":4618,"ĠDip":4619,"ĠNatural":4620,"ĠYemen":4621,"thony":4622,"ĠBrides":4623,"azz":4624,"risten":4625,"ĠDemocracy":4626,"Scott":4627,"ĠReading":4628,"ĠMedicine":4629,"regon":4630,"ĠAthletes":4631,"ĠBehavior":4632,"IA":4633,"ĠWis":4634,"ĠBat":4635,"ĠFly":4636,"ĠMale":4637,"ĠMaster":4638,"ĠPaper":4639,"ĠDouble":4640,"elle":4641,"illa":4642,"ĠHeat":4643,"ĠMeat":4644,"State":4645,"angers":4646,"ĠCharge":4647,"ĠDeport":4648,"ĠAnyone":4649,"Clinton":4650,"ĠPupp":4651,"INFO":4652,"ĠWelcome":4653,"ĠProcess":4654,"ĠRecovery":4655,"Of":4656,"Summer":4657,"Take":4658,"hl":4659,"wich":4660,"ĠPit":4661,"ĠPants":4662,"ĠDist":4663,"ĠRose":4664,"ĠGown":4665,"ĠGone":4666,"ĠGym":4667,"ĠGeorgia":4668,"ĠInform":4669,"ĠNick":4670,"ĠStock":4671,"amb":4672,"ĠAli":4673,"ĠPlays":4674,"ĠLev":4675,"ĠDrunk":4676,"ĠStreng":4677,"ĠBreaking":4678,"ĠNightm":4679,"ĠTaxes":4680,"ĠBelie":4681,"ĠSuprem":4682,"aughters":4683,"ĠCondem":4684,"Amaz":4685,"ĠStylish":4686,"ĠCocktails":4687,"ĠDiscrimination":4688,"ĠCorporate":4689,"Heart":4690,"Did":4691,"GPS":4692,"iot":4693,"sylvania":4694,"wear":4695,"ĠSound":4696,"ĠCas":4697,"ĠOk":4698,"iding":4699,"ĠThom":4700,"ĠTraged":4701,"akistan":4702,"ĠJay":4703,"ĠSuit":4704,"ĠBlasts":4705,"izona":4706,"ĠUsers":4707,"ictions":4708,"ĠAttend":4709,"ĠBarb":4710,"ĠStephen":4711,"ĠProduct":4712,"ĠTerrorism":4713,"ĠAnthem":4714,"ĠOliver":4715,"ĠPictures":4716,"ardrobe":4717,"INFOGRAPHIC":4718,"Fun":4719,"LA":4720,"Som":4721,"Sand":4722,"eh":4723,"uk":4724,"xit":4725,"ĠTort":4726,"ĠTree":4727,"ĠSolution":4728,"ĠMort":4729,"ĠPage":4730,"ĠLux":4731,"ĠInner":4732,"ĠNor":4733,"ĠNob":4734,"ĠBrut":4735,"ĠBraz":4736,"ĠParad":4737,"ĠGrace":4738,"athy":4739,"ĠSlam":4740,"ĠSeriously":4741,"ĠDefend":4742,"PORT":4743,"ĠPromise":4744,"ĠEngaged":4745,"ĠSuccessful":4746,"ĠPotential":4747,"aturday":4748,"ĠWaiting":4749,"ĠDrinking":4750,"Boy":4751,"Gun":4752,"Jon":4753,"ait":4754,"lleg":4755,"ĠTerm":4756,"ĠOper":4757,"stery":4758,"ellig":4759,"ĠMeas":4760,"rah":4761,"issa":4762,"ĠNeeded":4763,"ĠQuick":4764,"ĠAttempt":4765,"ĠAwareness":4766,"ĠFunny":4767,"ĠRegul":4768,"Apple":4769,"ĠRenew":4770,"Amy":4771,"Ser":4772,"den":4773,"iation":4774,"esville":4775,"ĠBuck":4776,"ĠDied":4777,"ĠToward":4778,"vert":4779,"osh":4780,"ĠAlso":4781,"ĠBlow":4782,"ĠWriter":4783,"Marriage":4784,"ĠEpid":4785,"ĠFunding":4786,"ĠBachelor":4787,"ĠRidiculous":4788,"ĠInauguration":4789,"ĠCorden":4790,"ĠCommerc":4791,"born":4792,"dog":4793,"ĠSour":4794,"ĠSept":4795,"ĠCooper":4796,"ĠBon":4797,"ĠDaughters":4798,"alty":4799,"ĠSteal":4800,"ador":4801,"ĠUt":4802,"ĠPray":4803,"ĠSpoof":4804,"ĠComfort":4805,"ĠPled":4806,"assion":4807,"ĠFlint":4808,"ĠWarm":4809,"ĠQuotes":4810,"ĠStrikes":4811,"ĠSheer":4812,"ĠHeard":4813,"ĠShooter":4814,"cohol":4815,"itional":4816,"ĠPartner":4817,"Israel":4818,"ĠFailure":4819,"ĠAmazon":4820,"ĠPolls":4821,"ĠInjured":4822,"break":4823,"Jeff":4824,"ĠTrolls":4825,"ĠBreath":4826,"Spring":4827,"Google":4828,"Kanye":4829,"ĠSne":4830,"hew":4831,"alia":4832,"acking":4833,"eeks":4834,"ĠClip":4835,"ĠAsian":4836,"ĠResolution":4837,"ĠWasn":4838,"ĠSwim":4839,"pective":4840,"ĠDeaths":4841,"ĠReduce":4842,"ĠPerfectly":4843,"ĠEaster":4844,"Dead":4845,"ĠExtra":4846,"clusive":4847,"Parents":4848,"asket":4849,"ĠDiabetes":4850,"ĠShutdown":4851,"ĠPositive":4852,"ĠDivorced":4853,"Aust":4854,"Lady":4855,"Mc":4856,"Mor":4857,"Sus":4858,"ĠCases":4859,"ĠBom":4860,"ĠMain":4861,"ĠPod":4862,"ĠHook":4863,"ĠRate":4864,"ĠReject":4865,"oses":4866,"ĠDriving":4867,"ĠAdults":4868,"ĠWinning":4869,"ĠConference":4870,"ĠRuling":4871,"ĠCounty":4872,"ĠPortra":4873,"ĠLawmaker":4874,"Muslim":4875,"Now":4876,"Tim":4877,"lers":4878,"antha":4879,"ĠPip":4880,"ĠGiant":4881,"ĠEra":4882,"ĠJer":4883,"ĠSpend":4884,"ĠSpark":4885,"ĠBroken":4886,"iance":4887,"Three":4888,"Style":4889,"ĠHearing":4890,"ĠHarm":4891,"ĠCampus":4892,"ĠHighlights":4893,"ĠRisks":4894,"ĠWalking":4895,"ĠRaising":4896,"ĠRobert":4897,"ĠBeyoncÃ©":4898,"ĠCaptures":4899,"ĠPinterest":4900,"ĠNeighbor":4901,"BO":4902,"Ext":4903,"Have":4904,"Rick":4905,"Sing":4906,"set":4907,"war":4908,"ĠHip":4909,"ĠGraham":4910,"uption":4911,"angu":4912,"ĠIntrod":4913,"ĠTraveling":4914,"ĠSeeks":4915,"ĠHonest":4916,"ĠReplace":4917,"ĠEmergency":4918,"ĠRetirement":4919,"timore":4920,"ĠTragedy":4921,"Sarah":4922,"gar":4923,"work":4924,"ĠHamp":4925,"ĠRice":4926,"ĠGPS":4927,"iling":4928,"ĠNails":4929,"ĠJordan":4930,"ĠJokes":4931,"ĠVotes":4932,"otten":4933,"umbers":4934,"ĠDevelopment":4935,"ĠAppearance":4936,"ĠCosby":4937,"Cop":4938,"Fire":4939,"Net":4940,"Sund":4941,"dr":4942,"ĠAst":4943,"ĠAch":4944,"ĠSets":4945,"ĠSaudi":4946,"ĠBet":4947,"ened":4948,"ĠUg":4949,"ĠCha":4950,"iven":4951,"emony":4952,"ĠExist":4953,"Travel":4954,"ĠMakeover":4955,"ernity":4956,"ĠFounder":4957,"ĠBoyfriend":4958,"ĠCandy":4959,"ĠImmigrant":4960,"ĠReaders":4961,"ĠHilariously":4962,"ĠMcCain":4963,"ĠHopes":4964,"ĠAttract":4965,"ĠBaldwin":4966,"Ev":4967,"Power":4968,"bl":4969,"kins":4970,"ping":4971,"pire":4972,"ror":4973,"ĠCash":4974,"onight":4975,"ĠBatt":4976,"ĠMult":4977,"ĠOce":4978,"ĠHy":4979,"ĠRio":4980,"ĠYes":4981,"uty":4982,"ĠVer":4983,"ĠAlong":4984,"ĠItalian":4985,"odies":4986,"ĠGuys":4987,"ĠElections":4988,"ĠMission":4989,"ĠMcConnell":4990,"ĠLatino":4991,"ĠValley":4992,"ĠRichard":4993,"oops":4994,"Everything":4995,"ĠJewish":4996,"Under":4997,"Bac":4998,"HO":4999,"Katy":5000,"Linds":5001,"gage":5002,"mber":5003,"pts":5004,"ĠTears":5005,"ĠSat":5006,"esus":5007,"ĠField":5008,"ĠMocks":5009,"ĠDer":5010,"ĠRog":5011,"ĠLov":5012,"ĠLaugh":5013,"ĠNormal":5014,"ĠTruly":5015,"ĠItaly":5016,"ober":5017,"ĠParody":5018,"ĠLew":5019,"Thanks":5020,"ĠIntellig":5021,"ĠGuest":5022,"roach":5023,"ĠGlam":5024,"ĠFalls":5025,"ĠKeeping":5026,"ĠLaur":5027,"ĠHonors":5028,"Def":5029,"ĠPaint":5030,"ĠActivist":5031,"ĠPressure":5032,"ĠEffects":5033,"ĠIslamic":5034,"ĠIconic":5035,"ĠBrazil":5036,"60":5037,"Mel":5038,"Val":5039,"lash":5040,"ĠBer":5041,"ĠLoved":5042,"ĠGome":5043,"ilities":5044,"ĠEPA":5045,"ĠTricks":5046,"estin":5047,"ĠAbandon":5048,"ĠAlabama":5049,"ellow":5050,"ĠWilliam":5051,"ĠFires":5052,"quality":5053,"ĠQuiet":5054,"ancer":5055,"News":5056,"ĠOfficers":5057,"ĠReleased":5058,"ĠFailed":5059,"ĠCritics":5060,"ĠMarketing":5061,"ĠConservative":5062,"Beauty":5063,"ĠCeremony":5064,"ĠGomez":5065,"Gold":5066,"HOTO":5067,"ped":5068,"ray":5069,"xic":5070,"ĠBond":5071,"ĠPHOTO":5072,"ĠOct":5073,"ibly":5074,"ĠGoals":5075,"ĠRecap":5076,"ĠWorkplace":5077,"ĠFeed":5078,"ĠRelief":5079,"ĠSki":5080,"ĠInvol":5081,"ĠMinim":5082,"ĠMilk":5083,"ĠFearless":5084,"ĠRecords":5085,"iami":5086,"Comp":5087,"ĠEleph":5088,"ĠCompletely":5089,"DIY":5090,"Fight":5091,"Gw":5092,"LO":5093,"aum":5094,"men":5095,"ĠBob":5096,"ĠLoving":5097,"ĠIng":5098,"ĠNature":5099,"acle":5100,"ĠStation":5101,"iment":5102,"ecess":5103,"illiant":5104,"ĠVen":5105,"ĠChap":5106,"ulf":5107,"ĠAlzheimer":5108,"epar":5109,"ĠSean":5110,"ĠEnding":5111,"ĠGirlfriend":5112,"ĠDebuts":5113,"Read":5114,"ĠRising":5115,"Marco":5116,"ĠTurning":5117,"ĠIllust":5118,"ĠOpport":5119,"ĠPhotographer":5120,"ĠEpidemic":5121,"Emp":5122,"bon":5123,"oil":5124,"zens":5125,"Ġb":5126,"ĠWeeks":5127,"ĠBust":5128,"ĠFisher":5129,"ĠPep":5130,"ĠDue":5131,"ĠDomin":5132,"ĠLad":5133,"ĠToys":5134,"ĠGall":5135,"ĠNutr":5136,"urb":5137,"ĠForced":5138,"imb":5139,"ĠJu":5140,"ĠAlcohol":5141,"ĠSust":5142,"ĠCanada":5143,"ĠScient":5144,"ĠEmails":5145,"Animal":5146,"ĠReminds":5147,"ĠRelax":5148,"ĠSandwich":5149,"ucker":5150,"ĠGreece":5151,"ĠCongressional":5152,"ĠApart":5153,"ĠCoverage":5154,"ĠPromises":5155,"Parenting":5156,"ĠJournalists":5157,"ĠSurvivor":5158,"ĠVeteran":5159,"ĠCostumes":5160,"80":5161,"Dep":5162,"Fear":5163,"National":5164,"Pro":5165,"Run":5166,"Yoga":5167,"bucks":5168,"gets":5169,"mark":5170,"wide":5171,"ĠPool":5172,"ĠDO":5173,"stone":5174,"ofit":5175,"ĠComment":5176,"ĠSees":5177,"ĠSequ":5178,"Stress":5179,"onduct":5180,"upid":5181,"ĠWarn":5182,"ĠStrange":5183,"okes":5184,"ĠHarris":5185,"ĠSenators":5186,"ĠMcDonald":5187,"ĠHeads":5188,"Scientists":5189,"ĠImportance":5190,"ĠCustody":5191,"ĠConfirms":5192,"ĠBikini":5193,"ĠWisdom":5194,"Dec":5195,"Ellen":5196,"Hum":5197,"Per":5198,"Youn":5199,"cient":5200,"feld":5201,"ĠHuff":5202,"ĠRiver":5203,"ĠGolf":5204,"ĠNRA":5205,"eland":5206,"ĠStick":5207,"umn":5208,"ĠKl":5209,"ĠShr":5210,"ĠWore":5211,"endall":5212,"ĠBright":5213,"ĠBrooklyn":5214,"ĠWeb":5215,"ĠMeal":5216,"ĠScenes":5217,"ovember":5218,"ission":5219,"Inter":5220,"ĠInspire":5221,"ĠMinor":5222,"Bron":5223,"Ġ60":5224,"ĠStarted":5225,"ĠCentury":5226,"Russian":5227,"ĠLiber":5228,"ĠBalance":5229,"ĠCriticism":5230,"ĠAbsolutely":5231,"Holiday":5232,"ĠMisconduct":5233,"Sunday":5234,"Dan":5235,"NFL":5236,"Roy":5237,"Soc":5238,"life":5239,"mate":5240,"uits":5241,"ĠFlying":5242,"ĠMoon":5243,"ĠPub":5244,"ĠRick":5245,"ĠNumbers":5246,"leans":5247,"uten":5248,"apse":5249,"ĠSparks":5250,"awn":5251,"ension":5252,"ĠWarning":5253,"bye":5254,"ĠMemory":5255,"ĠCooking":5256,"ĠHandle":5257,"Republican":5258,"breaking":5259,"ĠBacon":5260,"ĠSelling":5261,"ĠGrammys":5262,"ĠEntertain":5263,"ĠBegins":5264,"ĠSanctions":5265,"18":5266,"Cooking":5267,"Doc":5268,"SFW":5269,"te":5270,"vent":5271,"ĠBasket":5272,"ĠFights":5273,"ĠMour":5274,"ĠLie":5275,"ĠEric":5276,"usal":5277,"ĠShame":5278,"aped":5279,"oca":5280,"ĠSpears":5281,"ĠSpicer":5282,"ĠSue":5283,"ĠCars":5284,"ĠUnve":5285,"ĠAgency":5286,"ĠCollect":5287,"athers":5288,"ĠPlaylist":5289,"ennis":5290,"ĠSymp":5291,"ĠCelebrating":5292,"ĠRefuses":5293,"orthy":5294,"ĠSociety":5295,"ĠPatri":5296,"Death":5297,"ĠRevers":5298,"ĠReaction":5299,"ĠPurp":5300,"ĠMindfulness":5301,"ĠOrders":5302,"Leg":5303,"wr":5304,"ĠAim":5305,"ĠCovers":5306,"ĠIlleg":5307,"ĠHidden":5308,"ĠLobby":5309,"ela":5310,"ĠTrouble":5311,"adian":5312,"ĠUber":5313,"ĠJennifer":5314,"ĠPrime":5315,"ĠPrint":5316,"ĠSpin":5317,"ĠArmy":5318,"ĠDisp":5319,"ĠTea":5320,"raid":5321,"ĠWorker":5322,"ĠStarts":5323,"ĠOpt":5324,"ĠTravelers":5325,"Reilly":5326,"ĠEdition":5327,"ĠDressed":5328,"ĠMemo":5329,"ĠPotter":5330,"ĠNomination":5331,"ĠEuropean":5332,"ĠAirline":5333,"ĠIncrease":5334,"ĠMueller":5335,"ĠDishes":5336,"Remember":5337,"kraine":5338,"ĠAims":5339,"ĠHers":5340,"ĠHors":5341,"ĠHunt":5342,"ĠRates":5343,"aced":5344,"eston":5345,"ĠKr":5346,"ĠLeaving":5347,"ĠDrinks":5348,"ĠOutfit":5349,"ĠBlames":5350,"ĠRecogn":5351,"anging":5352,"ĠOrleans":5353,"Chrissy":5354,"ĠHappier":5355,"Princess":5356,"ĠPosts":5357,"ĠHoney":5358,"ĠCookies":5359,"ĠSilver":5360,"ĠBombing":5361,"ĠSettlement":5362,"ĠLesbian":5363,"ĠSeptember":5364,"21":5365,"Matt":5366,"Mex":5367,"Self":5368,"ĠTor":5369,"ĠAug":5370,"ĠSac":5371,"ĠSize":5372,"ĠHouston":5373,"ĠRh":5374,"ĠRam":5375,"itely":5376,"ĠLands":5377,"ĠLyn":5378,"eces":5379,"ĠExhib":5380,"ĠPlant":5381,"Thousands":5382,"ĠMystery":5383,"ĠAppears":5384,"ĠSexist":5385,"ĠBanned":5386,"ĠDeserv":5387,"ĠBuying":5388,"ĠPasses":5389,"ĠCyber":5390,"ĠFourth":5391,"Steve":5392,"ĠBaseball":5393,"Cap":5394,"Ear":5395,"Mal":5396,"fun":5397,"ware":5398,"yr":5399,"anning":5400,"ĠBans":5401,"ĠPed":5402,"ĠDNC":5403,"ederate":5404,"rel":5405,"ocal":5406,"ĠAtl":5407,"allas":5408,"ĠSpots":5409,"onsin":5410,"ĠPresent":5411,"ĠApproach":5412,"ĠEverywhere":5413,"ĠSuperher":5414,"ĠConfl":5415,"ĠMotherhood":5416,"anny":5417,"ĠSelfie":5418,"ĠCloset":5419,"ĠCauc":5420,"ĠReligion":5421,"Girls":5422,"isconsin":5423,"ĠReunion":5424,"UDY":5425,"!)":5426,"Fin":5427,"Keep":5428,"Medit":5429,"Olymp":5430,"can":5431,"iate":5432,"och":5433,"ten":5434,"Ġde":5435,"ĠCath":5436,"ĠWardrobe":5437,"ĠFals":5438,"ĠOvers":5439,"ĠDirty":5440,"isl":5441,"ĠLog":5442,"ĠNar":5443,"ĠNovember":5444,"etch":5445,"ĠTruck":5446,"ume":5447,"ula":5448,"iple":5449,"ĠAbroad":5450,"ĠBrilliant":5451,"ĠLevel":5452,"ello":5453,"ĠUns":5454,"ĠBacklash":5455,"ĠPatient":5456,"ĠPassion":5457,"ĠSalad":5458,"ĠInspiring":5459,"STUDY":5460,"ĠMistake":5461,"ĠJournalist":5462,"ĠAnswers":5463,"ĠSpiritual":5464,"ĠChampions":5465,"ĠGarden":5466,"Imm":5467,"ĠWilson":5468,"ĠIntelligence":5469,"But":5470,"Cle":5471,"II":5472,"Mill":5473,"Mass":5474,"Osc":5475,"Ru":5476,"sen":5477,"ĠCorn":5478,"ĠBit":5479,"ĠBuff":5480,"ĠMer":5481,"ĠDump":5482,"ĠRaid":5483,"isan":5484,"ĠToxic":5485,"ĠStuck":5486,"idge":5487,"ĠKen":5488,"ĠOnes":5489,"ĠProof":5490,"Themed":5491,"thy":5492,"ĠBear":5493,"ĠShip":5494,"apes":5495,"iah":5496,"oster":5497,"ĠSpect":5498,"ĠBroke":5499,"ĠWealth":5500,"olds":5501,"ĠThrows":5502,"ĠMember":5503,"ISIS":5504,"ĠCreates":5505,"ĠKorean":5506,"shire":5507,"ĠCrashes":5508,"crib":5509,"burg":5510,"ĠHunger":5511,"ĠCirc":5512,"ĠHampshire":5513,"Could":5514,"DC":5515,"Living":5516,"Nick":5517,"die":5518,"kish":5519,"ĠSoup":5520,"ĠSoda":5521,"ĠFine":5522,"ĠLA":5523,"ĠLangu":5524,"omy":5525,"ĠStands":5526,"iders":5527,"ĠBrothers":5528,"ĠAcad":5529,"ĠSurr":5530,"ĠAccuses":5531,"ĠAccounts":5532,"ĠOpio":5533,"ahu":5534,"ĠPaying":5535,"icole":5536,"ĠFacing":5537,"Sean":5538,"ĠContinue":5539,"ĠPenalty":5540,"ĠIdentity":5541,"ĠRoutine":5542,"ĠInnov":5543,"ĠAffordable":5544,"ĠWebsite":5545,"ĠSustain":5546,"ED":5547,"End":5548,"Fit":5549,"Fem":5550,"IO":5551,"Lear":5552,"MO":5553,"Sel":5554,"boy":5555,"ka":5556,"lah":5557,"part":5558,"Âł":5559,"ĠAle":5560,"ĠFuel":5561,"atory":5562,"ĠGain":5563,"rect":5564,"aser":5565,"etime":5566,"igs":5567,"ĠKevin":5568,"ĠJet":5569,"ĠChronic":5570,"empl":5571,"ĠCrush":5572,"ĠUnique":5573,"ĠGoal":5574,"ĠAppeal":5575,"enness":5576,"ĠOlder":5577,"ĠFreak":5578,"ĠStanding":5579,"ĠCentral":5580,"ĠCloser":5581,"ĠCleaning":5582,"ĠEndorses":5583,"ĠPerspective":5584,"ĠAustralia":5585,"Bur":5586,"Co":5587,"cc":5588,"ĠMonday":5589,"ĠMichigan":5590,"ĠHaven":5591,"ĠRat":5592,"ĠRand":5593,"ilt":5594,"inder":5595,"ection":5596,"ĠResidents":5597,"ugs":5598,"rench":5599,"ĠCharity":5600,"ĠShootings":5601,"ĠStatement":5602,"ĠParties":5603,"ological":5604,"ĠOwners":5605,"ĠSurprises":5606,"Expl":5607,"ĠKeys":5608,"ursday":5609,"ĠCondition":5610,"ACA":5611,"ĠCamera":5612,"ĠBeckham":5613,"ĠIndependence":5614,"ĠPipeline":5615,"ĠHuffington":5616,"Last":5617,"Ret":5618,"TS":5619,"not":5620,"ĠTip":5621,"ĠRocks":5622,"itis":5623,"reland":5624,"amin":5625,"ented":5626,"akota":5627,"ĠPrize":5628,"ivals":5629,"ĠWorry":5630,"enda":5631,"ĠItems":5632,"ĠArts":5633,"ĠOutbreak":5634,"Thr":5635,"aways":5636,"ĠBannon":5637,"etters":5638,"ĠTotal":5639,"ĠMexican":5640,"ĠType":5641,"ĠEffort":5642,"ophobia":5643,"Gener":5644,"ĠCabin":5645,"Samantha":5646,"ĠTattoo":5647,"ĠPHOTOS":5648,"ĠMinimum":5649,"lahoma":5650,"Father":5651,"Hon":5652,"Mem":5653,"Mag":5654,"aj":5655,"ias":5656,"ios":5657,"lad":5658,"ĠTied":5659,"ĠBern":5660,"ĠMap":5661,"ĠPic":5662,"ĠHide":5663,"ala":5664,"ito":5665,"ĠLights":5666,"ĠInfect":5667,"ache":5668,"acre":5669,"urd":5670,"ution":5671,"essed":5672,"agon":5673,"ĠParks":5674,"ĠDrama":5675,"ĠScores":5676,"ĠDiss":5677,"berry":5678,"lections":5679,"ĠImpress":5680,"ĠEvents":5681,"ĠFeet":5682,"opez":5683,"ĠDeserve":5684,"ĠWriting":5685,"ĠSummit":5686,"ĠSnap":5687,"ĠDelivers":5688,"ĠThinking":5689,"ĠTests":5690,"ĠBenefit":5691,"ĠViews":5692,"ĠInclude":5693,"UPDATED":5694,"ĠPoliticians":5695,"ĠWeapons":5696,"ĠInequality":5697,"ĠCharlottesville":5698,"ĠLuxury":5699,"40":5700,"70":5701,"Fe":5702,"Hur":5703,"Laur":5704,"Terr":5705,"xual":5706,"ĠSaving":5707,"ĠCu":5708,"anch":5709,"ĠMax":5710,"ĠPie":5711,"ĠLed":5712,"oman":5713,"ĠTheater":5714,"oles":5715,"ĠUSA":5716,"ĠJam":5717,"earing":5718,"ĠSpouse":5719,"ĠComic":5720,"ĠBlind":5721,"ĠSever":5722,"aching":5723,"quette":5724,"ĠFeud":5725,"sea":5726,"ĠImages":5727,"ĠSeems":5728,"ĠIndian":5729,"ĠPartners":5730,"ĠConfron":5731,"ĠFilms":5732,"ĠAnyway":5733,"Ask":5734,"ĠCreating":5735,"yneth":5736,"ĠHarder":5737,"ĠPanel":5738,"ĠCamer":5739,"crip":5740,"ĠResigns":5741,"ĠEthics":5742,"ĠArabia":5743,"ĠTitle":5744,"hloe":5745,"ĠCommercial":5746,"ĠBasketball":5747,"Kristen":5748,"Rihanna":5749,"bie":5750,"body":5751,"eer":5752,"eith":5753,"ps":5754,"ruct":5755,"vis":5756,"ĠSau":5757,"ĠMand":5758,"enger":5759,"ĠOd":5760,"ĠLopez":5761,"olen":5762,"ĠConway":5763,"ĠAfraid":5764,"ĠBlast":5765,"ĠFlo":5766,"ĠWinners":5767,"itten":5768,"ĠWrite":5769,"Ref":5770,"Blog":5771,"ĠBreakup":5772,"ĠElizabeth":5773,"ĠExpand":5774,"ĠRobin":5775,"Only":5776,"ĠColorado":5777,"College":5778,"Disney":5779,"ĠPrepare":5780,"ĠJewel":5781,"ĠEffective":5782,"ĠMachine":5783,"Young":5784,"ĠConflict":5785,"Election":5786,"Fall":5787,"Lat":5788,"OK":5789,"Rich":5790,"Vict":5791,"gate":5792,"maid":5793,"uke":5794,"ĠAIDS":5795,"ĠSens":5796,"ĠSounds":5797,"ĠCow":5798,"ĠCert":5799,"anmar":5800,"ĠMr":5801,"inge":5802,"ĠPair":5803,"ĠPakistan":5804,"ĠLets":5805,"ĠNom":5806,"ĠJac":5807,"osition":5808,"avy":5809,"ĠUpcoming":5810,"ĠFlash":5811,"ĠHeld":5812,"Chic":5813,"ĠShoots":5814,"mselves":5815,"ĠLegisl":5816,"ĠVisits":5817,"ĠVirus":5818,"ĠComplic":5819,"ĠInjury":5820,"ĠLargest":5821,"BeyoncÃ©":5822,"ĠEnvironmental":5823,"ĠTraffic":5824,"ĠInformation":5825,"ĠPodcast":5826,"ĠOpportunity":5827,"Down":5828,"Lou":5829,"mates":5830,"ĠWaste":5831,"ĠPitch":5832,"ĠRather":5833,"ĠGIF":5834,"real":5835,"ĠThemselves":5836,"ĠNude":5837,"ĠReid":5838,"osure":5839,"ĠFred":5840,"OTUS":5841,"ocument":5842,"eph":5843,"ĠGray":5844,"ĠResistance":5845,"ĠWorkouts":5846,"ĠGuard":5847,"ĠMaybe":5848,"ĠCouldn":5849,"ĠBigger":5850,"ĠSmoking":5851,"ĠRunway":5852,"ĠTelling":5853,"ĠAnymore":5854,"ipped":5855,"ĠBoom":5856,"ograms":5857,"ĠUniverse":5858,"ĠCoolest":5859,"lynn":5860,"ĠEmployee":5861,"ĠCollabor":5862,"nesday":5863,"Pregn":5864,"ĠEscape":5865,"ĠCombat":5866,"Federal":5867,"ĠDunham":5868,"ĠStrategies":5869,"ĠAugust":5870,"ennessee":5871,"German":5872,"Imp":5873,"Med":5874,"Mart":5875,"mes":5876,"ule":5877,"ĠSepar":5878,"anel":5879,"ĠDar":5880,"ĠGov":5881,"ĠOften":5882,"Ġth":5883,"ĠKas":5884,"ĠProst":5885,"ifies":5886,"ouri":5887,"ĠTwist":5888,"ĠTwice":5889,"ĠGuests":5890,"ĠCheating":5891,"ĠRemove":5892,"ĠPoison":5893,"leges":5894,"ĠExperi":5895,"ĠApology":5896,"ĠValue":5897,"ĠMassacre":5898,"ĠPolicies":5899,"ĠBullying":5900,"Queen":5901,"ĠConcerns":5902,"Lessons":5903,"ĠDipl":5904,"ĠHerself":5905,"ocumented":5906,"Aw":5907,"List":5908,"Looking":5909,"Vir":5910,"cons":5911,"west":5912,"ĠCuff":5913,"ora":5914,"ĠBoot":5915,"ĠMeth":5916,"atie":5917,"ĠRNC":5918,"isions":5919,"ĠLack":5920,"ĠNov":5921,"ĠEll":5922,"ĠEgypt":5923,"ĠTroops":5924,"ĠTraum":5925,"ĠShades":5926,"ĠShirt":5927,"ĠFruit":5928,"ĠExcept":5929,"ĠAsh":5930,"ĠLeague":5931,"ĠArizona":5932,"ĠBlues":5933,"ĠMarco":5934,"ppo":5935,"iber":5936,"ĠHasn":5937,"ossible":5938,"ĠMedal":5939,"ĠBread":5940,"ĠConfederate":5941,"ĠMissed":5942,"ippi":5943,"ĠSurvival":5944,"ĠTeaching":5945,"ĠSouthern":5946,"ĠRomantic":5947,"ĠPaltr":5948,"ĠExpected":5949,"ground":5950,"ĠSuspended":5951,"ĠConservatives":5952,"ĠWoods":5953,"Abortion":5954,"Walking":5955,"ĠBroadway":5956,"ĠAdventure":5957,"ĠGradu":5958,"ĠGermany":5959,"ĠChaos":5960,"ĠOcean":5961,"ĠPaltrow":5962,"Av":5963,"Jan":5964,"Long":5965,"Vos":5966,"iels":5967,"ĠWid":5968,"ĠFDA":5969,"arity":5970,"ately":5971,"ĠDele":5972,"ĠHung":5973,"ĠToy":5974,"ĠToll":5975,"ĠNice":5976,"igue":5977,"utch":5978,"ĠJessica":5979,"ĠSher":5980,"ĠShar":5981,"usting":5982,"obs":5983,"ĠBloom":5984,"oval":5985,"raft":5986,"ĠCohen":5987,"acters":5988,"amilton":5989,"ĠCharacters":5990,"ĠAdviser":5991,"ĠPoet":5992,"ĠItself":5993,"ĠStreets":5994,"Deb":5995,"ĠBoat":5996,"Phil":5997,"ĠCommunic":5998,"ĠBurger":5999,"ĠUrban":6000,"ĠCauses":6001,"ĠEarthqu":6002,"ĠPulls":6003,"ĠPredict":6004,"ĠConfirm":6005,"ĠReaches":6006,"ĠDeclares":6007,"Conserv":6008,"ĠMillennials":6009,"ĠStruggles":6010,"ĠApparently":6011,"ĠNutrition":6012,"ĠDeserves":6013,"ĠOpioid":6014,"Four":6015,"FBI":6016,"cut":6017,"water":6018,"za":6019,"inem":6020,"ĠCoc":6021,"ĠCats":6022,"ĠFlynn":6023,"eds":6024,"ĠTrips":6025,"ĠKenn":6026,"ĠJesus":6027,"ctic":6028,"ĠDropped":6029,"ĠMeals":6030,"ĠDisab":6031,"issippi":6032,"orders":6033,"ĠServe":6034,"piracy":6035,"reaming":6036,"Ġ70":6037,"ĠTheme":6038,"phone":6039,"ĠCookie":6040,"Polit":6041,"Emma":6042,"ĠRadio":6043,"Beyonce":6044,"ĠDevast":6045,"ĠConnection":6046,"ĠReminder":6047,"ĠAgreement":6048,"ĠChannel":6049,"ĠNASA":6050,"ĠAdvocates":6051,"ĠNightmare":6052,"ĠUgly":6053,"ĠAbandoned":6054,"Cat":6055,"Creat":6056,"London":6057,"Mir":6058,"RS":6059,"Rand":6060,"aun":6061,"kn":6062,"ĠBun":6063,"ĠBang":6064,"ĠBold":6065,"ĠMiami":6066,"ĠDumb":6067,"ĠDACA":6068,"etimes":6069,"ĠPrices":6070,"ĠVet":6071,"ĠVul":6072,"iveness":6073,"ĠAsking":6074,"ĠArms":6075,"ĠGrat":6076,"ĠGrief":6077,"ĠScary":6078,"VIDEOS":6079,"ĠTwins":6080,"aze":6081,"ĠBrexit":6082,"ĠMont":6083,"ĠLeading":6084,"ĠGoodbye":6085,"ĠIndiana":6086,"ĠBarack":6087,"Blue":6088,"ĠFundra":6089,"ĠPoses":6090,"Celebrities":6091,"REPORT":6092,"Photos":6093,"ĠRainbow":6094,"ĠUpdate":6095,"ĠDefinitely":6096,"ĠBucket":6097,"ĠNeighborhood":6098,"Doct":6099,"Bal":6100,"Call":6101,"Eating":6102,"Ma":6103,"Ol":6104,"Sol":6105,"Uber":6106,"West":6107,"field":6108,"ĠTer":6109,"ĠTaken":6110,"ĠSons":6111,"ĠFame":6112,"ĠMoss":6113,"ĠOregon":6114,"ĠDod":6115,"ĠHud":6116,"ĠRip":6117,"icy":6118,"urt":6119,"ĠKansas":6120,"ĠWhis":6121,"ĠHeels":6122,"asters":6123,"ĠPlat":6124,"ianna":6125,"ĠOutd":6126,"ĠAdult":6127,"ĠCarry":6128,"ĠRepres":6129,"ĠMyself":6130,"ĠAgree":6131,"ĠAgenda":6132,"play":6133,"onda":6134,"ĠRecalls":6135,"ĠManager":6136,"ĠBacks":6137,"ĠAmy":6138,"ĠButt":6139,"ĠDemands":6140,"ĠCelebration":6141,"ĠSeeing":6142,"ĠPhotosh":6143,"ĠFiles":6144,"ĠMorgan":6145,"ĠMiles":6146,"ĠVision":6147,"ĠListen":6148,"Exper":6149,"ĠSolar":6150,"ĠCreep":6151,"ĠAngry":6152,"ĠReviews":6153,"ĠIsraeli":6154,"ĠTouching":6155,"arrass":6156,"Austral":6157,"ĠCaucus":6158,"Pad":6159,"Size":6160,"ez":6161,"iar":6162,"tic":6163,"ugh":6164,"ĠCIA":6165,"ĠBodies":6166,"ĠDub":6167,"ĠDancing":6168,"ĠRent":6169,"ĠRoss":6170,"ĠGaza":6171,"ĠGreek":6172,"ĠJol":6173,"ĠShape":6174,"ifting":6175,"Ġ22":6176,"ĠCrimes":6177,"ĠHeroes":6178,"uces":6179,"ĠAging":6180,"ĠHearts":6181,"Proof":6182,"ĠDescrib":6183,"ĠSkills":6184,"ĠFalling":6185,"ĠWouldn":6186,"ĠGenius":6187,"ĠStores":6188,"ĠExtrem":6189,"ĠVegan":6190,"ĠSentenced":6191,"ĠGala":6192,"ĠEggs":6193,"Turkey":6194,"ĠInfluence":6195,"ĠConstitut":6196,"ĠLanguage":6197,"Bra":6198,"Hey":6199,"Tips":6200,"Us":6201,"Wr":6202,"ros":6203,"vard":6204,"ĠTen":6205,"ĠTam":6206,"anic":6207,"ĠFool":6208,"ĠMitt":6209,"ĠPets":6210,"ĠPAC":6211,"ĠGig":6212,"ĠNOT":6213,"ĠReyn":6214,"ĠPrior":6215,"ĠWhose":6216,"ĠSpent":6217,"ĠBrad":6218,"ĠPlot":6219,"ĠMarc":6220,"ĠCarter":6221,"ĠText":6222,"angel":6223,"ĠOrange":6224,"ĠWarri":6225,"Changing":6226,"ĠHolds":6227,"ĠRefer":6228,"ĠContract":6229,"Weight":6230,"ĠMemories":6231,"ĠVictoria":6232,"ĠTerrifying":6233,"ĠRestr":6234,"ĠMagical":6235,"ĠFeeling":6236,"Color":6237,"Democratic":6238,"ĠBridal":6239,"ĠCocktail":6240,"Artist":6241,"Queer":6242,"Rachel":6243,"ĠCelebs":6244,"ĠEncour":6245,"ĠSauce":6246,"ĠReynolds":6247,"Hundreds":6248,"Ob":6249,"Sem":6250,"lo":6251,"uitt":6252,"Ġd":6253,"esp":6254,"ĠPill":6255,"ĠDol":6256,"ĠLon":6257,"ĠLetters":6258,"ĠNecess":6259,"sters":6260,"igar":6261,"ĠKicks":6262,"ĠKentucky":6263,"ĠProud":6264,"ĠAnderson":6265,"ĠAndrew":6266,"ĠAnthony":6267,"odes":6268,"aws":6269,"icking":6270,"ups":6271,"ĠHolding":6272,"riate":6273,"roit":6274,"ĠReported":6275,"ĠStopped":6276,"ĠExplos":6277,"enez":6278,"ĠMini":6279,"ĠCalories":6280,"ĠCutest":6281,"ĠCreator":6282,"ĠLetting":6283,"ĠComeback":6284,"ĠProposed":6285,"ĠShuts":6286,"ĠBringing":6287,"ĠLawyers":6288,"ĠBridge":6289,"ĠCrackdown":6290,"ĠJanuary":6291,"ĠFantasy":6292,"Social":6293,"MAs":6294,"Pop":6295,"Rad":6296,"Taking":6297,"bell":6298,"cious":6299,"ĠTape":6300,"ĠTonight":6301,"ĠAide":6302,"ĠSarah":6303,"ani":6304,"ĠBay":6305,"ĠPurs":6306,"ĠHann":6307,"ĠGut":6308,"omm":6309,"ĠNap":6310,"ĠNiger":6311,"ashed":6312,"ader":6313,"They":6314,"verty":6315,"ĠShocking":6316,"ĠParade":6317,"ĠCannes":6318,"ĠAdam":6319,"ucing":6320,"ucci":6321,"plane":6322,"ĠRecall":6323,"riends":6324,"Ann":6325,"ĠCheer":6326,"ĠHighest":6327,"ĠChristians":6328,"ushner":6329,"ĠBoyc":6330,"ĠTimber":6331,"ĠCreated":6332,"ĠProposes":6333,"ĠFunds":6334,"bean":6335,"ĠRescued":6336,"ĠSpotlight":6337,"ĠDaniels":6338,"ĠStrength":6339,"ĠParadise":6340,"estinian":6341,"ĠIngred":6342,"BS":6343,"Bel":6344,"CC":6345,"Eric":6346,"Fake":6347,"Iraq":6348,"Kylie":6349,"Lar":6350,"Would":6351,"gu":6352,"makers":6353,"ring":6354,"ĠSorry":6355,"ĠCore":6356,"ĠMans":6357,"ĠRihanna":6358,"edian":6359,"ĠLake":6360,"icle":6361,"ĠNun":6362,"ached":6363,"ĠTrash":6364,"ĠChip":6365,"chor":6366,"ĠPlastic":6367,"ĠMars":6368,"ĠManning":6369,"ĠFiring":6370,"ĠâĢĵ":6371,"ĠFinale":6372,"otted":6373,"ĠPoverty":6374,"ĠMissile":6375,"ĠDocuments":6376,"veland":6377,"ĠCurry":6378,"ĠGrande":6379,"ĠPrevention":6380,"ĠMelt":6381,"ĠLifetime":6382,"ĠGrowth":6383,"ĠCustomers":6384,"lects":6385,"ĠPennsylvania":6386,"ĠPumpkin":6387,"ĠSupremac":6388,"ĠTorture":6389,"Bachelor":6390,"Meditation":6391,"ĠCatholic":6392,"Immigr":6393,"ĠEarthquake":6394,".,":6395,"Japan":6396,"Night":6397,"UN":6398,"cil":6399,"lake":6400,"pool":6401,"ĠTill":6402,"ĠSoft":6403,"ĠBol":6404,"ĠHacks":6405,"ĠRamp":6406,"ĠLau":6407,"icult":6408,"otyp":6409,"ĠStig":6410,"ĠStupid":6411,"idi":6412,"ĠJury":6413,"ĠPruitt":6414,"ĠAnger":6415,"ĠScore":6416,"ounded":6417,"ĠMyster":6418,"ibbean":6419,"ĠColleges":6420,"Intern":6421,"ottest":6422,"ĠMinute":6423,"ĠCalm":6424,"orrow":6425,"ĠTourism":6426,"ĠSimpson":6427,"ĠSolo":6428,"Justice":6429,"ĠCapture":6430,"ĠAffects":6431,"ĠDamage":6432,"ĠPhilipp":6433,"ĠImageBlog":6434,"erkel":6435,"oosing":6436,"ĠMountain":6437,"ĠEntrepreneurs":6438,"ĠLiterally":6439,"ĠPuppy":6440,"ĠThomas":6441,"ĠOctober":6442,"ĠAleppo":6443,"enezuel":6444,"Cent":6445,"Cute":6446,"Jay":6447,"La":6448,"Mary":6449,"eats":6450,"moon":6451,"pa":6452,"pe":6453,"row":6454,"ĠCens":6455,"ĠFier":6456,"ĠEats":6457,"aco":6458,"ĠFord":6459,"irth":6460,"ĠWorried":6461,"ĠBrought":6462,"ĠBlocks":6463,"ĠMarry":6464,"ĠFlip":6465,"bruary":6466,"ĠUndocumented":6467,"ĠDecades":6468,"ĠComput":6469,"ĠAnnual":6470,"ĠSupporting":6471,"ĠAssoc":6472,"anyahu":6473,"ĠTesting":6474,"ĠDetect":6475,"ĠStarting":6476,"Adam":6477,"ĠHappening":6478,"ĠSolid":6479,"ĠSilent":6480,"ĠBlogger":6481,"ĠMotiv":6482,"ĠFigure":6483,"ĠDiscovered":6484,"ĠSpread":6485,"Single":6486,"Remembering":6487,"ĠFalse":6488,"ĠJolie":6489,"ĠTimberlake":6490,".-":6491,"Alex":6492,"CNN":6493,"Jour":6494,"Monday":6495,"Word":6496,"ca":6497,"town":6498,"ĠTel":6499,"ĠCope":6500,"ĠML":6501,"ĠMent":6502,"ĠDitch":6503,"ĠHem":6504,"ĠRos":6505,"ĠLemon":6506,"ĠGhost":6507,"ĠEc":6508,"etic":6509,"ĠRejects":6510,"urp":6511,"imony":6512,"ĠPrograms":6513,"verage":6514,"ĠBeats":6515,"apt":6516,"force":6517,"ĠAlaska":6518,"Thank":6519,"ĠCaribbean":6520,"athan":6521,"ĠSexism":6522,"ĠFees":6523,"ĠMiller":6524,"ĠZucker":6525,"ĠSeem":6526,"ĠConspiracy":6527,"ĠFoundation":6528,"Ġ90":6529,"ĠApartment":6530,"ĠRobot":6531,"ĠNorthern":6532,"ombie":6533,"Paris":6534,"ĠFatal":6535,"ĠLoan":6536,"ĠReceive":6537,"LGBTQ":6538,"ĠVolunt":6539,"Surv":6540,"ĠAgrees":6541,"ĠCeleb":6542,"ĠAnnouncement":6543,"ĠLatinos":6544,"ourtney":6545,"Amazon":6546,"LOOK":6547,"ĠJewelry":6548,"ĠDiplom":6549,"Semit":6550,"Cancer":6551,"Fre":6552,"GIF":6553,"NSFW":6554,"Obamacare":6555,"Poll":6556,"Saving":6557,"bul":6558,"iors":6559,"ĠTele":6560,"ĠSites":6561,"anish":6562,"arant":6563,"ĠOcc":6564,"ĠHo":6565,"ĠRant":6566,"ĠNaked":6567,"stick":6568,"ĠFort":6569,"ĠKushner":6570,"ĠShots":6571,"ĠWithin":6572,"ĠDeVos":6573,"forts":6574,"ĠSuch":6575,"iking":6576,"ĠUnf":6577,"ĠUnp":6578,"ĠAllerg":6579,"ĠRecent":6580,"Char":6581,"Inv":6582,"ĠEmmys":6583,"ĠCompares":6584,"ĠCompassion":6585,"ĠWrites":6586,"ĠZoo":6587,"ĠRuns":6588,"ĠMcCar":6589,"ĠProper":6590,"ĠRoberts":6591,"ĠPassenger":6592,"ĠEngland":6593,"ĠExtreme":6594,"iamond":6595,"ĠClosing":6596,"ĠTowns":6597,"Never":6598,"Govern":6599,"ĠNonpr":6600,"ĠWheel":6601,"ĠDiscusses":6602,"ĠPieces":6603,"Mindful":6604,"ĠAlternative":6605,"ĠLevels":6606,"ĠAchieve":6607,"ocaust":6608,"employ":6609,"Hurricane":6610,"ĠKasich":6611,"ĠVulner":6612,"Bec":6613,"Couple":6614,"French":6615,"Jack":6616,"Pal":6617,"eals":6618,"ji":6619,"lie":6620,"mons":6621,"maker":6622,"rams":6623,"well":6624,"ĠĠ":6625,"ĠTap":6626,"ĠTSA":6627,"iner":6628,"ĠSaves":6629,"orks":6630,"ĠPig":6631,"ĠPeter":6632,"itable":6633,"ĠLooney":6634,"ĠStere":6635,"ĠStamp":6636,"ither":6637,"ĠChoices":6638,"ulation":6639,"ĠAlt":6640,"enders":6641,"Ġ23":6642,"ĠClin":6643,"inees":6644,"ĠGrown":6645,"ĠNotes":6646,"ĠDismiss":6647,"ĠResort":6648,"ĠEns":6649,"ĠWeekly":6650,"ĠKidn":6651,"ĠEmmy":6652,"ĠCommission":6653,"Ġ101":6654,"ĠExplores":6655,"ĠHomemade":6656,"ĠDelay":6657,"ĠFuneral":6658,"ĠViolent":6659,"ĠDining":6660,"ĠCrew":6661,"ĠCounter":6662,"Wednesday":6663,"ĠMadness":6664,"ĠFeminism":6665,"ĠSuspected":6666,"ĠProgressive":6667,"Second":6668,"ĠPraise":6669,"ĠMobile":6670,"ĠCorruption":6671,"ĠIncludes":6672,"Syrian":6673,"ĠFabulous":6674,"ĠSympt":6675,"ĠLynch":6676,"Chicago":6677,"ĠStereotyp":6678,"Boston":6679,"EN":6680,"Ferguson":6681,"Sil":6682,"Wash":6683,"gie":6684,"mo":6685,"rent":6686,"ĠST":6687,"ĠBump":6688,"ĠFu":6689,"ĠFurn":6690,"ĠDil":6691,"ĠHay":6692,"ĠHundreds":6693,"ĠRival":6694,"stage":6695,"ĠTroub":6696,"adel":6697,"adow":6698,"ĠJong":6699,"ĠPrank":6700,"ĠShift":6701,"udes":6702,"asty":6703,"ĠDrone":6704,"ĠFlights":6705,"ĠSurge":6706,"ossil":6707,"ĠStrip":6708,"ĠSmile":6709,"ĠCommit":6710,"enna":6711,"ĠTraveler":6712,"ĠSyn":6713,"ĠSinging":6714,"ĠConsum":6715,"ĠBurning":6716,"ĠSeconds":6717,"ĠCouncil":6718,"Break":6719,"ĠBags":6720,"ĠExplained":6721,"Robert":6722,"Related":6723,"ĠLamar":6724,"ĠPraises":6725,"ĠOriginal":6726,"ĠSneak":6727,"ĠPurpose":6728,"RuPaul":6729,"ĠAcademy":6730,"ĠNominees":6731,"ĠSheriff":6732,"ĠStigma":6733,"Count":6734,"FDA":6735,"Gre":6736,"Green":6737,"Mitch":6738,"Term":6739,"Tuesday":6740,"mad":6741,"ĠSaw":6742,"ĠCure":6743,"ĠID":6744,"ĠMood":6745,"ĠMina":6746,"ĠDick":6747,"ĠRush":6748,"acular":6749,"ĠTrav":6750,"uries":6751,"thr":6752,"abs":6753,"abee":6754,"ĠAncient":6755,"ĠNewly":6756,"ĠBrady":6757,"ĠMyanmar":6758,"ĠKnown":6759,"rier":6760,"ĠAmend":6761,"ĠImpe":6762,"attan":6763,"ĠZen":6764,"ĠSupports":6765,"ĠBuzz":6766,"ĠHumans":6767,"Carrie":6768,"ĠCritical":6769,"ĠEqual":6770,"ĠBeaches":6771,"comes":6772,"ĠIslands":6773,"ĠResearchers":6774,"ĠToddlers":6775,"ĠAccessories":6776,"nesota":6777,"ĠRapper":6778,"ĠProducer":6779,"ĠEndorsement":6780,"Someone":6781,"ĠNegot":6782,"Design":6783,"ĠSoldiers":6784,"ĠCancel":6785,"ĠCancels":6786,"ĠCustomer":6787,"ĠUpdates":6788,"ĠVersion":6789,"ĠHealing":6790,"ĠTower":6791,"ĠVillage":6792,"ĠPunish":6793,"Today":6794,"ĠMigrants":6795,"ĠArchit":6796,"Fighting":6797,"ĠIllegal":6798,"ĠOptions":6799,"ĠCabinet":6800,"ĠMcCarthy":6801,"Foot":6802,"IL":6803,"IP":6804,"Lena":6805,"Saturday":6806,"dit":6807,"mond":6808,"wan":6809,"ĠTH":6810,"ĠTuesday":6811,"ĠAz":6812,"ĠSings":6813,"ĠWire":6814,"ĠBail":6815,"ĠBub":6816,"ĠDou":6817,"ĠDallas":6818,"ĠHole":6819,"ĠHottest":6820,"ĠRivers":6821,"iture":6822,"itals":6823,"ĠLay":6824,"icts":6825,"ĠGe":6826,"ĠTheat":6827,"ĠEti":6828,"ĠForec":6829,"estyle":6830,"ĠKh":6831,"ĠPriest":6832,"isters":6833,"Ġ27":6834,"ĠExec":6835,"agan":6836,"ĠCraft":6837,"ĠMarks":6838,"Int":6839,"ĠEveryday":6840,"ĠLooked":6841,"ĠDecide":6842,"uckabee":6843,"ĠSpeed":6844,"ĠTops":6845,"ĠStops":6846,"ĠRises":6847,"ĠInstant":6848,"ĠHairst":6849,"France":6850,"ĠExpress":6851,"ĠValues":6852,"ĠPersonality":6853,"ĠTeenage":6854,"ĠCommunities":6855,"inois":6856,"ographer":6857,"ĠJeb":6858,"ĠFatally":6859,"ĠPlea":6860,"ĠTruths":6861,"Breast":6862,"ĠHousing":6863,"British":6864,"ophobic":6865,"ĠDistrict":6866,"ĠShelter":6867,"Putin":6868,"ĠBombs":6869,"Selena":6870,"ĠPlatform":6871,"Based":6872,"IT":6873,"iulian":6874,"paper":6875,"rum":6876,"Ġbe":6877,"ĠTight":6878,"inity":6879,"ĠSC":6880,"orious":6881,"ĠOs":6882,"ĠDakota":6883,"ĠHiring":6884,"ĠRings":6885,"ĠRoots":6886,"ĠLic":6887,"ĠNurs":6888,"ĠSter":6889,"ĠKept":6890,"immer":6891,"ĠPrinc":6892,"ĠVice":6893,"ĠWithdr":6894,"aping":6895,"ieving":6896,"ĠSued":6897,"uster":6898,"udd":6899,"agger":6900,"ĠDram":6901,"ĠGross":6902,"ĠCarey":6903,"ĠOffensive":6904,"assador":6905,"ibr":6906,"ĠTeaser":6907,"ĠShower":6908,"Inst":6909,"mann":6910,"ĠContent":6911,"ĠFebruary":6912,"ĠGluten":6913,"ĠDesper":6914,"ĠUnderwear":6915,"ĠAnna":6916,"ĠMoral":6917,"Contr":6918,"ĠRachel":6919,"Ash":6920,"POLL":6921,"Alabama":6922,"ĠFailing":6923,"ĠHosts":6924,"ĠOpposition":6925,"ĠGarner":6926,"ĠBedroom":6927,"ĠMalfun":6928,"ĠTreas":6929,"ĠApproves":6930,"Hollywood":6931,"ĠReceives":6932,"ĠForgotten":6933,"ĠJumps":6934,"ĠEmbrace":6935,"ĠDiagnosis":6936,"usalem":6937,"Pregnant":6938,"ĠGratitude":6939,"ĠZuckerberg":6940,"adelph":6941,"iuliani":6942,"'-":6943,"500":6944,"Care":6945,"DH":6946,"Full":6947,"Id":6948,"Les":6949,"Viol":6950,"wards":6951,"whel":6952,"zil":6953,"ĠAuction":6954,"ĠCoup":6955,"ĠFol":6956,"ĠFlee":6957,"ĠPunch":6958,"alf":6959,"ĠRon":6960,"isa":6961,"ĠNeck":6962,"ĠEase":6963,"acey":6964,"ira":6965,"ĠKa":6966,"chester":6967,"ĠCraw":6968,"ĠDry":6969,"ĠOutl":6970,"ĠCart":6971,"ĠKnight":6972,"ĠMommy":6973,"etsy":6974,"Prog":6975,"ĠWrote":6976,"ĠTransition":6977,"ĠZone":6978,"ĠContrib":6979,"ĠSalt":6980,"ĠGlobe":6981,"ĠTreats":6982,"ĠVirt":6983,"ĠProtection":6984,"Neil":6985,"ĠBillionaire":6986,"ĠBaltimore":6987,"ĠTrek":6988,"ĠIgnore":6989,"iatric":6990,"ĠPortrait":6991,"Thanksgiving":6992,"ĠSuperhero":6993,"Olympic":6994,"ĠTelev":6995,"ĠMinaj":6996,"ĠEtiquette":6997,"AA":6998,"Aut":6999,"Egypt":7000,"Fil":7001,"Jason":7002,"Rest":7003,"Very":7004,"mother":7005,"onard":7006,"ĠWave":7007,"ĠWolf":7008,"ĠBased":7009,"ĠMouth":7010,"atar":7011,"atal":7012,"ĠPul":7013,"ĠPose":7014,"icial":7015,"reck":7016,"ĠIniti":7017,"elos":7018,"ĠEllen":7019,"urning":7020,"uther":7021,"ĠUkraine":7022,"ĠKaty":7023,"ĠJim":7024,"ĠJason":7025,"ĠJerry":7026,"ĠBeating":7027,"ocris":7028,"ĠBra":7029,"ĠBrands":7030,"ĠAsia":7031,"ĠDonors":7032,"ĠBlond":7033,"ghazi":7034,"ĠOverd":7035,"ĠAllies":7036,"issions":7037,"ugg":7038,"ĠSexually":7039,"ĠVoted":7040,"ĠSpeaker":7041,"ĠAnnoy":7042,"ietnam":7043,"Conan":7044,"ĠPutting":7045,"ĠMessages":7046,"ĠInspires":7047,"ĠDifficult":7048,"Adorable":7049,"LeBron":7050,"ĠOppon":7051,"ĠPushes":7052,"ĠSubway":7053,"Att":7054,"ĠTastem":7055,"ĠExcited":7056,"Study":7057,"ĠTypes":7058,"ĠEfforts":7059,"ĠTicket":7060,"ĠEntrepreneur":7061,"ĠOutrageous":7062,"ĠDesserts":7063,"Extreme":7064,"ĠFurniture":7065,"adelphia":7066,"Cy":7067,"LU":7068,"PN":7069,"Ple":7070,"Ra":7071,"Rock":7072,"Sal":7073,"box":7074,"woman":7075,"ĠTun":7076,"ĠSin":7077,"onstr":7078,"ĠWisconsin":7079,"ĠBip":7080,"ĠMall":7081,"ĠMasc":7082,"ĠPap":7083,"ĠDuck":7084,"icals":7085,"rec":7086,"iled":7087,"ĠNations":7088,"oln":7089,"ĠKar":7090,"ĠKerry":7091,"iston":7092,"iev":7093,"ĠSport":7094,"ĠWeed":7095,"Thursday":7096,"ĠDozens":7097,"ĠCarbon":7098,"ĠUnemploy":7099,"ewell":7100,"ĠAllen":7101,"ĠRecomm":7102,"ĠManagement":7103,"ĠHolocaust":7104,"ĠMonster":7105,"ĠImpression":7106,"oko":7107,"axy":7108,"ĠElectric":7109,"afe":7110,"ĠRetail":7111,"ĠAdvis":7112,"etta":7113,"encing":7114,"ĠImmed":7115,"ĠWalks":7116,"ĠEngine":7117,"ĠEnglish":7118,"ledge":7119,"ĠSolve":7120,"ĠResponsibility":7121,"ification":7122,"ĠPollution":7123,"ĠUrge":7124,"ĠMatthew":7125,"ĠRuin":7126,"Going":7127,"ĠPhotograph":7128,"Beyond":7129,"incoln":7130,"ĠBasically":7131,"Secret":7132,"ĠAdoption":7133,"ĠCompetition":7134,"Talk":7135,"ĠEmbarrass":7136,"ĠChemical":7137,"Protest":7138,"ĠVaccine":7139,"Lindsey":7140,"ĠLovato":7141,"ĠDOJ":7142,"ĠSequel":7143,"ĠAmendment":7144,"ocrisy":7145,"Hand":7146,"Hall":7147,"Key":7148,"Kevin":7149,"Kendall":7150,"NBC":7151,"Pu":7152,"Tax":7153,"night":7154,"ĠSolutions":7155,"atoes":7156,"ĠHBO":7157,"icon":7158,"ĠGian":7159,"ili":7160,"urse":7161,"usual":7162,"ĠSharing":7163,"oping":7164,"ĠDeGener":7165,"istant":7166,"ĠAniston":7167,"ĠSpice":7168,"obal":7169,"ĠGroom":7170,"ĠRespect":7171,"plug":7172,"ĠFlowers":7173,"ĠInteg":7174,"ĠPreview":7175,"ĠImpossible":7176,"ĠRemains":7177,"ĠReflects":7178,"ĠIncident":7179,"iversity":7180,"eryl":7181,"ĠRussell":7182,"ĠGrey":7183,"ĠServices":7184,"ĠPleads":7185,"ĠBacter":7186,"ĠHabit":7187,"ĠPenis":7188,"laim":7189,"Stranger":7190,"ĠNegative":7191,"ĠBurns":7192,"ĠGrammy":7193,"ĠFranken":7194,"ĠAmbassador":7195,"idelity":7196,"ĠEstate":7197,"ĠPilot":7198,"ĠMortgage":7199,"ĠBrutal":7200,"ĠElephant":7201,"ĠUnveils":7202,"Louis":7203,"ĠDramatic":7204,"Progress":7205,"elosi":7206,"ĠTastemakers":7207,"ĠDeGeneres":7208,"22":7209,"Ag":7210,"Cam":7211,"Coming":7212,"EC":7213,"Pret":7214,"Sk":7215,"Spl":7216,"Saudi":7217,"Worthy":7218,"cel":7219,"ja":7220,"nie":7221,"Ġh":7222,"Ġ|":7223,"ĠTired":7224,"inn":7225,"ĠFossil":7226,"ĠRay":7227,"ĠToil":7228,"ĠGiven":7229,"asion":7230,"aded":7231,"ĠKong":7232,"essa":7233,"ĠVs":7234,"ĠShoe":7235,"ches":7236,"chat":7237,"lder":7238,"ateful":7239,"ĠFro":7240,"ĠYours":7241,"emb":7242,"Ġ28":7243,"ĠPlun":7244,"ĠDrivers":7245,"ĠAdds":7246,"ova":7247,"ĠUnw":7248,"ĠScul":7249,"ĠScared":7250,"hentic":7251,"Start":7252,"ĠFlaw":7253,"ĠFirm":7254,"ockey":7255,"ĠOurs":7256,"action":7257,"ĠSweat":7258,"ĠRoast":7259,"ĠReporters":7260,"ĠDefeat":7261,"ĠBusy":7262,"ĠRetreat":7263,"ĠSenior":7264,"ĠSleeping":7265,"ĠSnacks":7266,"ĠMinds":7267,"ĠRegret":7268,"ĠStandard":7269,"Grand":7270,"unted":7271,"ĠCultural":7272,"ĠCouns":7273,"Suicide":7274,"ĠExpecting":7275,"ĠMedicaid":7276,"ĠPrivacy":7277,"ĠCharlie":7278,"ĠSells":7279,"Christmas":7280,"ĠPresidents":7281,"ĠScreening":7282,"ĠChannels":7283,"ĠHypocrisy":7284,"Funny":7285,"ĠStealing":7286,"Netflix":7287,"ĠLadies":7288,"Victoria":7289,"ĠRepresent":7290,"Brazil":7291,"Elect":7292,"Fro":7293,"Mic":7294,"Michigan":7295,"UI":7296,"Wing":7297,"ae":7298,"fer":7299,"fall":7300,"pting":7301,"rest":7302,"zing":7303,"ĠTie":7304,"ĠCode":7305,"oral":7306,"ĠBought":7307,"ĠFif":7308,"ĠFoster":7309,"ĠIreland":7310,"ĠMock":7311,"ĠPac":7312,"ĠHuckabee":7313,"itarian":7314,"ĠGad":7315,"ĠEU":7316,"ĠKylie":7317,"ĠChain":7318,"ĠNeutr":7319,"ĠWhit":7320,"oseph":7321,"ceed":7322,"ĠFrag":7323,"ĠSpotted":7324,"Ġ26":7325,"ĠCliff":7326,"ĠExclusive":7327,"ags":7328,"agers":7329,"ĠCanadian":7330,"ĠCannot":7331,"inda":7332,"epern":7333,"ikely":7334,"ĠGroc":7335,"ĠGetaways":7336,"ashing":7337,"Stand":7338,"ĠEnemy":7339,"achment":7340,"ishing":7341,"ques":7342,"ĠBills":7343,"ĠBillboard":7344,"ĠMcK":7345,"gyn":7346,"ĠBoeh":7347,"Class":7348,"Add":7349,"ĠProtections":7350,"ĠDreamers":7351,"atican":7352,"ĠDamn":7353,"engers":7354,"ĠLarry":7355,"ĠDaniel":7356,"Activ":7357,"Backed":7358,"ĠRequest":7359,"Talking":7360,"ĠPolitician":7361,"ĠJapanese":7362,"ĠAccidentally":7363,"ĠAllowed":7364,"Children":7365,"ĠProfessional":7366,"Todd":7367,"ĠIvanka":7368,"ĠTools":7369,"ĠDeportation":7370,"ĠPledge":7371,"ĠJerusalem":7372,"Golden":7373,"Ġbut":7374,"ĠGallery":7375,"Human":7376,"ĠExhibit":7377,"ĠSustainable":7378,"ĠOutdoor":7379,"epernick":7380,"ĠBoehner":7381,"23":7382,"24":7383,"ET":7384,"Haw":7385,"Pot":7386,"Penn":7387,"Person":7388,"Table":7389,"Turn":7390,"vada":7391,"Ġs":7392,"Ġif":7393,"ĠSending":7394,"ĠBB":7395,"ĠBle":7396,"ĠFey":7397,"ĠFell":7398,"ĠFathers":7399,"armed":7400,"ĠMash":7401,"ĠMTV":7402,"ĠHash":7403,"ĠHints":7404,"ĠRome":7405,"itol":7406,"ĠGur":7407,"oting":7408,"amm":7409,"ĠKhan":7410,"ĠJared":7411,"osaur":7412,"ĠFrat":7413,"ĠAnaly":7414,"ĠNewest":7415,"endy":7416,"ĠArctic":7417,"ĠSeattle":7418,"ĠUpset":7419,"ĠTeams":7420,"ĠManic":7421,"ĠActors":7422,"Chinese":7423,"ĠBrew":7424,"ĠSwims":7425,"certain":7426,"okemon":7427,"ĠPlayed":7428,"ĠSketch":7429,"ĠEdge":7430,"ĠMeme":7431,"ĠHeartbreaking":7432,"uctive":7433,"ĠExperiment":7434,"ĠDetroit":7435,"ĠCurb":7436,"ĠPerforms":7437,"hammad":7438,"ĠJeans":7439,"ĠLibr":7440,"ĠLiberal":7441,"standing":7442,"ĠMidter":7443,"ĠHeroin":7444,"ĠMosque":7445,"Smart":7446,"ĠSeeking":7447,"ĠTackle":7448,"ĠTickets":7449,"Something":7450,"ĠHorse":7451,"Learning":7452,"partum":7453,"enezuela":7454,"Washington":7455,"ĠBacteria":7456,"Eat":7457,"Easy":7458,"Jane":7459,"Non":7460,"Six":7461,"lies":7462,"Ã¡":7463,"Ġm":7464,"ĠTab":7465,"ĠCav":7466,"ĠWings":7467,"ĠRan":7468,"itness":7469,"ĠLy":7470,"ĠLion":7471,"icop":7472,"ĠGang":7473,"ĠNut":7474,"ĠStabb":7475,"irts":7476,"ĠKit":7477,"ĠMarvel":7478,"ĠUnc":7479,"ĠScot":7480,"ĠPhones":7481,"ĠShowing":7482,"orsuch":7483,"Chuck":7484,"ĠTalent":7485,"ĠFeature":7486,"elson":7487,"ĠRemain":7488,"ĠSpeaking":7489,"ĠHeadline":7490,"ĠWalmart":7491,"ĠOldest":7492,"ĠTeaches":7493,"Adele":7494,"Carly":7495,"ĠGrandma":7496,"ĠLohan":7497,"ĠRadical":7498,"Party":7499,"ĠPiece":7500,"ĠLipstick":7501,"ĠWeapon":7502,"ĠProfessor":7503,"ĠDessert":7504,"ĠBerlin":7505,"ĠDilem":7506,"ĠFrozen":7507,"Frozen":7508,"--":7509,"Cor":7510,"Far":7511,"Fat":7512,"Jul":7513,"kansas":7514,"lings":7515,"roll":7516,"uing":7517,"wal":7518,"ĠTat":7519,"erie":7520,"ĠSides":7521,"anut":7522,"ĠHaz":7523,"ĠLuc":7524,"ĠLock":7525,"ĠLinks":7526,"icing":7527,"ĠRein":7528,"ĠNeil":7529,"opard":7530,"aph":7531,"endrick":7532,"ĠSpain":7533,"ĠClark":7534,"ouses":7535,"aved":7536,"ĠDonate":7537,"ĠOvercome":7538,"ilding":7539,"ĠIntro":7540,"ĠGuess":7541,"ĠEvac":7542,"ĠDelet":7543,"ĠGreg":7544,"ĠRobber":7545,"venge":7546,"ĠClassroom":7547,"ĠHurts":7548,"ĠPainting":7549,"Ġ199":7550,"ĠComplain":7551,"ĠHumanity":7552,"ĠWellness":7553,"ĠCait":7554,"ĠParker":7555,"Plan":7556,"ĠSmartphone":7557,"ĠSquad":7558,"ĠLouisiana":7559,"Despite":7560,"Walmart":7561,"ĠThankful":7562,"Britney":7563,"ĠAustralian":7564,"Global":7565,"CAA":7566,"Help":7567,"ĠWeighs":7568,"ĠCondemns":7569,"ĠUtah":7570,"Mexico":7571,"Virgin":7572,"ĠDisabilities":7573,"ĠSolidarity":7574,"Alec":7575,"Den":7576,"Ever":7577,"Ok":7578,"Ohio":7579,"bel":7580,"met":7581,"oz":7582,"yard":7583,"Ġare":7584,"ĠSab":7585,"ĠFate":7586,"ĠMut":7587,"ĠPeek":7588,"itting":7589,"ĠLying":7590,"ĠGather":7591,"rell":7592,"ille":7593,"ĠNCAA":7594,"stan":7595,"ĠStance":7596,"ĠStolen":7597,"ĠVin":7598,"ĠVoices":7599,"ĠChart":7600,"ĠChoosing":7601,"ĠCra":7602,"ĠDrake":7603,"Things":7604,"ells":7605,"uba":7606,"ĠUncertain":7607,"ĠDisco":7608,"States":7609,"anced":7610,"ĠHolmes":7611,"ĠInsane":7612,"Anna":7613,"riages":7614,"Ġ31":7615,"ĠDecade":7616,"ĠDecided":7617,"ĠAttacked":7618,"ĠIncome":7619,"ĠMenu":7620,"ĠConfident":7621,"ĠMississippi":7622,"Beh":7623,"owski":7624,"ippa":7625,"onto":7626,"ĠSetting":7627,"ĠStaying":7628,"ception":7629,"ĠFeds":7630,"ĠTargets":7631,"ĠTerrorist":7632,"ĠCharleston":7633,"ĠReboot":7634,"ĠWelcomes":7635,"ĠGalaxy":7636,"ĠXL":7637,"ĠSoldier":7638,"Working":7639,"ĠWatson":7640,"Winning":7641,"Protect":7642,"ĠAstron":7643,"Valentine":7644,"ĠAtlanta":7645,"ĠChampionship":7646,"Clean":7647,"ĠTrauma":7648,"ĠHudson":7649,"ĠBoycott":7650,"DHD":7651,"ĠKaepernick":7652,"Please":7653,"AR":7654,"Dark":7655,"Kid":7656,"Live":7657,"ta":7658,"uals":7659,"von":7660,"ĠTiger":7661,"ĠAC":7662,"ĠSA":7663,"ĠSib":7664,"orous":7665,"orably":7666,"ĠFel":7667,"ĠFaster":7668,"ĠMath":7669,"ĠPard":7670,"ĠOdd":7671,"ĠDates":7672,"ĠLively":7673,"ĠToast":7674,"omo":7675,"ĠNBC":7676,"ĠEco":7677,"leck":7678,"iller":7679,"ĠShared":7680,"opher":7681,"ĠFried":7682,"unning":7683,"istry":7684,"ĠAnton":7685,"ĠClips":7686,"ĠHeaven":7687,"avors":7688,"udy":7689,"ĠArea":7690,"ĠParts":7691,"ĠCred":7692,"iane":7693,"ĠBlake":7694,"ĠSeg":7695,"pport":7696,"assy":7697,"ĠColumn":7698,"ĠManh":7699,"ooth":7700,"Inf":7701,"ĠDivided":7702,"ĠOpin":7703,"ĠOption":7704,"ĠOprah":7705,"ĠDems":7706,"ĠChec":7707,"sequ":7708,"ĠDecisions":7709,"ĠHarvard":7710,"nea":7711,"ĠSkip":7712,"encies":7713,"ĠConfidence":7714,"Blood":7715,"ĠConsumer":7716,"ĠAirstr":7717,"ĠAirplane":7718,"Joan":7719,"ĠCapitol":7720,"ĠApnea":7721,"affe":7722,"Exerc":7723,"ĠPotato":7724,"ĠInvestigate":7725,"ĠPalin":7726,"ĠLabel":7727,"ĠDiaries":7728,"ĠHopeful":7729,"ĠPanic":7730,"ĠPanther":7731,"ĠPetition":7732,"ĠEmotions":7733,"ĠOrganiz":7734,"ĠMirror":7735,"Sweet":7736,"UDIO":7737,"Acc":7738,"NASA":7739,"ĠThrowback":7740,"ĠBelieves":7741,"ĠRoger":7742,"ĠLewis":7743,"ĠInvolved":7744,"Perfect":7745,"ĠSpectacular":7746,"ĠInnovation":7747,"Female":7748,"ĠKennedy":7749,"ĠSymptoms":7750,"ĠConsumers":7751,"AUDIO":7752,"Er":7753,"FC":7754,"Hun":7755,"Hamilton":7756,"KK":7757,"Khloe":7758,"Ty":7759,"Wel":7760,"bed":7761,"mb":7762,"rigue":7763,"ĠABC":7764,"ĠCease":7765,"ano":7766,"ĠFinger":7767,"ĠMine":7768,"ĠPanc":7769,"ĠPops":7770,"ĠPelosi":7771,"ĠLin":7772,"ĠLovers":7773,"ĠGiuliani":7774,"ĠGorsuch":7775,"ĠNix":7776,"ayer":7777,"ersp":7778,"tery":7779,"ĠJul":7780,"ĠJunk":7781,"ĠVia":7782,"ĠShark":7783,"ĠShorts":7784,"ĠConsequ":7785,"ements":7786,"Which":7787,"ĠExch":7788,"ĠCrying":7789,"ĠMarriages":7790,"izon":7791,"True":7792,"ĠAgent":7793,"raham":7794,"Inc":7795,"ĠQuite":7796,"ĠStarbucks":7797,"ĠSwed":7798,"ĠCheat":7799,"ĠSmoke":7800,"ĠStyles":7801,"ĠHighway":7802,"ĠSums":7803,"ĠRunner":7804,"ĠPoem":7805,"Marc":7806,"ĠSuck":7807,"ĠTourists":7808,"ĠHurting":7809,"ĠDesigned":7810,"ĠBeyonce":7811,"ĠSentence":7812,"ĠRolling":7813,"ĠiPad":7814,"ĠRebels":7815,"ĠPhotography":7816,"Transgender":7817,"Congressman":7818,"ĠUnderstanding":7819,"Educ":7820,"weight":7821,"ĠFigures":7822,"ĠCorresp":7823,"ĠMillennial":7824,"ĠDraws":7825,"ĠStruggling":7826,"ĠPhysical":7827,"ĠProsecutor":7828,"ĠMeasure":7829,"ĠMultiple":7830,"ĠTillerson":7831,"ĠAllergies":7832,"ĠTelevision":7833,"icopter":7834,"ĠCorrespond":7835,"Bul":7836,"Cand":7837,"Cops":7838,"Dating":7839,"Ep":7840,"Europe":7841,"God":7842,"Giving":7843,"Ghost":7844,"Hour":7845,"bors":7846,"hab":7847,"rup":7848,"tle":7849,"ĠCul":7850,"ĠWond":7851,"ĠBund":7852,"ĠMail":7853,"ĠPear":7854,"ĠPitt":7855,"ĠOm":7856,"ĠDedic":7857,"ĠDiamond":7858,"ali":7859,"isf":7860,"ĠGw":7861,"ĠNass":7862,"ĠNazi":7863,"acement":7864,"otle":7865,"ĠStan":7866,"imir":7867,"ĠVietnam":7868,"ĠChanel":7869,"tsy":7870,"umph":7871,"ĠWhale":7872,"chair":7873,"anted":7874,"ĠParl":7875,"ĠCruc":7876,"ĠCarrie":7877,"ĠUnity":7878,"ĠPolish":7879,"ĠFloor":7880,"ĠStudies":7881,"ĠActing":7882,"ĠWarming":7883,"lla":7884,"isexual":7885,"ĠStroke":7886,"ĠCourage":7887,"ĠFinance":7888,"ĠElected":7889,"ĠBuys":7890,"ĠBuilt":7891,"eneg":7892,"ĠMemorable":7893,"LLY":7894,"Ass":7895,"ĠInvestment":7896,"ĠEmpty":7897,"Arianna":7898,"ĠWestern":7899,"ĠPastor":7900,"Demi":7901,"ĠProtecting":7902,"ĠFootage":7903,"ĠAuthentic":7904,"ĠMajority":7905,"ĠCaused":7906,"ĠJournalism":7907,"ĠStuns":7908,"ĠDifferently":7909,"ĠPulled":7910,"ĠEditors":7911,"Eng":7912,"ĠTouchdown":7913,"ĠAddresses":7914,"Barack":7915,"ĠChairman":7916,"ĠAthlete":7917,"ĠBottom":7918,"Charlott":7919,"ĠNavig":7920,"Angel":7921,"cription":7922,"ĠJacobs":7923,"ĠExperiences":7924,"Olivia":7925,"ĠCreepy":7926,"Journal":7927,"ĠNonprofit":7928,"Country":7929,"ĠSterling":7930,"ĠToilet":7931,"Hawaii":7932,"',":7933,"Cre":7934,"Iv":7935,"Water":7936,"fires":7937,"ports":7938,"then":7939,"taking":7940,"vention":7941,"Ġy":7942,"ĠTony":7943,"ĠTennessee":7944,"ĠSight":7945,"oned":7946,"arily":7947,"ĠPad":7948,"ĠHates":7949,"ĠGays":7950,"ĠGene":7951,"ĠNic":7952,"ĠYog":7953,"ĠVP":7954,"ushed":7955,"ĠShake":7956,"ĠAbd":7957,"ĠNewborn":7958,"ĠExam":7959,"ourne":7960,"ĠOuts":7961,"ĠUnplug":7962,"ĠSched":7963,"ĠResil":7964,"ĠActual":7965,"qual":7966,"aires":7967,"ĠEvangel":7968,"ĠEndanger":7969,"ĠRemem":7970,"ĠSkew":7971,"ĠReturning":7972,"ĠSuperst":7973,"ĠMiley":7974,"ĠPerfection":7975,"phy":7976,"ĠCleveland":7977,"ĠConvicted":7978,"ĠSurviving":7979,"ĠTourist":7980,"ĠVacations":7981,"ĠQueens":7982,"iorina":7983,"ĠCurrent":7984,"ĠPasta":7985,"ĠActivism":7986,"ĠInjuries":7987,"ĠAffleck":7988,"ĠAntib":7989,"ĠHacking":7990,"ĠMosul":7991,"ĠLimits":7992,"Student":7993,"ĠWonderful":7994,"NYC":7995,"ĠComplete":7996,"ĠDollar":7997,"ĠObsession":7998,"ĠSuffer":7999,"Homemade":8000,"itzer":8001,"ĠAcceptance":8002,"ĠMaternity":8003,"ĠIllustr":8004,"ladimir":8005,"ĠGIFs":8006,"ĠFreddie":8007,"Martin":8008,"ĠHungry":8009,"Miranda":8010,"ĠStereotypes":8011,"ĠNegoti":8012,"ĠArchitect":8013,"ĠNeutrality":8014,"Bob":8015,"Cult":8016,"Chel":8017,"Georgia":8018,"IM":8019,"Ken":8020,"LIVE":8021,"MI":8022,"Moving":8023,"Pet":8024,"Sher":8025,"Vol":8026,"Wild":8027,"ais":8028,"che":8029,"iac":8030,"mod":8031,"ĠTan":8032,"ĠSa":8033,"esa":8034,"heast":8035,"ĠFer":8036,"ĠFle":8037,"ĠHil":8038,"ĠHog":8039,"ĠHath":8040,"icip":8041,"ĠGates":8042,"asis":8043,"ĠEur":8044,"ĠStret":8045,"ĠTrig":8046,"ĠOnto":8047,"ecial":8048,"throp":8049,"ĠDeg":8050,"ĠBry":8051,"ĠPlants":8052,"ĠCraf":8053,"ĠSeven":8054,"ĠAdorably":8055,"ressing":8056,"ĠColin":8057,"ishop":8058,"ĠQuits":8059,"ĠQuarter":8060,"ĠAppl":8061,"ĠImper":8062,"ĠOptim":8063,"ĠDecember":8064,"ĠDesert":8065,"ĠIdol":8066,"ĠRemoved":8067,"ĠDebates":8068,"ĠZeal":8069,"ĠZero":8070,"ĠSuperf":8071,"ĠBirds":8072,"ologist":8073,"ĠSexuality":8074,"ĠPassengers":8075,"ĠThreatened":8076,"ombia":8077,"offs":8078,"ĠSteals":8079,"ĠDenial":8080,"ĠRocket":8081,"ĠProduce":8082,"ĠCycle":8083,"ĠActivity":8084,"ĠSpecies":8085,"ĠRomance":8086,"ĠCastro":8087,"ĠExpectations":8088,"ĠHospitals":8089,"ĠBritain":8090,"ĠInfidelity":8091,"ĠSurprisingly":8092,"hetic":8093,"ĠGuilt":8094,"ĠRowling":8095,"ĠAdventures":8096,"ĠUnlikely":8097,"Deadly":8098,"ĠScientific":8099,"ĠHoneymoon":8100,"ĠCameron":8101,"ructure":8102,"Ġthat":8103,"ĠVulnerable":8104,"Behind":8105,"Body":8106,"Era":8107,"Fif":8108,"Fast":8109,"Give":8110,"Hist":8111,"Katie":8112,"Late":8113,"Mov":8114,"OU":8115,"Public":8116,"Sorry":8117,"Tina":8118,"aom":8119,"col":8120,"how":8121,"iod":8122,"rich":8123,"ĠTorn":8124,"ĠSant":8125,"ĠSaturday":8126,"ĠChen":8127,"ĠIron":8128,"ĠMerc":8129,"ĠPion":8130,"ĠDangers":8131,"ĠHug":8132,"ĠHij":8133,"ĠRoof":8134,"ĠREA":8135,"ĠLord":8136,"ĠLuther":8137,"ĠGear":8138,"reet":8139,"ĠInfr":8140,"ĠInmates":8141,"ĠNative":8142,"ĠEag":8143,"acles":8144,"ĠStole":8145,"entagon":8146,"ĠKerr":8147,"ĠWithersp":8148,"ĠAble":8149,"ĠConqu":8150,"ĠAlert":8151,"endum":8152,"ĠSpill":8153,"ĠSpanish":8154,"eman":8155,"ĠSudd":8156,"ĠDraft":8157,"ĠArmed":8158,"ĠDonations":8159,"Think":8160,"ĠUpton":8161,"ĠUnusual":8162,"ĠScalia":8163,"ounder":8164,"ĠOverl":8165,"enses":8166,"ensions":8167,"ĠDisplay":8168,"ĠAcqu":8169,"ĠStudio":8170,"Chief":8171,"ĠSurve":8172,"ĠSwitch":8173,"Anne":8174,"ĠEvil":8175,"rative":8176,"Ġ35":8177,"ĠDefic":8178,"Reg":8179,"ĠNewspaper":8180,"Islam":8181,"ĠBelong":8182,"Frank":8183,"ĠElimin":8184,"onym":8185,"ĠMarkets":8186,"ĠTreated":8187,"ĠArrests":8188,"Space":8189,"ĠDestination":8190,"iament":8191,"ĠMeditations":8192,"ĠNYPD":8193,"Comm":8194,"Moms":8195,"Celebrating":8196,"Mean":8197,"ĠOrganization":8198,"ĠRolls":8199,"ĠAustin":8200,"ĠIncreased":8201,"ĠAbsurd":8202,"ĠDevice":8203,"ĠTradition":8204,"ĠTraditional":8205,"ĠStronger":8206,"ĠConsidering":8207,"Relig":8208,"ĠIrish":8209,"ĠStatus":8210,"ĠBottle":8211,"ĠTackles":8212,"ĠBeginning":8213,"ĠWindow":8214,"ĠVegetables":8215,"ĠGymn":8216,"ĠNobel":8217,"ĠNobody":8218,"ĠOpera":8219,"Earth":8220,"Listen":8221,"ĠMysterious":8222,"lderly":8223,"ĠSculpt":8224,"Chelsea":8225,"ĠHathaway":8226,"ĠZealand":8227,"ĠWitherspoon":8228,"ĠSudden":8229,"?!":8230,"Court":8231,"Del":8232,"Danger":8233,"EPA":8234,"Kentucky":8235,"Van":8236,"dan":8237,"iece":8238,"eries":8239,"ĠSisters":8240,"ĠBone":8241,"ĠBoots":8242,"ĠFet":8243,"ĠMama":8244,"ĠHockey":8245,"alt":8246,"aling":8247,"iters":8248,"itation":8249,"isele":8250,"icut":8251,"ĠGains":8252,"ĠKat":8253,"ĠJane":8254,"ĠPratt":8255,"agic":8256,"ĠLeather":8257,"iki":8258,"ĠBlank":8259,"ubs":8260,"ĠUnions":8261,"enson":8262,"ĠPeanut":8263,"ounce":8264,"ĠManage":8265,"ĠFlavor":8266,"ĠAcce":8267,"ĠActive":8268,"ĠCox":8269,"Ant":8270,"itted":8271,"Prof":8272,"ĠHaram":8273,"ĠComplex":8274,"ettes":8275,"ĠLegs":8276,"ĠPostpartum":8277,"othing":8278,"ĠMissouri":8279,"ĠSimmons":8280,"ĠFarewell":8281,"ĠDesigns":8282,"ypse":8283,"ĠMurphy":8284,"Spe":8285,"ĠProjects":8286,"ĠActivities":8287,"ĠFriendship":8288,"ĠMilitants":8289,"Worst":8290,"ĠInstagrams":8291,"ĠLoans":8292,"ĠPleas":8293,"ĠPrepares":8294,"ĠBankrupt":8295,"Barb":8296,"Music":8297,"Missing":8298,"ĠStatue":8299,"Open":8300,"ĠBridesmaid":8301,"aitlyn":8302,"ĠPrayer":8303,"urbing":8304,"ĠKrug":8305,"ĠHannity":8306,"Mindfulness":8307,"Pretty":8308,"ĠBBQ":8309,"ĠSwimsuit":8310,"ĠParliament":8311,"ĠCrucial":8312,"By":8313,"Broad":8314,"Hidden":8315,"Kris":8316,"Kerry":8317,"Tech":8318,"ien":8319,"rol":8320,"sons":8321,"infeld":8322,"ĠCe":8323,"ĠWounded":8324,"ĠBible":8325,"ĠFasc":8326,"ĠFelt":8327,"ĠFiorina":8328,"ĠDy":8329,"ĠHav":8330,"ĠHire":8331,"alo":8332,"ales":8333,"ĠRE":8334,"ĠRou":8335,"itary":8336,"itual":8337,"ĠLIVE":8338,"ĠTooth":8339,"ĠGulf":8340,"ĠNurse":8341,"ĠSton":8342,"ĠStays":8343,"utter":8344,"ĠKoch":8345,"ĠVMAs":8346,"ĠAnchor":8347,"ĠAbove":8348,"ĠSpy":8349,"Ġ29":8350,"ĠClock":8351,"astructure":8352,"ĠWeak":8353,"ikki":8354,"ĠAdele":8355,"ĠGriff":8356,"ĠGrows":8357,"ĠCarl":8358,"ĠOffering":8359,"ounding":8360,"uced":8361,"ĠRecr":8362,"approp":8363,"ĠAttem":8364,"rien":8365,"ordon":8366,"Ġ500":8367,"ĠInterior":8368,"ĠChees":8369,"ĠDeadl":8370,"scape":8371,"Blake":8372,"Bring":8373,"ertility":8374,"ĠAssaul":8375,"ĠOpenly":8376,"ĠSimpl":8377,"ĠBeloved":8378,"ĠJohnny":8379,"ĠPromote":8380,"ographic":8381,"ĠInvestigating":8382,"ĠFestivals":8383,"sworth":8384,"ĠPalestinian":8385,"Colbert":8386,"ĠRooms":8387,"ĠHonored":8388,"ĠSavings":8389,"ĠHospitalized":8390,"ĠBritney":8391,"ĠIncreases":8392,"ĠMiranda":8393,"ĠBenghazi":8394,"ĠBias":8395,"ĠAuthorities":8396,"ĠLimit":8397,"ĠSettle":8398,"ĠHouses":8399,"ĠFewer":8400,"Madonna":8401,"ĠAlternatives":8402,"ĠSource":8403,"ĠIntroduces":8404,"ocalypse":8405,"Oscars":8406,"Terror":8407,"Richard":8408,"Major":8409,"ĠPhotoshop":8410,"ĠPhilippines":8411,"ĠInitiative":8412,"ĠAnnoying":8413,"Protesters":8414,"ĠOurselves":8415,"ĠDilemma":8416,"Exercise":8417,"ĠNassar":8418,"Dangerous":8419,"DO":8420,"Friends":8421,"IG":8422,"Jim":8423,"NBA":8424,"Nothing":8425,"Rose":8426,"SL":8427,"dling":8428,"kah":8429,"oons":8430,"ration":8431,"xon":8432,"ĠTear":8433,"ĠTact":8434,"ĠCDC":8435,"onut":8436,"ĠBot":8437,"ĠBare":8438,"ati":8439,"ĠDJ":8440,"ĠDuch":8441,"ĠLincoln":8442,"iced":8443,"etts":8444,"ima":8445,"usetts":8446,"ĠBeef":8447,"ivid":8448,"ĠFrust":8449,"ocide":8450,"ĠAbb":8451,"ĠAlly":8452,"ĠClash":8453,"ĠExit":8454,"ĠBruce":8455,"asting":8456,"ĠCrown":8457,"ĠLeak":8458,"ĠGrill":8459,"ĠScare":8460,"ĠHoward":8461,"aches":8462,"achusetts":8463,"ĠWorldwide":8464,"ĠPeriod":8465,"bridge":8466,"ĠQual":8467,"ĠHolder":8468,"ĠMonolog":8469,"ĠSweep":8470,"ĠInsists":8471,"itters":8472,"ĠMusk":8473,"ĠAttacking":8474,"Before":8475,"Ġ911":8476,"ĠCreativity":8477,"ĠStandards":8478,"ĠFeelings":8479,"Adv":8480,"Starbucks":8481,"struction":8482,"ĠLabels":8483,"Support":8484,"ĠConversations":8485,"ĠWishes":8486,"ĠLarge":8487,"ĠReactions":8488,"Christina":8489,"ĠKicked":8490,"ĠTargeted":8491,"ĠLifestyle":8492,"ĠProvide":8493,"Photographer":8494,"ĠSitting":8495,"ĠDollars":8496,"ĠAdopt":8497,"ĠArgument":8498,"ĠObsessed":8499,"ĠWaters":8500,"iately":8501,"Know":8502,"ĠDisappear":8503,"ĠSelena":8504,"ĠRodrigue":8505,"ĠPledges":8506,"ĠPortraits":8507,"Gwyneth":8508,"ĠLiberty":8509,"Daniel":8510,"TSD":8511,"Germany":8512,"ĠComputer":8513,"ĠHemsworth":8514,"Government":8515,"ĠSCOTUS":8516,"ĠGiants":8517,"Movie":8518,"ĠRodriguez":8519,"Bat":8520,"Karl":8521,"Keith":8522,"ML":8523,"Mitt":8524,"Nicole":8525,"Port":8526,"gent":8527,"ls":8528,"lan":8529,"Ġ+":8530,"ĠTank":8531,"ĠSed":8532,"ĠCere":8533,"onia":8534,"ĠBunch":8535,"ĠFile":8536,"ĠDust":8537,"ĠDyl":8538,"ĠHart":8539,"ĠLung":8540,"ĠTheft":8541,"ĠStir":8542,"iro":8543,"esse":8544,"ĠNeur":8545,"opic":8546,"ĠBrian":8547,"ĠAdvert":8548,"awker":8549,"ĠScrew":8550,"azy":8551,"ĠPresents":8552,"rio":8553,"ĠSchol":8554,"ĠJoint":8555,"ĠEmma":8556,"ĠSymb":8557,"ĠDealing":8558,"ĠTestimony":8559,"ĠStreep":8560,"Ġ80":8561,"Ariana":8562,"ĠOlympian":8563,"ĠDiscl":8564,"ĠDeterm":8565,"ĠBowie":8566,"ĠDesigners":8567,"ĠMurray":8568,"ĠKeystone":8569,"ĠColorful":8570,"ĠWildlife":8571,"ĠSometimes":8572,"ĠPushing":8573,"Everyone":8574,"ĠCupc":8575,"ĠWeirdest":8576,"ĠApproval":8577,"ĠReunite":8578,"ĠVolcan":8579,"ĠIrma":8580,"ĠHousew":8581,"ĠDestroys":8582,"ĠGraduation":8583,"Turkish":8584,"Winter":8585,"idelines":8586,"ĠTemp":8587,"Charlie":8588,"ĠEssentials":8589,"Amazing":8590,"ĠBachelorette":8591,"McDonald":8592,"Fearless":8593,"Finally":8594,"ĠBernard":8595,"ĠComplicated":8596,"ĠConstitution":8597,"ĠReferendum":8598,"ĠRestrictions":8599,"Halloween":8600,"Split":8601,"ĠTatum":8602,"Oklahoma":8603,"ĠDiscovery":8604,"Welcome":8605,"Brien":8606,"Dream":8607,"Easter":8608,"Fix":8609,"Jer":8610,"Lost":8611,"Made":8612,"Pos":8613,"SW":8614,"Simp":8615,"Try":8616,"Vac":8617,"bac":8618,"math":8619,"nic":8620,"vy":8621,"ĠSir":8622,"arma":8623,"ĠOasis":8624,"ĠRaces":8625,"ĠLift":8626,"ĠLover":8627,"reci":8628,"ĠNer":8629,"ĠNicole":8630,"ayvon":8631,"ĠTrapped":8632,"ĠShadow":8633,"cher":8634,"uls":8635,"abri":8636,"ostal":8637,"ĠClarks":8638,"ĠClimb":8639,"âĢĿ":8640,"ogy":8641,"ogyn":8642,"iano":8643,"ĠArpa":8644,"ĠSeal":8645,"ĠDisorders":8646,"ĠColle":8647,"ĠManchester":8648,"ĠFlat":8649,"ĠIntim":8650,"ĠPreschool":8651,"ĠCoat":8652,"ĠCole":8653,"enny":8654,"ĠCareg":8655,"ĠRemarks":8656,"ĠUnderwood":8657,"ĠHighlight":8658,"under":8659,"Shirt":8660,"ĠRedef":8661,"ĠGreater":8662,"ĠHistor":8663,"Brain":8664,"ĠHeaded":8665,"ĠBusinesses":8666,"ippers":8667,"ĠSignific":8668,"ĠExposed":8669,"ĠRaised":8670,"ĠAdmit":8671,"ĠTurner":8672,"ĠYounger":8673,"Ġ196":8674,"ĠMiser":8675,"hamed":8676,"ĠFranco":8677,"ĠTerrorists":8678,"Russell":8679,"porary":8680,"ĠDiego":8681,"ĠExercises":8682,"Teaching":8683,"Crazy":8684,"ĠDeveloping":8685,"ĠSquare":8686,"ĠHaun":8687,"ĠSuffering":8688,"Money":8689,"ĠDelivery":8690,"ĠAudience":8691,"ĠDoubt":8692,"Modern":8693,"Confessions":8694,"warming":8695,"ĠKlum":8696,"Royal":8697,"Keeping":8698,"ĠCollaboration":8699,"ĠPoetry":8700,"ĠDevastating":8701,"Baltimore":8702,"ĠTerms":8703,"rosoft":8704,"Invest":8705,"ĠFuels":8706,"ĠPrincip":8707,"atalie":8708,"ĠFifth":8709,"ĠMashup":8710,"stanbul":8711,"ĠExchange":8712,"ĠBryant":8713,"ĠGymnast":8714,"ĠClarkson":8715,"ĠArpaio":8716,"Card":8717,"Est":8718,"FT":8719,"Mont":8720,"Oh":8721,"Psych":8722,"Rub":8723,"Search":8724,"Tar":8725,"Veter":8726,"Wife":8727,"felt":8728,"yder":8729,"Ġp":8730,"ĠTa":8731,"ĠTs":8732,"inting":8733,"inating":8734,"inson":8735,"esla":8736,"anes":8737,"ĠWW":8738,"hele":8739,"hell":8740,"ĠBaking":8741,"ĠBisexual":8742,"ĠMaps":8743,"encer":8744,"ĠDos":8745,"ĠHong":8746,"ĠHiding":8747,"ĠRall":8748,"ĠRage":8749,"isk":8750,"ĠLinds":8751,"lem":8752,"ĠReacts":8753,"ĠTri":8754,"illance":8755,"ĠShock":8756,"ching":8757,"ules":8758,"apore":8759,"acked":8760,"ĠSpaces":8761,"usted":8762,"ĠDrives":8763,"ooked":8764,"ĠGrave":8765,"ĠAftermath":8766,"asha":8767,"ĠShowed":8768,"ĠEnforce":8769,"ounter":8770,"ĠMana":8771,"ĠKnife":8772,"ĠActs":8773,"Chick":8774,"Change":8775,"ĠButton":8776,"ĠAwful":8777,"active":8778,"ĠEmo":8779,"ĠBigot":8780,"ĠSmok":8781,"ĠBillions":8782,"ĠSla":8783,"ĠCommand":8784,"ĠâĢľ":8785,"ĠHarper":8786,"ĠRohing":8787,"atherine":8788,"ĠSupporter":8789,"ĠIndicted":8790,"scr":8791,"ĠExplore":8792,"ĠMinnesota":8793,"ĠAssad":8794,"ĠAnywhere":8795,"ĠRussians":8796,"ĠEarn":8797,"Forget":8798,"ealing":8799,"ysis":8800,"ĠEmpathy":8801,"ields":8802,"ĠTurkish":8803,"ĠSteven":8804,"ĠInterviews":8805,"ĠDenied":8806,"ĠPainful":8807,"Drug":8808,"ĠCorrect":8809,"ĠConditions":8810,"ĠOrdered":8811,"esha":8812,"ĠKindness":8813,"ĠEndorse":8814,"Christian":8815,"Research":8816,"ĠJailed":8817,"ĠAffected":8818,"ĠMuhammad":8819,"ĠMotor":8820,"ĠCitizen":8821,"ĠInnoc":8822,"itutional":8823,"Kellyanne":8824,"Sanders":8825,"ĠBattles":8826,"Melissa":8827,"ĠRatings":8828,"Conservative":8829,"known":8830,"ĠWarriors":8831,"ĠBlonde":8832,"ĠCounsel":8833,"Ivanka":8834,"ĠCrafts":8835,"appropriate":8836,"ĠMonologue":8837,"Aaron":8838,"Ban":8839,"Bus":8840,"Better":8841,"Civil":8842,"Has":8843,"Ill":8844,"Nancy":8845,"Ros":8846,"Sub":8847,"Sign":8848,"Was":8849,"Wonder":8850,"po":8851,"rina":8852,"ĠSeth":8853,"ĠCave":8854,"ĠBass":8855,"ĠFill":8856,"ĠFellow":8857,"ĠIC":8858,"ĠMug":8859,"ĠMater":8860,"ĠDunk":8861,"ĠDiana":8862,"ĠRic":8863,"ĠRank":8864,"ĠRabb":8865,"ĠLit":8866,"ĠToss":8867,"ĠNighter":8868,"ĠES":8869,"enty":8870,"ĠKle":8871,"ĠKaine":8872,"ĠVar":8873,"ĠVow":8874,"ĠBeast":8875,"ĠShaming":8876,"ofia":8877,"abe":8878,"ĠAbility":8879,"ĠComedian":8880,"ĠBrave":8881,"ĠLeaked":8882,"ĠLeonard":8883,"Ġinto":8884,"ĠDrought":8885,"ĠMarine":8886,"ĠGrateful":8887,"ĠUnite":8888,"ĠUncon":8889,"asses":8890,"ĠDisability":8891,"encement":8892,"ĠQatar":8893,"ĠShowc":8894,"ĠKidney":8895,"Income":8896,"ĠQuality":8897,"ĠContain":8898,"ĠJoan":8899,"ĠInsult":8900,"ĠInsider":8901,"Anthony":8902,"ĠShep":8903,"ussels":8904,"ahl":8905,"ĠHousehold":8906,"olling":8907,"Prop":8908,"ĠBanning":8909,"ĠArticle":8910,"ĠReporting":8911,"ĠReflection":8912,"errane":8913,"ĠCampaigns":8914,"ĠEarl":8915,"ĠDelays":8916,"ĠDaddy":8917,"ĠTestify":8918,"ĠMagn":8919,"ĠInvesting":8920,"ĠListening":8921,"ĠDetention":8922,"vengers":8923,"ĠRegular":8924,"Heidi":8925,"ĠStressed":8926,"ĠLoser":8927,"ĠDinosaur":8928,"ĠPopul":8929,"ĠResponsible":8930,"clips":8931,"ĠViewers":8932,"ĠMedicare":8933,"ĠDamon":8934,"ĠMelania":8935,"ĠLottery":8936,"Check":8937,"ING":8938,"ĠSuspends":8939,"ĠReplacement":8940,"ĠApologize":8941,"ĠCatches":8942,"IFA":8943,"Students":8944,"Surpr":8945,"ĠCommitted":8946,"ĠTyler":8947,"ĠGlasses":8948,"ĠIncluding":8949,"ĠCitizenship":8950,"ĠFarmers":8951,"ĠMaryland":8952,"ĠStrengthen":8953,"ĠOkay":8954,"Serena":8955,"Lindsay":8956,"Caprio":8957,"Oscar":8958,"ĠMethod":8959,"ĠMLK":8960,"ĠWithdraw":8961,"ĠImmediately":8962,"ĠGrocery":8963,"Pennsylvania":8964,"ĠMidterm":8965,"ĠSabot":8966,"ĠEndangered":8967,"aomi":8968,"onymous":8969,"ĠManafort":8970,"ĠSlavery":8971,",\"":8972,"Billy":8973,"EM":8974,"Eye":8975,"Hero":8976,"Jam":8977,"Look":8978,"Mu":8979,"Met":8980,"ND":8981,"Need":8982,"OR":8983,"Ray":8984,"Ten":8985,"Tot":8986,"cling":8987,"dale":8988,"eating":8989,"nia":8990,"tag":8991,"ĠTennis":8992,"ĠCot":8993,"ĠWang":8994,"ĠWitness":8995,"ĠBound":8996,"ĠBerry":8997,"ĠBilly":8998,"ĠPurch":8999,"ĠOdom":9000,"ĠDor":9001,"ĠDys":9002,"ĠHats":9003,"ĠHanks":9004,"ĠHeck":9005,"alysis":9006,"itute":9007,"itamin":9008,"isons":9009,"ĠInmate":9010,"ĠStad":9011,"ĠStake":9012,"olve":9013,"andering":9014,"adan":9015,"illion":9016,"ĠVon":9017,"ĠChat":9018,"ĠChill":9019,"ĠChains":9020,"ĠBears":9021,"ĠDepp":9022,"eem":9023,"ĠAbort":9024,"ĠConsc":9025,"ĠClown":9026,"eyton":9027,"agen":9028,"ĠBrink":9029,"ĠMarsh":9030,"ĠUnarmed":9031,"ĠOverwhel":9032,"ĠPolar":9033,"ĠResist":9034,"plant":9035,"ĠRecreat":9036,"ĠFlies":9037,"ĠHelicopter":9038,"ĠGuarant":9039,"ĠBackyard":9040,"ĠStrang":9041,"ĠEmissions":9042,"ĠInterf":9043,"ĠHappiest":9044,"ĠRemoves":9045,"ĠReflections":9046,"insburg":9047,"ologists":9048,"ĠAirf":9049,"ĠAirports":9050,"ĠHeartfelt":9051,"ĠGenes":9052,"Andrew":9053,"ĠApocalypse":9054,"ĠSucceed":9055,"ĠSurprised":9056,"ĠSelfies":9057,"Science":9058,"ĠRegrets":9059,"ĠTreating":9060,"Almost":9061,"Growing":9062,"umble":9063,"ĠBuilds":9064,"ĠBallot":9065,"ĠDiCaprio":9066,"ĠNominations":9067,"Amber":9068,"ĠCaptured":9069,"MeToo":9070,"ĠJews":9071,"ĠHorrible":9072,"Chef":9073,"ĠNationwide":9074,"ĠBloggers":9075,"ĠMiracle":9076,"ĠIdentified":9077,"ĠEssay":9078,"ingerie":9079,"Quick":9080,"ĠFloods":9081,"ĠTrafficking":9082,"ĠAlexander":9083,"ĠEmpowering":9084,"ĠCondemn":9085,"ĠOklahoma":9086,"dogan":9087,"ĠElephants":9088,"ĠSandwiches":9089,"ĠSharp":9090,"ĠBunny":9091,"ĠCanceled":9092,"ĠTheatre":9093,"ĠDesperate":9094,"Ashley":9095,"ĠLibrary":9096,"ĠConsequences":9097,"Positive":9098,"ĠRallies":9099,"erranean":9100,"31":9101,"Airl":9102,"Birth":9103,"Caitlyn":9104,"Gil":9105,"Her":9106,"Hop":9107,"Happ":9108,"Jerry":9109,"Mr":9110,"OM":9111,"Oregon":9112,"Po":9113,"Pain":9114,"Pound":9115,"Soul":9116,"TH":9117,"Vis":9118,"iotic":9119,"nold":9120,"ship":9121,"ueless":9122,"ĠAmp":9123,"ĠSey":9124,"esmer":9125,"ĠWi":9126,"health":9127,"ĠBin":9128,"ĠFiction":9129,"arch":9130,"ĠMul":9131,"ĠPow":9132,"ĠPee":9133,"ĠPics":9134,"ĠRural":9135,"ĠRoles":9136,"edi":9137,"acting":9138,"idal":9139,"ĠKris":9140,"ĠKara":9141,"ĠChase":9142,"ĠChuck":9143,"ĠNep":9144,"ĠBean":9145,"opol":9146,"ĠDepr":9147,"ifest":9148,"oods":9149,"ĠBrun":9150,"antage":9151,"ĠCran":9152,"ĠLeaks":9153,"ikh":9154,"ĠDonates":9155,"Ġ2020":9156,"ailand":9157,"ĠRecre":9158,"ample":9159,"ĠKnowledge":9160,"ĠCozy":9161,"ĠCharles":9162,"ĠSlain":9163,"ĠCommencement":9164,"ĠDecides":9165,"ĠFinish":9166,"ĠHighly":9167,"ĠReflect":9168,"ĠConflic":9169,"ĠPoster":9170,"ĠParental":9171,"ATO":9172,"ĠSecretly":9173,"phones":9174,"ĠGenocide":9175,"ĠBelief":9176,"ĠCutting":9177,"ĠSurvives":9178,"ĠStartup":9179,"ĠInspirational":9180,"ĠSteel":9181,"SNBC":9182,"mingly":9183,"ĠDinners":9184,"ĠJudges":9185,"ceptions":9186,"ĠMeditate":9187,"ĠIllinois":9188,"ĠBudd":9189,"ĠPossibly":9190,"ĠSubst":9191,"ĠMadonna":9192,"ĠNetanyahu":9193,"ĠLoud":9194,"ĠCollins":9195,"ĠPhiladelphia":9196,"ĠConfirmed":9197,"ĠPractices":9198,"iscal":9199,"ĠJonas":9200,"ognitive":9201,"ĠHaunted":9202,"Sprout":9203,"ĠIII":9204,"ĠChefs":9205,"ĠConcerned":9206,"Syria":9207,"ĠPhysic":9208,"ĠAccusations":9209,"ĠSupremacy":9210,"ĠProductivity":9211,"ĠLauren":9212,"ĠRecognize":9213,"Massive":9214,"ĠSnapchat":9215,"ĠCuomo":9216,"ĠCertain":9217,"Doctor":9218,"Australian":9219,"ĠNigeria":9220,"ĠIngredient":9221,"Larry":9222,"Internet":9223,"ĠImpeachment":9224,"ĠUnemployment":9225,"celona":9226,"ĠCaitlyn":9227,"ĠPardon":9228,"27":9229,"200":9230,"City":9231,"Camp":9232,"Dancing":9233,"Founder":9234,"Hair":9235,"Kind":9236,"Loving":9237,"Mo":9238,"Move":9239,"Mars":9240,"Nob":9241,"OL":9242,"PR":9243,"SU":9244,"Tour":9245,"Vintage":9246,"chen":9247,"gusting":9248,"mers":9249,"nb":9250,"yles":9251,"zel":9252,"ĠTut":9253,"ĠTone":9254,"ĠADHD":9255,"ĠWer":9256,"ĠWing":9257,"ĠWaves":9258,"ĠBike":9259,"ĠBoring":9260,"ĠFo":9261,"ĠFighter":9262,"ĠOx":9263,"ĠRhet":9264,"ĠLav":9265,"ĠLingerie":9266,"ĠGordon":9267,"ĠGinsburg":9268,"ĠNostal":9269,"anded":9270,"irk":9271,"ĠKrist":9272,"ĠVenezuela":9273,"ĠShakes":9274,"ĠShines":9275,"osc":9276,"ĠDement":9277,"ĠSpider":9278,"ĠClar":9279,"ĠHeavy":9280,"ĠGrilled":9281,"ĠDism":9282,"pert":9283,"pless":9284,"ĠFlower":9285,"ĠIntel":9286,"ĠPrescription":9287,"ĠWint":9288,"ordinary":9289,"ĠImpl":9290,"ĠDecline":9291,"ilege":9292,"ĠUnderm":9293,"ĠZoe":9294,"ĠDressing":9295,"ĠContrad":9296,"ĠLearns":9297,"Brad":9298,"erte":9299,"ĠDelight":9300,"ĠTaxp":9301,"ĠSimon":9302,"ĠPropose":9303,"ĠPrompts":9304,"ĠBurgers":9305,"aiwan":9306,"ĠGrandmother":9307,"ĠLooms":9308,"ĠIranian":9309,"ĠJacket":9310,"ĠCaptain":9311,"Emot":9312,"ĠHomelessness":9313,"Play":9314,"ĠOrganized":9315,"grade":9316,"Cheating":9317,"ĠIncreasing":9318,"ĠApprop":9319,"Teens":9320,"ĠHackers":9321,"ĠBiopic":9322,"ĠResignation":9323,"ĠPremier":9324,"ĠTargeting":9325,"ĠLegendary":9326,"nament":9327,"ĠTyson":9328,"Month":9329,"ĠNeighbors":9330,"ĠTemper":9331,"Snow":9332,"ĠNavy":9333,"ĠBatman":9334,"ĠGowns":9335,"ĠCasual":9336,"ĠComfortable":9337,"Israeli":9338,"HOW":9339,"ĠIllustrated":9340,"ĠMinority":9341,"ĠNarc":9342,"achella":9343,"ĠWidow":9344,"ĠMontana":9345,"ĠSupremacists":9346,"ĠMalfunction":9347,"ĠVirtual":9348,"ĠCorrespondents":9349,"ĠInfrastructure":9350,"ĠStadium":9351,"Book":9352,"Cut":9353,"Di":9354,"GO":9355,"Ir":9356,"Jake":9357,"Jared":9358,"Meg":9359,"Moon":9360,"Near":9361,"Pink":9362,"XSW":9363,"bage":9364,"bourne":9365,"ean":9366,"rial":9367,"uf":9368,"yong":9369,"zed":9370,"Ġc":9371,"ĠSaint":9372,"ĠCable":9373,"arriage":9374,"ĠMol":9375,"ĠMask":9376,"ĠMaine":9377,"ĠPTSD":9378,"ĠHorm":9379,"ĠHires":9380,"ĠRiot":9381,"itage":9382,"edict":9383,"ĠLor":9384,"ĠGing":9385,"ĠNupt":9386,"ĠEsp":9387,"ĠYellow":9388,"ĠTrivia":9389,"ĠJazz":9390,"apper":9391,"ipes":9392,"ĠSpoil":9393,"ĠSuing":9394,"ĠComics":9395,"arding":9396,"ĠAsleep":9397,"ogen":9398,"ĠUpon":9399,"awks":9400,"ĠMeant":9401,"ĠScre":9402,"ĠTeeth":9403,"ĠResour":9404,"ĠHealthcare":9405,"ĠAppoint":9406,"ĠAwak":9407,"ĠFever":9408,"ahoo":9409,"ĠKillings":9410,"ĠSmooth":9411,"ĠWrest":9412,"ĠTransport":9413,"ĠZimmer":9414,"ĠAdvantage":9415,"ĠFallen":9416,"ĠPoeh":9417,"ĠDeputy":9418,"ĠHomophobia":9419,"ĠHomophobic":9420,"ĠHaircut":9421,"ĠThreaten":9422,"ĠChallenger":9423,"ĠFreaking":9424,"United":9425,"Johnny":9426,"ĠRevival":9427,"ĠSolved":9428,"ĠHandling":9429,"Drag":9430,"Dozens":9431,"ĠComplaint":9432,"ography":9433,"Parent":9434,"Compl":9435,"ĠWildfire":9436,"ĠLoch":9437,"ĠBallet":9438,"ĠModeling":9439,"atured":9440,"ĠPosition":9441,"ĠMadison":9442,"ĠChurches":9443,"ĠBeaten":9444,"ĠAngelina":9445,"ĠBloody":9446,"ĠBulls":9447,"ĠEditorial":9448,"ĠClaiming":9449,"Small":9450,"Lawmakers":9451,"ĠForgiveness":9452,"ĠBully":9453,"burgh":9454,"ĠBasic":9455,"ĠHunting":9456,"Homeless":9457,"ĠFlooding":9458,"ĠIndependent":9459,"ĠTattoos":9460,"ĠCharlotte":9461,"ĠSatisf":9462,"ĠChapter":9463,"Empire":9464,"Interview":9465,"ĠSacr":9466,"ĠSacred":9467,"igslist":9468,"ĠProstate":9469,"ĠCrawford":9470,"ĠRobbery":9471,"ĠCeasefire":9472,"ĠGwyneth":9473,"ĠREALLY":9474,"ĠSurveillance":9475,"ĠGriffin":9476,"ĠSymbol":9477,"ĠRhetoric":9478,"ĠPoehler":9479,"35":9480,"Bomb":9481,"Din":9482,"Det":9483,"Deep":9484,"Fi":9485,"Feed":9486,"Gender":9487,"HS":9488,"Half":9489,"Ice":9490,"Lapse":9491,"Male":9492,"Many":9493,"QUI":9494,"Sun":9495,"Wall":9496,"ba":9497,"fish":9498,"fighter":9499,"pack":9500,"point":9501,"turn":9502,"Ã±":9503,"Ġf":9504,"Ġl":9505,"ĠTub":9506,"ĠAT":9507,"ĠSem":9508,"ĠCaut":9509,"ĠBash":9510,"ĠBetsy":9511,"ĠIRS":9512,"enry":9513,"ĠPSA":9514,"ĠOh":9515,"ĠOde":9516,"ĠDNA":9517,"ĠDuty":9518,"ĠRous":9519,"ĠRoot":9520,"itor":9521,"ĠLag":9522,"ĠLived":9523,"ĠGer":9524,"ĠGent":9525,"ĠNort":9526,"ĠEtsy":9527,"etown":9528,"ĠStream":9529,"amo":9530,"ĠRevel":9531,"ĠTragic":9532,"andra":9533,"ĠKur":9534,"ĠPric":9535,"ĠVig":9536,"ĠNevada":9537,"char":9538,"oco":9539,"ĠAnne":9540,"allow":9541,"ĠConce":9542,"Whit":9543,"ĠClooney":9544,"ĠDrown":9545,"ĠBless":9546,"ĠMarries":9547,"ĠDoors":9548,"ĠHeritage":9549,"ĠScouts":9550,"asse":9551,"ĠPolling":9552,"ĠResur":9553,"ĠResorts":9554,"arten":9555,"artisan":9556,"ĠColors":9557,"ĠKnee":9558,"ĠStraw":9559,"ĠStranger":9560,"riers":9561,"ĠApplic":9562,"ĠDivide":9563,"ĠFeatured":9564,"ĠEnded":9565,"ĠRefuse":9566,"ĠAdvance":9567,"ĠClever":9568,"Watching":9569,"ĠCaps":9570,"ĠElle":9571,"ĠHumor":9572,"ĠCovered":9573,"ĠDetained":9574,"Exp":9575,"ĠDirection":9576,"ĠExtr":9577,"Driving":9578,"ĠMisle":9579,"ĠObv":9580,"ĠClosed":9581,"ĠJean":9582,"ĠCausing":9583,"ĠPrisoners":9584,"ĠMelissa":9585,"ĠGarland":9586,"Orange":9587,"ĠCriticizes":9588,"ĠHacked":9589,"ĠFairy":9590,"ĠExcuse":9591,"ĠReceived":9592,"Strong":9593,"ĠRequire":9594,"About":9595,"ĠDecorating":9596,"ĠSituation":9597,"ĠMeaningful":9598,"ĠDoubles":9599,"ĠGlamour":9600,"ĠQuietly":9601,"ĠVenice":9602,"ĠPublish":9603,"ĠEntertainment":9604,"ĠMemoir":9605,"ĠToronto":9606,"ĠWealthy":9607,"Reflections":9608,"Media":9609,"ĠFundraising":9610,"ĠNecessary":9611,"Radio":9612,"ĠWheelchair":9613,"Toddler":9614,"opardy":9615,"Virginia":9616,"ĠOpinion":9617,"ĠNixon":9618,"Religious":9619,"ĠCeiling":9620,"ĠHaunting":9621,"ĠRohingya":9622,"Gilmore":9623,"ĠNuptials":9624,"QUIZ":9625,"Author":9626,"AIDS":9627,"Bet":9628,"Ball":9629,"Cher":9630,"Direct":9631,"Famous":9632,"Having":9633,"Past":9634,"Say":9635,"Spir":9636,"Whe":9637,"bles":9638,"ded":9639,"ken":9640,"rance":9641,"ua":9642,"ĠAL":9643,"esame":9644,"ĠCout":9645,"ĠWreck":9646,"ĠBFF":9647,"ĠPens":9648,"ĠPowers":9649,"ĠOz":9650,"ĠHan":9651,"ĠHugh":9652,"ĠRig":9653,"ĠLucky":9654,"ĠGamb":9655,"ila":9656,"elet":9657,"ĠElderly":9658,"ĠEclips":9659,"ĠTrap":9660,"uterte":9661,"aders":9662,"estine":9663,"ĠKarl":9664,"ĠJun":9665,"ĠJets":9666,"ĠShreds":9667,"ĠSpokes":9668,"ĠSudan":9669,"usters":9670,"avings":9671,"astr":9672,"eps":9673,"ĠDrilling":9674,"ellar":9675,"ĠMaria":9676,"ailed":9677,"Ġ2011":9678,"ĠUnknown":9679,"ĠScout":9680,"Still":9681,"Stunning":9682,"ĠTwin":9683,"ĠKnot":9684,"ĠHealthiest":9685,"upita":9686,"azis":9687,"ampire":9688,"manuel":9689,"airy":9690,"ĠKnowles":9691,"ĠAppeals":9692,"ĠJoh":9693,"ĠSwing":9694,"ĠChel":9695,"ĠWayne":9696,"ĠDecre":9697,"ĠDefeats":9698,"ĠCelebrated":9699,"ĠSupermod":9700,"ĠReddit":9701,"ĠMcG":9702,"ĠNightcl":9703,"Ġ75":9704,"ĠBader":9705,"ĠLongest":9706,"ĠEastern":9707,"Mariah":9708,"Once":9709,"oppers":9710,"ĠWalls":9711,"ĠSpray":9712,"ĠTournament":9713,"ĠKardashians":9714,"University":9715,"Sports":9716,"ĠRevis":9717,"ĠExtin":9718,"ĠAuto":9719,"strong":9720,"ĠTomorrow":9721,"Ups":9722,"ĠLikes":9723,"Atl":9724,"Celebrate":9725,"ĠAlba":9726,"ĠInfo":9727,"Teach":9728,"ĠSuspects":9729,"ĠElev":9730,"ĠFeaturing":9731,"ĠLambert":9732,"ĠFactor":9733,"Guard":9734,"ĠGardens":9735,"ĠBottles":9736,"ĠSanctuary":9737,"Feds":9738,"ĠImagines":9739,"ĠHaters":9740,"ĠVegetarian":9741,"ĠOrigin":9742,"Putting":9743,"Model":9744,"Slow":9745,"ĠNightmares":9746,"ĠBarbara":9747,"ukkah":9748,"ĠSlammed":9749,"ĠSources":9750,"ĠBreathtaking":9751,"ĠSwimming":9752,"Morgan":9753,"ĠBomber":9754,"ĠVerd":9755,"ĠDerby":9756,"ĠPepper":9757,"ĠScientist":9758,"ĠEntertaining":9759,"ĠRandom":9760,"ĠInfection":9761,"Creating":9762,"Doctors":9763,"ĠWhiskey":9764,"Colorado":9765,"ĠDolph":9766,"Iraqi":9767,"Immigration":9768,"ĠBubble":9769,"ĠComplaints":9770,"ĠManhattan":9771,"ĠAirstrikes":9772,"ĠBankruptcy":9773,"ĠScholars":9774,"ĠKaraoke":9775,"ĠConflicts":9776,"Hate":9777,"Light":9778,"Labor":9779,"Mis":9780,"Mac":9781,"Nor":9782,"Pippa":9783,"Ron":9784,"Sad":9785,"bnb":9786,"corn":9787,"eated":9788,"fe":9789,"father":9790,"gates":9791,"iated":9792,"iPhone":9793,"ni":9794,"panic":9795,"uable":9796,"uition":9797,"works":9798,"Ġup":9799,"ĠTum":9800,"ĠTall":9801,"ĠTask":9802,"ĠCin":9803,"anthrop":9804,"ĠBog":9805,"aro":9806,"arians":9807,"ĠMast":9808,"ĠMull":9809,"ĠPunk":9810,"ĠDC":9811,"ĠHor":9812,"aled":9813,"ĠRipp":9814,"ĠLun":9815,"ĠLyr":9816,"omen":9817,"ilyn":9818,"ĠNose":9819,"ĠNarr":9820,"aya":9821,"stal":9822,"ĠStages":9823,"entions":9824,"ĠRex":9825,"ĠForest":9826,"andez":9827,"ĠVent":9828,"ĠVets":9829,"ĠVandal":9830,"ĠChop":9831,"verts":9832,"ĠShocked":9833,"ĠFracking":9834,"ĠTrumpcare":9835,"ipt":9836,"iper":9837,"ĠAbusive":9838,"ĠSpencer":9839,"ĠBrunch":9840,"izer":9841,"IDES":9842,"ĠUncom":9843,"ĠScam":9844,"ĠAllergy":9845,"ĠPhr":9846,"ignity":9847,"Donnell":9848,"ĠMostly":9849,"ĠAppreci":9850,"ĠSwap":9851,"elfare":9852,"ĠGlorious":9853,"Priv":9854,"Prob":9855,"ĠDesk":9856,"ĠServes":9857,"tier":9858,"amsung":9859,"ĠSkirt":9860,"ĠElectoral":9861,"ĠRefusing":9862,"Ready":9863,"ĠYorkers":9864,"errick":9865,"ĠSuperman":9866,"Shark":9867,"ĠLegit":9868,"ĠBarely":9869,"othy":9870,"Connect":9871,"ĠGenetic":9872,"ĠVisiting":9873,"ĠFilming":9874,"ĠCruel":9875,"ĠFavorites":9876,"ĠSprings":9877,"ĠTreatments":9878,"Head":9879,"ĠStef":9880,"udeau":9881,"ylum":9882,"ĠProposals":9883,"ĠHostage":9884,"ĠObese":9885,"ophy":9886,"ĠCouch":9887,"Seattle":9888,"ĠError":9889,"ĠAnswered":9890,"ĠExecution":9891,"Playing":9892,"ĠOrganic":9893,"ĠCuban":9894,"ĠRaped":9895,"***":9896,"ĠCraziest":9897,"ĠTrees":9898,"ĠKellyanne":9899,"ĠDiverse":9900,"ĠMcCart":9901,"ĠFormula":9902,"ĠCompete":9903,"ĠEmbracing":9904,"ĠTowards":9905,"ĠDefinition":9906,"ĠMixed":9907,"ĠAlien":9908,"ĠBrutality":9909,"ĠPrayers":9910,"Powerful":9911,"Magic":9912,"ĠPartnership":9913,"ĠOdds":9914,"ĠGraduates":9915,"Australia":9916,"ĠDescribes":9917,"Obesity":9918,"ĠFortune":9919,"ĠPulse":9920,"ĠOpponent":9921,"ĠResilience":9922,"ĠRemembers":9923,"Fifty":9924,"Jamie":9925,"ĠWeren":9926,"ĠLochte":9927,"IDESHOW":9928,"Bo":9929,"Cur":9930,"Dig":9931,"EW":9932,"Ener":9933,"Ebola":9934,"Got":9935,"Gram":9936,"HL":9937,"Kourtney":9938,"Losing":9939,"Mult":9940,"Master":9941,"Seek":9942,"Test":9943,"Tony":9944,"aiting":9945,"celand":9946,"eas":9947,"gies":9948,"ggy":9949,"hd":9950,"hma":9951,"just":9952,"marks":9953,"pre":9954,"yer":9955,"Ġ=":9956,"ĠAiles":9957,"ĠAverage":9958,"ĠSoph":9959,"esc":9960,"ĠCate":9961,"ĠBure":9962,"ĠIstanbul":9963,"ĠMate":9964,"ĠDyn":9965,"ĠHend":9966,"ĠRib":9967,"ĠRides":9968,"eda":9969,"ĠLena":9970,"icles":9971,"omnia":9972,"ĠNyong":9973,"ĠYOU":9974,"ĠStal":9975,"ami":9976,"ĠThick":9977,"umes":9978,"ĠKendall":9979,"ecue":9980,"ĠVerg":9981,"ĠAndy":9982,"opical":9983,"ĠDeaf":9984,"ĠDevil":9985,"apers":9986,"ĠAnat":9987,"ĠBrussels":9988,"ĠParaly":9989,"ĠPlate":9990,"ĠPlag":9991,"indy":9992,"ĠBland":9993,"ĠMarie":9994,"ĠCarrying":9995,"ĠOffered":9996,"Stage":9997,"ĠReserve":9998,"ĠAgents":9999,"ĠColon":10000,"ĠColombia":10001,"ĠManifest":10002,"ĠFlavors":10003,"ĠKidman":10004,"ĠGuidelines":10005,"ĠStrangers":10006,"ĠShell":10007,"ĠChew":10008,"Profit":10009,"ĠRealize":10010,"ĠRemake":10011,"ĠMoved":10012,"ĠUnderwater":10013,"ĠInvis":10014,"ĠConfusing":10015,"inski":10016,"ĠMisses":10017,"ĠGunman":10018,"ĠAssass":10019,"ĠArrives":10020,"ĠLasting":10021,"ĠRestore":10022,"ĠMessy":10023,"ĠEmpire":10024,"ĠDetox":10025,"ĠThreatening":10026,"ĠStressful":10027,"ĠSimply":10028,"ĠBurgl":10029,"ĠReads":10030,"ĠFatherhood":10031,"ĠSpeeches":10032,"Canada":10033,"ĠHaley":10034,"ĠCastle":10035,"ĠOppose":10036,"ĠProfits":10037,"fortable":10038,"ĠLanding":10039,"ĠFriendly":10040,"Senator":10041,"ĠSweetest":10042,"ĠCollaps":10043,"ĠCollapse":10044,"ĠPortland":10045,"going":10046,"ĠRebu":10047,"ĠGodd":10048,"Prep":10049,"ĠScrut":10050,"India":10051,"ĠVehic":10052,"Robin":10053,"ĠBridges":10054,"ĠChecklist":10055,"ĠPsychology":10056,"ĠFactory":10057,"parent":10058,"parents":10059,"Steven":10060,"ĠKissing":10061,"mission":10062,"ĠInev":10063,"ĠFurious":10064,"Buying":10065,"ĠArmstrong":10066,"ĠVegetable":10067,"Oprah":10068,"ĠDiagnosed":10069,"ĠAccuser":10070,"ĠSheeran":10071,"ĠMaintain":10072,"Understanding":10073,"ĠDispute":10074,"Mexican":10075,"ĠBuffett":10076,"ĠKenya":10077,"ĠChronicles":10078,"Exploring":10079,"ĠConfront":10080,"ĠCoconut":10081,"ĠPriority":10082,"ĠExplosion":10083,"urposing":10084,"Semitism":10085,"ĠDismisses":10086,"ĠWiret":10087,"ĠCartoon":10088,"Activists":10089,"ĠEvacu":10090,"ĠAstronaut":10091,"ĠWonders":10092,"ĠSchedule":10093,"ĠREPORT":10094,"ĠRouge":10095,"ĠRecruit":10096,"ĠAttempts":10097,"ĠDuchess":10098,"ĠBernardino":10099,"ĠAbortions":10100,"ĠDementia":10101,"ĠCouture":10102,"ĠChelsea":10103,"ĠLyrics":10104,"ĠMcCartney":10105,",âĢĻ":10106,"36":10107,"Ap":10108,"Coffee":10109,"Dol":10110,"Fant":10111,"GA":10112,"Hack":10113,"IR":10114,"Jew":10115,"Kansas":10116,"Natural":10117,"Page":10118,"Pass":10119,"Peter":10120,"Pokemon":10121,"Vogue":10122,"YMI":10123,"burn":10124,"cles":10125,"ek":10126,"ev":10127,"fight":10128,"lide":10129,"lines":10130,"uz":10131,"yers":10132,"ĠTinder":10133,"ĠSail":10134,"ĠCel":10135,"ĠWitch":10136,"ĠBinge":10137,"ĠFA":10138,"ĠFilled":10139,"ĠMend":10140,"ĠPor":10141,"ĠPour":10142,"ĠPure":10143,"ĠPier":10144,"ĠPhel":10145,"ĠPoop":10146,"ĠDances":10147,"ĠHike":10148,"ĠRi":10149,"ĠRav":10150,"ĠTopp":10151,"ĠTopless":10152,"ĠGh":10153,"ĠGMO":10154,"ilia":10155,"ĠNuts":10156,"ĠEither":10157,"etz":10158,"amucci":10159,"ĠReop":10160,"adi":10161,"ĠKale":10162,"ĠOnion":10163,"aky":10164,"ĠJar":10165,"ĠVatican":10166,"ĠChast":10167,"ĠFright":10168,"ablish":10169,"ĠAns":10170,"ĠNewton":10171,"ĠWorries":10172,"ĠSpacey":10173,"ously":10174,"ĠSuits":10175,"oodle":10176,"antly":10177,"ĠBliss":10178,"ĠGrant":10179,"ĠGrass":10180,"ĠGrads":10181,"ĠDisrupt":10182,"ĠAllows":10183,"ĠAges":10184,"ĠShowdown":10185,"orse":10186,"ĠWorked":10187,"ancers":10188,"ĠAccom":10189,"ĠMonkey":10190,"ahawks":10191,"ĠDemonstr":10192,"ĠSmell":10193,"ĠCharter":10194,"ĠSlave":10195,"ĠPlayground":10196,"ĠDesp":10197,"ĠHarsh":10198,"ĠWriters":10199,"ĠSandra":10200,"ĠRunners":10201,"ĠBarriers":10202,"Bruce":10203,"ĠHeartwarming":10204,"ĠMilest":10205,"ĠCalend":10206,"Arizona":10207,"ĠAddict":10208,"Online":10209,"2014":10210,"ĠTeenager":10211,"Tweet":10212,"ĠSafer":10213,"ĠFrequ":10214,"ĠBurr":10215,"ĠDenim":10216,"ĠPotatoes":10217,"Drunk":10218,"ermaid":10219,"ĠMisogyn":10220,"ĠHitler":10221,"ĠInvestigated":10222,"Afghan":10223,"Common":10224,"ĠCloses":10225,"ĠMeteor":10226,"ĠDiets":10227,"Sea":10228,"Senators":10229,"ICYMI":10230,"ĠShortage":10231,"ĠPhilanthrop":10232,"ĠPrepared":10233,"ĠPrivilege":10234,"ĠInfant":10235,"Teacher":10236,"ĠBoosts":10237,"ĠIdentify":10238,"ĠTrading":10239,"ĠTherapist":10240,"Without":10241,"ĠChampion":10242,"ĠEyebr":10243,"ĠMacron":10244,"NYT":10245,"ĠAdopted":10246,"ĠRoute":10247,"Racist":10248,"ĠEmbassy":10249,"ĠContestant":10250,"Building":10251,"ĠIvy":10252,"ĠProsecutors":10253,"ĠPuppies":10254,"Traveling":10255,"Eva":10256,"ĠLaughing":10257,"Avoid":10258,"ĠConfirmation":10259,"Conservatives":10260,"Experts":10261,"ĠMeltdown":10262,"ĠLaund":10263,"Semitic":10264,"Greece":10265,"ĠLicense":10266,"Raising":10267,"ĠRecommend":10268,"ĠEmbarrassing":10269,"ĠAssaulting":10270,"SLIDESHOW":10271,"ĠHistorical":10272,"ĠWintour":10273,"Emotional":10274,"Nearly":10275,"ĠEclipse":10276,"ĠNightclub":10277,"ĠVergara":10278,"26":10279,"28":10280,"Boo":10281,"Cool":10282,"Host":10283,"Hard":10284,"Horr":10285,"Julian":10286,"Mob":10287,"Pod":10288,"Ukraine":10289,"busters":10290,"dle":10291,"face":10292,"ked":10293,"lr":10294,"sa":10295,"ĠTant":10296,"ĠAx":10297,"ĠSar":10298,"ĠSect":10299,"ĠCass":10300,"ĠCakes":10301,"ĠCigar":10302,"orie":10303,"ĠBug":10304,"ĠIcons":10305,"ĠMas":10306,"enberg":10307,"ĠPant":10308,"ĠOv":10309,"ĠOuch":10310,"ĠDial":10311,"ĠDuff":10312,"ĠHul":10313,"ĠReth":10314,"ĠRuth":10315,"itious":10316,"ĠLane":10317,"ĠLazy":10318,"ĠGill":10319,"ilation":10320,"ĠNay":10321,"ĠEight":10322,"ayers":10323,"ĠStunt":10324,"ĠStocks":10325,"olis":10326,"ĠRey":10327,"ĠRevenge":10328,"ĠTrudeau":10329,"ĠUPDATE":10330,"ĠKristen":10331,"ĠJoseph":10332,"ĠVladimir":10333,"ĠChrissy":10334,"tsburgh":10335,"opia":10336,"umption":10337,"ully":10338,"ulate":10339,"about":10340,"ĠCong":10341,"ĠSpike":10342,"ĠExcl":10343,"ĠBrains":10344,"ĠDropping":10345,"erek":10346,"ĠDonor":10347,"ĠSeaf":10348,"ĠGro":10349,"ĠGetaway":10350,"ĠUnif":10351,"ĠDisag":10352,"ĠTeases":10353,"ĠAggress":10354,"ĠColumb":10355,"ĠWarner":10356,"braska":10357,"ĠPrefer":10358,"ĠStriking":10359,"airs":10360,"rians":10361,"ĠAccuse":10362,"ĠCampbell":10363,"ĠCourts":10364,"ĠRemix":10365,"ĠSkept":10366,"ĠRefund":10367,"ĠRefused":10368,"ĠYorker":10369,"ĠInvites":10370,"ĠIndivid":10371,"ĠRetiring":10372,"ĠBarry":10373,"Weird":10374,"ĠHometown":10375,"ĠSniper":10376,"Cont":10377,"iddle":10378,"ĠHeading":10379,"ĠBelly":10380,"Asian":10381,"ĠCovering":10382,"ĠDiscip":10383,"2013":10384,"ĠWatchdog":10385,"ĠSteak":10386,"Drake":10387,"ĠHosting":10388,"ĠHumanitarian":10389,"ĠFaced":10390,"ĠNYT":10391,"ĠBuildings":10392,"ĠMistaken":10393,"ACP":10394,"Embr":10395,"ĠTastes":10396,"Flight":10397,"Meat":10398,"ĠBedtime":10399,"ĠPredicts":10400,"ĠApproved":10401,"ĠConnecticut":10402,"ĠTraditions":10403,"ĠIgnoring":10404,"ĠConcuss":10405,"arrell":10406,"Sleeping":10407,"ĠSuffers":10408,"missions":10409,"ĠHangs":10410,"ĠDistract":10411,"ĠFurther":10412,"ĠExtraordinary":10413,"ĠJuice":10414,"Running":10415,"Million":10416,"ladesh":10417,"ĠRobinson":10418,"ĠExceptional":10419,"erkeley":10420,"Charles":10421,"ĠTravels":10422,"ĠDougl":10423,"Breastfeeding":10424,"Autism":10425,"ĠHashtag":10426,"ĠManicure":10427,"Planned":10428,"ĠSAG":10429,"Hunger":10430,"ĠDeficit":10431,"ĠKrugman":10432,"DOJ":10433,"ĠTemple":10434,"ĠTriumph":10435,"ĠKlein":10436,"esmerizing":10437,"ĠNarciss":10438,"ĠGingrich":10439,"Energy":10440,"ĠPhelps":10441,"Bry":10442,"Breat":10443,"EP":10444,"Gisele":10445,"Husband":10446,"Hello":10447,"Letter":10448,"OS":10449,"RL":10450,"Rom":10451,"Suc":10452,"Santa":10453,"TU":10454,"TER":10455,"Vot":10456,"VER":10457,"aeda":10458,"bu":10459,"eering":10460,"girl":10461,"hart":10462,"tt":10463,"zer":10464,"ĠTaps":10465,"ĠTaiwan":10466,"ĠCyn":10467,"ĠBes":10468,"ĠBos":10469,"ĠBite":10470,"ĠBatter":10471,"ĠFerr":10472,"ĠFCC":10473,"aration":10474,"aria":10475,"arcer":10476,"ĠMaker":10477,"ĠPM":10478,"ĠPiv":10479,"ĠDame":10480,"itas":10481,"isle":10482,"ĠLions":10483,"ĠLoy":10484,"ĠLuke":10485,"ĠNest":10486,"ĠNancy":10487,"ĠYe":10488,"otting":10489,"steen":10490,"stream":10491,"ĠStom":10492,"idy":10493,"olved":10494,"amas":10495,"ĠThrew":10496,"ĠTrayvon":10497,"ĠKinds":10498,"ĠKhloe":10499,"ĠKeith":10500,"imental":10501,"ĠJosh":10502,"ĠShops":10503,"ĠShoppers":10504,"chi":10505,"occo":10506,"ĠNewtown":10507,"ĠBron":10508,"ĠBrag":10509,"ĠParking":10510,"ĠAsylum":10511,"ĠCravings":10512,"ĠLeBron":10513,"ĠBlas":10514,"Thinking":10515,"ĠCarr":10516,"ĠHern":10517,"iban":10518,"ĠDisasters":10519,"Stay":10520,"Street":10521,"ĠAgencies":10522,"pling":10523,"ĠEnh":10524,"athing":10525,"ĠKnock":10526,"ango":10527,"ĠInters":10528,"ĠPerf":10529,"ĠPerman":10530,"ĠActions":10531,"Chocolate":10532,"ĠStranded":10533,"ĠAmount":10534,"ĠCoachella":10535,"ĠAppra":10536,"ĠJoining":10537,"osexual":10538,"ĠSmarter":10539,"prom":10540,"Ġ36":10541,"Ġ300":10542,"ĠCharming":10543,"ĠSerial":10544,"ĠDefine":10545,"otta":10546,"ĠDebunk":10547,"Really":10548,"ĠBirther":10549,"Ġ49":10550,"ĠPosters":10551,"ĠExplo":10552,"ĠSingapore":10553,"Brooklyn":10554,"ĠLongoria":10555,"ĠSnub":10556,"ĠNationalist":10557,"ĠExposes":10558,"ĠRae":10559,"ĠSucks":10560,"ĠSalmon":10561,"Exclusive":10562,"ĠRegion":10563,"2016":10564,"ĠPrompt":10565,"ĠHardest":10566,"ĠFreed":10567,"ermont":10568,"errym":10569,"ĠSilicon":10570,"ĠFundam":10571,"ĠObject":10572,"ĠBoxes":10573,"ĠBalls":10574,"ĠUniversal":10575,"ĠHonoring":10576,"Plus":10577,"Divor":10578,"ĠOlsen":10579,"ĠHorrifying":10580,"ĠRebel":10581,"ĠPredictions":10582,"ĠConservation":10583,"ĠIraqi":10584,"ĠCivilians":10585,"ĠExcuses":10586,"Smoking":10587,"ĠElement":10588,"ĠNeglect":10589,"Laws":10590,"ĠProvides":10591,"Guy":10592,"ĠCosm":10593,"ĠVanity":10594,"ĠDivorcing":10595,"ĠArgent":10596,"ĠMountains":10597,"ĠHanging":10598,"Maybe":10599,"Beautiful":10600,"ĠEmpowerment":10601,"ĠInteresting":10602,"ĠLiqu":10603,"ĠAccusers":10604,"ĠDisturbing":10605,"iotics":10606,"ĠProductive":10607,"ĠBattling":10608,"ĠLaura":10609,"ĠMourn":10610,"ĠReverse":10611,"Malley":10612,"ĠAtlantic":10613,"ĠSurrog":10614,"Femin":10615,"ĠNovel":10616,"Philipp":10617,"ĠIngredients":10618,"ĠFierce":10619,"ĠMascul":10620,"ĠPhotographs":10621,"ĠPacific":10622,"ĠUncertainty":10623,"Education":10624,"ĠSuddenly":10625,"ĠESPN":10626,"ĠVerdict":10627,"ĠStefani":10628,"ĠSeafood":10629,"\":":10630,"Ast":10631,"Abs":10632,"Aging":10633,"Born":10634,"Cook":10635,"Cuba":10636,"Dare":10637,"Daughter":10638,"Hilar":10639,"Lo":10640,"Led":10641,"Low":10642,"Link":10643,"Pakistan":10644,"Sug":10645,"Treat":10646,"TSA":10647,"Tonight":10648,"Tennessee":10649,"VA":10650,"Well":10651,"Wisconsin":10652,"jud":10653,"lasses":10654,"me":10655,"nest":10656,"pson":10657,"skins":10658,"table":10659,"wart":10660,"ĠTamp":10661,"ĠTaco":10662,"ĠAh":10663,"ĠAaron":10664,"ĠSung":10665,"ĠCinem":10666,"ĠCognitive":10667,"ĠWives":10668,"ĠWoes":10669,"ĠWaff":10670,"ĠWelfare":10671,"ĠBor":10672,"ĠBorders":10673,"ĠBoko":10674,"ĠFee":10675,"arming":10676,"ĠMick":10677,"ĠMitch":10678,"ĠMermaid":10679,"ĠPere":10680,"ĠPock":10681,"ĠDare":10682,"edies":10683,"ĠLiv":10684,"ĠLots":10685,"ĠLobb":10686,"ici":10687,"ĠToler":10688,"ĠGary":10689,"ĠGib":10690,"ĠNons":10691,"eting":10692,"starter":10693,"ĠThin":10694,"ĠReef":10695,"urate":10696,"ando":10697,"ĠKendrick":10698,"ĠJedi":10699,"ĠChol":10700,"Theater":10701,"ĠBeans":10702,"cha":10703,"ĠDepl":10704,"forman":10705,"ĠSpell":10706,"emporary":10707,"anson":10708,"avity":10709,"ĠCarn":10710,"ĠCares":10711,"ĠUps":10712,"ĠReput":10713,"ĠUnle":10714,"ĠUnless":10715,"ĠUnhealth":10716,"ĠMega":10717,"ĠScen":10718,"ewall":10719,"ĠAgu":10720,"ĠQaeda":10721,"ĠEnroll":10722,"bamas":10723,"anged":10724,"ooting":10725,"quir":10726,"Intr":10727,"ĠHoly":10728,"ĠWines":10729,"ĠAmanda":10730,"ĠStarring":10731,"ĠCharts":10732,"ĠGlory":10733,"ĠSlaughter":10734,"Pros":10735,"ĠBanana":10736,"ĠRealized":10737,"ĠRemark":10738,"ĠWritten":10739,"ĠSupposed":10740,"ĠRefr":10741,"ĠDeadline":10742,"ĠChristopher":10743,"ĠParticip":10744,"ĠTakei":10745,"ĠPostp":10746,"Brand":10747,"ĠConsumption":10748,"ĠAssemb":10749,"onesia":10750,"ĠSnack":10751,"ĠPatrol":10752,"ĠProtesting":10753,"ĠSimilar":10754,"ĠCleans":10755,"wayne":10756,"ĠStormy":10757,"ealous":10758,"ĠExpans":10759,"ĠValuable":10760,"ĠInvestors":10761,"Screen":10762,"ĠRegional":10763,"ĠRisky":10764,"Billion":10765,"ĠJudicial":10766,"ĠServing":10767,"ĠWilde":10768,"ĠEnters":10769,"Colin":10770,"ĠProfit":10771,"ĠPicked":10772,"ĠImproved":10773,"ĠImproving":10774,"ĠTweeting":10775,"ĠEmotion":10776,"ICE":10777,"Discover":10778,"ĠCatal":10779,"ĠGarbage":10780,"ĠCubs":10781,"Cross":10782,"Transform":10783,"Biggest":10784,"ĠWoody":10785,"ĠStaffer":10786,"ĠForgive":10787,"ĠBurned":10788,"ĠTransforms":10789,"Missouri":10790,"ĠBreathing":10791,"ĠLeslie":10792,"ĠFlags":10793,"ĠBroadcast":10794,"ĠDuo":10795,"ĠVersus":10796,"ĠTackling":10797,"Warren":10798,"ĠScaramucci":10799,"ĠThompson":10800,"ĠBarbecue":10801,"ĠNorway":10802,"ĠRegulations":10803,"ĠRidiculously":10804,"Susan":10805,"Suspect":10806,"ĠIntroduce":10807,"ĠPaintings":10808,"ĠBusted":10809,"ĠMinorities":10810,"Nicki":10811,"Laura":10812,"Lauren":10813,"ĠSeveral":10814,"ĠLegislation":10815,"ĠAshley":10816,"ĠBloomberg":10817,"ĠNeighborhoods":10818,"ĠDescribe":10819,"ĠWarrior":10820,"ĠSupremacist":10821,"ĠEntrepreneurship":10822,"Freedom":10823,"ĠDelayed":10824,"ĠHairstyles":10825,"Progressive":10826,"Again":10827,"Personal":10828,"ĠAccepting":10829,"ĠTactics":10830,"Batman":10831,"ĠDylan":10832,"Target":10833,"ĠEnforcement":10834,"ufact":10835,"ĠZimmerman":10836,"ĠMisleading":10837,"ĠCalendar":10838,".:":10839,"29":10840,"AP":10841,"Avengers":10842,"Cigar":10843,"Diet":10844,"Diane":10845,"Ey":10846,"Gina":10847,"Grey":10848,"His":10849,"Hope":10850,"Iowa":10851,"Mot":10852,"Tam":10853,"Tiny":10854,"Ver":10855,"bus":10856,"bury":10857,"jo":10858,"rant":10859,"va":10860,"inent":10861,"ĠSort":10862,"orld":10863,"ĠWade":10864,"ĠBerkeley":10865,"ĠFal":10866,"ĠFury":10867,"ĠMant":10868,"ĠMouse":10869,"ĠPals":10870,"ĠPanda":10871,"ĠDough":10872,"ĠDoping":10873,"ĠHed":10874,"ĠHood":10875,"ĠHated":10876,"ĠHobb":10877,"ĠRaw":10878,"ĠRams":10879,"ĠRivals":10880,"itb":10881,"ĠLoose":10882,"ĠLager":10883,"ĠTobac":10884,"ĠGy":10885,"ĠGinger":10886,"ĠGerrym":10887,"ilera":10888,"ĠInject":10889,"ĠNin":10890,"ĠNat":10891,"ĠNone":10892,"ete":10893,"ĠYay":10894,"olar":10895,"ĠReward":10896,"ĠReagan":10897,"umm":10898,"ums":10899,"ĠUC":10900,"ĠKatie":10901,"ĠPrisons":10902,"ĠVod":10903,"ĠVine":10904,"ĠCham":10905,"ĠChips":10906,"ĠChilling":10907,"ĠNears":10908,"ĠShine":10909,"osling":10910,"ivation":10911,"ĠDean":10912,"istle":10913,"aphic":10914,"abul":10915,"ĠAbused":10916,"ĠAlan":10917,"ĠSpa":10918,"ĠSpur":10919,"ĠSpends":10920,"ĠClerk":10921,"ĠHep":10922,"ĠArkansas":10923,"ĠBlunt":10924,"oven":10925,"aldo":10926,"ĠGrim":10927,"ĠMegyn":10928,"ĠOverh":10929,"ĠPoland":10930,"Stars":10931,"ĠAlliance":10932,"ĠPeak":10933,"ĠIntense":10934,"Chip":10935,"ĠQuir":10936,"ĠMayo":10937,"Donna":10938,"ĠImperson":10939,"ĠGlow":10940,"ĠGlad":10941,"ĠProtein":10942,"Rev":10943,"Reese":10944,"ĠIncarcer":10945,"ĠAdvances":10946,"Show":10947,"ĠBarrier":10948,"Blended":10949,"iffany":10950,"ĠDepart":10951,"ĠClaus":10952,"ĠBelt":10953,"Anderson":10954,"ĠTested":10955,"ĠPassed":10956,"ĠPassover":10957,"ĠSalv":10958,"ĠRegister":10959,"2015":10960,"ĠTeenagers":10961,"ĠDirectors":10962,"ergarten":10963,"Carol":10964,"Canadian":10965,"ĠSpringsteen":10966,"ĠHitting":10967,"rooms":10968,"ĠTriple":10969,"ĠMetal":10970,"ĠHalt":10971,"ĠAnimated":10972,"ĠConduct":10973,"ĠProfile":10974,"ĠRuining":10975,"Sever":10976,"Letting":10977,"Sexual":10978,"Mommy":10979,"ĠMedication":10980,"ĠBombings":10981,"arlett":10982,"ĠStylist":10983,"ĠLegalization":10984,"ĠSpirits":10985,"ĠBlogs":10986,"ĠPreventing":10987,"Env":10988,"ĠIgnored":10989,"ĠCatching":10990,"boarding":10991,"ĠEscal":10992,"ĠObserv":10993,"ĠDuke":10994,"ĠCells":10995,"ĠAdvocate":10996,"ĠSpreads":10997,"ĠDisappoint":10998,"ĠSurface":10999,"ĠFabric":11000,"ĠLiars":11001,"ĠNicki":11002,"ĠAttendant":11003,"Sometimes":11004,"Sandra":11005,"ĠPageant":11006,"ĠMeasures":11007,"ĠRegulation":11008,"ĠRenewed":11009,"warz":11010,"ĠAttraction":11011,"ĠGlamorous":11012,"Gwen":11013,"ĠCollective":11014,"ĠReverses":11015,"Memorial":11016,"ĠImpressive":11017,"Latino":11018,"ĠCommunications":11019,"ĠDubai":11020,"ĠLonely":11021,"ĠDetective":11022,"ĠVolunteer":11023,"Surviving":11024,"ĠKidnapped":11025,"Instag":11026,"ĠOverdose":11027,"ĠBipartisan":11028,"ĠGadgets":11029,"ĠWhitney":11030,"ĠScotland":11031,"ĠNavigate":11032,"Angelina":11033,"ĠStretch":11034,"ĠTrigger":11035,"ĠCheney":11036,"ĠEagles":11037,"abrielle":11038,"Nobody":11039,"ĠJohans":11040,"ĠAnatomy":11041,"ĠInvisible":11042,"ĠAccompl":11043,"ĠAguilera":11044,"ĠTobacco":11045,"Az":11046,"Bud":11047,"CD":11048,"Foll":11049,"Hit":11050,"Hugh":11051,"Ke":11052,"Las":11053,"Lib":11054,"Max":11055,"OW":11056,"Pin":11057,"Pay":11058,"Pump":11059,"Ro":11060,"Rog":11061,"Ruth":11062,"Sim":11063,"Sav":11064,"Same":11065,"Skin":11066,"Tiger":11067,"UK":11068,"Ur":11069,"VI":11070,"Ve":11071,"eases":11072,"gins":11073,"hi":11074,"oen":11075,"power":11076,"piece":11077,"the":11078,"yster":11079,"zo":11080,"ĠCous":11081,"ĠCage":11082,"oning":11083,"ĠWiz":11084,"ĠBones":11085,"ĠBiel":11086,"ĠBaker":11087,"ĠIV":11088,"ĠMun":11089,"ĠMasters":11090,"ĠMerkel":11091,"ĠHills":11092,"ĠRust":11093,"itos":11094,"ĠLips":11095,"ĠNod":11096,"ĠNSA":11097,"otism":11098,"stitutional":11099,"oler":11100,"olas":11101,"ĠRehab":11102,"uted":11103,"irm":11104,"ĠJaze":11105,"ĠVA":11106,"ĠNeo":11107,"thia":11108,"ĠBeers":11109,"ĠBeard":11110,"ĠShore":11111,"unct":11112,"unched":11113,"ĠTrumps":11114,"ĠWorrying":11115,"While":11116,"ĠExxon":11117,"ĠExample":11118,"agues":11119,"aganda":11120,"ĠBro":11121,"ĠBrush":11122,"ĠCro":11123,"ĠOutdo":11124,"ĠBlanc":11125,"ĠSeasons":11126,"ĠSeats":11127,"ĠAdams":11128,"ĠMartha":11129,"ashville":11130,"ĠUnh":11131,"ĠSchem":11132,"ĠDisick":11133,"Stor":11134,"orship":11135,"ĠReclaim":11136,"ĠTwe":11137,"ĠPeru":11138,"quin":11139,"ĠMayer":11140,"ĠSchwarz":11141,"ĠAppet":11142,"ĠMush":11143,"ĠCheaper":11144,"Ġ33":11145,"ĠWanting":11146,"ĠTransl":11147,"ĠRetro":11148,"ĠBabys":11149,"ĠPole":11150,"Shaped":11151,"ierra":11152,"ĠFighters":11153,"ĠDepend":11154,"ĠAssistant":11155,"Italian":11156,"ĠClaire":11157,"Andy":11158,"ĠElite":11159,"ĠSigning":11160,"ĠSignature":11161,"Manuel":11162,"ĠTalked":11163,"ĠLetterman":11164,"ĠMassachusetts":11165,"ĠCenters":11166,"Grasse":11167,"ĠProduction":11168,"ĠMediterranean":11169,"ĠObst":11170,"ĠAnnounced":11171,"ĠCorner":11172,"ĠLooming":11173,"ĠCasting":11174,"ĠParkland":11175,"Brexit":11176,"Seven":11177,"ĠLibya":11178,"ĠBeatles":11179,"ĠRescues":11180,"ĠHorrific":11181,"ĠPulling":11182,"ĠFinances":11183,"Harvey":11184,"ĠDisneyland":11185,"ĠFastest":11186,"ĠAbsence":11187,"ĠBlocking":11188,"Officer":11189,"ĠRenov":11190,"ĠDestruction":11191,"ĠForgot":11192,"ĠProgressives":11193,"ĠDecorations":11194,"ĠLamb":11195,"ĠPackage":11196,"ĠHaiti":11197,"ĠDiaz":11198,"ĠDrawing":11199,"ĠStuffed":11200,"ĠImagine":11201,"ĠMiscarriage":11202,"ĠMichele":11203,"ĠMigrant":11204,"ĠCoalition":11205,"Angela":11206,"ĠSneakers":11207,"Netanyahu":11208,"ĠRamadan":11209,"ĠImpressions":11210,"Feeling":11211,"ĠCommunication":11212,"ĠRecalled":11213,"ĠNunes":11214,"ĠOccup":11215,"ĠĠĠĠ":11216,"ĠIntegr":11217,"Julia":11218,"ĠCraigslist":11219,"Protecting":11220,"ĠHilton":11221,"ĠSuperfoods":11222,"ĠInnocent":11223,"Happiness":11224,"ĠPriceless":11225,"ĠSupermodel":11226,"ĠScrutiny":11227,"Success":11228,"ĠLagerfeld":11229,"ĠJohansson":11230,"ĠJazeera":11231,"400":11232,"AM":11233,"Aff":11234,"Bank":11235,"Cust":11236,"Cold":11237,"Dam":11238,"Fore":11239,"Ireland":11240,"Jet":11241,"Josh":11242,"Luc":11243,"Medic":11244,"Nav":11245,"ON":11246,"Own":11247,"PP":11248,"Park":11249,"Poor":11250,"Rid":11251,"Rudy":11252,"Save":11253,"Song":11254,"Sized":11255,"Soph":11256,"Toy":11257,"Tox":11258,"Ut":11259,"VP":11260,"cest":11261,"craft":11262,"eers":11263,"fried":11264,"falls":11265,"hand":11266,"iques":11267,"ters":11268,"uous":11269,"wise":11270,"ĠTaked":11271,"ĠTensions":11272,"ĠAides":11273,"ĠSor":11274,"ĠSink":11275,"orum":11276,"ĠWol":11277,"hey":11278,"ĠBak":11279,"ĠBach":11280,"ĠBiles":11281,"ĠBaza":11282,"ĠBapt":11283,"ĠFought":11284,"ĠMention":11285,"atures":11286,"ĠOsw":11287,"ĠDent":11288,"ĠDave":11289,"ĠDistance":11290,"ĠHatch":11291,"ĠHenson":11292,"isi":11293,"isman":11294,"ĠLifts":11295,"ĠGor":11296,"ĠGest":11297,"ĠGosling":11298,"rees":11299,"acies":11300,"amer":11301,"amation":11302,"uters":11303,"ĠForms":11304,"ĠKings":11305,"ĠJelly":11306,"opoul":11307,"ĠAte":11308,"ĠExha":11309,"ĠAreas":11310,"oducing":11311,"ĠDonation":11312,"Ġ150":11313,"elled":11314,"ĠGrieving":11315,"ĠUpside":11316,"ĠRepeat":11317,"ĠScale":11318,"ĠOverturn":11319,"ĠDiseases":11320,"ounces":11321,"aux":11322,"ĠAttitude":11323,"ĠPresence":11324,"ĠSurreal":11325,"ĠSecure":11326,"ĠApply":11327,"ĠContact":11328,"ĠEmily":11329,"ittens":11330,"ĠPlanes":11331,"ollar":11332,"ĠGlimp":11333,"ĠSlip":11334,"ĠCampuses":11335,"ĠRemote":11336,"ĠDebbie":11337,"ĠSupply":11338,"ĠEdward":11339,"ĠPoised":11340,"ĠConfused":11341,"ĠConfessions":11342,"ĠBarcelona":11343,"Ġ400":11344,"ĠConsiders":11345,"ĠCalvin":11346,"ĠSnake":11347,"ĠEasily":11348,"ĠProtester":11349,"Behold":11350,"phob":11351,"Andre":11352,"ĠConviction":11353,"ĠCape":11354,"IST":11355,"Repurposing":11356,"ĠDiscovers":11357,"ĠRuled":11358,"ĠTours":11359,"ĠClasses":11360,"ĠStein":11361,"Special":11362,"Ġ198":11363,"ĠReturned":11364,"Comedian":11365,"beat":11366,"ĠMetric":11367,"ĠPalestine":11368,"ĠTrainer":11369,"ĠRevealing":11370,"ĠMomentum":11371,"ĠDiary":11372,"ĠUniversities":11373,"ĠJackie":11374,"ĠRuined":11375,"ĠVeggies":11376,"ĠCEOs":11377,"ĠTweeters":11378,"Next":11379,"ĠAntar":11380,"ĠGarage":11381,"Organ":11382,"ĠRiding":11383,"ĠOrganizing":11384,"ĠBlocked":11385,"ĠIslamophobia":11386,"ĠSnowden":11387,"ĠGenerations":11388,"hanie":11389,"REC":11390,"ĠDevices":11391,"ĠIgnor":11392,"ĠConsidered":11393,"ĠStaffers":11394,"ĠIncredibly":11395,"ĠRequires":11396,"ĠRemembering":11397,"ĠTransformed":11398,"ĠFactors":11399,"banon":11400,"ĠEthical":11401,"ĠDestroyed":11402,"Britain":11403,"ESPN":11404,"ĠChemicals":11405,"ĠRejected":11406,"ĠRejection":11407,"garet":11408,"ĠAttractions":11409,"Bacon":11410,"Compassion":11411,"ĠLaden":11412,"ĠPubl":11413,"ĠMourns":11414,"ĠPediatric":11415,"ĠSuperheroes":11416,"ĠOverseas":11417,"cript":11418,"visor":11419,"Refuge":11420,"ĠPoisoning":11421,"ĠGraduate":11422,"Political":11423,"know":11424,"ĠConstitutional":11425,"Immigrant":11426,"International":11427,"through":11428,"ĠRetailers":11429,"ĠFragrance":11430,"ĠAntonio":11431,"ĠSweden":11432,"enegger":11433,"ĠSkewers":11434,"ĠPioneer":11435,"Rubio":11436,"Researchers":11437,"ĠDeprivation":11438,"ĠBeliefs":11439,"Wheel":11440,"ĠRippon":11441,"ĠInevitable":11442,"fighters":11443,"ĠTantrum":11444,"ĠDouglas":11445,"ĠHernandez":11446,"ĠAppraises":11447,"ĠSunglasses":11448,"ĠExpansion":11449,"itbart":11450,"ĠTakedown":11451,"ĠGlimpse":11452,"Cost":11453,"Dave":11454,"EX":11455,"Ele":11456,"Filled":11457,"Gar":11458,"Greek":11459,"Ha":11460,"Hil":11461,"Joy":11462,"Jordan":11463,"Lip":11464,"Mist":11465,"PIC":11466,"Ren":11467,"Race":11468,"Son":11469,"Saf":11470,"Serv":11471,"Sofia":11472,"TF":11473,"Ther":11474,"Way":11475,"Yet":11476,"cow":11477,"cÃ©":11478,"gium":11479,"iara":11480,"lifting":11481,"pers":11482,"rd":11483,"rom":11484,"vant":11485,"Ġabout":11486,"ĠTumb":11487,"erity":11488,"inis":11489,"ĠCod":11490,"ĠBou":11491,"ĠBib":11492,"ĠBerg":11493,"ĠBites":11494,"ĠFulf":11495,"ĠFully":11496,"ĠMuff":11497,"ĠPa":11498,"ĠPy":11499,"ĠPom":11500,"ĠPeyton":11501,"ĠON":11502,"ĠDim":11503,"ĠDude":11504,"ĠDudes":11505,"ĠDignity":11506,"ĠHust":11507,"ĠRoo":11508,"ĠRuff":11509,"itar":11510,"ĠLen":11511,"ĠLoun":11512,"ĠLists":11513,"ĠLuck":11514,"ĠLiver":11515,"icient":11516,"ĠGawker":11517,"iliation":11518,"ĠNights":11519,"ĠNSFW":11520,"ĠStreaming":11521,"amy":11522,"ĠThous":11523,"ĠReese":11524,"ige":11525,"umin":11526,"ĠForum":11527,"andals":11528,"aka":11529,"ecoming":11530,"ecurity":11531,"ĠPren":11532,"ĠShade":11533,"opause":11534,"istics":11535,"apolis":11536,"ieves":11537,"ocado":11538,"ĠAnonymous":11539,"ĠAlton":11540,"ctions":11541,"ĠHeats":11542,"ĠExists":11543,"ĠBros":11544,"ĠCracks":11545,"ĠBlows":11546,"ĠBlaming":11547,"ovich":11548,"ĠDozen":11549,"ĠUpgrade":11550,"ĠWilling":11551,"ĠMeg":11552,"ĠScram":11553,"Truth":11554,"Straight":11555,"ĠRecy":11556,"achs":11557,"upts":11558,"ĠOrph":11559,"ishes":11560,"Inn":11561,"ĠAttends":11562,"ĠPreserv":11563,"ĠBacking":11564,"ĠPhotob":11565,"ĠSexiest":11566,"ĠSwear":11567,"ĠInsomnia":11568,"ĠShed":11569,"ĠPlanner":11570,"ĠHappily":11571,"proof":11572,"Pract":11573,"ĠCamps":11574,"ĠDefund":11575,"ĠDefending":11576,"ĠShootout":11577,"ĠSupplies":11578,"ĠIndict":11579,"ĠEdwards":11580,"ĠSomehow":11581,"ĠSupermark":11582,"ĠEars":11583,"phis":11584,"ĠCosta":11585,"ĠLaunched":11586,"ĠVisual":11587,"Martha":11588,"ĠStorage":11589,"ĠWalter":11590,"ĠValent":11591,"ĠAddicted":11592,"Scandal":11593,"ĠClassified":11594,"Spot":11595,"Doing":11596,"ĠWildfires":11597,"Paula":11598,"ĠAssaulted":11599,"ĠDiesel":11600,"loyd":11601,"ĠRichie":11602,"Amanda":11603,"ĠLandmarks":11604,"Elon":11605,"ĠReforms":11606,"ĠTouts":11607,"ĠSkinny":11608,"Megyn":11609,"Orlando":11610,"ĠCube":11611,"ĠBullied":11612,"ĠRumored":11613,"ĠExciting":11614,"ĠAuthority":11615,"ĠMosqu":11616,"ĠMoscow":11617,"ĠReunited":11618,"Indian":11619,"Independ":11620,"yme":11621,"ĠRequests":11622,"ĠTransformation":11623,"NYPD":11624,"Presidential":11625,"ĠWatched":11626,"roductive":11627,"Gluten":11628,"ĠBriefing":11629,"ĠVaccines":11630,"ĠLesbians":11631,"ĠQuickly":11632,"ĠSpoofs":11633,"ĠAsthma":11634,"ĠRelaxing":11635,"ĠExhibition":11636,"Financ":11637,"ĠMaxim":11638,"ĠJamie":11639,"ĠFloating":11640,"ĠCertific":11641,"ĠDelegates":11642,"ĠFundraiser":11643,"Words":11644,"Because":11645,"ĠTapper":11646,"ĠCommitment":11647,"ĠNewlyw":11648,"ĠNursing":11649,"ĠJumpsuit":11650,"ĠFolks":11651,"Film":11652,"Restaur":11653,"ievable":11654,"Pupp":11655,"Louisiana":11656,"ĠFlawless":11657,"Microsoft":11658,"ĠSiblings":11659,"ĠColumnist":11660,"ĠCulinary":11661,"ĠYogurt":11662,"ĠNegotiations":11663,"Profess":11664,"ĠAdvertising":11665,"ĠCupcakes":11666,"ĠHousewives":11667,"Jeremy":11668,"Simple":11669,"Searching":11670,"ĠICE":11671,"ĠEarlier":11672,"ĠCotton":11673,"ĠConscious":11674,"ĠIncreasingly":11675,"ĠSacrif":11676,"ĠVigil":11677,"Atlanta":11678,"Guardians":11679,"ĠDebunked":11680,"ĠPerez":11681,"ĠUnhealthy":11682,"ĠOverhaul":11683,"Environment":11684,"Instagram":11685,"oenix":11686,"ĠOutdoors":11687,"ĠBazaar":11688,"ĠOswalt":11689,"ĠThousand":11690,"):":11691,"32":11692,"37":11693,"300":11694,"Bro":11695,"Dou":11696,"Dest":11697,"EU":11698,"Esc":11699,"FK":11700,"Fail":11701,"Few":11702,"Hy":11703,"Hann":11704,"Hosp":11705,"Houston":11706,"Kill":11707,"Mur":11708,"Pan":11709,"Pentagon":11710,"Sat":11711,"Set":11712,"Sesame":11713,"Tara":11714,"Tesla":11715,"Vern":11716,"Veg":11717,"books":11718,"bdo":11719,"cend":11720,"gings":11721,"kers":11722,"loe":11723,"losure":11724,"nut":11725,"pons":11726,"rid":11727,"round":11728,"rors":11729,"wick":11730,"worth":11731,"zi":11732,"Ġour":11733,"ĠTac":11734,"ĠTag":11735,"ĠTaun":11736,"ĠCasts":11737,"anamo":11738,"ĠWes":11739,"ĠWows":11740,"ĠBark":11741,"ĠFancy":11742,"ĠFoul":11743,"ĠFIFA":11744,"ĠMile":11745,"ĠPir":11746,"ĠPok":11747,"ĠDal":11748,"ĠDur":11749,"ĠDior":11750,"ĠDawn":11751,"ĠDancers":11752,"alph":11753,"itu":11754,"itan":11755,"ĠLob":11756,"ĠLaid":11757,"ĠLocked":11758,"ĠGil":11759,"ĠGum":11760,"ĠGotten":11761,"ĠNATO":11762,"ĠEch":11763,"ĠStall":11764,"ĠThursday":11765,"ĠThailand":11766,"ĠRewr":11767,"ĠKob":11768,"ĠKath":11769,"ĠKitten":11770,"ĠIsol":11771,"akland":11772,"ecraft":11773,"ĠJealous":11774,"ĠChances":11775,"thus":11776,"ĠSham":11777,"ivating":11778,"unis":11779,"apy":11780,"abel":11781,"abby":11782,"ĠAnalysis":11783,"iagn":11784,"ĠConcept":11785,"ĠSpelling":11786,"ĠClergy":11787,"ksw":11788,"aga":11789,"ĠBraw":11790,"ĠBrooks":11791,"ĠBraid":11792,"asted":11793,"antanamo":11794,"ĠAshamed":11795,"ĠCann":11796,"ĠCrop":11797,"indr":11798,"ianne":11799,"ĠDonuts":11800,"ĠSeas":11801,"elli":11802,"ellen":11803,"ooky":11804,"ĠGrade":11805,"ĠGrilling":11806,"hens":11807,"ĠDispl":11808,"arters":11809,"ĠFlow":11810,"ĠBackstage":11811,"ĠBackpack":11812,"ĠStroll":11813,"atching":11814,"ĠKnowing":11815,"ĠMeddling":11816,"ĠTales":11817,"ĠMonuments":11818,"Any":11819,"ĠInterests":11820,"ĠFeast":11821,"ĠDemon":11822,"ĠThrive":11823,"ĠInvite":11824,"ĠExplan":11825,"ĠSeniors":11826,"ĠInstitute":11827,"Conc":11828,"ĠArrived":11829,"ĠExpands":11830,"ĠFilmmaker":11831,"ĠFargo":11832,"ĠAdded":11833,"ĠOlympians":11834,"ĠPassing":11835,"ĠDetain":11836,"ielding":11837,"ĠChallenging":11838,"ĠHardy":11839,"ĠSouthwest":11840,"ĠFreaks":11841,"Advisor":11842,"ĠJudg":11843,"ĠAvoiding":11844,"ĠProfession":11845,"fortun":11846,"ĠSubject":11847,"ACLU":11848,"ĠNetworks":11849,"ĠSmaller":11850,"ĠErupts":11851,"engu":11852,"ĠInclusion":11853,"ĠHarassed":11854,"ĠLocals":11855,"ĠExecutives":11856,"ĠPrimaries":11857,"ĠPortman":11858,"ĠMalays":11859,"ĠOrganize":11860,"ĠIgnores":11861,"Actor":11862,"Swed":11863,"ĠRequired":11864,"ĠBurnout":11865,"ĠRecovering":11866,"ĠPurse":11867,"Secrets":11868,"ĠDeclared":11869,"Dadmissions":11870,"Guess":11871,"ĠMatching":11872,"ĠCameo":11873,"ĠSundance":11874,"ĠEmbraces":11875,"ĠCorporations":11876,"ĠPrincesses":11877,"ĠBehaviors":11878,"ĠOrdinary":11879,"Dogs":11880,"Sanct":11881,"ĠLiar":11882,"ĠBarbie":11883,"ĠParadox":11884,"ĠCommercials":11885,"Defense":11886,"ĠSkiing":11887,"ĠWarnings":11888,"ĠPatriots":11889,"ĠLobbyist":11890,"ĠHorses":11891,"Millenn":11892,"ĠCuis":11893,"ĠCameras":11894,"ĠBoomers":11895,"ĠChipotle":11896,"ĠProperty":11897,"ĠSync":11898,"ĠInstantly":11899,"Leslie":11900,"ĠFleeing":11901,"Puerto":11902,"Corpor":11903,"ĠACLU":11904,"Charlotte":11905,"ĠEvangelical":11906,"ĠFerrell":11907,"Broadway":11908,"ĠDeadliest":11909,"ĠVolcano":11910,"Vacc":11911,"ĠGymnastics":11912,"Montana":11913,"ĠBigotry":11914,"ĠShowcases":11915,"ĠAwakens":11916,"ĠUncomfortable":11917,"ĠGoddess":11918,"ĠVehicle":11919,"ĠAnsari":11920,"ĠMilestone":11921,"ĠMisogyny":11922,"ĠLaundry":11923,"TURE":11924,"ĠBlasio":11925,"ĠPerfume":11926,"ĠArgentina":11927,"ĠLobbying":11928,"ĠReputation":11929,"Introducing":11930,"ĠAssembly":11931,"ĠQuirky":11932,"Roger":11933,"ĠSchwarzenegger":11934,"Toxic":11935,"opoulos":11936,"Hilary":11937,"PICTURE":11938,"Financial":11939,"Bow":11940,"Bull":11941,"Cos":11942,"Date":11943,"Dist":11944,"Dallas":11945,"Flying":11946,"Facing":11947,"LC":11948,"LE":11949,"Migr":11950,"Mental":11951,"NRA":11952,"Natalie":11953,"Outr":11954,"Rare":11955,"SJ":11956,"SM":11957,"UC":11958,"backs":11959,"cul":11960,"dam":11961,"friends":11962,"lon":11963,"like":11964,"match":11965,"pear":11966,"si":11967,"ziel":11968,"Ġn":11969,"ĠTail":11970,"inos":11971,"ĠAR":11972,"ĠAND":11973,"ĠSession":11974,"ĠSXSW":11975,"esy":11976,"ĠWide":11977,"ĠBitter":11978,"ĠFark":11979,"ĠFault":11980,"ĠFiscal":11981,"ario":11982,"ĠMack":11983,"ĠMud":11984,"ĠMacy":11985,"ingitis":11986,"ĠPR":11987,"ĠPand":11988,"ĠPup":11989,"ĠDear":11990,"ĠDiver":11991,"ĠHail":11992,"ĠHub":11993,"ĠHoff":11994,"ĠHamilton":11995,"ĠRica":11996,"itty":11997,"ĠLil":11998,"ĠLied":11999,"ĠToky":12000,"iley":12001,"ĠInappropriate":12002,"ĠNaming":12003,"ĠNikki":12004,"etti":12005,"state":12006,"ĠReached":12007,"igating":12008,"adows":12009,"ĠKe":12010,"ĠKo":12011,"terns":12012,"aki":12013,"ĠAndre":12014,"ĠChose":12015,"ĠNeither":12016,"ĠShout":12017,"ĠShatter":12018,"ĠFries":12019,"iped":12020,"ĠAlter":12021,"ĠAlph":12022,"ĠClues":12023,"ĠClueless":12024,"ĠHebdo":12025,"ĠSuitc":12026,"ĠExes":12027,"ĠCannon":12028,"ĠPlain":12029,"ourd":12030,"eption":12031,"ĠDrain":12032,"ĠDons":12033,"ĠBlamed":12034,"ĠGran":12035,"ĠGras":12036,"ĠGrab":12037,"ĠNotice":12038,"Tracy":12039,"ĠDispar":12040,"ĠUser":12041,"ĠUsual":12042,"ĠResume":12043,"ĠAllowing":12044,"ĠPharm":12045,"ĠRecons":12046,"ĠManufact":12047,"upunct":12048,"Channing":12049,"ĠQuote":12050,"anche":12051,"ĠContemporary":12052,"ĠBreasts":12053,"ĠInsan":12054,"ĠIntervention":12055,"atti":12056,"aho":12057,"rator":12058,"ratul":12059,"ĠGlenn":12060,"ĠThrowing":12061,"ĠCareers":12062,"ĠRemedies":12063,"ĠCompared":12064,"ĠWrap":12065,"alea":12066,"ĠAttacker":12067,"ĠInvasion":12068,"ĠDeathmatch":12069,"ĠMeningitis":12070,"Blind":12071,"ushing":12072,"ĠAirbnb":12073,"ĠBadass":12074,"ĠHomage":12075,"ĠDelic":12076,"ĠInstruct":12077,"Ġ65":12078,"Convers":12079,"ĠImmune":12080,"ĠTerrit":12081,"YouTube":12082,"ĠExposure":12083,"ĠHadid":12084,"ĠMessing":12085,"ĠCreatures":12086,"ĠDiscount":12087,"ĠSalon":12088,"ĠSalute":12089,"Scenes":12090,"Claire":12091,"ĠGoldman":12092,"ĠSimpsons":12093,"ĠBurst":12094,"ĠDeny":12095,"Grace":12096,"ĠCurse":12097,"ĠMeetings":12098,"ĠSolange":12099,"ĠCycl":12100,"ĠFriendships":12101,"ificial":12102,"Afric":12103,"ĠNYFW":12104,"ĠRoman":12105,"ĠFestive":12106,"ERS":12107,"ĠFatigue":12108,"ĠCounts":12109,"ĠCounting":12110,"ĠRichest":12111,"izzou":12112,"ĠJackman":12113,"ĠPrisoner":12114,"Emb":12115,"bread":12116,"ĠEmployment":12117,"Flu":12118,"ĠWheels":12119,"ihad":12120,"ĠBullet":12121,"ĠKickstarter":12122,"Offic":12123,"ĠEmerging":12124,"ĠEscapes":12125,"ĠRemembered":12126,"ĠHunter":12127,"Conscious":12128,"weather":12129,"ĠArguments":12130,"ĠDuVern":12131,"ĠBosses":12132,"ĠHamill":12133,"Imag":12134,"ĠAccidental":12135,"Hotel":12136,"ĠWebsites":12137,"ĠBelieved":12138,"ĠRogen":12139,"estinians":12140,"ĠPatriotic":12141,"ĠPurple":12142,"ĠIllegally":12143,"Early":12144,"Learn":12145,"ĠSevere":12146,"ĠMandate":12147,"ĠPitcher":12148,"Medical":12149,"ĠCheerle":12150,"ĠAssociation":12151,"ĠMotivation":12152,"Becoming":12153,"Palestinian":12154,"ĠClinic":12155,"ĠCommissioner":12156,"ĠTHE":12157,"ĠAzalea":12158,"ĠHairstyle":12159,"ĠOsbourne":12160,"ĠOpponents":12161,"Standing":12162,"Turns":12163,"ĠStabbing":12164,"ĠStabbed":12165,"walk":12166,"ĠClarke":12167,"ĠOrganizations":12168,"Ghostbusters":12169,"ĠStanford":12170,"Create":12171,"Volunt":12172,"ĠImperfect":12173,"ĠTornado":12174,"ĠHijab":12175,"Islamic":12176,"ĠAbbey":12177,"ĠDetermine":12178,"ĠCaregivers":12179,"ĠMiserable":12180,"ĠWWII":12181,"ĠLindsay":12182,"ĠMaterial":12183,"ĠLeonardo":12184,"ĠStrangest":12185,"ĠAppropriate":12186,"ĠGentle":12187,"Director":12188,"ablishment":12189,"ĠEyebrows":12190,"ĠRethink":12191,"ĠPivot":12192,"ĠElementary":12193,"Linked":12194,"Prosecut":12195,"Environmental":12196,"kswagen":12197,"ĠCuisine":12198,"ĠTokyo":12199,"ĠDuVernay":12200,"45":12201,"AD":12202,"Bath":12203,"Boe":12204,"Betsy":12205,"Cann":12206,"EE":12207,"Eth":12208,"Foc":12209,"Fund":12210,"Gary":12211,"Hell":12212,"Jill":12213,"Joseph":12214,"Jesse":12215,"Kar":12216,"Middle":12217,"Sky":12218,"iqu":12219,"low":12220,"nel":12221,"ras":12222,"rice":12223,"sey":12224,"uador":12225,"ÃŃ":12226,"Ġmy":12227,"ĠTipping":12228,"inals":12229,"ĠAin":12230,"ĠAqu":12231,"ĠSachs":12232,"ĠCA":12233,"ĠCant":12234,"oration":12235,"ĠWax":12236,"heart":12237,"ĠBorr":12238,"ĠBBC":12239,"ĠFence":12240,"ĠFiance":12241,"ĠMog":12242,"ĠPoo":12243,"ĠPhen":12244,"ĠPact":12245,"ĠPix":12246,"ĠRif":12247,"ĠRages":12248,"ĠRanch":12249,"ĠRudy":12250,"ituals":12251,"eding":12252,"ĠLoo":12253,"ĠLays":12254,"ĠLakes":12255,"ĠLeng":12256,"icia":12257,"ĠTheories":12258,"ĠNye":12259,"ĠStap":12260,"ĠSticks":12261,"amela":12262,"ĠReception":12263,"igation":12264,"ĠTracks":12265,"urious":12266,"urora":12267,"ĠKKK":12268,"ooga":12269,"ĠVo":12270,"ĠChile":12271,"ĠCherry":12272,"ĠBees":12273,"ĠShirts":12274,"opath":12275,"umps":12276,"ĠWhip":12277,"ĠWhistle":12278,"ldon":12279,"ĠFrog":12280,"isted":12281,"iebus":12282,"ĠConan":12283,"ĠAlarm":12284,"ĠComprom":12285,"orex":12286,"ĠItem":12287,"ĠBryan":12288,"ĠLean":12289,"ĠWeiner":12290,"âĢĻ:":12291,"ĠMario":12292,"ĠMarital":12293,"ĠMarrying":12294,"ĠGrid":12295,"iza":12296,"ĠOffsh":12297,"ĠUncle":12298,"ĠUnbel":12299,"ĠHispanic":12300,"ĠDiscon":12301,"ĠDisgusting":12302,"ĠDisastr":12303,"ĠPeele":12304,"acha":12305,"ĠIntens":12306,"ĠStudios":12307,"ĠHelpful":12308,"ĠAmbr":12309,"ĠJoined":12310,"ĠLawn":12311,"ĠSweets":12312,"ĠEverybody":12313,"Ancient":12314,"Anchor":12315,"ĠImplic":12316,"roe":12317,"Newsp":12318,"ĠHearings":12319,"Prom":12320,"Prison":12321,"ĠHarlem":12322,"ĠDefect":12323,"ĠRemoval":12324,"ĠCompar":12325,"ĠTransplant":12326,"ĠInvent":12327,"Shame":12328,"olute":12329,"Ġ43":12330,"Ġ48":12331,"ĠStepping":12332,"Weather":12333,"ĠSingles":12334,"ĠSnyder":12335,"ĠDogg":12336,"ĠEasiest":12337,"Ġ99":12338,"ĠTurnout":12339,"ĠHeadqu":12340,"ĠPayments":12341,"ĠLatina":12342,"ĠSigned":12343,"ĠExpression":12344,"balls":12345,"Reporter":12346,"ront":12347,"ĠRobots":12348,"Arkansas":12349,"Arnold":12350,"Dev":12351,"ĠWallet":12352,"ĠFreezing":12353,"2012":12354,"ĠFirefighter":12355,"ĠAvail":12356,"Spider":12357,"ĠStandoff":12358,"ĠBuried":12359,"ĠFeared":12360,"ĠExtension":12361,"steroid":12362,"ĠEyel":12363,"ĠEquity":12364,"shot":12365,"ĠEntry":12366,"ĠPalm":12367,"ĠPreviously":12368,"ijing":12369,"ĠTomatoes":12370,"ĠPicking":12371,"ĠCoping":12372,"ĠInjust":12373,"ĠMurdered":12374,"ĠErdogan":12375,"Jeopardy":12376,"ĠPhilos":12377,"ĠPreparing":12378,"ĠKindergarten":12379,"ĠExecutions":12380,"Military":12381,"ĠSystems":12382,"ĠFeminists":12383,"ĠMiracles":12384,"Resc":12385,"Resistant":12386,"ĠOwe":12387,"vingne":12388,"ĠExcell":12389,"ĠPractical":12390,"hett":12391,"hetti":12392,"Action":12393,"ĠJonathan":12394,"Congressional":12395,"ĠBulld":12396,"ĠWonderland":12397,"ĠFocused":12398,"ĠMotion":12399,"ĠBreathe":12400,"ĠHello":12401,"ĠLunches":12402,"ĠFranklin":12403,"ĠHammer":12404,"Reddit":12405,"ĠVillain":12406,"ĠShelton":12407,"ĠIncluded":12408,"ĠEntirely":12409,"Iranian":12410,"ĠBaton":12411,"Morning":12412,"Suspected":12413,"ĠHarmful":12414,"rayal":12415,"ĠPools":12416,"ĠRivera":12417,"ĠKloss":12418,"ĠSurrender":12419,"boys":12420,"Honey":12421,"ĠPairs":12422,"ĠSeparate":12423,"ĠEllison":12424,"ĠDelevingne":12425,"Calling":12426,"ĠExtremism":12427,"Using":12428,"Maryland":12429,"ĠMLB":12430,"ĠUnfair":12431,"Silicon":12432,"ĠRivalry":12433,"ĠPunishment":12434,"ĠForecast":12435,"Controvers":12436,"uggling":12437,"Cyber":12438,"ĠRepresentation":12439,"ĠGuru":12440,"ĠFraternity":12441,"ĠSegment":12442,"ĠChecks":12443,"ĠChecking":12444,"ĠPancakes":12445,"Ġyour":12446,"Historic":12447,"ĠEliminate":12448,"FTA":12449,"ĠShepard":12450,"ĠDysfun":12451,"archy":12452,"ĠTaxpayers":12453,"ĠPremieres":12454,"ĠResources":12455,"ĠTransportation":12456,"ĠNortheast":12457,"ĠChopra":12458,"hdad":12459,"ĠBureau":12460,"Fantastic":12461,"ĠChastain":12462,"Stormy":12463,"ĠSupermarket":12464,"ĠExplanation":12465,"Sanctuary":12466,"peare":12467,"Age":12468,"Bobby":12469,"Cow":12470,"Drew":12471,"Delt":12472,"Dwayne":12473,"Gard":12474,"Glor":12475,"Hold":12476,"Kendrick":12477,"Los":12478,"Lisa":12479,"LIST":12480,"Might":12481,"Must":12482,"Miami":12483,"MSNBC":12484,"Nazi":12485,"Naomi":12486,"Oct":12487,"Paying":12488,"Road":12489,"Risk":12490,"Use":12491,"Vatican":12492,"Zombie":12493,"aits":12494,"bes":12495,"bands":12496,"cuts":12497,"dles":12498,"dney":12499,"free":12500,"gi":12501,"har":12502,"hner":12503,"oard":12504,"zilla":12505,"Ġre":12506,"ĠTuition":12507,"inated":12508,"ĠAlec":12509,"ĠSle":12510,"ĠSald":12511,"ĠSights":12512,"ĠCafe":12513,"oni":12514,"ori":12515,"ĠWow":12516,"ĠWendy":12517,"ĠBart":12518,"ĠBaked":12519,"ĠFing":12520,"ĠFertility":12521,"ĠMish":12522,"ĠMocking":12523,"ĠMesmerizing":12524,"ĠPause":12525,"ĠPushed":12526,"ĠOR":12527,"ĠDict":12528,"ĠDrew":12529,"ĠDancer":12530,"ĠDuterte":12531,"ĠHP":12532,"ĠRud":12533,"edians":12534,"ĠGir":12535,"ĠGeek":12536,"ĠGucci":12537,"ĠNatur":12538,"ĠEleg":12539,"ĠYank":12540,"oted":12541,"stop":12542,"storm":12543,"ĠSting":12544,"ĠStem":12545,"olving":12546,"amel":12547,"ĠTrials":12548,"ĠTropical":12549,"uman":12550,"uties":12551,"aditional":12552,"ĠKay":12553,"ĠKaling":12554,"ĠOnstage":12555,"eca":12556,"ĠJill":12557,"ĠVital":12558,"ĠVuit":12559,"ĠChest":12560,"verted":12561,"opes":12562,"ĠWhites":12563,"ĠFrost":12564,"ĠFranch":12565,"ista":12566,"ĠAncest":12567,"ĠAthe":12568,"ĠAbus":12569,"ĠConstruction":12570,"ctica":12571,"emia":12572,"ĠClient":12573,"ĠHeav":12574,"avage":12575,"ĠBrib":12576,"oding":12577,"ĠCrus":12578,"ĠCrap":12579,"ĠCrashed":12580,"ectomy":12581,"ĠBling":12582,"ĠBlended":12583,"ĠMarilyn":12584,"ĠCargo":12585,"ĠCarrey":12586,"ĠRepair":12587,"ĠReproductive":12588,"ĠUnn":12589,"ĠMeghan":12590,"ĠScams":12591,"ĠScares":12592,"ĠOvercoming":12593,"ĠOverweight":12594,"ĠTebow":12595,"ĠGoat":12596,"ucc":12597,"ĠResult":12598,"ĠResolve":12599,"ignant":12600,"ĠReconc":12601,"ĠRecession":12602,"ĠEnab":12603,"ĠManaging":12604,"ĠManziel":12605,"ĠFlashes":12606,"ĠKne":12607,"ĠAcknow":12608,"ĠIntimate":12609,"issed":12610,"Chap":12611,"brief":12612,"quer":12613,"ĠMayweather":12614,"ĠFindings":12615,"ĠSoar":12616,"ĠBlacks":12617,"ĠGlitter":12618,"ĠSlur":12619,"ĠSlide":12620,"ĠArtwork":12621,"ountain":12622,"ĠDefamation":12623,"ĠWright":12624,"ricia":12625,"ĠCelebrations":12626,"ĠZombie":12627,"ĠNewsbrief":12628,"ĠRetr":12629,"Shaming":12630,"ĠLego":12631,"Ġ45":12632,"ulture":12633,"ĠExplodes":12634,"rison":12635,"Brian":12636,"ĠNightlife":12637,"ushi":12638,"ĠSocks":12639,"Ġ72":12640,"ĠMormon":12641,"annon":12642,"lerosis":12643,"ega":12644,"ĠClears":12645,"ĠCleavage":12646,"ĠBelow":12647,"March":12648,"ĠCandle":12649,"ĠStorms":12650,"ĠPropaganda":12651,"Around":12652,"ĠSalads":12653,"ĠBoards":12654,"ĠRegime":12655,"ĠPromo":12656,"ĠPromotes":12657,"ĠPromoting":12658,"ĠYoungest":12659,"ĠDirectly":12660,"ĠMiscon":12661,"ĠDreaming":12662,"ĠDestiny":12663,"ĠLawsuits":12664,"ĠTripAdvisor":12665,"cedented":12666,"ĠBooze":12667,"ĠTomato":12668,"ĠFollows":12669,"ĠNominated":12670,"ĠRichards":12671,"izzard":12672,"William":12673,"ĠCopy":12674,"ĠLandscape":12675,"ĠSubpo":12676,"ĠRoyals":12677,"ĠImproves":12678,"ĠWorthy":12679,"ĠConversion":12680,"ĠCambridge":12681,"itched":12682,"porarily":12683,"ĠPeaceful":12684,"ĠSkincare":12685,"ĠLocation":12686,"Peace":12687,"ĠLarger":12688,"Flint":12689,"ĠSentences":12690,"ĠCriticizing":12691,"ĠInfinity":12692,"melon":12693,"Cheap":12694,"ĠCraze":12695,"ĠPredicted":12696,"ĠBullies":12697,"ĠReceiving":12698,"Ent":12699,"ĠEmerge":12700,"ĠAffecting":12701,"Indiana":12702,"Mississippi":12703,"ĠDeeper":12704,"ĠPsychological":12705,"parency":12706,"ĠDuet":12707,"ĠCompetitive":12708,"Quest":12709,"ESS":12710,"Ġ2008":12711,"ĠMobil":12712,"ĠAudio":12713,"ĠBathrooms":12714,"Patton":12715,"ĠInfluential":12716,"ĠPunished":12717,"ĠLiteracy":12718,"Snap":12719,"ĠSpreading":12720,"Angry":12721,"ĠFantastic":12722,"doch":12723,"ĠPittsburgh":12724,"blaz":12725,"ĠLovely":12726,"ĠBrazilian":12727,"ĠFeeding":12728,"ĠInvolve":12729,"III":12730,"ĠMerger":12731,"ĠRaids":12732,"Ending":12733,"ĠConfronts":12734,"Janet":12735,"Creative":12736,"ĠExtremely":12737,"ĠTamir":12738,"ĠEncourages":12739,"ĠPursue":12740,"ĠPursuit":12741,"Century":12742,"ĠCensus":12743,"ĠAssociated":12744,"ĠMentally":12745,"ĠStamps":12746,"ĠSTEM":12747,"ĠHayek":12748,"thritis":12749,"ĠDoug":12750,"ĠMalfunctions":12751,"ĠKnightley":12752,"ĠMcKin":12753,"ĠAnalyt":12754,"ĠCraig":12755,"Incred":12756,"ĠSwedish":12757,"Bullying":12758,"ĠPearl":12759,"ĠDedicated":12760,"Engagement":12761,"Charlottesville":12762,"ĠSuperstar":12763,"ĠAntibiotic":12764,"ĠIllustrations":12765,"ĠDegree":12766,"ĠSantorum":12767,"ĠCereal":12768,"ĠEmoji":12769,"Illinois":12770,"ĠRecreates":12771,"Airline":12772,"ĠDismant":12773,"ĠHormone":12774,"ĠScreens":12775,"ĠRousey":12776,"ĠKurds":12777,"ĠThicke":12778,"ĠPlagiar":12779,"ĠAssassination":12780,"ĠUPDATES":12781,"Bryan":12782,"ĠStomach":12783,"ĠFundamental":12784,"ĠNonsense":12785,"Billionaire":12786,"Chipotle":12787,"VIEW":12788,"ĠBlanchett":12789,"ĠScheme":12790,"Ridiculous":12791,"Doug":12792,"ĠBrawl":12793,"Boehner":12794,"ĠHeadquarters":12795,"Delta":12796,"ĠVuitton":12797,"?)":12798,"AL":12799,"AS":12800,"Bear":12801,"Come":12802,"Cities":12803,"Dick":12804,"Double":12805,"Dirty":12806,"Fest":12807,"Faith":12808,"Gig":12809,"Gang":12810,"HT":12811,"Henry":12812,"Krist":12813,"Lin":12814,"Land":12815,"Lee":12816,"Lupita":12817,"Mat":12818,"Mid":12819,"Meryl":12820,"Pen":12821,"Pac":12822,"PMorgan":12823,"Ram":12824,"Rio":12825,"Squ":12826,"Sides":12827,"Ski":12828,"VD":12829,"Wardrobe":12830,"__":12831,"fund":12832,"gs":12833,"hist":12834,"iable":12835,"ienna":12836,"kee":12837,"min":12838,"rin":12839,"right":12840,"tail":12841,"uer":12842,"worthy":12843,"world":12844,"ĠAstr":12845,"ĠSally":12846,"ĠSikh":12847,"esar":12848,"esis":12849,"ĠCz":12850,"ĠCem":12851,"orms":12852,"ĠWages":12853,"ĠWounds":12854,"ĠBree":12855,"ĠBench":12856,"ĠBicy":12857,"ĠFog":12858,"ĠFits":12859,"ĠIT":12860,"ĠME":12861,"aters":12862,"ĠPist":12863,"ĠPud":12864,"ĠPine":12865,"ĠPork":12866,"ĠPony":12867,"ĠPills":12868,"ĠPokemon":12869,"ĠPengu":12870,"ĠObamas":12871,"ĠDa":12872,"ĠDose":12873,"ĠDaring":12874,"ĠDairy":12875,"ĠHus":12876,"ĠHind":12877,"ĠHired":12878,"ĠRail":12879,"ĠRituals":12880,"isp":12881,"isive":12882,"iscover":12883,"ĠLu":12884,"ĠLatt":12885,"ĠGQ":12886,"ĠGif":12887,"ĠGonna":12888,"ilot":12889,"ĠNelson":12890,"ĠNazis":12891,"ĠEg":12892,"ĠEug":12893,"store":12894,"ĠThai":12895,"Ġthan":12896,"ĠTrucks":12897,"urge":12898,"uto":12899,"andowski":12900,"ĠKal":12901,"ecca":12902,"illes":12903,"ĠJulian":12904,"ĠPriebus":12905,"ĠVag":12906,"ĠChili":12907,"thur":12908,"ĠBeware":12909,"atever":12910,"ĠFruits":12911,"unami":12912,"ĠAbraham":12913,"ĠConn":12914,"ĠSpree":12915,"ĠSpicy":12916,"emies":12917,"ĠClim":12918,"ĠClashes":12919,"anship":12920,"ĠSuites":12921,"uder":12922,"aghetti":12923,"ardi":12924,"ĠCroc":12925,"ĠCries":12926,"ĠLePage":12927,"ĠDrove":12928,"ĠDrones":12929,"ĠBlu":12930,"ĠSeize":12931,"ĠSeahawks":12932,"ĠMariah":12933,"ĠDoom":12934,"izr":12935,"ĠUphold":12936,"ĠUnr":12937,"ĠUnfor":12938,"ĠScathing":12939,"icked":12940,"Trib":12941,"ĠReck":12942,"ĠRecount":12943,"ĠEnthus":12944,"ĠOrch":12945,"ĠWarned":12946,"Chronic":12947,"ĠGuid":12948,"ĠStruck":12949,"ĠStruct":12950,"ĠHolland":12951,"ugal":12952,"ĠBreach":12953,"ĠNoise":12954,"ĠMonument":12955,"ĠImpacts":12956,"ĠSheep":12957,"ussy":12958,"Ġ34":12959,"Ġ39":12960,"ĠThriving":12961,"ĠSlim":12962,"ĠPlayoff":12963,"ĠBanking":12964,"ĠTransphob":12965,"ĠTransparency":12966,"Reb":12967,"ĠInvited":12968,"ĠIncor":12969,"ĠLegends":12970,"ĠStopping":12971,"ĠBarg":12972,"ĠBarred":12973,"iffe":12974,"ĠBreakthrough":12975,"ĠIdeal":12976,"Brave":12977,"Italy":12978,"ucted":12979,"ĠInstall":12980,"Beer":12981,"opsy":12982,"ĠStoryt":12983,"uthors":12984,"ĠGenet":12985,"ĠConvin":12986,"ĠMaj":12987,"ĠThroughout":12988,"lessly":12989,"Ġ81":12990,"Asia":12991,"ĠCreators":12992,"ĠPassage":12993,"ĠRegistration":12994,"ielberg":12995,"ĠWatches":12996,"ĠTurt":12997,"ĠEngage":12998,"ĠCookbook":12999,"Alan":13000,"Speed":13001,"ĠDenver":13002,"Carpool":13003,"ĠExtends":13004,"Dems":13005,"Ġ197":13006,"ĠDifferences":13007,"ĠCybers":13008,"ĠFacial":13009,"ĠSilly":13010,"ĠIllusion":13011,"ĠObl":13012,"ĠGrandparents":13013,"kea":13014,"ĠTexting":13015,"ĠCastile":13016,"ĠTribe":13017,"ĠQuestioning":13018,"Amid":13019,"ĠLandmark":13020,"ĠMurderer":13021,"ĠKingdom":13022,"ĠBillionaires":13023,"ĠLeftover":13024,"ĠOlive":13025,"Everybody":13026,"irsten":13027,"ĠRoller":13028,"ĠCriticized":13029,"Crit":13030,"Team":13031,"ĠMidwest":13032,"ĠKicking":13033,"ĠConnected":13034,"borough":13035,"ĠReunites":13036,"Actress":13037,"ĠScript":13038,"ĠEscaped":13039,"ĠEpisodes":13040,"ĠDeeply":13041,"ĠJeffrey":13042,"ĠDestroying":13043,"ĠAccountable":13044,"ĠChristianity":13045,"ĠHangover":13046,"Patri":13047,"ĠPinkett":13048,"Known":13049,"Mayor":13050,"Buzz":13051,"Helping":13052,"ĠCasino":13053,"Sandy":13054,"ĠMainstream":13055,"ĠHarmony":13056,"ĠAttractive":13057,"ĠOceans":13058,"ĠSatell":13059,"ĠDerail":13060,"ĠLaughs":13061,"Empower":13062,"ĠLiberals":13063,"ĠMourning":13064,"Matthew":13065,"Captain":13066,"ĠNarrative":13067,"ĠBuffalo":13068,"ĠDumped":13069,"ĠCircus":13070,"ĠSustainability":13071,"Burger":13072,"urdish":13073,"Feel":13074,"Awkward":13075,"utcher":13076,"Politic":13077,"ĠEncourage":13078,"ĠMansion":13079,"ĠTelesc":13080,"ĠDiplomacy":13081,"ĠHoax":13082,"ĠTroubling":13083,"ĠExecs":13084,"ĠTreasury":13085,"ĠBipolar":13086,"ĠPlunging":13087,"ĠIntrovert":13088,"IME":13089,"ĠFascinating":13090,"Bringing":13091,"ĠColleagues":13092,"Esteem":13093,"Veterans":13094,"Business":13095,"ĠPopulist":13096,"Surprising":13097,"ĠWithdrawal":13098,"ĠSubstance":13099,"Moonlight":13100,"Whitney":13101,"ĠExtinction":13102,"ĠBogus":13103,"Private":13104,"ĠCateg":13105,"ĠRiots":13106,"Julianne":13107,"TERVIEW":13108,"Hilarious":13109,"ĠNinja":13110,"ĠIntegrity":13111,"RECIP":13112,"upuncture":13113,"ĠLooph":13114,"ĠDisastrous":13115,"ĠAvailable":13116,"ĠSaldana":13117,"ĠMcKinnon":13118,"ĠTelescope":13119,"Bed":13120,"Bush":13121,"Border":13122,"Cas":13123,"Diff":13124,"Eight":13125,"Fut":13126,"GE":13127,"Grat":13128,"Giant":13129,"Killing":13130,"KEA":13131,"Lif":13132,"Lord":13133,"Lux":13134,"Liber":13135,"NL":13136,"Ow":13137,"PAC":13138,"Wine":13139,"aver":13140,"ders":13141,"kowski":13142,"oir":13143,"roc":13144,"rock":13145,"rowing":13146,"venting":13147,"Ġout":13148,"ĠTong":13149,"ĠTension":13150,"ĠSierra":13151,"ĠSNL":13152,"ĠCO":13153,"anas":13154,"ĠWinds":13155,"ĠWander":13156,"ĠBout":13157,"ĠBucks":13158,"ĠMocked":13159,"ĠMeryl":13160,"ĠMamm":13161,"ĠPentagon":13162,"ĠDutch":13163,"oux":13164,"ĠHipp":13165,"ĠRogue":13166,"itivity":13167,"ĠLem":13168,"ĠLace":13169,"ĠLah":13170,"ĠLisa":13171,"ĠGon":13172,"ĠGate":13173,"ĠGoth":13174,"ilee":13175,"ĠInit":13176,"ĠNu":13177,"ĠNine":13178,"ĠNike":13179,"eted":13180,"lements":13181,"ĠYard":13182,"ĠYian":13183,"acial":13184,"acecraft":13185,"ĠStains":13186,"ento":13187,"entin":13188,"erse":13189,"aden":13190,"ĠUm":13191,"ĠKittens":13192,"imag":13193,"ĠJub":13194,"ĠJaw":13195,"ĠPrints":13196,"ĠVast":13197,"ithole":13198,"ĠChapp":13199,"ĠChatt":13200,"ĠChyn":13201,"ths":13202,"verly":13203,"ĠShy":13204,"ĠSharks":13205,"oped":13206,"umpy":13207,"child":13208,"osa":13209,"ivan":13210,"ĠFract":13211,"ighth":13212,"isting":13213,"acket":13214,"abwe":13215,"ĠAboard":13216,"ĠWorship":13217,"ĠSpons":13218,"ĠSpielberg":13219,"ĠHeights":13220,"avin":13221,"avia":13222,"ĠExotic":13223,"ĠBrace":13224,"ĠBrock":13225,"ĠCany":13226,"ĠPlenty":13227,"odox":13228,"ĠCrunch":13229,"ikers":13230,"ĠAdding":13231,"ovic":13232,"ĠGrants":13233,"ĠGraff":13234,"izoph":13235,"ĠCaring":13236,"ĠUncons":13237,"ĠSci":13238,"ĠSclerosis":13239,"ĠOvernight":13240,"Train":13241,"ĠPhase":13242,"berries":13243,"eleine":13244,"ounting":13245,"ĠFlour":13246,"ĠWorlds":13247,"inky":13248,"amps":13249,"ĠGuantanamo":13250,"ĠMaya":13251,"ĠAmber":13252,"ĠButler":13253,"ĠCoord":13254,"erness":13255,"ĠAccurate":13256,"ĠImpressed":13257,"ĠSoap":13258,"ĠHomework":13259,"ĠCheated":13260,"ĠSmash":13261,"pres":13262,"ĠFamiliar":13263,"ĠCareful":13264,"ĠDesire":13265,"ĠGoods":13266,"gettable":13267,"ĠFines":13268,"lands":13269,"ĠSydney":13270,"ĠSkull":13271,"ĠSkipping":13272,"Revenge":13273,"ĠChristina":13274,"ĠIndonesia":13275,"ĠRetired":13276,"remlin":13277,"ĠBarrel":13278,"piring":13279,"ĠExploring":13280,"ĠFilib":13281,"ĠConsent":13282,"ĠConsult":13283,"ĠMilo":13284,"ĠInstitut":13285,"Conn":13286,"Beat":13287,"ĠSimone":13288,"Fresh":13289,"ĠCongresswoman":13290,"ĠPayment":13291,"Arch":13292,"atorial":13293,"ĠEvening":13294,"ĠMarkle":13295,"ominated":13296,"Advent":13297,"ĠDenying":13298,"Carl":13299,"ĠRevive":13300,"ĠPerforming":13301,"ĠPolicing":13302,"ĠEducational":13303,"ĠInvestigations":13304,"Lev":13305,"Leave":13306,"ĠEntit":13307,"ĠRoads":13308,"ĠBenef":13309,"izzy":13310,"ĠRuins":13311,"ĠWaist":13312,"Emily":13313,"ĠMagazines":13314,"ĠDamaging":13315,"ĠPhilly":13316,"ĠLighting":13317,"ĠCharlene":13318,"ĠLocations":13319,"ĠOlivia":13320,"ĠRadiation":13321,"ĠHawai":13322,"incinn":13323,"Christie":13324,"ĠOwes":13325,"ĠTechnique":13326,"Minnesota":13327,"ĠLimited":13328,"llenha":13329,"ĠPsychiatric":13330,"ĠMuseums":13331,"holm":13332,"ĠJumping":13333,"namon":13334,"ĠDiscriminate":13335,"ĠBikinis":13336,"ĠRacially":13337,"ĠAffairs":13338,"cycle":13339,"ĠDefinitive":13340,"ĠWindows":13341,"ĠDemanding":13342,"ĠNAACP":13343,"ĠEncounter":13344,"ĠShelf":13345,"ĠHatred":13346,"ĠApparel":13347,"ĠClearly":13348,"ĠSelma":13349,"ĠCircle":13350,"ĠLevine":13351,"ĠTermin":13352,"Seriously":13353,"ĠSwimmer":13354,"Deadpool":13355,"ĠJeremy":13356,"ĠHyper":13357,"ĠVerizon":13358,"ecessary":13359,"imbabwe":13360,"ĠJuan":13361,"ĠRelaxation":13362,"ĠBrighten":13363,"Interior":13364,"Legend":13365,"writer":13366,"ĠdeGrasse":13367,"ĠOversight":13368,"ĠLogo":13369,"ĠCrushes":13370,"iosity":13371,"ĠInfections":13372,"ĠMandela":13373,"ĠExpanding":13374,"ĠDisabled":13375,"Solange":13376,"ĠDodges":13377,"Wrong":13378,"ĠFools":13379,"ĠBradley":13380,"Bachelorette":13381,"Japanese":13382,"ĠBolt":13383,"ĠLemonade":13384,"ĠUnpaid":13385,"ĠClinics":13386,"ĠEnsure":13387,"ĠTroubled":13388,"ĠBailout":13389,"Viola":13390,"ĠRanking":13391,"ĠSibling":13392,"ĠHogan":13393,"History":13394,"Vanessa":13395,"ĠPleasure":13396,"ĠHavana":13397,"ĠStonewall":13398,"ĠSweeping":13399,"Advice":13400,"MLB":13401,"ĠIntimid":13402,"ĠSignificant":13403,"Chicken":13404,"ĠUnconstitutional":13405,"ĠGuaranteed":13406,"Visiting":13407,"ĠSeyfried":13408,"ĠMulti":13409,"ĠNostalgia":13410,"ĠUndermine":13411,"ĠDolphins":13412,"ĠNarrow":13413,"ĠDialogue":13414,"ĠMasculinity":13415,"ĠEnrollment":13416,"ĠGyllenha":13417,"ĠVodka":13418,"olerance":13419,"Custom":13420,"ĠSacrifice":13421,"ĠTacos":13422,"ĠTaunts":13423,"ĠJudgment":13424,"ĠReconsider":13425,"ĠPhenomen":13426,"orexia":13427,"ĠOffshore":13428,"ĠYiann":13429,"ĠChyna":13430,"izophren":13431,"incinnati":13432,"ĠGyllenhaal":13433,"?:":13434,"AY":13435,"Aly":13436,"Box":13437,"Bird":13438,"Core":13439,"Cele":13440,"Cath":13441,"Counter":13442,"Dar":13443,"DNC":13444,"Dakota":13445,"Dollar":13446,"Fact":13447,"Final":13448,"GTV":13449,"Jenna":13450,"Kings":13451,"Kick":13452,"Kesha":13453,"Laugh":13454,"Lago":13455,"LUS":13456,"Local":13457,"Mess":13458,"Oil":13459,"Pizza":13460,"Rod":13461,"Rape":13462,"Sac":13463,"Sick":13464,"Techn":13465,"Ug":13466,"WHO":13467,"Wendy":13468,"Zac":13469,"aa":13470,"bishop":13471,"cts":13472,"dow":13473,"eo":13474,"fly":13475,"foot":13476,"gic":13477,"gas":13478,"load":13479,"rog":13480,"ties":13481,"zes":13482,"ĠTig":13483,"ĠTina":13484,"ĠSz":13485,"ĠSou":13486,"ĠSot":13487,"ĠSid":13488,"ĠSoot":13489,"ĠSlee":13490,"ĠCooks":13491,"oney":13492,"ĠWy":13493,"ĠWet":13494,"ĠWack":13495,"ĠWound":13496,"ĠWise":13497,"ĠBother":13498,"ĠBaff":13499,"ĠBitch":13500,"ĠBobby":13501,"ĠBishop":13502,"arently":13503,"ĠMong":13504,"ĠMens":13505,"ĠMason":13506,"atitis":13507,"ĠPund":13508,"ĠPorter":13509,"ĠPaj":13510,"ĠDash":13511,"ĠDire":13512,"ĠDennis":13513,"ĠHu":13514,"ĠRental":13515,"isers":13516,"ĠLan":13517,"ĠLiam":13518,"icable":13519,"icides":13520,"ĠGoss":13521,"ĠGems":13522,"ĠNich":13523,"ĠNord":13524,"asher":13525,"ayn":13526,"ĠYach":13527,"otch":13528,"ĠThirst":13529,"ĠRewards":13530,"ĠTraps":13531,"ura":13532,"urass":13533,"ĠKits":13534,"ĠKunis":13535,"oog":13536,"ĠJama":13537,"ĠJerk":13538,"ĠPron":13539,"ĠProving":13540,"ĠVik":13541,"ĠVicious":13542,"ĠVitamin":13543,"ĠVampire":13544,"ĠChand":13545,"verne":13546,"ĠShifting":13547,"ulated":13548,"iph":13549,"ĠAlarming":13550,"ĠSpying":13551,"ĠSperm":13552,"ĠSpacecraft":13553,"emble":13554,"ĠCloud":13555,"ĠClippers":13556,"oodles":13557,"uded":13558,"ĠBrav":13559,"ĠPlug":13560,"ĠCrises":13561,"ĠLebanon":13562,"ĠBlaz":13563,"ĠBlizzard":13564,"Thoughts":13565,"ĠGrounds":13566,"ĠGroping":13567,"ĠNoticed":13568,"ĠCarrier":13569,"aware":13570,"ĠUnfortun":13571,"ĠPharma":13572,"bermann":13573,"ouncing":13574,"upiter":13575,"angut":13576,"ĠIntentions":13577,"ĠPerpet":13578,"ĠPrejud":13579,"ĠQuad":13580,"ĠBackst":13581,"ĠStrain":13582,"otherapy":13583,"ernal":13584,"ĠTaliban":13585,"ĠSwiss":13586,"ĠSwamp":13587,"ĠSwallow":13588,"ĠMuscle":13589,"ĠSheen":13590,"ĠSheds":13591,"roid":13592,"uality":13593,"ĠHears":13594,"ĠCharm":13595,"ĠThrown":13596,"ĠSlight":13597,"Prod":13598,"enne":13599,"ĠSeren":13600,"ĠProbes":13601,"ethal":13602,"ĠComparing":13603,"into":13604,"Rex":13605,"ĠFallout":13606,"screen":13607,"Shut":13608,"Short":13609,"ĠLeggings":13610,"ĠSteph":13611,"ĠMemor":13612,"ĠModerate":13613,"ĠAirways":13614,"Ġ74":13615,"ĠMorocco":13616,"ĠBadly":13617,"redit":13618,"ĠTimeline":13619,"phoon":13620,"ĠConvince":13621,"ĠTerrified":13622,"ĠWalt":13623,"Ġ85":13624,"affetz":13625,"ĠStartups":13626,"ĠRegistry":13627,"ĠPromised":13628,"Twin":13629,"ĠSusan":13630,"ĠMassage":13631,"ĠMural":13632,"Altern":13633,"Adop":13634,"Ã©mon":13635,"ĠCurt":13636,"ĠCurious":13637,"ĠPublicly":13638,"Ġ1950":13639,"Ġ1970":13640,"Drink":13641,"ĠDreamy":13642,"umbles":13643,"ograph":13644,"sterdam":13645,"ĠAutom":13646,"ĠBoob":13647,"bek":13648,"ĠFlorence":13649,"istering":13650,"ĠCoral":13651,"ĠHalts":13652,"ĠNominate":13653,"ĠInjures":13654,"ĠPositions":13655,"ĠErupt":13656,"ĠGarlic":13657,"grace":13658,"ĠCriticize":13659,"Appeals":13660,"Apparently":13661,"lining":13662,"ĠBaghdad":13663,"ĠApprove":13664,"ĠSickness":13665,"ĠDigest":13666,"Enough":13667,"ĠLifting":13668,"Studded":13669,"ĠPersecut":13670,"ĠChampag":13671,"ĠDecorate":13672,"emption":13673,"ĠBasics":13674,"ĠEthnic":13675,"Overcoming":13676,"ĠCrossing":13677,"ĠCrossFit":13678,"ĠSamantha":13679,"Fashionably":13680,"ĠAttorneys":13681,"ĠTyr":13682,"igenous":13683,"Homeland":13684,"ĠSlowly":13685,"Hotels":13686,"ĠInaugural":13687,"ĠImagination":13688,"ĠTemporarily":13689,"ĠCrystal":13690,"ĠCapitalism":13691,"ĠStrategic":13692,"krain":13693,"ĠApparent":13694,"ĠRevolutionary":13695,"ĠSurfing":13696,"Funniest":13697,"ĠAttempted":13698,"ĠRenewable":13699,"McConnell":13700,"ĠUganda":13701,"blower":13702,"ĠRogers":13703,"ĠLewandowski":13704,"Depression":13705,"Cleveland":13706,"ĠInnovative":13707,"Fitness":13708,"Honoring":13709,"ĠLegislature":13710,"ĠEgyptian":13711,"Philadelphia":13712,"ĠCocaine":13713,"ĠMarcus":13714,"ĠLauer":13715,"ĠCensorship":13716,"Surviv":13717,"ĠTroubles":13718,"ĠTheaters":13719,"ĠForeclosure":13720,"ĠLicenses":13721,"ĠTreasure":13722,"ĠOutlook":13723,"ĠViney":13724,"ĠConfidential":13725,"ĠEvangelicals":13726,"ĠArchitecture":13727,"Sheriff":13728,"colm":13729,"ĠConquer":13730,"ĠOverlooked":13731,"ĠIntimacy":13732,"ĠPrinciples":13733,"ĠRanked":13734,"ĠWiig":13735,"ĠCranston":13736,"ĠCaution":13737,"ĠManifesto":13738,"ĠCollapses":13739,"ĠFrequent":13740,"ĠRecommendations":13741,"ĠAggressive":13742,"Embracing":13743,"Meatless":13744,"Divorced":13745,"Sugar":13746,"ĠRefriger":13747,"ĠHobbit":13748,"ĠGerrymandering":13749,"Pumpkin":13750,"Veget":13751,"ĠUnhappy":13752,"Navigating":13753,"Utah":13754,"ĠBachmann":13755,"ĠLobster":13756,"ĠKobach":13757,"Outrage":13758,"ĠHoffman":13759,"ĠSuitcase":13760,"ĠInjustice":13761,"Gloria":13762,"ĠInitial":13763,"ĠChappelle":13764,"ĠChattman":13765,"ĠYiannopoulos":13766,"urassic":13767,"44":13768,"Aid":13769,"April":13770,"Bik":13771,"Cats":13772,"CIA":13773,"Die":13774,"Dust":13775,"Dress":13776,"Duck":13777,"FEA":13778,"Gift":13779,"Huge":13780,"HIV":13781,"HBO":13782,"Jesus":13783,"NB":13784,"NT":13785,"Naked":13786,"Nasty":13787,"Nikki":13788,"Pit":13789,"Point":13790,"RNC":13791,"Rapper":13792,"Sch":13793,"Ston":13794,"Safe":13795,"Taste":13796,"Wait":13797,"Zoe":13798,"aime":13799,"fus":13800,"front":13801,"hop":13802,"jamin":13803,"lust":13804,"pot":13805,"rad":13806,"rast":13807,"vity":13808,"word":13809,"weg":13810,"Ġnot":13811,"ĠTune":13812,"ĠAk":13813,"ĠAld":13814,"ĠSection":13815,"ĠCork":13816,"ĠCures":13817,"ĠCoul":13818,"ĠCNBC":13819,"ĠWaking":13820,"ĠWasting":13821,"ĠBod":13822,"ĠFL":13823,"ĠFO":13824,"ĠFlex":13825,"ĠFidel":13826,"ĠFoil":13827,"ĠIX":13828,"aroo":13829,"arazz":13830,"ĠMA":13831,"ĠMice":13832,"ener":13833,"ĠPale":13834,"ĠDiction":13835,"ĠDirt":13836,"ĠDerek":13837,"ĠHating":13838,"ĠRend":13839,"ĠRating":13840,"ĠRough":13841,"ĠRails":13842,"ĠRitual":13843,"isand":13844,"ĠLing":13845,"ĠLiz":13846,"ĠLance":13847,"ĠLenn":13848,"ĠLama":13849,"ĠLashes":13850,"ĠGub":13851,"ĠGaining":13852,"ilight":13853,"ĠNE":13854,"ĠNug":13855,"ĠNerv":13856,"ĠNIC":13857,"ĠNasty":13858,"lemore":13859,"ĠYahoo":13860,"steps":13861,"ĠThre":13862,"ĠThough":13863,"ĠReign":13864,"igl":13865,"ĠTruce":13866,"ĠTrillion":13867,"uter":13868,"irus":13869,"ĠKy":13870,"ĠKam":13871,"ĠKourtney":13872,"iman":13873,"ĠJose":13874,"ĠJihad":13875,"ĠProved":13876,"ĠVibr":13877,"ĠNebraska":13878,"ĠSherman":13879,"oser":13880,"ĠDeen":13881,"unities":13882,"ofits":13883,"ĠSpouses":13884,"ĠSpooky":13885,"ĠSpaghetti":13886,"Whole":13887,"âĢĶ":13888,"uda":13889,"ĠPlight":13890,"ĠArc":13891,"ĠAriana":13892,"ĠArthritis":13893,"ĠSeinfeld":13894,"ĠMara":13895,"pper":13896,"ookie":13897,"ĠGraphic":13898,"ĠGrindr":13899,"Ġ2010":13900,"ĠUnse":13901,"ĠScor":13902,"ĠScal":13903,"ĠScandals":13904,"ĠOverrated":13905,"ĠPhoenix":13906,"ondur":13907,"ĠFlake":13908,"ĠFlips":13909,"ĠFlops":13910,"apple":13911,"ĠIntention":13912,"ĠOral":13913,"inke":13914,"inkle":13915,"ĠPerks":13916,"Into":13917,"ĠGuac":13918,"ĠGuitar":13919,"ĠBackground":13920,"river":13921,"ernatorial":13922,"ĠContag":13923,"ĠBreitbart":13924,"ĠStark":13925,"ĠSword":13926,"ĠInsights":13927,"Ġ52":13928,"ĠInterrupt":13929,"ĠSheet":13930,"ĠSoars":13931,"ahm":13932,"ĠNowhere":13933,"Newt":13934,"aughty":13935,"ĠSlaying":13936,"ĠEndless":13937,"ĠSerena":13938,"formation":13939,"ĠFinals":13940,"uffle":13941,"ricanes":13942,"ĠSyrians":13943,"ĠRefres":13944,"ĠStatements":13945,"ĠInvitation":13946,"Sharing":13947,"ĠFashionable":13948,"ĠRedhead":13949,"ĠStephanie":13950,"ĠOtherwise":13951,"Brid":13952,"Bride":13953,"Brown":13954,"ĠMemes":13955,"ĠMemphis":13956,"ĠDepends":13957,"ĠDepressed":13958,"cessive":13959,"uctions":13960,"ĠLongtime":13961,"ĠHomeland":13962,"ĠEarns":13963,"iddy":13964,"ĠFunction":13965,"ĠHeadlines":13966,"ĠGreens":13967,"ĠRaisman":13968,"ĠInvestor":13969,"ĠFilmed":13970,"Arrest":13971,"ĠSugary":13972,"ĠAvocado":13973,"ĠSafely":13974,"ĠMurdoch":13975,"Alien":13976,"ĠDenounce":13977,"ĠLosers":13978,"ĠPaints":13979,"ĠHandler":13980,"Drinking":13981,"ĠPerformed":13982,"ĠCreation":13983,"ĠPopulation":13984,"ĠAutistic":13985,"ĠAutumn":13986,"ĠMarching":13987,"ĠSanity":13988,"ĠUrgent":13989,"ĠTexts":13990,"ĠPalestinians":13991,"ĠVisitors":13992,"ĠBallistic":13993,"ĠLaunching":13994,"ĠBuddy":13995,"ĠShutting":13996,"ĠQuestioned":13997,"ormous":13998,"Season":13999,"ĠPetty":14000,"ĠMurdering":14001,"Disp":14002,"ĠInclusive":14003,"ĠPuzz":14004,"ĠExecutes":14005,"ĠLarson":14006,"ĠBeds":14007,"ĠIceberg":14008,"ĠMalik":14009,"ĠDarkness":14010,"ĠRidic":14011,"ĠFoxx":14012,"ĠApprent":14013,"ĠRumor":14014,"ĠSearches":14015,"ĠDiscussion":14016,"ĠSquee":14017,"ĠEmerges":14018,"ĠEastwood":14019,"ĠEnvy":14020,"abbing":14021,"Tommy":14022,"ĠTrolling":14023,"ĠPinners":14024,"ĠProced":14025,"ĠAnxious":14026,"Photo":14027,"ĠCrowds":14028,"Seeing":14029,"ĠTracking":14030,"ĠStatues":14031,"ĠCoastal":14032,"ĠAdventur":14033,"ĠAccountability":14034,"Turning":14035,"Warning":14036,"Makeup":14037,"Build":14038,"ĠConstant":14039,"Opening":14040,"ĠMicrow":14041,"ĠDisappo":14042,"ĠOrigins":14043,"ĠNickn":14044,"Serial":14045,"ĠBonkers":14046,"ĠHipster":14047,"Melania":14048,"ĠFearlessly":14049,"Companies":14050,"ĠCommentary":14051,"MOIR":14052,"ĠCrushing":14053,"Retire":14054,"ĠDissent":14055,"Viral":14056,"ĠBangladesh":14057,"ĠDumbest":14058,"ĠVeto":14059,"ĠWhisper":14060,"ĠPriorit":14061,"ĠNecessarily":14062,"ĠExplosive":14063,"ĠNigerian":14064,"ĠKidnapping":14065,"Breakup":14066,"ĠTHIS":14067,"ĠNurses":14068,"Control":14069,"Violence":14070,"ĠPapers":14071,"ĠUnemployed":14072,"ĠAdvisers":14073,"ĠEngineer":14074,"Progressives":14075,"ĠAnalyst":14076,"ĠDeleted":14077,"ĠCredits":14078,"ĠAntibiotics":14079,"Culture":14080,"ecially":14081,"Community":14082,"ĠSculpture":14083,"Speak":14084,"ĠDisclose":14085,"ĠNerd":14086,"Totally":14087,"ĠPurchase":14088,"ĠPowder":14089,"ĠNepal":14090,"ĠPhysician":14091,"ĠShakespeare":14092,"Spiritual":14093,"ĠHanukkah":14094,"ĠRigged":14095,"ĠDynam":14096,"Tweeters":14097,"ĠSector":14098,"RLESS":14099,"itasking":14100,"Astron":14101,"ĠWaffle":14102,"Owned":14103,"ĠBaptist":14104,"EXC":14105,"ĠTumblr":14106,"Innov":14107,"Restaurant":14108,"Millennials":14109,"Newspaper":14110,"LISTEN":14111,"Chapter":14112,"ĠMisconceptions":14113,"ĠMEMOIR":14114,"ĠUnforgettable":14115,"ĠGuidance":14116,"Gratitude":14117,"ĠJubilee":14118,"izophrenia":14119,"FEARLESS":14120,"75":14121,"Aud":14122,"Aband":14123,"BM":14124,"Bas":14125,"Bang":14126,"Burn":14127,"Buck":14128,"CEO":14129,"Cyn":14130,"CDC":14131,"CBS":14132,"Deg":14133,"Dennis":14134,"Emer":14135,"Fel":14136,"Gas":14137,"Gov":14138,"Greg":14139,"Hands":14140,"Iggy":14141,"Killer":14142,"Lives":14143,"Mothers":14144,"MTV":14145,"Normal":14146,"Nominated":14147,"Pers":14148,"Paid":14149,"Rolling":14150,"Syn":14151,"Saying":14152,"Tit":14153,"Trying":14154,"Zach":14155,"bows":14156,"dress":14157,"eb":14158,"eky":14159,"hole":14160,"houses":14161,"ieces":14162,"mom":14163,"mour":14164,"py":14165,"pan":14166,"rir":14167,"rint":14168,"vie":14169,"weet":14170,"zos":14171,"Ã¨":14172,"ĠTin":14173,"ĠTon":14174,"ĠTas":14175,"ĠTart":14176,"ĠTiss":14177,"ĠTube":14178,"inter":14179,"ĠAer":14180,"ĠAisle":14181,"ĠAuthors":14182,"ĠSie":14183,"ĠSout":14184,"ĠSake":14185,"ĠSinks":14186,"ĠSEC":14187,"ĠCites":14188,"ĠWHO":14189,"hea":14190,"ĠBands":14191,"ĠIceland":14192,"arew":14193,"ĠPest":14194,"ĠPace":14195,"ĠPsy":14196,"ĠPigs":14197,"ĠDw":14198,"ĠDaw":14199,"ĠDug":14200,"ĠDiane":14201,"ouch":14202,"ĠHut":14203,"ĠRar":14204,"ĠRut":14205,"ĠRanks":14206,"ĠLaughter":14207,"ĠLakers":14208,"ĠLocks":14209,"ĠLloyd":14210,"icting":14211,"icated":14212,"ĠGam":14213,"ĠGore":14214,"ĠGabb":14215,"ĠGaffe":14216,"rehens":14217,"ĠInk":14218,"ĠInher":14219,"ĠNud":14220,"ĠNach":14221,"ĠNanny":14222,"elong":14223,"etery":14224,"owan":14225,"ĠStones":14226,"ĠThigh":14227,"ĠThief":14228,
[...]
