#version: 0.2 - Trained by `huggingface/tokenizers`
Ġ =
s e
r e
i n
a t
o n
e r
s t
e n
o r
se l
sel f
a r
m e
a l
l e
d e
t i
u r
g e
a n
f i
c o
t e
a me
l o
r o
c e
i d
re t
u e
Ġ self
( )
n ame
d i
a p
l i
c h
d at
ur n
Ġ '
ret urn
u t
a d
. _
s i
c t
( '
) )
en t
u n
in g
ge t
p e
r a
c on
[ '
' ]
f or
Ġ n
a s
r i
m p
v al
e l
re s
ti on
Ġ p
Ġ +
t h
dat a
t o
k e
Ġ in
e x
' ,
t y
m a
' )
at h
( "
at e
Ġ i
l a
en d
u l
Ġ s
t er
u m
ar g
Ġ "
m at
se t
u p
c k
t a
Ġ Ġ
m o
fi le
p ath
st r
e s
ap p
Ġ %
o p
se r
t s
val ue
ke y
at i
ty pe
Ġ [
p ar
m s
arg s
l en
o t
Ġ (
lo g
Ġ b
Ġ f
Ġ c
e d
o ut
Ġ 1
o l
on e
v er
r or
Ġ *
] )
an d
" )
t r
ati on
Ġ {
in t
p o
ti me
for mat
Ġ -
l in
s s
o b
n e
app end
v e
p ro
s p
li st
b u
c tion
Ġ re
Ġ for
co l
i t
N one
b le
f o
n o
s h
i se
ul t
a ge
" ,
x t
i l
Ġ a
v i
si on
u b
Ġ 0
) ,
ra ise
z e
m ent
q u
ad d
p ut
o s
f a
i s
or d
h e
Ġ m
Ġ d
] ,
re n
te xt
fi g
or t
ob j
Ġn p
c al
c l
f f
Ġ _
E r
Er ror
i g
de l
Ġ None
dat e
ex t
Ġ t
k w
de x
co de
b a
di ct
q ue
in fo
e ct
ur l
el d
T r
p r
[ "
p a
Ġ w
con fig
te d
ma x
ch e
si ze
Ġ to
Tr ue
kw args
ro m
di r
ar t
in d
lin e
p er
Ġ+ =
g er
as s
ĠĠ ĠĠ
o ur
co m
u s
o in
h t
_ _
b o
in dex
" ]
er s
a m
Ġ st
j oin
Ġ #
ri p
Ġ{ }
' .
s c
res ult
0 0
re ad
re d
Ġi s
e t
our ce
al l
Ġ r
ra y
Ġ de
Ġ h
ren t
= '
d o
ne w
a ms
que st
Ġ x
Ġi f
al se
Ġn ot
p y
s a
pr int
c i
an ce
v ar
i te
fi eld
p re
u ser
F alse
co un
] .
er ror
m in
lo ad
no de
._ _
c ur
) .
i st
li t
co mp
n um
g ro
Ġ str
d u
I n
he ad
s ub
Ġ 2
Ġ :
ar ray
at tr
Ġ /
la b
un d
ap e
Ġ len
an ge
mo del
u re
Ġ e
f rom
h o
bu g
res p
out put
Ġ th
o d
' :
sp lit
gro up
con t
" .
m b
Ġ o
c a
st art
s on
Ġ data
log ger
a ble
i p
w ri
Ġ or
de bug
as k
lab el
[ :
se s
Ġ[ ]
l s
R e
a c
Ġ g
V al
() )
il d
ro w
ct or
si g
t ri
y pe
ce s
fi l
o m
par ams
on se
lo w
u st
ce ss
e w
f e
j son
tion s
fa ult
Ġ get
s y
( [
p i
E R
al i
er y
com m
Ġ name
Ġ el
st ance
val id
ms g
value s
e p
a x
c s
m ap
Ġ* *
st ate
wri te
te mp
Val ue
n p
Ġ os
k en
str ing
Ġ S
coun t
i le
b y
o w
me ss
mp le
re p
m d
mess age
up date
st at
f un
g r
v ent
Ġel se
len ame
lo at
resp onse
Ġ y
Ġp ar
d a
i th
mat ch
la y
ver sion
ba se
ma ge
Ġin t
qu ery
{ }
te s
fi lename
ol d
ta g
Ġ v
fi x
tr an
Ġ ex
re quest
ser t
* *
Ġ C
se n
ar get
ce p
( (
Ġb e
sh ape
lo ck
obj ect
. .
Ġ con
] [
ta ble
lo c
l y
c li
r y
Ġ list
Ġ True
an n
Ġ value
um n
d f
or k
i m
e c
i f
Ġ= =
cont ent
en ti
g th
id x
at or
Ġp ro
Ġ di
Ġ False
m l
Ġ file
la ce
I N
me ta
p h
le ment
vi ce
res s
re ate
= "
- -
Ġ T
me th
col or
w ord
Ġ op
cl ass
s um
Ġth e
R E
j ect
Ġ u
'] )
un i
col umn
in ter
g en
ba ck
che ck
du le
l ate
Value Error
Ġ P
O N
ite m
Ġ E
ar y
a se
mp ort
s pe
par se
fil ter
A T
key s
Ġ ValueError
re c
st a
sig n
re e
ut h
meth od
C on
Ġ se
re g
in put
o de
to ken
re f
mo dule
t ing
a b
de fault
z er
li c
sc rip
as sert
ar ch
at ch
co py
o k
as h
w ork
s ource
Ġ set
name s
'] ,
c md
r un
c ke
b e
p l
p op
() .
um ent
d er
t arget
Ġ l
b er
t ra
po s
v el
ul ts
cep tion
comm and
Ġ A
st rip
w ar
p ort
s or
sp a
in stance
Ġ key
Ġ ch
r ame
d s
Ġ k
w e
e vent
ff set
m i
an g
re mo
li b
head er
id th
l er
ro ot
t p
h and
Ġo f
ra w
i mage
for m
ap i
var i
cur rent
Ġ D
a g
r c
or m
) ]
S T
rep lace
la st
)) )
tran s
N ame
len gth
w n
Ġ type
u te
ame ter
L O
d b
lin es
() ,
lo t
ses sion
stat us
de d
or y
n ing
at a
u ti
i eld
f in
ul l
fun c
ig ht
en v
se d
i on
[ -
cli ent
ho st
cal l
i c
g in
lo b
con text
spa ce
I D
l l
t le
Ġ and
lo cal
c reate
l at
o und
Ġ 3
lin k
id s
ĠĠĠĠ ĠĠĠĠ
Ġ time
s o
ation s
L E
con ne
b lock
file s
cke t
b in
Ġ M
do c
ap h
g s
sa mple
pa ck
head ers
Ġn ew
ti tle
Ġ >
u mp
po int
ction s
ex p
Ġf loat
ne t
e m
i r
ig h
op tions
f ind
E x
ma in
res ource
la mb
' ))
O R
ter n
Ġ max
le vel
M E
w a
c le
d y
Ġp ath
pro cess
re am
qu i
f t
lamb da
j ob
g ing
L o
S t
temp late
ite ms
ord er
a uth
r on
fi r
w idth
Ġ N
mo de
pre fix
Ġ <
pa rent
tri bu
u de
a st
Ġi mport
res ults
Ġ al
field s
D ata
Ġ kwargs
de p
at ure
s co
un k
le te
Ġ F
t al
: ]
U n
ta in
ext ra
Ġ R
Ġ args
ca che
C o
m t
f loat
[: ,
. ")
o ffset
'] .
T ype
te m
an t
Ġ line
t ask
en code
ser ver
log ging
add ress
D E
up le
ma g
ht tp
res h
ctor y
p ri
cl s
c ted
date time
ch ild
Ġ dict
vi ew
ti ve
re q
. ')
w ith
y s
i ter
( _
remo ve
" :
s u
Ġd o
ting s
par ser
t en
'] ['
S E
p lot
Ġ{ '
ent ry
u le
Ġm ust
ump y
h ash
li m
low er
ax is
b i
me an
1 0
m en
h el
po si
ed ge
I d
er r
( *
c ate
fir st
m ask
ar d
r ange
ti es
se ri
A R
Ġn um
ann el
al t
or ted
meta data
d ing
Ġp a
l u
di re
} )
') ,
ment s
rec ord
g ht
o re
se arch
Ġf rom
f rame
bu ild
Ġ co
y ield
Ġ en
v ed
] ]
e lement
num ber
te st
t mp
ser vice
n orm
g ra
mo d
P ro
P ar
qu en
ex ec
LO G
st ep
F ile
at tribu
Ġp re
n ext
st d
Ġ config
Ġm in
Ġ' .
m an
A L
f n
u ct
c lo
Ġ B
Ġn ode
or i
s q
di st
Ġget attr
gr aph
sen d
Ġa x
ma ke
E N
) [
r t
Ġre quest
ur i
p age
p s
scrip tion
par ameter
Ġs ub
in ts
6 4
ch ar
u se
ext end
de code
Ġc ls
c y
Ġ' %
type s
a ction
c at
ile d
vari able
label s
0 1
arg ument
o f
column s
3 2
del ta
] ))
ann ot
D i
ar k
Ġ ['
Ġ 4
c ent
st ream
bo dy
Ġ O
Ġ as
at tern
Ġ z
D e
Ġc ur
Ġn o
o ol
and om
( **
Ġ on
Ġ an
po st
s cal
ff er
a in
al s
by tes
] ['
l on
x y
op en
a v
u id
loc ation
ul ti
ali ze
zer os
Ġw ith
g lob
le ft
n s
Ġ G
fa ce
ch ange
s che
th er
Ġ \
ri x
sy s
Ġt f
A N
to tal
Ġ url
par am
Ġ I
lay er
p k
L ist
{ '
} '.
on ent
Ġ error
ren ce
re l
R es
x ml
ch o
war ning
E n
s k
Ġd type
ol u
ate d
or ig
y load
que ue
spe c
i me
i ti
ass word
c or
cl ude
node s
sta mp
se q
F I
Ġ json
set tings
ab s
b r
c f
Ġ j
di ff
t ree
ul d
hand le
K e
ĠĠ Ġ
U R
in it
T I
Ġde fault
val s
S et
sa ve
ch annel
com ment
f la
Ġ end
pro ject
ur ation
er i
'] [
sta ck
he ight
f ull
Ġ comp
Ġ user
o st
Ġf un
ri ght
co ord
= =
s rc
ht ml
me tri
Ġ out
pe d
tain er
uti ls
ut f
t or
Ġst art
a ct
id enti
up er
tr y
bo x
de lete
T o
Ġs h
co ding
u res
in di
c ation
y le
a re
mat rix
vi ron
Ġ un
a mple
st em
d type
b s
l ass
Ġ result
de st
Ġb y
Ġ |
col le
du mp
N o
ch ed
fi er
pro per
In valid
A C
gen er
Ġ )
ma il
st ore
ind ow
add r
Ġn umpy
n c
S I
n er
R O
di m
a ck
si te
tag s
C O
time out
ar r
p ub
in e
v o
po ints
b atch
m er
z ed
Ġ model
Ġi tem
Ġf ound
.. .
1 2
T E
ig n
ph a
e mp
d en
stat s
gr id
st op
ta il
h i
Ke y
op ts
attr s
object s
P E
f s
S e
th e
de scription
Ġstr ing
E lement
g o
lim it
do wn
c er
fun ction
Ġax is
he re
G et
G E
en er
c p
ati ve
row s
pack age
ct x
m on
un t
to p
s ort
Ġpar ams
e ar
Ġin dex
p attern
se g
old er
Ġ output
') .
group s
bu ffer
sion s
Ġr ange
c cess
" ])
A r
m y
Ġ &
Ġ H
Ġ at
Ġp y
a iled
con f
in st
an s
a k
Ġ" %
S tr
a ve
m ary
p ol
fe rence
Ġ match
ĠE x
Ġ obj
hand ler
a ger
ut o
mb ol
li ent
es s
on t
i mport
no wn
/ /
se ction
ver t
ch unk
se c
con st
Ġ{} ".
Ġ response
op tion
par ti
bo und
n ot
Ġ' '
d d
} ".
st yle
la ble
ar i
Ġ 5
app ing
id get
C ol
i ss
Ġs pe
m ark
Ġ' /
Ġb ase
v id
w r
S ub
o g
call back
Ġ text
hel p
up per
Ġ res
fi t
sel ect
parameter s
clo se
M A
quen ce
ce ll
ate s
indi ces
par ts
r andom
se con
col s
d t
Ġs p
di sp
u al
le d
', '
pa yload
Ġ" .
i ts
U T
net work
an ch
d ot
ro l
Ġ' \
up p
o ver
00 0
Ġ V
2 5
me m
Ġin put
(' \
der r
sche ma
Ġ q
Ġ id
de vice
Ġre ad
Ġ field
p t
par t
Ġ_ _
fi ed
S S
Ġ L
al y
fin i
Ex ception
conne ction
m is
)) ,
Ġb u
i ze
me mb
pe cted
or s
r ule
Ġ W
op er
ĠT ype
en viron
time stamp
per i
si s
posi tion
th on
Ġt arget
o me
Ġw e
a i
A D
P I
t f
b l
ro p
il l
im g
path s
data set
h ist
le ase
igh ts
an k
str uct
N A
Ġp o
Ġ val
Ġ size
ist er
le s
T ime
b ar
name space
Ġis instance
da y
Ġ row
C h
li ce
} ,
con tainer
scrip t
cl ust
scal e
Ġ Q
Ġ ro
F F
in al
glob al
Ġ filename
Ġt uple
f y
uti l
f low
ter m
un it
Ġex ist
conne ct
at ures
ext en
a y
" ],
n on
z ip
ge st
to ol
M o
Ġ return
con n
ra di
Ġ message
s ing
Ġ' ,
* (
1 6
Ġ log
U N
= [
Ġ si
IN G
at us
c ord
Di ct
p assword
user name
tra in
O b
]) ,
9 9
-- --
[: -
P ath
st er
spe ci
n d
ver se
attribu te
Ġ X
Ġ format
ch ain
U L
de sc
a f
uni que
m ulti
do main
Ġop en
comp onent
coun ts
Ġ method
lo op
ĠEx ception
di tion
Ġ 6
std out
c c
fo re
Ġb ool
li ke
c ry
qui red
ĠType Error
D I
Ġ version
var s
Ġ ('
g it
mo ve
Ġto ken
s alt
me di
o us
gra m
Ġs orted
M e
" ))
ex ception
Ġ all
sample s
Ġst ate
u d
dire ctory
Ġi mage
r s
in sert
co re
si tion
Ġcur rent
Ġ query
sh ow
de f
Ġ1 0
olu me
T Y
read y
Ġr un
fil l
e st
Ġ{} '.
es c
a u
lic y
Ġs ource
C ON
fe ature
sy stem
no w
k er
st ar
P O
Lo g
no re
pro file
sco re
sign al
G ER
i x
C H
e le
cl as
t uple
Ġ !
i ce
ve ctor
valid ate
re po
t xt
Ġ datetime
Ġh as
le t
if y
dep th
sen t
Ġ' {
ac tive
al og
ex ist
w indow
Ġ 8
Ġre g
cf g
Ġs y
metri c
' t
Ġ msg
i v
_ ,
h ex
n a
o ther
ust om
st derr
: //
th read
ti ck
Ġ arg
y ear
ver bo
in iti
sy mbol
z one
pro to
Ġ array
in s
proper ties
Ġ ret
Str ing
c an
attribu tes
ge x
p p
trans form
l ang
ri es
c re
dir name
n g
Ġ U
r ate
Ġpar se
Ġ color
( -
(' %
en o
pl u
en coding
reg ion
p lace
C E
ang le
et ch
exec ute
word s
Ġc reate
cle an
Ġ- =
re ct
e k
(" %
at ing
NA ME
i o
enti ty
uni ts
lo ok
f fix
() [
s n
qu o
Ġ Re
AT E
Ġ mo
e mail
Ġ[ "
op t
Ġu ti
fa ctor
LOG GER
UR L
ti fi
f mt
pi x
Ġa c
c ap
Ġ! =
T ext
Ġn ext
pl t
al pha
Ġe vent
w d
de v
ke d
s in
f lat
error s
dir s
wa it
resh ape
man ager
1 1
() ))
Ġs um
token s
(' /
sq rt
Ġ app
In dex
Ġth is
plu gin
: %
f ra
pa ir
ype s
L I
Ġ values
m apping
F or
F rame
Ġd f
Ġn e
de red
load s
i ty
M P
variable s
o c
Ġ .
edge s
mer ge
b it
sh a
f d
identi fier
L A
f name
00 00
Ġt ra
an ts
= (
T R
l d
Ġ lambda
dump s
i str
p c
lic ation
cate g
di stance
cur sor
f older
i ve
or age
fla gs
w here
Ġ' -
Ġin ter
T T
Ġ content
Ġ valid
colle ction
2 0
Sub Element
' \
al g
se p
T he
res sion
ex c
Con t
vi si
uni code
p id
o u
t x
upp orted
ali as
re al
Ġs u
reg ister
app er
Ġg r
Ġp d
di s
A t
(" \
u uid
Ġ' {}
K E
le x
F A
e val
w s
f er
cont rol
remo te
n el
ac cess
we ights
de c
comm on
z ation
pro xy
im um
f p
n an
] +
fe atures
Ġ" \
Ġs uper
d r
sig ma
we ight
te x
Ġ{ "
e di
e ff
di ms
s w
se quence
bu f
pro p
up dat
gen e
() ]
Ġ col
Ġfun c
Ġlen gth
child ren
clust er
ob s
el l
disp lay
Ġf ind
s v
sor ted
coord s
Ġ" "
fa ults
Ġ' _
Ġ copy
vi ces
verbo se
__ ['
Con fig
C T
i mp
rep ort
tra ce
n t
ent s
v ate
Ġ check
: -
Ġs ho
Ġspe ci
n i
ve c
Ġ ma
p ad
look up
u age
Ġcon text
P o
Ġb o
b ro
/ %
l t
ol ve
ow n
zer o
emp ty
war n
Ġ' ')
ast ype
ta b
at s
a che
by te
f lu
cs v
Ġ code
ad er
and ler
ĠE T
Ġdo es
argument s
( {'
parse d
Ġop tions
u i
Ġo ffset
cent er
secon ds
) /
Ġin stance
Ġa re
so cket
h as
c ro
N ode
Ġ group
Ġ table
am l
ec ted
k nown
e ction
memb er
f req
re st
In fo
ai lable
sq l
resh old
T H
v m
de tail
doc ument
Ġnum ber
- %
Ġpa rent
Ġ mode
an aly
Ġc all
s uper
end point
m u
po ol
2 4
sco pe
Ġ label
b ot
coun ter
wr ap
me d
ca st
. '
me as
( ['
set default
co s
Ġ `
. ,
Ġ" /
Ġh ost
m g
base name
w h
Ġ command
Ġb lock
TY PE
5 5
") ,
qui re
n umpy
Ġp er
ax es
: ])
ne ction
on es
le g
bu cket
ex pected
T ER
comm it
be st
mo unt
ali zed
N ot
comp ile
model s
re ference
. "
w idget
Ob ject
( {
ri de
Ġs o
ac count
p u
Ġ module
ar ti
/ {
vari ant
filter s
s lice
fo und
set attr
N O
or ts
time s
) *
Ġ local
inter val
a mp
N um
] *
Ġi ter
un time
UL T
Re quest
y n
le an
Ġ" ,
f etch
ad j
5 0
Ġdi re
bo ok
Ġ object
li mi
S er
tr ue
pre v
B y
input s
I tem
extra ct
cal e
sign ature
= %
Ġdo c
con vert
pro g
Ġ tag
sum mary
v olume
co der
Ġ- -
b ind
U S
in clude
Ġ[ ])
) :
th is
du ct
cle ar
Ġc l
f ont
St ate
F ailed
c r
ro t
Ġpar ameter
br anch
Ġs ys
on ly
event s
ta x
content s
ct ypes
8 0
mem ory
gin e
cry p
t on
Ġf a
cal c
__ )
war d
Ġal ready
ci es
or g
E L
Ġ temp
re en
p onse
lay ers
sa ble
A dd
bi ts
i cal
Ġ load
v l
Ġ> =
Ġp ort
Ġ headers
i es
ĠC on
p ing
re gex
ter min
wri ter
po licy
a uto
ator s
Ġ header
Ġstr uct
vid er
s m
ti le
Ġc lient
seri es
ke ep
__ ,
sy m
al low
cli ck
T O
lo ss
c ustom
fla g
Ġ< =
{} '.
Ġa ction
ca se
Ġf e
seri alize
Ġde st
T h
as on
Ġs ample
fin al
set s
state s
exp and
Ġc al
Ġt ask
Ġh ave
S ize
pi c
O p
al ign
Ġp os
Ġ attr
li ty
ph i
r g
C lass
d x
ci i
TI ON
Ġ count
si m
< /
Ġh el
Ġ/ /
py thon
pi pe
) ])
inter face
Ġu se
od y
ro le
ind ent
de g
U ser
color s
mi ss
"] .
d rop
pe ct
i e
if t
en able
for ce
. *
iss ing
o ff
ri ver
olu tion
ĠR untime
Ġ In
ex pr
v s
Ġ job
quo te
a ctions
clas ses
mon th
spe ct
g ment
(' -
Ġst atus
FA ULT
mis sion
dire ct
0 2
c b
Ġde p
Ġ Y
di gest
lin eno
le ted
Ġa uth
T A
de faults
peri od
lay out
end ing
ho ok
g g
and id
su ffix
Ġex p
it ch
Ġin fo
Ġin st
ati o
method s
pk g
= {
si ty
Ġ" {
tool s
V ER
' }
sec ret
add ing
Ġf ailed
Ġtime out
file path
ex it
resource s
in ation
g y
Ġre cord
ĠĠĠĠĠĠĠĠ ĠĠĠĠĠĠĠĠ
E X
istr y
ĠRuntime Error
Ġm ap
app ly
e cho
r l
con cat
a ded
Ġ date
ten sor
s l
\ \
Ar ray
me sh
vi de
sa fe
om m
Re c
po ch
I T
d st
hel per
as cii
to m
red enti
I O
Ġ var
P AT
i ck
ce i
Ġ last
fa il
"] ["
O ut
Ġw h
3 3
I P
Ġ session
n b
ma ster
igh b
ig nore
Ġfile s
dep end
1 4
H E
ut ton
Ġon ly
w er
mo di
p ass
Ġ one
Ġ' )
fini tion
Ġ{} )
M O
Ġ1 00
U p
st orage
# #
') [
m id
} '
parti tion
ver age
sp an
ci ty
a ch
vi ous
Ġn orm
radi us
miss ing
Ġe lement
D O
Ġin d
Ġw idth
(' ,
Ġ old
sk ip
KE Y
te ger
ali zer
Ġc an
seg ment
ess age
E vent
Ġ J
bo ol
pre di
Ġ entry
sh ed
Ġ ext
'] ]
ac ti
tran sa
en e
Ġ* =
su ccess
F ield
G r
metri cs
cer t
ro up
sub ject
change s
Ġo ther
Ġn et
ver ify
tern al
t z
Mo del
6 0
ta ch
V er
pol y
1 5
ER R
ar ange
Co uld
M L
Q u
l ing
back end
Ġ first
hist ory
Ġ raw
Ġ 7
Ġc lass
4 0
re set
s ol
si de
pe c
ent ries
orig inal
sh ort
AT I
pro c
proper ty
gro und
Ġsh ape
Ġpre fix
Ġz ip
A c
inst all
ck er
ce l
al le
GE T
at om
detail s
di men
'] ))
Ġfun ction
c d
step s
lang uage
red u
element s
A S
Ġ filter
Ġch ild
Ġuti ls
cke d
bin s
Ġh ash
da ys
Ġ> >
m k
match es
B u
initi al
Ġ column
sel ected
the ta
k ip
ati c
Ġ root
te red
che ma
down load
Ġ le
ra ct
Ġb ack
Ġre f
Ġw ork
ri bu
Ġp ri
Ġd b
cep t
) **
Ġi t
Ġor ig
E S
Ġb ody
Ġ up
Un known
3 0
ter s
S h
H e
n n
Ġst ep
Res ponse
O P
v ation
} "
TT P
g t
m ass
s ur
in v
r m
C lient
L e
e f
link s
S O
mp t
module s
Ġhel p
Ġ make
ag g
h igh
)) .
po se
O r
ing s
Ġ( (
f ul
con d
Ġch ar
F un
Ġ" {}
m ut
abs path
is o
an y
ge o
V i
Ġsho uld
ro ute
categ ory
s ure
mp ty
ep copy
pub lic
b ed
Ġs alt
exten sion
Par ser
Ġerror s
F ound
( ?
P y
a z
v es
s id
Ġst d
Q U
d raw
Ġl on
in valid
P RO
set up
h our
In put
Ġpro cess
g ate
Ġ ad
il y
ag ent
B U
_ )
) "
ro ll
ver ti
id den
For mat
A n
w in
code s
sy nc
Ġ env
== ==
ar ning
lo aded
sh ot
u sed
") .
mb ed
eri es
Ġ server
l ap
wa re
si ble
th reshold
k ind
ut ure
ro und
con dition
ri te
Ġw ord
c ri
t k
Ġ idx
af ter
Ġm ath
Ġ lib
[ (
sp li
en ce
Ġto tal
gr ad
image s
re ak
omm and
1 00
} .
ra in
qu ali
Ġw as
m it
Ġ< <
updat ed
d uration
p an
[: ]
con v
data base
Ġ template
Ġex c
un pack
Ġt mp
{} ".
we b
posi t
Ġpa ck
Ġdire ctory
sa mp
Ġ: ]
g p
fi cation
r and
am ma
re quen
gener ate
Ġ 9
Ġ[ (
com bin
S P
s ched
Ġa bs
I mage
Ġ ]
bo ard
ex clude
Ġname space
H andler
q a
arch ive
p red
FI LE
B o
q l
cur r
cat alog
A P
c ut
be fore
= _
Co mp
Ġ level
an ti
Ġre l
p atch
1 9
Ġc md
Ġby tes
_ .
Ġf la
Ġset tings
I G
se ed
g a
} \
Ġ api
: \
St art
di ag
get attr
ren der
redenti als
re lease
ker nel
Ġs rc
G roup
ne ighb
Ġ err
in i
channel s
C he
h y
lon g
secon d
g h
fa ct
ent er
en cy
cont in
Ġ add
ob ser
Ġ resource
. ',
pro j
redu ce
r atio
so ck
qu al
r strip
en gine
fa ctory
bound s
Ġdi st
tri b
Data Frame
ma c
O n
(' :
Ġc ache
) +
Ġ' ',
ul ate
as sign
re quired
si ve
ul ation
u tes
Ġre mo
read er
Ġpar am
pix el
message s
cur ity
host name
Ġp assword
component s
si st
Cont ent
PAT H
A M
u tion
en um
Ġg ener
r ank
(' --
log in
command s
'] (
r v
record s
h s
, )
arg v
Ġ[ ],
flat ten
F rom
AT A
ele m
pro duct
ERR OR
r f
output s
Ġrequest s
are a
a ses
m al
str u
lu g
Ġs c
sel ection
star ts
" "
Ġb in
Ġ extra
re pr
Ġp age
F O
P re
orig in
li p
Ġpar ser
D B
D ate
Ġ service
vi sion
ca de
Ġen coding
proto col
block s
unk nown
sche me
cp u
task s
T ag
ex pi
cl u
ATI ON
N T
be ta
S H
C annot
i fe
n ess
Val id
M essage
z es
in f
S y
no te
a ctor
pro b
__ (
http s
con ver
A d
bin ary
p b
ut c
c andid
Ġ results
transa ction
Ġno qa
meas ure
Ġf rame
Ġ ("
P er
wa y
esc ape
__ .
Ġre quired
j s
Ġ order
ho me
Ġr andom
h params
Ġ K
format ion
ĠĠĠĠ Ġ
Ġo ver
" \
T able
DE FAULT
tra ck
Ġm ask
be gin
te ms
cep tions
target s
pe ak
% (
d l
Ġst op
U P
ĠD ata
Un able
identi ty
m m
Re g
n ull
fi c
b and
rel ation
ome try
di v
ori ty
prog ress
C K
m ath
Ġop tion
ori es
} /
1 3
: :
e poch
ge d
f g
co ok
sc an
] ])
in k
t ar
la ck
u int
encode d
iv en
Ġi g
ca b
pri vate
at er
log y
sen ten
Ġ1 6
Ġop ts
Ġbu ild
Ġ1 2
user s
W idget
y aml
le ep
pro vider
] ["
or ith
(' .')
cho ice
exist s
Ġ trans
ction ary
en se
ke t
Ġa v
Ġst ream
S C
ret ry
up load
re verse
sing le
Ġal pha
li sh
SI ON
') ]
A uth
tribu te
Ġ ctypes
si c
1 8
) \
c um
E D
fin ed
w w
app lication
us age
I L
Ġsp lit
Ġ( %
Co unt
' "
de lay
lo ts
Ġg lob
d c
oper ation
dered Dict
c la
Ġc or
mag ic
Ġ right
pro ces
re quire
ss h
late d
A pp
Ġch unk
Ġ height
Ġ' '.
rip t
Ġ delta
par s
d river
Ġind ent
l st
p en
Ġf n
vi ty
ti l
sco res
t t
lo y
, ))
---- ----
to pic
Ġop er
V AL
di c
up lic
g ger
sh ift
reg istry
T ree
ur se
f l
m as
tifi cate
struct ure
C ur
Ġpro ject
exec ut
1 7
D ir
M ap
ap ter
per ty
pl an
i cs
men u
e red
pro mpt
Col umn
sn ap
en gth
es sion
config uration
Col or
P AR
pa cket
cli p
re r
) }
B LE
sh ell
q s
Ġ test
i i
Ġ address
U M
e v
ex ample
Par ameter
fil tered
, '
b g
Ġ title
ti mi
an ager
index es
multi p
a il
sp ort
c n
pre vious
source s
lu gin
sy n
as array
Num ber
posit ory
in c
Ġpack age
th ing
comp lete
auth or
us ing
n or
ad ing
EN T
cei ved
Ġd t
ĠP ro
memb ers
ss l
Ġs cale
In ter
exten sions
bro cade
re v
de finition
at trib
/ (
f time
mark er
exist ing
fix ed
di t
St atus
oin ts
ser vices
cy cle
ol y
load er
ex port
sh ip
s upported
Pro cess
D F
o ms
3 4
t w
(' _
Ġ fields
Ġdi ff
medi a
. ",
res id
L ine
O f
co v
Ġ" _
ul ar
( __
ar c
pair s
PO ST
Ġch ange
Ġf ull
work er
edi tor
Ġc lo
build er
} }
k s
. '.
ter ms
men ted
R o
create d
warning s
Ġ resp
Ġi p
orith m
ab el
ĠD e
o lean
p ts
Ġn on
bu s
Ġpa yload
lin alg
ribu tion
as set
str ftime
B ase
so le
flu x
di o
Ġby te
rule s
ar n
de scrip
Ġs upported
6 6
R un
e mbed
pi ck
norm al
ĠO r
ĠN ot
ad min
Ġ% (
. )
x x
ec tive
main ing
p m
Ġ metadata
} {
(' {
A SE
S ON
on s
ow ner
G S
ro ut
comp ute
A GE
F OR
Ġfor ce
fa iled
inter n
Ġ lines
r ary
sh util
Ġco ord
d one
li ght
Ġpar ti
H TTP
dest ination
f ree
ne g
peri ment
s g
p d
Ġ update
L ay
at tach
res olve
b ad
Ġ meta
exp ression
ĠĠĠĠ ĠĠĠ
fe ed
ĠC o
res ol
Ġde vice
/ '
se ek
Ġp k
Ġm ulti
Ġe mpty
di sk
" '
) '
op s
l ers
ver y
vi rt
const ra
ren ces
b lob
i ces
EN D
( \
s leep
Ġan y
Ar g
x s
ca ched
av ailable
n r
p ret
D esc
T emp
st atic
Ġsi x
Ġch annel
2 2
ci sion
annot ation
c wd
de epcopy
Ġs a
dire ction
F il
Ġ loc
pl at
Ġal low
Ġ| =
la in
"] [
9 0
v as
st o
al led
r int
__ .__
! ")
+ '
ĠS t
gener ator
co st
5 01
R ow
p tr
wr apper
tick s
w i
Ġ logging
c ard
Ġ ctx
requen cy
_ %
Ġ keys
Che ck
speci men
in ner
Ġexist s
po inter
Ver sion
f c
ĠĠĠĠ ĠĠ
7 5
ate g
A l
S ession
po wer
C S
Ġp i
package s
C reate
v ol
spa ces
change d
per cent
ge ometry
out file
re ason
Ġs ort
Ġdata set
A PI
Z E
tifi cation
A ction
Ġ1 000
TI ME
fa ces
rep ly
ph ase
analy sis
er t
pro ps
spli text
E xt
pe er
Ġ" )
Ġ" -
S ER
Ġ' --
Ġd own
D S
Ġspeci fied
. %
Ġc annot
SE T
parti al
ri ct
si zes
0 4
Ġse arch
frame s
R I
Ġ Invalid
Ġs co
Par ams
V I
Le vel
= {'
and le
Ġin iti
Ġb atch
fa m
en cies
Ġth an
) ',
o ts
table s
Gr aph
n one
Ġ Key
ch ine
(" -
pa ren
sen der
C ode
Me ta
Ġcon tain
en sor
norm alize
Ġcon st
Ser vice
E T
f h
n l
bi lity
cel ls
Ġ_ ,
In stance
O T
Ġm issing
Qu ery
Ġ/ =
a it
(" /
enable d
c m
s d
s lug
Re cord
Ġcon n
b ers
sign ed
Res ult
Ġp ost
Vi ew
f uture
environ ment
p df
M S
Ġ left
ind s
ref s
ch an
et ree
ref resh
st age
it or
fa sta
Ġdi sable
job s
ĠR es
av g
FI G
p ot
contin ue
Ġ unicode
IN T
em it
N S
25 6
T ra
r ad
Ġ link
fa st
r b
Ġ ...
rec v
ol low
mple mented
ife st
Ġ6 0
Ġnet work
2 01
Ġ argument
Ġt ri
config s
sh e
pre pa
Con text
R A
d n
co eff
end s
fig ure
.. .")
5 6
p adding
u red
) (
v ing
in ates
verti ces
i con
i mat
p al
r ho
(' <
Ġname s
Ġn d
string s
trans pose
ver s
url s
Ġn ow
To ken
re es
control ler
y label
starts with
b utton
n u
L abel
Ġig nore
Ġ limit
Ġm on
ta u
Ġ ti
vi ded
h idden
as y
Ġth read
Ġcon vert
i a
sc ri
intern al
A s
Ġ dir
Ġ" ")
Ġgr aph
find all
cry pt
t ude
Ġ attribute
ab i
Ġ mean
ti fy
D ATA
Ġre st
all back
Ġnode s
a mount
b reak
Ġb ound
Tr ans
Ġi mg
Ġm ark
tran sport
Ġ[ [
]) .
und le
Ġs kip
Ġex ec
En d
g l
hi ch
pipe line
Ġ columns
um b
Ġ' <
Ġp attern
oper ator
dimen sion
Ġre move
B O
Ġfor m
ta ct
Ġth at
Ġcon nection
mis sions
Po int
cate d
C ommand
Ġ ID
clas si
agg reg
ust er
clo ud
colle ctions
wh ite
V ari
j or
L IN
h er
Ġcon ne
seg ments
virt ual
l c
f ter
li g
Ġw ill
] :
Ġcall back
w al
ff t
pro gram
Con st
S U
co urse
si tes
DI R
ed s
Ġse q
char s
} :
comp o
chunk s
l an
= ['
descrip tor
H O
Ġm y
act er
x label
Con nection
Out put
se par
Ġpo int
pu sh
re ating
Ġs chema
c ar
Ġr ule
Ġuti l
S pec
Ġ mod
ver tex
> '
P RE
o om
Ġi tems
Ġt ree
ST R
vo cab
Bo x
\ '
dat es
ve lo
Ġen um
r ap
pre sent
we ek
SI ZE
Fil ter
com ments
ĠO p
nd array
S ource
(' {}
ble m
vari ance
Log ger
senten ce
Ġp lot
ba m
Ġparameter s
" %
pan el
c ss
o th
p ng
Ġe le
Ġun it
h dr
bot tom
version s
pri ce
2 3
Re ad
id ge
S to
re ci
di sable
V E
adj ust
limi ts
C an
cke ts
over ride
modi fied
: ],
t d
Ġde scription
Ġ labels
de s
allow ed
2 7
a ff
e q
ĠOr deredDict
page s
Ġreg ion
l ation
Ġ' :
format ter
ne st
. ".
Ġl at
( ["
s r
con tain
c map
Ġp h
option al
in te
CO M
en ate
Ġb ut
sc reen
: ")
r ation
ar s
OR D
leg end
Ġav ailable
= -
() ),
c redentials
Ġcomp onent
limi ter
) ;
a a
Ġs ci
cont ract
fun ctions
Ob j
n am
Ġp ub
sub process
! ')
R ange
e ded
S eries
d p
de te
S A
re pe
Ġin valid
cryp ted
0 5
v en
pri mary
iss ue
Ġx ml
d um
Ġf mt
ĠP y
J ob
Ġto p
Ġ'{} '
ĠN o
Ġspe c
Ġ tr
Ġp art
bo ot
run ning
Ġre po
comm uni
make dirs
s qu
O per
m ar
re cur
li ties
ch r
con ds
di sc
medi an
co me
key words
g amma
ĠD E
Ġ location
instance s
[' _
Ġstd out
o int
coun try
Ġso cket
do cs
Ġpar ts
host s
Ġ: ,
hand lers
) -
to col
uto ff
Arg ument
Add ress
Ġpar sed
M anager
Ġ Un
and as
ci mal
annot ations
Ġ join
posi tions
AC K
('/ ')
de t
run time
rel ative
B lock
: ,
up port
Ġre pr
' %
qu anti
IN FO
ce il
no ise
act ual
> \
M I
en sure
Ġf ont
ol ute
plat form
p orts
Ġ verbose
l int
select or
se curity
ith ub
sen sor
Ġcal c
vide o
fam ily
res sed
[: :-
Ġcreate d
on g
tri gger
Ġdi m
9 5
Ġ Z
late st
pub lish
ac y
M ax
Q t
w t
Ġp ad
Ġpo sition
F e
i b
fi ci
ance l
sched ule
p x
log ical
comp ress
q ub
ro py
ly ph
MA X
b ig
p g
Ġ layer
2 00
Ġ edge
CON FIG
W e
ri e
arg in
ci rc
able d
diff e
eval u
Ġdep th
f w
g ent
request s
plugin s
f r
g z
s b
op timi
Desc rip
2 8
p ending
level s
Ġdefault dict
b box
re direct
ro les
Ġin teger
Ġs pa
BU G
cor rect
Ġ'/ '
Ġcon f
Ġuser name
ĠP ar
Ġsu ccess
' s
st mt
dition al
)) ]
Ġg en
] ],
(" {
Res ource
_ (
Ġre verse
Ġa st
si x
n x
r up
Ġm er
Tr an
M ode
h a
Ġ variable
at oms
edi t
Ser ver
concat enate
seri al
Ġremo te
she et
le ction
fi ers
Ġb r
av a
3 6
U E
Ġse ction
p db
Ġ view
id ent
Ġre c
se ctions
L ength
M AT
ex ternal
A ll
st e
pro te
for ms
{} )
ĠF ile
ener gy
At tribute
z en
Ġ ,
co ef
(' .
p lay
in str
viron ment
key word
.. .')
O UT
er ate
ti c
Ġin clude
cl one
st and
work flow
sw itch
Ġ arguments
Ġre q
l strip
Ġl ang
visi ble
Ġ RE
s at
max imum
enti al
gra de
u ble
length s
la g
we en
lib rary
Ġtoken s
re maining
Ġconfig uration
ma chine
Ġ{} ,
Ġcon tainer
Ġfe ature
S o
Ġ kw
Sto re
a city
v a
Ġ Error
alg orithm
prepa re
( ('
to list
mi me
proces sed
ĠOp tion
a w
for ward
d le
AN D
' +
th od
OR T
u ff
Ġfla gs
Ex ec
re name
si an
(" {}
as se
state ment
const ants
t rip
de vices
Ġin di
Ġst yle
P a
ul er
num er
Ġex pected
qui res
Ġ matrix
mk dir
h ref
SI G
) ')
Ġex ception
ad apter
per m
Ġe val
symbol s
( %
3 5
R et
ip v
FI X
b al
b lack
ma jor
categ ories
P C
In t
Ġw rite
can vas
Ġsci py
Ġin spect
fo o
pri ority
cook ie
all y
Ġg iven
si tive
paren ts
Ġ cell
tran sition
Ġy ou
gen es
AL L
cho ices
neighb ors
r pc
ge om
Ġp oints
ang o
9 6
' {
7 7
re lated
Ġa b
depend encies
ful ly
Ġ site
Ġf name
fe rences
scal ar
8 4
8 6
> "
p in
e ta
g ame
ist ered
W arning
g ap
j ust
ati st
Ġ tags
process ing
HE AD
. \
or ld
W indow
] -
Ġ sig
to po
Ġf ra
rg b
t b
std in
candid ate
l as
x i
Ġpro vided
M atch
_ {
ĠD i
Ġ arr
en coder
min imum
ar m
Ġp lugin
Ġst ats
list s
ac c
Ġch o
ion s
iter able
on d
et ween
G ener
Ġ Lo
() }
ali zation
uni on
MA P
Ġ queue
Ġu sed
man ifest
H T
h it
di g
res ses
ty p
Ġh andler
merge d
S ign
Ġg o
Ġse ri
Ġw indow
quen ces
C M
Ġi mp
range s
te am
pl us
h al
Ġ dat
Ġ" ",
ĠQ t
] (
w cs
sum er
hour s
m x
z on
f lo
read line
auth ori
En try
asy nc
g ments
Ġre place
read s
cro ss
Ġdata base
Ġy ield
N et
g reen
De fault
Ch ild
i j
fi ts
St ream
arti fact
ti cal
clust ers
FF FF
Ġbe en
dep s
D is
r split
v cf
hel l
P UT
Ġ me
bu ff
Ġa fter
pre dict
L ink
n dim
co g
(' [
RO M
8 5
Y ou
ri ter
Ġst derr
Ġurl lib
US ER
] =
con sole
Ġpro p
ari es
F LA
d m
ra vel
Ġnd array
ati tude
: ",
O K
se en
mo oth
un ch
Ġp lt
Ġpro file
c v
ing le
Ġ using
Ġ2 0
Ġwe ights
visi t
l n
l r
VER SION
Bu ild
snap shot
thread s
M ulti
[ _
il t
ali z
sha red
pick le
pi e
t n
back up
Ġ ct
Name s
cer tificate
C I
_ [
c id
Ġse conds
aly sis
Cont rol
a verage
g on
g ain
sub set
seri alizer
ateg ory
P ri
ex ceptions
row ser
Ġk er
Ġdo main
ue ue
Valid ation
d uplic
{ "
time delta
a red
Ġ fig
si mple
get ter
comp le
N D
p lain
Re f
Ġsu ffix
expand user
en c
'] ),
D o
for med
Ġse p
1 000
F orm
T S
t c
Ġs lice
ta ke
Ġsco pe
bi as
cor r
b b
w x
Ġ @
re dis
or ter
disp atch
P ER
Ġ List
AN G
Me thod
C lo
N ew
g i
ub e
bl ue
3 7
l v
Ġre n
Ġdi sp
lin space
con j
Ch ange
Ġ mp
Ġsub process
Ġro und
He ader
I C
N E
ser tion
at ype
: ',
ac ket
AC E
b p
work ing
back ground
flu sh
de rer
ath er
Ġ2 55
ho w
valid ation
Ġy ang
dep loy
Ġtra in
Ġ ~
]) [
ĠI O
o gram
)) [
Ġop t
M in
Ġ attrs
Ġc fg
Ġse quence
) ],
: ].
b undle
n ap
Ġ etree
set ting
gra di
C P
M issing
f requency
ron g
W S
local s
ĠKey Error
D oc
s li
Ġst ack
enti ties
(', ')
g ue
h older
Ġe mail
ho od
tran si
non zero
" {
T ask
X T
Ġin it
pa y
query set
Format ter
p lots
z y
li ter
tri m
N G
Ġc lean
git ude
P A
r r
Ġ $
eri od
Ġtra ce
W idth
u x
sa ved
spe ed
local e
con ti
Not Found
S i
p le
re pository
ti mer
ap es
Ġre p
qu ad
pri or
Ġpy lint
r x
er a
. /
Ġ vi
ex periment
Ġsy mbol
F a
de cor
ĠS tr
UR I
Ġh ist
coord inates
Ġi m
line ar
per ties
match ed
dy nam
C RE
mo l
Ġb it
c utoff
ĠM o
vector s
arti cle
per c
D own
Ġ uri
ĠA PI
fer red
dimen sions
]) ]
({ "
Q L
i ms
di tions
as c
glob als
ali ases
Ġse c
wa ve
clu ded
s olution
__ [
Ġenum erate
' '
c ing
o id
und er
... ,
L L
comp lex
du ce
j ango
t tp
et te
Th read
s f
Ġ metric
co d
do cker
DE BUG
Ġpa ir
** **
pattern s
fini tions
p mag
Ġ loop
de fined
Value s
di ctionary
'] =
ver i
cur ve
trans late
S c
FI EL
do uble
ĠS e
g ress
Ġgr id
vl an
execut able
loc ations
CO DE
ti d
as sed
quali ty
W AR
i br
an i
() ).
to t
norm alized
I S
Ġs ame
Ġ( -
Ġtime stamp
Th is
p f
Ġs cal
ME NT
sur face
er ature
ur al
conne cted
I mplemented
o auth
x lim
li ve
ren cy
z oom
enti cation
Ġwh en
k v
template s
Ġwe ight
diffe rence
+ "
b order
Ġp rint
0 3
} ")
con tact
sub mit
P age
out er
Ġre ference
que e
ind er
combin ed
a ws
c nt
(" ,
n m
log s
Ġd st
fil t
Par se
Ġ ra
Ġ collections
b ra
f old
w atch
il er
Ġac count
s parse
(" [
ac cept
Ġpre v
abs olute
hex digest
ch rom
sub plot
scrip ts
Ġ'. '
P S
y lim
Ġde lete
Ġdi stance
check sum
Fun ction
Vari able
Ġ URL
df s
ĠA t
De vice
Sy stem
Ġ fill
Ġs in
ho to
lic it
offset s
the me
L D
Ġc li
ext ent
## ##
Ġ ar
Ġd a
mon itor
Ġ http
Ġ" <
ect or
em on
process or
Ġsho w
25 5
ang les
ron t
ĠU ser
Up date
measure ment
B ASE
Ġ ts
Ġsc ript
quee ze
S u
pro bs
map ped
Ġbe fore
x min
", "
Se arch
Ġ rows
Ġ sigma
li er
ari ty
fra c
Ġdoc ument
align ment
load ing
c red
Ġreg ister
, ),
4 5
L U
h g
Ġ mat
ff ff
ci p
split lines
ep s
Ġrun ning
N ING
Ġb ot
_ '
u ous
w o
Ġ comment
au x
Ġmo re
Ġ sign
end er
Ġm x
ĠNot Implemented
Ġ keep
ap t
Ġy our
dist ribution
r d
y be
ro id
ba ses
Ġend point
ĠCon fig
a ched
m time
ti ce
Ġm u
Ġd x
Ġdi men
plot lib
Ġsample s
Fun c
x path
Ġde code
ad ded
map s
[ ^
c ancel
co res
Ex p
Ġpk g
: .
Ġ signal
Ġn s
([ (
ith er
au dio
2 6
ex pect
sc i
C A
in vo
obj s
Ġpro xy
ph er
N e
i loc
n v
Ġ }
Ġ' +
no tify
Ġa ccess
pre cision
ĠT h
C R
b c
m ul
match ing
Res ults
th umb
in es
ra m
Ġse cond
L S
s lot
Ġ mag
Ġc at
sub scri
Ġbe st
Ġtype s
==== ====
resid ue
constra ints
Ġ units
Ġa ct
Ġcl uster
B utton
Ġch ain
ex e
Ġs ave
app ro
Ġexist ing
n ative
le af
li te
repe at
C ache
num bers
su do
go od
cre ment
v c
si lon
so ft
Ġorig inal
9 7
= {}
th ro
Ġw ait
Ġinst all
D ATE
M ag
in teger
") [
mi cro
trace back
termin al
} ')
u sh
ĠI mage
nest ed
ct rl
format ted
idx s
wrap ped
S pe
k i
Ġs q
c ator
Ġ term
Ġ' *
si red
inter section
LE CT
tex ts
deg ree
FOR MAT
B ack
o ci
Ġ fit
Ġi o
pol l
Temp late
to ur
inter p
pos ure
Di re
) ",
n it
u gh
W ork
st it
Ġ" --
xy z
clean ed
tr un
parser s
mean s
CH E
(': ')
j id
spe cs
Ġmodel s
PI PE
fail ure
O S
er arch
le ss
ta ck
Ġde sc
Ġg ene
Lay er
re at
ma v
filename s
updat es
Ġbo olean
alle l
no tification
Re mo
at ter
an ded
Ġs m
ver sed
pro ba
Ġ{} ).
da g
D U
f path
m ig
de cl
view s
colle ct
rand int
4 4
C reating
t l
re ams
on ical
Ġpro perty
Ġindi ces
r ing
Ġs ur
iter ator
ĠNotImplemented Error
) ")
p us
Ġa uto
gr p
ON E
By tes
Ġmon th
c rop
p time
r apper
Ġ uni
Ġg ot
rel path
h du
Ġ html
IN TER
o uld
re vision
or dered
ri b
ba sic
over lap
C TION
Ġ- >
Ġm apping
atist ics
8 7
: ')
B ad
(" _
server s
Ġele m
. +
J SON
j ava
Ġ cols
const ant
Ġbr anch
HEAD ER
2 1
b ul
resp on
fe at
Ġwh ile
candid ates
require ments
ti vity
ri c
Ġt or
Ġbe ta
Mo dule
Po sition
Ġ' __
width s
sol ver
Ġallow ed
format s
Ġst at
ip s
Ġinput s
squ are
y e
op y
array s
) .__
g id
s queeze
Ġm an
Ġst ar
([ ])
Ġ lower
Pro perty
ool s
sk y
E V
ali ty
wa ys
Ġ" ".
Ġd ay
ick le
e in
m q
ro zen
Ġre gex
s an
Ġ raise
lo ur
inter pol
Ġwe b
B e
m argin
Ġ select
Ġf lat
remo ved
H el
Ġc ustom
Ġh andle
LE TE
fast q
inte gr
ci pher
by ref
so me
dig its
flo or
mas ked
Ġiniti al
S eri
u it
)) ))
ty le
kw ds
Lo cation
anch or
C ell
N ow
o ok
li fy
radi ans
Ġfa ctor
C F
G B
in j
ra se
Ġw x
Ġde bug
tran script
AT OR
Ġ pe
de leted
no tes
99 99
P os
stru ction
C om
U rl
(' #
Ġco uld
speci es
W rite
f alse
m ble
t ten
ch ro
Ġre al
Ġy aml
$ ',
C all
g ui
m v
en u
Ġt x
Ġw in
min utes
get Logger
per mission
ca use
/ "
M at
d ash
st ride
() ['
D R
T P
b j
li hood
On ly
separ ator
p w
r al
str ptime
liter al
a ut
g c
Ġex ceptions
M IN
Ġ head
(' >
Ġ1 5
Ġde te
Ġse gment
Ġlon g
t m
ap sed
SE LECT
u er
en sity
Ġ' #
sen s
ann er
run ner
conne ctions
Ġfla g
l b
p at
un til
gen ome
(" --
Ġ2 4
ow er
char acter
Ġb l
O ffset
P lease
d ns
} ]
Ġ lo
Ġc ase
time zone
Co un
bi o
og le
Net work
cog ni
V ar
ut down
(' =
o o
Ġ unique
ro om
sp ac
Ġcur sor
rout er
I M
en sion
sp h
Ġre port
Ġe p
callback s
I F
f q
n y
Ġ Name
resol ved
' ^
b ank
ĠE n
hi ts
mg mt
w ise
Ġ ^
add resses
Ġv m
ĠT ime
Ġ addr
re size
ti m
e ig
g b
new axis
seq s
region s
G R
p ip
Ġtime delta
Ġbu ffer
nit ude
W N
__ __
Ġpre di
fini shed
imat or
d ri
e qual
w b
Ġ ord
ing er
to k
Ġs hell
Ġc y
ĠC ol
Ġmer ge
D A
S K
return s
list en
topo logy
Ġ vals
ĠC ommand
ori zon
tail s
[ ...,
in p
and s
rie ve
conti g
di git
la gs
pi cs
uti t
CO L
3 9
Ġ common
an is
end ar
Ġd s
pre p
coeff s
dynam ic
de fs
fin e
AC HE
cri ter
S p
quest ion
k lass
k ill
w orld
Ġ transform
Ġp andas
sp i
den ce
arti st
neighb or
I ter
p ress
ori ent
Ġf inal
6 5
Q ueue
() ])
Ġp ix
ot al
A UT
G e
Ġi ss
valid ator
Ġpi pe
sub net
acti vity
mut ation
ww w
ĠIO Error
ein sum
at temp
fi d
Ġst ore
RE AD
Ġal ign
Ġbo x
Ġ lineno
Ġro t
Ġbyte array
s upp
Ġ qu
Ġf req
Or der
' )))
] '
h at
obj ective
Ġde fined
Ġnorm alize
erarch y
O ver
g lyph
se quences
ra g
=" %
bound ary
Ġfa il
(' "
Ġp oly
Ġback end
W ith
lo pe
(" .")
Ġf ollow
ba sis
Ġw hich
Ġh igh
Ex pected
Co re
Ġpy thon
MO DE
P ort
T c
u la
res olution
group by
o se
Ġ upper
de serialize
si cal
to l
Ġbu f
ĠDE FAULT
re ce
el ls
br idge
hook s
v ations
Ġ objects
per missions
do m
gener al
Ġbu cket
est im
Ġne ed
embed ding
Ġs core
Ġh ex
vari ants
Ġ', '.
S chema
Ġ member
ĠP ath
clo sed
gener ic
exten ded
fra gment
a ke
m c
m apper
st ro
ur len
Ġp adding
par k
project s
ans wer
na il
gate way
A F
un set
sh apes
7 0
l atitude
se ct
ta ge
exec ution
train ing
qub its
Con ne
ni ck
P Y
u ation
st im
fi re
mp ath
(" '
Ġd y
ph y
pixel s
c am
ver b
der iv
Ġker nel
P ORT
m n
r mt
u ch
er tificate
Ch ar
bal ance
Ġ zero
Ġt z
RE QU
trans fer
Ġsi m
distance s
FIEL D
2 9
b rowser
r df
comp ressed
50 9
Op tion
Ġle ast
] }
it ation
dataset s
Ġ try
con fir
data frame
comp ound
pos sible
: '
en ch
co e
Ġin to
ne ed
Ġhash lib
ĠStr ing
urlen code
Ġco s
Ġsy m
Ġspeci fy
Descrip tion
N orm
T arget
che cked
Ġro le
hal f
Ġ variant
ad ditional
el s
Re ader
Ġv o
man age
istr ation
Op en
samp ling
Ġoper ation
Ġ la
(' .',
Ġf older
Ġc sv
config ure
oper ations
ill ar
ini shed
A nd
G I
Re ference
ĠF ROM
calc ulate
Py thon
gradi ent
: "
B E
Ġ he
Ġ ass
Ġf p
Ġv olume
lic ense
like lihood
Ġconne ct
C al
Ġmatch es
S yn
u me
con ditions
Ġc enter
/ {}
S tyle
k a
Ġz one
TE MP
FLA GS
s np
(" <
qui et
char set
Se le
Ġinter val
U ID
d up
Ġs ingle
Ġb its
pro blem
Ġcl as
B ar
H ER
Ġac tive
3 1
L ATE
z z
le ar
ti p
Ġin place
0 8
C ACHE
ĠĠĠĠĠĠĠĠ Ġ
seri alized
Ġdest ination
A B
D ist
p layer
Ġ extract
LO CK
ĠĠĠĠĠĠĠĠ ĠĠ
Ġsy stem
Ġ groups
ati al
Ġth reshold
Ġun pack
) ['
O B
] ',
g ithub
i zer
ad cast
dict s
Ġex clude
> ',
u ses
CE SS
Ġparti al
al th
con sumer
arg max
str ap
Ġw here
lex er
rmt ree
s mooth
Ġp ass
r um
Ġy ear
Ġ3 2
ĠO per
constra int
L im
Ġ send
Ġ continue
ri be
Ġhas attr
Ġcal lable
alle le
P r
p v
comp leted
gen o
box es
U RE
h ard
m gr
Ġ entity
li ed
ci o
ST AT
mid dle
Ġ extension
fi len
ad o
Ġtemp file
cei ver
quanti ty
I s
I ds
Ġ updated
del t
Se quence
pret ty
Ġsa fe
r h
y y
or ary
co verage
sp in
cal ler
Ġw rap
Ġpro tocol
AR T
cryp to
H ost
V ector
Ġpo licy
)/ (
i zed
l ar
cep ted
Ġax es
ĠH TTP
t un
ĠI P
verbo sity
le ast
Ġp mag
ul ated
Ġ signature
di rec
app a
ome ga
Cur rent
4 8
ret val
mo st
Parameter s
C LA
Ġd one
us r
uni form
ack age
PRE FIX
instr ument
A BLE
Ġ IN
in ate
Ġf lu
Ġd ot
Ġcon ver
cap t
wal k
Ġ' "
get cwd
den sity
Ġfe atures
l p
} /{
ma cro
args ort
lat form
rot ation
p ull
Ġf g
min or
Un supported
dist s
Ġcur r
Ret urn
sli ces
' })
C AL
D el
Ġ ms
in spect
di tor
__ ))
predi cate
Ġgener ate
A pi
D yn
] )))
Ġ% .
Ġc ast
Ġm d
En abled
combin e
, :]
de finitions
sh are
pr in
per son
start ing
Ke ys
th resh
out dir
Ġmark er
C opy
en crypted
Ġ[ _
min ute
LO W
TE D
pal ette
LIN E
evalu ate
" }
X ML
re ceived
con s
bu ilt
Ġde epcopy
cur rency
obser ved
) *(
P ool
S M
Ġ3 0
reci pi
H ash
W ORD
de limiter
ren derer
cal lable
peak s
U sing
Ġex it
Config uration
Cur sor
stand ard
Ġ alias
Ġ extensions
ate gy
ser ve
no red
Ġse par
trans lation
hash es
ĠH ttp
D ep
pro t
fun cs
Ġsh ort
cogni zed
E C
T er
par a
Ġlang uage
y es
Ġ radius
sh ots
Ġdi ctionary
decode d
X Y
] /
k it
li ct
UL L
NO T
A G
Ġn x
Ġs w
Ġde g
prefix es
Ġbound s
name d
Ġd id
work ers
Ġen vironment
Ġn b
file obj
sub mission
ĠS er
sen ce
Un i
Ġpre vious
Gr id
Ġren der
ĠA s
inst alled
Meta data
) :]
S top
U B
Ġ attributes
vent ory
man y
Comp onent
Ġglob al
, "
N UM
c us
Ġ[ -
ast er
cap acity
note book
Fe ature
() :
ch at
(" >
pop ulation
eff ect
Validation Error
) [-
te ll
list ener
sc atter
non ce
sin ce
S Y
v tk
st ract
en ame
Ġ2 00
Ġ'- '
Ġinter face
stru ctor
Lay out
Dire ctory
( .*
S um
p ur
li shed
Con tainer
cryp tion
M on
pro d
"] ]
comp are
Run ning
p n
ä ¸
Ġ' ').
sv g
imp l
Doc ument
3 8
7 8
in line
st ation
al ph
di sco
fin ite
Ġpre sent
execut or
ĠAt tribute
ĠS y
Ġurl parse
[ ~
h old
Ġ ut
char ge
bind ing
e ad
en ari
ti tem
log its
mi x
Ġcoord s
perc enti
v stack
Ġre quires
is ode
Ġse ries
proces ses
N ext
fi dence
Ġa u
Ġto ol
sub j
File s
scal ed
can onical
uff le
S te
o a
Ġp ickle
inter vals
pri me
cent ers
tw o
Ġdown load
f m
s olve
Ġs upp
Ġk ind
iter ation
Ġcolor s
C C
E CT
f ront
w ind
Ġ low
Ġ mesh
TE XT
T otal
ct ype
Ġde c
be at
act ers
Ġmo di
attach ment
i rc
re le
Ġp acket
j o
r st
lo pen
ol ver
cal ls
': '
Ġpro perties
Ġthe ta
AT TR
bl ank
obser vation
> ')
T op
e ts
al loc
c df
Ġ ap
re ferences
ar ds
app s
lon gitude
Ġorig in
SU B
E ST
le c
Ġre cur
ĠC h
form ula
exp anded
UN K
tt l
-------- --------
t up
re m
re ater
name spaces
Ġn u
Ġre duce
Ġo ff
Ġex pr
gra ins
fini sh
ĠQ u
ĠJ SON
Ġoper ator
nor mpath
> <
st reams
to pics
set Level
ĠC O
ph one
(? :
expi res
s ame
Ġ collection
Ġs amp
args pec
Ġf l
Ġc ategory
Ġ10 24
let ter
EX T
prote in
a data
h um
v or
Ġ identifier
Ġs ql
Ġr ate
Ġdi v
Un expected
0 6
s age
s ses
Ġp id
Ġp ool
Ġp eriod
Ġ( {
0000 00
recur sive
se ss
get value
Ġinst alled
Ro ot
resol ver
orizon tal
x p
in file
co ver
Ġp s
Ġm is
Ġu uid
hist ogram
PO INT
lig n
! "
c mp
h int
ra ster
(" .
is nan
sw ap
tax on
cri tical
cook ies
F ont
Ġin formation
it le
sh utit
cal ibr
ance st
ctor ies
Ġelement s
ends with
p itch
at t
tri es
check s
check point
Par am
Op tions
deg rees
predi ction
de coder
"] ],
num s
tra j
az ard
gue ss
spac ing
criter ia
d ur
h ot
r id
Ġ quote
Ġc v
auth enti
AR Y
ched ule
\ "
ut ing
ma ybe
sh ard
Data set
Id enti
Ġbin ary
P oly
c rs
h stack
r p
ur lopen
ch i
temp erature
H andle
a cl
k g
di alog
ac counts
inter faces
G lob
d w
d id
ti f
mo re
index er
reg istered
numer ic
WAR NING
Mat rix
P L
Ġ memory
Ġcomp ute
yn cio
AUT H
i face
or th
ex posure
et c
ĠT O
LE D
are st
Ac tive
A ccess
Ġ li
at ten
ap er
ma gs
Ġt ensor
Ġto o
cur acy
Ġdisp lay
C LI
G ui
M et
O F
(' ')
vi sor
** (
Ġpro c
A V
P mag
S ample
p hoto
en ded
cmd s
vo id
style s
namespace d
optimi zer
P ub
Ġreturn ed
fra ction
Ġiter able
conver ter
ret ries
pre cated
Ġdep end
Start ing
Ġb etween
Tr y
sc roll
=[ ]
desc ribe
Ġne g
Ġremo ved
ro y
ma inder
DE LETE
speci al
period s
gg reg
utc now
p as
vid ual
spli ts
d v
ad v
ct l
Ġc ap
list dir
sm all
sched uler
hy per
plan e
A x
u ted
re ction
set Text
da emon
Ġan alysis
Po licy
dum my
ani zation
R ect
t gt
Ġ main
Ġc andid
Ġno te
RO OT
UT F
proj ection
` `
t pl
ĠS et
Ġsum mary
Ġtor ch
9 8
w f
parti tions
9 4
} ',
sh utdown
pr inter
Ġe ach
tri al
P ost
Ġt ar
Ġal t
Pro file
Ġfont size
Ġ variables
Ġp l
Ġde fin
Con s
iss uer
VAL UE
Ġspa ce
HER E
m f
in verse
fa c
"] ))
min ion
Ġtime s
cum sum
7 6
f u
q q
Ġ lookup
Ġ verify
st m
fo cus
Type s
Ġdire ction
in formation
el apsed
Ġp op
Ġst orage
Ġy et
request ed
LE NG
Ġpath s
UR CE
sist ent
W OR
\ .
p illar
Ġ vector
pa ce
bo olean
Par ti
Ġimage s
Ġma y
Ġrel ative
san iti
C ells
ent ropy
con su
pro x
RE F
so up
Ġpo sitive
ro utes
sc ene
RE D
Ġ'. '.
initi alize
LENG TH
C l
R ule
j d
v min
Ġ validate
Ġ unknown
Ġb ins
sub s
test s
custom er
' },
R el
S ite
d ct
f ut
from string
Ġex pi
Tag s
J ECT
Ġ commit
ti ves
info s
Lo cal
scope s
g pu
o v
x c
out come
Ġ{ !
Ġkey word
Id x
COM M
w hich
le arn
mo ment
Ġf d
Ġse g
Ġread er
B ind
L en
[ \
_ =
Ġ ids
Ġ" +
it ter
Ġst rip
domain s
depend ency
requen cies
H ist
u ped
ro ots
el t
Ġb i
Ġm id
sub stit
eno type
verti cal
? '
E M
R a
s am
net loc
tick labels
clean up
branch es
PAR AM
Ġclo se
A X
loc ked
ĠT he
RE S
wn er
Ġmatch ing
Trans form
D im
f ollow
re versed
st rict
Ġ1 80
pr un
mav link
B in
e b
t cp
x max
lo cs
], [
fig size
RE C
A A
g iven
t ls
re action
re store
Ġv tk
Ġpro j
Ġsub ject
factor s
tz info
contain ers
j ar
Ġw ri
Col lection
T ool
h d
per ms
read lines
Ġdoes n
TION S
assign ment
ĠOption al
k m
al ect
de sired
Ġe ither
ST ATE
ĠRe quest
Ġevent s
Bu ffer
Ġcor rect
pie ces
mode s
ori zation
Time out
communi cate
) ._
Ġ obs
id er
ch ron
Ġ' '))
che me
Ġr ho
UN D
predi cted
Ġ"{} "
Ġsq rt
B Y
Ġ{ :
Ġde faults
Ġ2 5
OR Y
gra ms
pk t
CON T
Ġma ster
App lication
ĠRes ponse
ĠAttribute Error
r hs
le arning
de li
'] }
Ġf s
place holder
neg ative
VI CE
CM D
B R
c ations
Ġ lock
Ġp assed
Ġb a
Ġf etch
ab et
Tra ck
6 00
T itle
h df
s upport
t ur
y min
Ġ tab
ser ved
Ġdi sk
ok ie
ĠĠĠĠĠĠĠĠ ĠĠĠ
mapping s
Exec ution
enari o
Ġre ceived
Ġd rop
ĠS ub
run s
s lots
Ġ counts
el low
Ġd uration
Ġco re
b um
c lock
f lip
r n
ĠE lement
Ġen sure
Ar gs
Up dat
d T
st atistics
vi su
Ġset up
real path
M em
Ġ es
dat as
ri ch
Ġd d
ep silon
aggreg ate
bul k
filen o
w all
us sian
cont rib
De lete
12 8
hi de
leg al
" +
5 8
I R
d h
v g
log file
Ġc redentials
Er r
quali fier
Spe ci
w he
ch art
[' __
Ġs at
=' %
comp s
Ġwith out
CO UN
cre ation
Ġcontent s
[ [
k b
n ed
me t
to do
mat ion
gro uped
Ġset ting
star ted
rup t
thumb nail
C or
P P
Ġ angle
is instance
Ġde leted
Ġx y
ali ve
LO R
acti vate
SO URCE
respon ses
inger print
' ",
A uto
Ġ logger
st ri
state ments
const s
Ġ'/ '.
S amp
X X
k t
m r
v t
li cies
mb ly
Ġcon dition
St ats
Ġlocal s
S kip
c rc
m or
len s
") ]
Ġm ime
Ġ{} :
Ġr ank
Lo ad
pri v
hg nc
Lim it
S QL
W rapper
g u
Ġ' $
Ġp atch
op rot
hi erarchy
Change d
W A
e e
p ct
Ġde limiter
Re p
loc ator
ĠT o
TA BLE
example s
Fa ctory
Ġbot tom
7 55
C allback
dat atype
Ġs upport
par allel
ca y
mod name
Ġ5 0
acti vation
h param
Ġ ()
se cs
on al
=' ')
tuple s
oc cur
Ġad ded
Ġcli ck
] ')
g gest
Ġs s
Ġ1 1
conver ted
i red
s lope
Ġ Index
Ġ selected
re present
ar row
LO AD
clu sive
F S
M enu
d ge
v rf
de cimal
Ġre quire
Ġst ypes
- {
b ject
Ġp red
Ġdi s
ud ent
def er
Ro le
abi lity
b re
m il
u dy
in fer
in crement
st rain
Ġ' [
pe p
Ġde finition
ance s
ĠM essage
den se
est imator
VAL ID
Ġ archive
in o
end points
Ġb ind
Ġpro duct
SS L
Pre fix
}: {
T est
ord ers
()) [
STAT US
A lign
C B
K EN
Ġ ls
Ġr df
.. ..
ps d
Ch annel
- \
an no
Ġh and
extra s
AC T
Ġtra ck
B atch
T uple
k y
il ing
vid ence
Ġstruct ure
lec ule
] ].
u als
en s
con struct
ve cs
pa cked
comp ar
Ġpro vide
Co mple
dis connect
ĠCo mp
F i
b el
h p
to day
ul ator
qu eries
Ġt wo
exp onent
AL I
Str uct
SS AGE
G P
Ġ vec
er ce
sh ould
sens us
C D
Ġ filters
ind x
ĠN ode
av ing
Ġne eds
uplic ate
multip le
percenti le
C L
(' ',
Ġ" '
bo ve
sub plots
port al
Ġsuccess fully
B B
f b
o cc
x axis
gr ant
ĠC ON
ĠHttp Response
al tern
Ġde termin
Ġg amma
cs r
close st
ĠDi ct
I TE
b ench
Ġ com
co lour
la m
kw s
medi ate
Ġdefin ing
L vl
O ne
(" :")
la unch
Ġ{} \
check er
Set ting
Ġres olve
Ġro ute
measure ments
B it
l hs
q ry
li ca
Ġp r
Ġc pu
Ġh our
from timestamp
Ġo c
Ġfile path
Co ord
Ġdiff e
fici ent
+ )
g orithm
as sets
sc r
bro adcast
IG HT
Ġparti tion
Ġ'{}' ".
Identi fier
P open
ro ss
Ġp latform
Ġto pic
ler ance
lat tice
doc string
igh ted
Ġpub lic
boot strap
stro ke
Ġre direct
Ġch r
title s
Lo gin
ĠY ANG
senten ces
> </
d ry
w ho
Ġ fix
sh uffle
mb er
ry p
speci fic
40 4
band s
Build er
e ye
ne ts
Ġbe cause
ĠF ield
Ġsh ift
timestamp s
Ġsy n
cre en
Ġpri vate
cri t
black list
( ("
R GB
V AR
b ond
h w
se ctor
Ġ[ %
ext methods
Ġst o
Pro xy
Ġsh a
bl k
Ġret ry
freq s
relation ship
Ġ tile
di p
Ġu id
ST ART
Or deredDict
duplic ate
] "
re load
Ġp t
__ ',
ep isode
Ġpro to
req s
Ġat om
mark ers
Ġext methods
Tran sa
Dyn Class
ĠYANG DynClass
D D
E P
en crypt
ch or
vi s
In st
iter items
colle ctor
Ġ& =
At tr
predi ctions
nap shot
TEMP LATE
h azard
i de
s z
li es
ten ant
TO KEN
+ ',
4 6
C d
W riter
Ġb reak
Ġse ed
ĠA n
Lo ading
Ġ4 0
inj a
G L
P lugin
m ult
v d
iter ations
Ac count
Su ccess
Ġfollow ing
= ',
> %
J son
c x
e a
po d
read ing
Ġe poch
ĠS T
sur f
l ent
ç ļ
al go
ch dir
ct ools
ne arest
pa gin
SE PAR
ĠB ad
Ġrun time
initi alizer
Ġfe ed
çļ Ħ
O FF
P ix
v pc
å ı
Ġ ?
Ġ edges
Ġ loaded
mo some
Ġc map
Ġh y
Ġreg istry
redenti al
sto ck
Ġph ase
+ =
O M
V olume
w p
ti cket
Ġ' &
con tour
int f
comp iler
ĠA rg
ĠF or
bi lities
widget s
Oper ation
A gent
F lags
S tack
s la
re start
an e
con version
Ġb ro
Ġde v
Pro ject
over lay
LI ST
P attern
g as
Ġf fi
tr ust
Ġre lease
Ġe qual
subscri be
P ackage
c art
y max
po w
fa ke
Ġg it
ER S
pub key
depend ent
Ġword s
"" "
Ġsa ved
r aph
t reat
{ {
Ġ ob
re pos
al e
lo red
con structor
ol l
po re
Ġre ct
he alth
min ator
Un it
window s
Ġexp ression
P i
R aw
k l
} ",
Ġ sent
er o
er ic
arg min
Ġa cc
Ġd ur
Ġst rict
Ġ2 56
][ -
mag nitude
ys ql
Ġcomp lete
indi cator
dest roy
over write
cycle s
pay ment
Sc ript
5 00
sign als
percent age
classi fication
F loat
S D
ir d
St orage
Set tings
Se q
Ġmessage s
Me as
visi ted
wh en
volume s
tax Error
ail f
F T
F lag
T here
Ġ transaction
re cognized
at least
ret ty
sub scription
ac ked
([ [
ST AN
graph s
Ġstring s
Ġgr ad
pad ded
Ġcal led
Ġscal ar
Ġ te
re ward
in ventory
ut or
Ġp hi
ex act
trans l
full name
(': ',
abi lities
L T
W ord
ch es
str and
ab ort
identi fiers
Ġiter tools
SC R
pot ential
Ġthread ing
disc ard
L ife
Ġ tail
Ġc ert
Ġd on
im uth
Ġ3 60
En coder
batch es
Ġ"/ "
Ġhost name
cla use
SEPAR ATOR
) ].
S cal
_ ['
f allback
Ġc b
Ġa gent
war ds
save fig
helper s
LIN K
) })
i mag
n ic
me ga
sub type
sum m
rot ate
M sg
Ġ here
Ġs cheme
pro files
Ġm any
Ġact ual
= ["
U sage
r ng
Ġ resources
me s
ti er
di an
Ġc ached
comp at
bind ings
poly gon
Create d
S N
e qui
Ġ encode
end or
cal endar
Lo ader
CH AR
samp ler
l w
Ġ geo
mp l
Ġpro ces
ĠT emp
client s
tmp l
CO LOR
adj ac
iso format
Ġtrace back
ĠMo del
8 8
al ert
ne eds
Ġre pository
([ ^
Ġen gine
chain s
dete ct
B ACK
I mport
S R
ret code
Ġ" :
Ġre ason
ble ms
Ġm ut
ass oci
10 24
Ġrecord s
Ad min
reci pe
Ġdimen sion
Cal c
f tp
re ceiver
mo ds
bu ckets
ĠC lient
reduce d
wi re
G IN
V M
d jango
i mple
t we
v x
x ff
le m
str s
Ġf low
')) ,
pri se
scal es
Ġwe re
hex lify
align ed
rout ing
* .
M ust
c ube
t urn
~ ~
Ġ fi
ta bs
com ing
we ep
let ters
imp orts
transa ctions
+ \
5 4
a ir
Ġ 64
ret rieve
data store
Ġa mount
bro ker
Ġchild ren
Ġlib rary
ĠPy thon
transi tions
1 80
O D
a N
p si
y axis
(' __
pe m
Ġb lob
tra ct
We b
Transa ction
7 4
M M
i fo
j ump
p print
str ategy
ati ble
Ġg ra
Ex it
ĠW HERE
TYPE S
W ait
de ep
is on
Ġw idget
ĠP lease
SP ACE
Ġcho ice
rece ive
l g
u u
w l
le ts
ch mod
per f
In ternal
ĠM ulti
SE S
HO ST
A b
G O
G RO
u v
Ġp lace
Ġin te
auth ors
GE X
Ġ'_ '
STR ING
asse ss
phy sical
B ound
per form
In iti
Ġe st
msg s
ĠC ont
parti cip
ĠOption Parser
Ġstar ted
! '
> >
P h
_ "
an el
ra int
tr ap
Ġde lay
ci pal
:] ))
Di sp
rel ations
font size
('.') [
Glob al
b etween
qui ck
Time stamp
Ġover write
contain s
Del ta
? \
sel ine
ro i
ex change
Ġ1 3
__ ()
00 1
AD D
ĠData Frame
communi ty
Hel per
z s
ch a
Ġs can
mo use
Ġb box
pro du
LE V
s un
Ġ sender
(" #
Ġor g
inter pret
vel ength
tribu tes
Ġlog in
cred s
F ore
I f
u ally
ad ow
un link
la x
Ġ( _
ĠM e
quo ted
Sy mbol
override s
comple tion
e qu
Ġ entries
de le
de ad
ce eded
ot ential
Ġ( {})
kw arg
do i
head ing
able s
default dict
pub lished
sim il
SER VER
capt ure
si bl
Ġpro vider
war m
ME SSAGE
diff s
I ST
M ark
d k
f ri
Ġn l
up grade
ne eded
Con ver
Ġen viron
Ġ", ".
Ġrel ation
Column s
O ri
de crypt
'] ])
ul ative
mb l
son g
wri tten
sample d
Ġout file
vo ice
Ġbo th
Ġsec ret
cam era
" %(
E dit
b tn
c ron
pro f
head s
ĠN um
UT C
fra g
velo city
: {
I tems
Ġ vars
un ce
po sed
ise d
AN GE
vo x
Ġ9 0
Ġcontain s
atten tion
) [:
se gs
res ample
=' ',
rec ent
lon s
Element s
cre ase
sist ype
Descrip tor
ĠArg ument
/ {}'.
b on
lo sses
si tions
ip her
pi ed
counter s
Ġclo sed
her it
compo sition
decor ator
r ms
sp atial
Ġa gain
am ily
ĠC he
Ġpro gress
Ġas sign
snap shots
stm ts
L P
M ask
a ign
h orizontal
q te
Ġin ner
ol id
Ġre maining
work dir
TE S
={ "
Sh k
multip ly
multip lier
Ġchange s
Ġhist ory
C ATION
E mpty
M T
f fic
v v
se cho
Ġx max
CO D
String IO
('/ ',
He ad
Ad ding
C G
F actor
N on
P lot
l m
Ġm ass
min s
fil led
mi r
trans formed
eri or
analy sistype
Ġ` %
rozen set
4 00
F ail
[ %
g os
u do
en cryption
dat ap
Ġd ump
reg s
ori cal
Ġsu ch
dec la
qub it
Ste p
P s
g ot
k o
r u
Ġ ..
de sign
get env
Ġre ci
Ġpro gram
work space
Field s
}. {
Ġchange d
U ti
c itation
f ar
j ac
| '
'] ).
Ġf uture
RE GEX
rec ted
lat ex
ir t
Ġby ref
Ġexp and
CLA SS
calibr ation
' '.
O L
] {
re quires
al n
out s
col l
add Widget
class name
av es
gener ators
UN I
ws gi
wh at
Ġinst ead
Inter face
j oint
Ġ selection
de m
ri cs
and ard
code c
Ġde f
Lo ok
leg acy
R UN
b n
r dd
Ġ ver
Ġ metrics
se ason
pe x
as pect
Ġb c
no m
Ġst ates
with out
mark up
("/ ")
imat ion
Ġcat alog
SCR IP
] ",
g zip
m ust
Ġ sen
return code
ati ves
Ġb ad
Ġc a
Ġt b
Ġg reater
Ġdiv mod
755 4
B a
W ri
e Life
z a
to string
to gg
lin ked
Ġm anager
{} .
ĠT ext
Ġpre sence
ĠG e
Ġtarget s
cap it
TIME OUT
compo se
Ġf ast
sp y
Ġ_ ("
base dir
iter s
dist ribu
f requencies
g ray
ap ed
time series
meta var
RE CT
(_ ('
En ter
cor pus
Inter val
P oints
v env
Ġn est
Ġc la
__ ']
Ġas set
ĠG et
sin k
rest ri
sto red
lan e
aliz ers
Ġdimen sions
st one
ĠA r
Di ff
Ġoutput s
ĠV i
ix ed
0 33
I con
U I
x b
z i
al o
pe t
po licies
Ġex port
Ġmax imum
fici ents
CHE CK
press ure
Ġrecur sive
LEV EL
m ware
o x
s x
Ġ escape
mat eri
Ġ1 4
art beat
com b
Ġtime zone
queue s
Pa rent
spi ke
D ec
i ved
me mo
string utils
ps f
mon go
Ġauth or
Mem ory
f coe
g uid
v p
à ®
re a
en tion
ti de
Ġname d
{} _
ĠF I
writer ow
= '.
B LOCK
L Y
b last
f ld
con sensus
Ġn ull
url parse
com bo
reg istration
CO MP
Ġcomponent s
ĠPar ameter
Cd lib
) ()
G ot
] \
r ates
Ġ ))
Ġ true
(" .",
Ġi mplemented
ac cum
tri g
lat ent
find er
Ġrequest ed
Se ction
Ġbase name
Ġpos sible
cd lib
language s
Sh ape
Py Cdlib
HO ME
ĠTh is
( {})
M er
U SE
p late
ta ched
tra cker
ast ic
Ġpy cdlib
Ġup load
expi re
assess ment
Ġpycdlib exception
' ")
C las
R T
T ensor
w ild
z ones
Ġ mem
re ach
ti ty
ati ent
Ġc re
ass oc
comp ression
Re ceived
Ġk lass
Ġsi de
Ġtask s
Spec Rec
COUN T
/ ',
S ec
n at
v max
() )))
ch ip
ot ropy
Ġst ride
pre view
min i
std dev
cer ts
At tributes
thro at
F IN
P assword
Ġ encoded
Ġ[ ('
Ġw rong
go ogle
cap tion
Ġback ground
OP EN
Ġmulti ple
orient ation
irt ual
, %
A ng
P R
Ġ move
Ġ counter
se udo
or b
Ġ[] ))
De bug
scal ing
vid ers
transform er
LI B
Reg ion
Ext ra
d types
con fidence
Ġs l
Ġo wner
dire ctories
TT ING
tx n
enter prise
Auth orization
dri ve
estim ate
CLI ENT
W E
t an
st s
ct an
(' $
(' ;
ne ur
he et
su ggest
Ġsp an
=[ ],
ĠIn ter
modi fy
high light
7 9
B ER
c en
s ke
__ ),
IN DE
spa wn
ĠĠĠĠĠĠĠĠ ĠĠĠĠ
LE S
sym link
Ġhel per
Ġchar acter
Pre di
Ġ': '
Ġ ty
st udent
pr t
pa use
cle s
Ġstart ing
ld ap
Ġstep s
Reg ister
authori zation
appro x
' %(
M apping
l and
r idge
Ġ cont
Ġ control
at al
de fine
de cay
'] ('
Ġd river
Ġh ref
lit ude
gener ated
Ġapp ly
At temp
TER N
Ġclo ud
aggreg ation
Ġiss ue
L ast
g ather
t rees
el y
ise ct
ĠA dd
"]) ,
Ġbase string
pie ce
sertion Error
REQU EST
WOR K
Ġ loss
in struction
urn al
vi ation
=' \
rep l
extra cted
den om
cp us
inst it
sec ure
network s
('\ \
S pace
d pi
l vl
Ġ append
in ct
al bum
am b
Ġr atio
Ġex ample
iter tools
face t
Ġcomp leted
',' ')
velo pe
PA SS
recipi ent
S L
å Ī
de lim
res sions
mat ic
Ġh ook
lab i
im al
RE GI
ĠA uth
Ġq s
He ight
OP TIONS
mime type
Ġrep ly
cod on
! !
. ],
A ME
L i
g d
Ġ peer
in x
Ġre set
{} `
Ġcon v
posi tive
TR Y
Process ing
OUT PUT
hum an
Fi lename
T ri
x FF
ap s
Ġn an
Ġs lug
Ġb g
sp l
ci m
pre ferred
ac cepted
OR I
tmp dir
cor rection
non y
Ġinter pol
Ġ12 8
Ġoc cur
/ .
M od
M IT
P H
R ate
f fi
f ingerprint
g ies
l bl
} _
Ġ" __
Ġde tails
Pro tocol
lap se
product s
fl ash
Check ing
So cket
invo ke
anis otropy
ĠTO DO
Ġcandid ate
c annot
d ll
t bl
z A
z mq
to c
([ -
')) .
ele ms
org anization
Bu cket
ĠString IO
Ġ take
un ction
ra ft
ve red
sh if
Re ading
Ġex periment
Ġk nown
conf lict
mark s
Ġac ti
Ġnorm al
AP P
ven ance
Com ment
Sele ct
Ġclas ses
o i
ut able
Ġc wd
ig nored
oin ter
Ġv s
ab f
handle d
desc r
wait ing
ĠSt ate
W h
W ID
] ;
Ġst mt
ac curacy
Di alog
Ġreg istered
Ġarg parse
Ġper cent
pred s
expi ration
END POINT
s park
Ġs sl
ac ces
sy l
be am
strip ped
handle s
indi vidual
syn tax
white list
#### ####
u c
al len
ti les
Ġ" #
Ġw al
Ġde cor
match er
Ġbe gin
ĠT able
az imuth
CRE ATE
E dge
I I
N N
N ULL
P T
e gg
id le
sub parsers
Re port
ĠO bject
ĠV er
Ġsi mple
Ġsy nc
Node s
duplic ates
decl ar
0 7
6 8
S end
S ig
to lerance
inter sect
cmd line
Ġ3 600
cer tain
week day
proba bility
Ġflat ten
Coun ter
r ating
al arm
um or
do f
order ing
Ġas yncio
cho sen
Ġread ing
('- ',
Ġwork ing
IG NO
optimi ze
P RI
] ._
d L
e ch
f x
n ers
Ġ age
ut ter
(' |
Ġ" &
sp ice
"] =
ĠD o
mod ul
UR N
MA GE
Mo di
ĠU p
Ġload er
Ġpipe line
Ġneg ative
b ill
d set
f out
h r
w v
Ġ Id
Ġb ar
Ġd ue
fin alize
Ex ist
AR CH
Se gment
LA B
vol tage
MS G
F ind
S a
g au
al ready
Ġb old
py lab
Ġdi ms
ic ro
imp orted
Gener ator
9 2
9 3
] ][
c u
e vidence
r val
Ġ layout
Ġ under
exp licit
(_ ("
Ġco urse
Ġmin utes
vo cation
ele ct
TR A
ĠCo un
Execution Error
u df
ch k
Ġs n
Ġs ome
Ġf inished
ĠA pp
Name space
lat s
Ġco ef
Ġpre cision
EN V
ĠI mport
Ġquery set
Ġ'{ :
TA G
**** ****
veri fied
Exp ression
Ġpix el
alph abet
GRO UP
4 2
C UR
e th
n rows
re mainder
in ser
st able
ro ugh
Ġc ent
wa v
Ġarg v
zone file
LA Y
obser vations
assign ed
Al low
Tra ce
Ġrot ation
A v
] })
d P
e ach
j j
w id
Ġ Log
Ġ virtual
Ġ ValidationError
Ġc c
Ġre v
Ġh params
Ġdi gest
Ġat tach
Me mber
Ġapp lication
Ġvalid ation
Ġ` `
PRO TO
Do main
Skip ping
% %
= ",
F ir
P e
S ave
j vm
n ex
p andas
v cs
dat um
ren dered
var name
In di
Ġe ps
Ġpro blem
meth ing
year s
tifi cations
NotFound Error
* ',
2 000
li fe
Ġ' '),
Ġre pe
Ġy max
Ġex pect
ME TA
err msg
tick er
disable d
Ġcalc ulate
sph rase
ryp to
M an
T ab
U til
f obj
g m
Ġt xt
(( -
Ġpro mpt
Ġen abled
ĠB ase
pk gs
cor relation
Se lection
Ġ". "
let on
Ġne ighb
0000 0000
sv c
short cut
stru ctions
Ġtri gger
/{} /
) ?
b all
b old
d os
l just
un ct
um my
rep orts
{} \
Ġv ol
ab stract
extra ctor
hard ware
whe el
C md
y ellow
un c
Ġd en
Ġst age
fil er
=" ",
sign ing
LE N
addr s
Ġres id
ix in
second ary
Ġgener ator
IL D
Ġchannel s
U se
g n
un used
sp ans
Ġh ow
new line
fe ats
db s
visi tor
termin ate
Clo ud
ĠTemp late
adjac ency
= \
D ay
P rint
m ysql
| \
Ġ filtered
in cluded
ar ing
ti tude
di a
Ġs k
min us
temp dir
we ighted
File Name
Ġj ust
TR AN
NO WN
drop out
SH A
issue s
SIG N
Cl uster
7 2
F E
d ent
g re
w as
w ater
on y
di alect
Ġ' ;
si mp
ME TH
ou ble
Ġglob als
vers al
HT ML
x data
Ġ fixed
Ġ media
(' ^
Ġb ig
replace ment
Lo ck
mask s
Ġ[' -
fore ign
grad s
EV ENT
, -
p th
r find
ue st
(' @
Ġ" *
Ġc p
ol ved
ĠA c
err no
Ġco eff
ĠG roup
MA IN
Ġcommand s
Ġper m
An alysis
Bytes IO
chro mosome
Ġdete cted
____ ____
allen ge
i am
z fill
er gy
he ap
ff ect
[" _
ac quire
Lo op
Ġimport lib
DE D
sol id
Sign ature
ĠQt Gui
fold ers
ĠAs sertionError
: (
I mp
R andom
h op
le ting
an di
ut er
mat mul
=' /
ag ents
local host
annot ate
Ġuser s
go ing
Ġdep loy
enum s
Ġoption al
specimen s
C ategory
o dic
un ded
Ġc ertificate
im ize
ON T
lib s
Data base
:] ]
ĠB u
Ġfun ctools
fit ness
Ġ[]) .
Ġwork er
require ment
Row s
circ uit
Clo se
attemp t
A ST
F older
M Q
s up
or bit
ar ctan
co uld
li o
pro blems
pa ired
uni x
conne ctor
ĠN O
cat s
Ġmatch ed
visi bility
Ġare a
sl ash
Ġsession s
dete ctor
buff ers
= ='
S PE
lo ci
dir ty
Ġdi ag
Ġse e
Ġan aly
lon gest
cre ator
+ )\
C AS
l legal
w ers
ä »
Ġ ri
Ġd raw
Ġd jango
Ġw ant
per sist
bo lic
ist ers
{} ]
(( (
ag ger
12 3
fore cast
('- ')
Ġpri mary
R F
Ġ ge
st an
ad ap
Ġs sh
Ġs parse
mo lecule
start up
ER Y
cep ts
EN TI
track s
attach ments
Ġflu x
E mail
g al
Ġe mbed
Ġpar sing
Ġop timi
ĠB y
MA IL
99 9
mut ations
thro ugh
ĠQu ery
> {
B IN
B ody
_ ]
_ {}'.
} },
Ġ ),
Ġ zeros
re view
in to
or ing
an cer
ba seline
index ed
Ġh i
Ġe ig
ca mp
ject ory
ĠD ate
den ame
M y
e tag
x ticks
ge red
co in
(' '.
Ġs id
Re move
im er
tra de
SE TTING
dt uple
regex p
nor ing
Ġconne cted
mar ket
asse mbly
artifact s
(", ")
j inja
ce ed
ct r
to uch
url lib
tri bs
back ward
Ġse gments
clo sure
cent roid
drop na
IT S
ste ms
Head ers
- '
g ps
g ons
Ġ annotation
as m
ul ating
Ġs ure
mo tor
Ġa ggreg
pre f
{} "
{} ,
vari ation
ĠD B
DI RECT
Ġ'_ ')
Ġso up
Ġover ride
white space
Mag Rec
lar ge
Wri ting
" ^
c as
à ¸
ati os
Ġb order
Ġ_ ('
Ġthe re
Ġl w
ID s
Ġpa ren
az ure
Ext ension
trun cate
G RE
a ys
m arg
ri er
ex on
ma ker
pro cs
Ġa ctions
Ġr v
Ġpro ps
sim ulation
mit ted
car ds
authori zed
ims how
attemp ts
ĠTo ken
$ ",
M AC
le v
pe g
Ġp ower
no mi
add Handler
dir path
am ic
sc enario
ist ic
comp iled
ĠE vent
su ite
post s
Ġsource s
Ġinstance s
Ġmodule s
Ġsin ce
Ġmat plotlib
Ġdiffe rent
I SO
M UL
l ng
r sp
y r
ad s
[' --
Error s
Ġr and
cli cked
ĠT ask
Ġcur ve
ĠV M
ĠCon nection
Ġtrain ing
prox ies
G it
i al
j wt
z ing
re ject
Ġ1 8
qu are
Ġ: ],
[:, :,
supp ress
, **
7 3
; \
= ('
F UN
F inished
b id
le ct
Ġp retty
Ġa mp
token ize
Ġmin imum
Se curity
Ġlocal e
ĠRes ource
Ġfra gment
Control ler
transl ations
Uti ls
c url
Ġ ta
on to
Ġr s
pop ulate
ĠG raph
cor ner
FI L
}" '.
Ġprocess ing
foo ter
ĠSer ver
Ax is
? ')
C ho
G EN
R C
W R
] "]
e ctions
h h
Ġ arch
ur is
li s
pro be
Ġh it
In f
Ġor i
ĠS Cons
da ily
fir mware
Ġat temp
ai labi
Ġdist ribution
epoch s
ORD ER
B r
Z ip
è ¯
Ġf ore
Ġc ut
ren d
Ġw i
pre process
ĠS alt
session s
quo tes
Ġlib xml
eig en
ĠOper ation
ĠChe ck
amb da
, (
B L
Ġ arc
in ject
st ub
te t
sp here
line width
Ġ{} ))
min al
ca ses
Ġpro b
Ġco st
ĠO S
open er
Ġreturn s
radi i
sn r
By te
sl c
Ac cept
sd k
visu al
> '.
C ustom
h ub
i ed
Ġ sentence
Ġin c
set Enabled
ver ts
qu it
he st
user id
ref er
posi x
salt env
spect rum
Ġgener ated
Ġbin ascii
('_ ',
consu med
Ba sic
. {
D X
G ate
S core
h c
n k
w eld
ur ations
(' ~
Ġp lease
ig hest
bo th
Ġr c
ci on
Ġl c
mi tive
den o
Ġ` {}`
tensor s
Ġda ys
delt as
. ))
/ ')
A WS
F N
M AN
S V
a bove
c and
i ro
p val
Ġp f
Ġv max
pl ural
De te
Ġno ise
eff ective
Ġso ck
Ġchar acters
Date Time
Temp orary
('= ')
Z one
b right
h unt
Ġ urlencode
Ġ: ])
ĠP O
ĠA l
LO CAL
Ex pr
Ġal gorithm
Cont ents
Ġstd in
Ġcoord inates
deploy ment
mig ration
confir m
capit alize
V irtual
W H
d g
g ates
p assed
se mble
in et
Ġin sert
Ġg zip
lib spice
exp lo
pk l
full path
ans wers
Ġ5 00
member ship
Ġblock s
leg ate
Le ft
til de
Ġskip ping
FFFF FFFF
ancest or
5 12
C ap
R ed
p st
q t
le ader
Ġs r
Ġ[ {
ba g
Ġg ithub
om y
Ġpro ba
ph enotype
email s
Ġma chine
MO DU
An not
Auth entication
Argument Parser
C LO
k k
Ġ like
Ġ identity
Ġ fits
de compress
an c
co ur
el lip
ex cluded
mo un
Ġf rozenset
ment ation
Ġt w
Ġst atic
Ġis o
be low
trans forms
em u
Ġdo cker
En coding
skip ped
Remo ving
listen ers
Ġmis match
Ġdetermin e
togg le
= {}".
> ")
S CHE
g ri
k appa
n dims
in place
st ick
st udy
al f
Ġop s
ĠR o
Ġco okie
Pro vider
Pro perties
mark down
fill na
CON F
sm tp
Ġback up
ĠElement Tree
! ".
* \
? "
L ines
b t
c atch
n f
u oa
me try
li ck
pro viders
Ġw ave
Ġw arning
valid ated
Ġex act
ĠT ag
]+ )
Ġsco res
Ġexec ution
invo ice
======== ========
dash board
particip ant
ĠNum ber
- ',
0 9
F ra
G o
O ff
] **
a ma
z f
co erce
get Attribute
Ġb s
min ions
Ġdi sc
graph ic
real m
include s
Could n
An aly
gh ts
cum ulative
ev t
Multi ple
plain text
ĠCoun ter
I g
v endor
æ ľ
st ype
ro ls
as n
pop left
Ġ\ '%
Ġindex es
Ch ain
speci fication
gram mar
Ġne eded
fetch all
Ġchunk s
Ġpackage s
Const s
blue print
={} ,
EV T
' ')
I MAGE
s weep
} _{
Ġ lin
re lu
list ing
sub dir
ip t
Ġal ways
Ġ8 0
Ġfa ce
Ġconst ants
classi fier
integr ation
Conne ct
C ertificate
i zation
p du
s ch
Ġ ())
Ġ tau
Ġ" ").
__ ]
Ġr r
Ġg ate
fe e
ĠS yn
sen sitive
.. /
ĠĠĠĠĠĠĠĠ ĠĠĠĠĠ
block ing
ener gies
mis c
Ġapp ro
ense mbl
compo site
Ġcho ices
ĠCommand ExecutionError
Norm al
Ġvo cab
Updat ing
Ġdur ing
sibl ing
; "
S ending
] [:,
q c
q r
ti cs
ct ure
fo ot
comp atible
group dict
bi b
Ġcomp ile
vo tes
CON NE
month s
wi ki
End point
Ġsur name
Ter m
Fir st
+ (
+ '.
4 7
C y
S B
a o
c redential
r pm
ar p
Ġn c
la zy
path name
Ġf h
Ġf requency
ci al
IN ET
Name d
ĠN et
Pro to
tool bar
esc aped
now led
pass wd
AS H
fic ations
Fail ure
C ATE
D one
F low
G en
W rong
b w
an cy
li ers
file system
bo ost
item getter
LO B
Ġmin or
Ġmethod s
NAME S
Ġle ss
rain ed
adjust ed
('/') [-
ĠPar se
Ġfig size
defer red
- >
6 7
] [:
Ġ ],
re actor
li ms
ma ch
mo us
Ġ( [
Ġv a
color bar
Con sole
post erior
Ġbo to
coef ficients
mig r
Seri alizer
Ġsepar ator
UNK NOWN
LAB EL
F L
F FIX
M D
N C
S how
w k
y ticks
re index
ti lt
lo ut
Ġn args
ri ces
mp y
Ġ" [
Ġm ar
wri ting
ĠS h
scrip tions
sche mas
:// %
sha ke
Ġrule s
('{} :
ctrl pts
Ġep silon
Ġau dio
Inst all
M B
c g
v r
x l
in herit
co pe
ser vation
Ġf ree
Ġm k
Re direct
ĠS E
=" {
En gine
over all
ĠU se
Ġtable s
PAT TERN
diag onal
wal let
saniti ze
Ori gin
) [:,
5 2
e g
f wd
t umor
re te
pro venance
sh adow
Ġa ff
line sep
per mutation
join ed
Re cs
ĠS cale
MP LE
secret s
alle les
Ġad min
Sign al
ibr ary
contig uous
D C
P art
T s
d on
Ġ comm
ge s
for um
po le
vi sions
Ġt t
bo to
Ġr gb
wa velength
err s
ĠO ne
KE T
(', ',
jo urnal
Ġbi as
mir ror
D ouble
j i
Ġ dirname
un wrap
mo ck
file Name
Ġa data
Re quired
([ ],
ĠE X
De f
gener ation
ĠL ine
flow s
modi fier
SER VICE
aff ine
circ le
contact s
? ',
I ME
b f
h l
r sa
s as
in ator
si zed
Ġs chedule
up y
mo ves
Ġc lear
ob server
ren gth
et as
In teger
ĠS ign
En tity
Ġsp li
ĠRe g
TH ON
}' ".
Ġchar set
(': ')[
aliz ing
prin cipal
ĠCont ent
" )))
' <
D P
U ES
h ull
on ce
() [:
to o
ca iro
der ived
Ġco v
Pro gress
ĠW eb
Date time
Ġexec ute
h ic
} `
Ġ magic
te sian
Ġc irc
is null
Ġw rapper
pre c
sub domain
ho le
tran scripts
lat in
ĠĠĠĠĠĠĠĠ ĠĠĠĠĠĠ
Ġma c
ĠIn put
)** (
Per m
UP DATE
sci py
ĠTh read
Coun ts
ancest ors
fri end
8 9
b rain
n br
Ġ geometry
se x
ue ss
si lent
ra mid
mo ving
Ġa ux
Ġh dr
auth entication
su c
En vironment
Ġfun ctions
coord inate
imp act
By Name
gp g
Ġav g
ha vi
prote cted
Ġpair s
Ġcy cle
Ġproces sed
ailabi lity
4 3
R M
V O
] ")
ati s
Ġf o
Ġd eri
In it
Ġcon cat
ann ing
ĠT ra
uni q
ang ular
env s
Ġnum eric
mu x
Ġpri or
Ġmulti p
REQU I
tun nel
Sum mary
$ '
- ')
L F
d V
g w
at tribs
al formed
si fier
ve ct
he artbeat
Ġto po
Ġal le
12 7
DI S
au g
ele vation
document s
DO WN
Event s
embed ded
Ġeval u
quad r
disco very
B l
C omm
G T
H H
P eriod
_ ))
b urn
c tivity
d ark
m data
se ase
an ted
set ter
Ġc r
ve st
Ġt up
Ġse curity
ĠO ut
Ġ'\ \
Ġpo sitions
cap abilities
Ġcheck sum
\\ \
Pub lic
ĠImport Error
MUL TI
1 0000
D rop
F ull
F etch
W al
W IN
d rag
co very
mp ls
Ġs napshot
Ġc rop
Ġde precated
ĠS P
ĠA ND
Res Rec
LI MIT
Ġwh at
gap s
comple ter
Ge ometry
Ġfail ure
geno type
Temporary File
M ain
T AR
U UID
j u
n ado
p key
con ns
Ġn y
Ġi i
Ġf amily
Ġ1 9
valid ators
ab c
tra verse
dist inct
Ġz oom
stop s
FF ER
Ġ[" --
Ġiter ation
backend s
threshold s
expi red
CONT ENT
5 7
D river
R R
u ids
Ġ cells
in ference
st dev
or al
le aves
Ġn ative
ri t
set Formatter
Ġ[ {'
]) /
is in
ers on
Ġh o
Ġx i
field name
rep lic
token izer
ir th
AR D
anch ors
subject s
Down loading
prun e
compar ison
nomi al
cour ses
b m
b gp
d na
k n
t v
æ ĸ
re vo
en ted
co o
el f
Ġc reating
ss ue
pro pa
Ġh idden
Ġx s
ance d
ali br
Ġline width
(* [
ĠV ari
cre te
patch es
Ġ"- "
REC ASE
Samp Rec
IGNO RECASE
= {}'.
N ET
W T
p ul
ar se
con ut
Ġn or
Ġin v
ul lable
out h
pro of
cl r
Ġto l
__ ')
RE AM
ĠP oint
hash er
ĠX ML
Ġwh ite
Ġpri ority
roll ment
resid ual
Vari ant
recur se
coe fs
rele v
Ġinte gr
' |'
g ff
al ette
op code
Ġc lip
Ġ{ {
no tifications
pa inter
sc p
iter al
hash ed
Ġ\ '
To o
ou gh
fetch one
assign ments
Ġdisable d
recipi ents
simil arity
P op
R N
R untime
S cale
Ġ Value
Ġ services
Ġ signed
al es
co lored
'] })
Ġb p
Ġb and
he at
sub tree
tag ged
RE NT
Ġspe ct
Ġma ybe
fail ures
publish er
INDE X
PASS WORD
H ttp
W I
r an
Ġ controller
Ġ= >
in vert
mo tion
Ġc s
In v
so ap
ĠO pen
au dit
ĠDe cimal
Ġfra ction
cid r
soft max
Success fully
' [
o logy
Ġ er
Ġ contract
in coming
at las
le ave
ul ari
ol ation
]) *
is file
Ġm tf
In sert
rep lica
ph rase
ĠP oly
}) '.
pen ame
ĠDe fault
built in
Met rics
Ġsto red
alo gs
C re
f rozen
p unct
)) *
)) ),
vi z
Ġsub net
Ġhost s
seed s
)+ '
Pri ce
trim med
Remo te
fq dn
rele ases
Ġwri tten
' (?
5 3
U ST
W D
[ ['
b at
j av
} -{
ce ler
di vide
Ġo sp
be g
Ġk v
Ġnum bers
search sorted
De finition
peri ments
fra gments
Ġbo ot
byte array
Ġref resh
trip le
Ġsm all
prep end
snp s
Mon th
Try ing
interpret er
" ')
v ot
re cs
Ġ' @
si ties
Ġn dim
str ument
ts v
sh p
am big
sa y
ph an
RE L
Ġl st
ang uage
ĠN OT
ĠR et
Ġret rieve
MO D
Ġad apter
ga ussian
Ġmer ged
Ġseri al
nv ml
Ġfl ask
Ġ"{}" '.
4 9
A gg
C ER
I p
R DF
y ml
Ġ us
con texts
Ġn one
Ġp p
Ġc ar
pro vision
sh ards
age s
os id
Ġde scrip
Ġex ternal
loc us
AT CH
Ġl vl
ag ing
level name
Ġmin ute
char acters
Ar n
Ġq ub
Ġcurrent ly
Ġfa sta
Che cked
ense mble
COMM AND
ĠField Type
Disp lay
* ')
> =
E K
T i
i ri
q name
Ġ ])
Ġ look
re served
in el
me ter
al ways
un s
Ġp ol
Ġp ip
data center
Ġa z
fa b
()) ]
pi o
Ġdi g
Ġk m
uti ful
St d
... "
Ġinter p
}. '.
cla ims
inte rest
Ġsymbol s
3 00
P acket
R ight
n z
v y
on ic
st emp
le ading
val ent
Ġp b
Ġp ow
mo te
time tuple
max size
ched uler
Ġcode cs
ĠData set
('_ ')
Ġtri m
Label s
squ ared
dispatch er
para graph
occ up
D raw
s rs
y i
Ġ usage
Ġ typ
mo o
che my
rep orter
inter active
ĠP er
Un recognized
hel lo
Ġen coder
Pro duct
Par sing
No tification
CON STAN
ini sh
gradi ents
trig gered
< <
M ixin
Y Y
b anner
h ints
Ġ ed
in structions
en velope
Ġ' )[
res ume
th ick
Ġb undle
Ġc apt
Ġr hs
field names
Ġor dered
stat uses
norm als
EN CE
Ġwith in
seq id
ĠW ork
Ġstate ment
Ġ'{} .
Met ric
Ġnest ed
ĠScale Type
A rea
b idden
d temp
h ar
r atios
u tions
Ġ selector
te e
ch ans
Ġ' (
ut ation
ul ary
log level
out ine
copy file
Ex port
are as
Ġ'- ')
ĠĠĠĠĠĠĠĠĠĠĠĠĠĠĠĠ ĠĠĠĠĠĠĠĠĠĠĠĠĠĠĠĠ
Ġframe s
interpol ate
direc tive
deli very
treat ment
WID TH
FIL TER
moo thing
E MAIL
L ANG
b d
o sition
x n
ã ģ
Ġ sel
Ġ country
at ar
Ġn a
ĠP re
SE CRE
ĠB lock
])) ,
the se
ak er
medi um
Object s
Ac ti
Ġ"_ "
Ġiniti alized
Oper ator
riter ia
[^ \
ĠSy stem
Parti tion
wild card
deno minator
y data
Ġ sensor
on line
de termin
(" =
Ġs creen
Ġc m
Ġ1 7
pre cation
ĠS kip
gen ce
rc Params
ĠG ener
TR I
Max imum
bra cket
interpol ation
middle ware
Ġmid dle
" },
+ ')
. -
B its
` ,
` ")
m ute
Ġ identi
te in
Ġn m
log o
Ġf allback
ord inal
{} :
we ather
ST ER
struct ures
initi alized
amp litude
'} },
Ġlon gitude
ateg ories
SU FFIX
hold ers
fut ures
PROTO COL
[ @
a e
v z
w it
Ġ Unknown
co var
un quote
ex clusive
Ġ[] }
Re lease
check out
tra ffic
ST REAM
Ġsh are
vo te
org anis
Oper ations
PyCdlib Invalid
camp aign
5 9
E MP
P AGE
R PC
S im
T CP
[ ('
] .__
_ ('
a ussian
e mb
h ed
p atient
Ġ layers
Ġ video
)) /
to ks
ex cel
pro v
Ġa verage
ind ptr
Ġy min
RE MO
Con v
Ġl n
tra il
": "
Pro p
Ġconfig ured
eri cal
Get ting
Ġformat ter
Ġversion s
quo ta
rg ba
Ġjob s
Reg istry
FOR M
Si mple
pmag plotlib
ĠCol umn
Sp lit
Ge o
PARAM S
instit ute
* '
G ING
T M
h m
j ected
n py
w c
x ffff
Ġ verbosity
st ations
un signed
Ġn t
Ġin ternal
up stream
Ġf c
tr uth
pa re
red dit
=' {
ĠA ny
Type Error
Ġen able
De leting
To String
... '
stop ped
Mo ve
Ġ', '
desc end
Ġac cept
Ġzip file
cost s
Wait ing
Look up
MODU LE
$ ')
d get
h z
n side
s par
x ref
ti des
Ġ' </
Ġ' "'
(' !
ra sh
'] :
ex ts
Ġto k
En able
chunk size
bar s
Ġsi zes
Ġ[" -
Ġper mission
DO UT
KEY S
Ġpri ce
QU ERY
Ġad ditional
IG N
Sy nc
Per mission
resid uals
Pri vate
Ġalign ment
ĠSer vice
ĠIndex Error
TAR GET
Ġdescrip tor
8 2
a id
f ron
h mm
t ap
de precated
Ġp anel
Ġs ol
mo ti
Ġc um
il la
im gs
'], \
ID E
exp ressions
sn ip
TER M
BU FFER
conver s
schedule d
So up
materi al
Ġoccur red
A U
B us
L ib
d z
f k
x ls
z zy
Ġ limits
co variance
Ġd ns
Ġx range
Ġo cc
Ġcon version
AT URE
ĠA d
Ġkey words
Ġen ergy
Ġsh ared
Ġmo st
Ġ` {
contin uous
Ġdepend encies
" ',
C lean
S W
d q
f names
k args
m ing
n w
â Ģ
Ġ tick
co up
Ġp g
Ġm ig
Ġd pi
ext ents
config ured
Ġe stim
Ġcon d
class path
annot ated
Ġmean s
aff ected
Ġgen ome
micro second
proba bilities
Ġreci pi
- (
C Y
I LED
] *(
f type
u li
u dio
Ġ transition
ce ble
Ġi prot
Ġs d
Ġs mooth
Ġre vision
cal led
pa ckets
Ġr ng
Ġx min
ĠS eries
Ġse en
trans lated
bin ned
Ex ample
ĠF ailed
view er
Ġcomp ress
PO INTER
Ġarray s
success ors
Ġwait ing
Ġwrap ped
sla ve
. ])
B ot
P K
b ly
ch allenge
un dat
tr unk
vi ties
is dir
pre ference
reg isters
lic ations
ĠĠĠĠĠĠĠĠ ĠĠĠĠĠĠĠ
OR M
Ġno thing
Ġres olved
Ġwe ek
Ġformat ted
Add r
Ad apter
Ġover lap
66 66
ĠRes ult
As sign
twe et
F ixed
g f
h ave
s rv
u sion
à ¯
ame l
ce x
Ġp c
ser v
tr l
Ġe c
ĠC lo
Ġcon tact
dy n
Id entity
Ġun expected
PO SI
sv d
Fun ceble
Valid ator
chan is
ĠQt Core
Meas Rec
SECRE T
B V
C CESS
H IG
p seudo
Ġ ERROR
() [-
get Elements
Ġs an
Ġ- (
ort ing
pr j
Con f
process ors
Ġco ver
AN N
ĠI f
Ġ'/ ')
af ka
pool s
NO DE
Const ants
descriptor s
rie ved
Gener ating
ĠOper ators
NUM BER
authenti cate
Ġhour s
ĠVer sion
Ġori ent
nowled ge
> ",
C enter
D Y
G ene
T rain
l x
Ġ dirs
get size
ra st
Ġn n
as a
as ked
Ġp otential
(" ")
Ġs olution
set Value
Ġ1 0000
pro pos
col lapse
add Callback
comm its
host port
Ġas y
ĠG u
AC TION
TE ST
ĠQ ueue
NAME SPACE
fl ask
Ġ... ]
lc dict
(".") [
Hist ory
Ġdig its
A ss
F n
P ress
a gen
b ash
r w
t g
en dian
ret ch
ra ints
Ġ" (
Ġb b
Ġd c
Ġw s
Ġh ome
split ted
ec c
tra cer
ĠM AX
qui sition
St ar
ĠF orm
DE F
ĠH T
ĠH e
Ġres olution
SS H
Ġiter ations
limi ted
Ġbuild er
fl ds
transi t
Back end
Ġbl ue
Ġsw itch
Poly gon
Ġdepend ency
datas ource
utiful Soup
? ")
S m
W RI
e id
e per
e ast
g res
m ate
en ces
ge titem
up s
vi e
Ġm argin
Ġ{} .
Re gex
RE SS
Ġl b
Ġan sw
star s
Ġvalid ator
Ġload ing
Ġtrans lation
Pa ir
substit ute
altern ative
P ACK
b kg
e very
l sp
n ts
u g
Ġ links
file Store
key id
int ensity
Ġg ame
back off
Ġal ph
pri mitive
SE C
bi an
face color
help me
multi part
rank s
DB Session
/' +
Ġmulti processing
ĠSt ream
prepa red
Ġbound ary
ĠConfig uration
Ġman ifest
manage d
lem ma
moun ts
ĠSyn taxError
L ibrary
P ol
d j
i ma
Ġ quiet
ue s
() ;
Ġ' .')
Ġc ipher
put s
per ly
ĠE xt
ĠR un
Col s
Ġread s
ĠW e
Ġpo six
medi ator
rest ype
ĠJ ob
PRO CESS
ĠPro cess
SER T
ĠUn i
rag ma
Ġass oci
represent ation
relev ant
6 2
A fter
M ON
M aster
N rm
R ender
c name
p wd
r na
t cex
æ ķ
Ġ latest
se mi
al ty
le ctor
)) **
Ġp lay
to pe
la ces
mo tif
par sing
Ġc red
ation al
Ġre d
pi vot
Ġv cf
Ġthe se
RE E
Ġse quences
Ġch an
AR K
File Path
AN T
bound aries
oper ators
imp licit
cro ll
([' -
modi fiers
Ġnorm alized
Ġwork flow
roll back
SP ON
We ight
Ġseri alizer
veri fier
Ġ^ =
Ġtry ing
Ġdeg ree
Ġproj ection
Calc ulating
6 3
: <
; ")
N s
P UB
S F
S ingle
b ri
c data
Ġ et
Ġ termin
Ġ comments
al m
mo ments
bu ses
Ġw ould
Ġh its
cur ves
Ġg t
Ġy s
Con dition
men age
AL T
Se gments
Ġ"" "
hy po
evalu ation
Dep th
Dim ension
Bin ary
ĠAdd ress
METH OD
ĠRet urn
N aN
S ur
j a
Ġ vertex
)) ])
Ġp ush
Ġ" $
int ent
lin ux
ve hic
Ġd z
Ġd yn
Ġde coder
py pi
load txt
Re set
Ġget ting
ĠN e
Ġen ough
LOG GING
Sub ject
depth s
TA SK
Sh ort
QU I
An y
201 8
button s
Ġgo od
Remo ved
('= ',
Ġconver ted
Av ailable
g am
i z
p res
ce d
li ces
mat rices
Ġre versed
Ġt gt
Ġe ta
[: :
ĠM issing
ME T
mut able
Ġabs olute
tw itter
Run ner
Ġ'* '
ĠBy tes
+ ".
> {}
? )
I t
I llegal
g ation
g ender
p or
q m
u fo
in ity
te ts
li tes
as sertion
ver ity
int en
time step
ĠC ur
=" ")
RE SET
ON G
ase d
]] ]
tor ch
Ġfilename s
analy ze
flatten ed
expi ry
Ġexec utable
numer ator
Window s
FLA G
ĠCol or
Dist ance
( .
1 10
= __
A sync
H dr
N P
P en
P ING
P ower
Q A
S w
S aml
e vals
n av
o sp
en ses
Ġ' |
Ġn r
as yncio
Ġi ts
ul arity
sub graph
Ġg l
RE G
sign atures
atch er
DE SCRIP
Ġdo cs
radi ent
cap s
Ad ded
Cur ve
nor ms
consu me
/ {}".
A li
M ore
O ID
f resh
g old
de sk
Ġp ending
type d
Ġf in
Ġc utoff
is q
Ġm icro
Ġt d
coun tered
ĠS o
sum s
ab out
ab bre
Ġl ar
}) ".
Ġcomp lex
parti cle
Ġ'{} '.
ni i
quali fied
combin ations
bench mark
ĠArgument Error
getElements By
, \
G lyph
c raw
k ers
o ct
} </
si zer
el astic
vi m
), )
Ġde que
Ġg ap
base d
cep tor
Ġ< %
sco ped
rt n
sn mp
Tag Name
veri fication
Ġpredi cate
Ġmodi fied
COD ING
B ool
C LU
r just
s ound
Ġ del
Ġ peak
Ġ' ?'
(' `
pe ers
mat plotlib
ati bility
Ġb us
ver ted
lin ation
sub scriptions
cont rols
spe ctor
reg ular
LE FT
block size
seri alization
De tails
MA SK
Ġbu ilt
QU E
Ġstop ped
Widget s
Syn taxError
Uni code
pas sphrase
Ġsat rec
ĠHT ML
/ \
A MP
C at
L at
N X
S chedule
k ing
re actions
in del
an sion
co pied
(" *
file type
Ġf w
obj ec
url y
max len
sc anner
read able
Ġe q
Ġe ditor
Re po
ust ers
)] ))
AR M
sq lite
fla vor
cre dit
analy ses
bed file
Record s
week s
micro seconds
PY THON
certain ty
C lear
G M
S UM
i py
l f
r bridge
s lack
in tr
ti e
() -
li city
Ġ' ),
th ree
Ġ" :"
ck s
Ġ1 000000
Ġre lated
ze ta
pa ste
et ter
Ġr h
Ġde sired
pre serve
sy nony
([ \
we st
Ex pect
cy an
Ġno tification
RO P
bound ing
Ġbu ff
Ġper missions
Th reshold
Ġmap ped
rand n
Group s
asc ript
stride s
Ang le
declar ation
N ONE
P D
P U
b und
h eri
s lab
v ms
in side
in ches
ar cs
al chemy
te l
di sease
Ġ' ^
Ġ' ='
'] ].
ul ations
file list
log l
Ġc rypto
Ġre mainder
Ġst andard
Ġdata sets
im t
ph eno
ĠP ri
sign er
ĠF e
Ġsub set
Ġan chor
Ġjson ify
Ġj c
TI CAL
Ġspe ed
na mo
poly gons
Ġ<< <
Ext ract
Conne cted
Ġtool s
$ \
, [
6 1
H z
R AN
h ighest
i ted
p name
st ash
id en
Ġs f
Ġt rip
pa c
Ġg uess
lock s
ON LY
ME M
cache dir
clo sing
Ġsh lex
pic ard
trun c
F req
i python
n axis
v type
Ġ meas
ri sk
Ġp lan
par ms
ve y
Ġre dis
py ramid
** *
Data Instance
graph y
pub lication
go al
Ġ". ".
AD ATA
Ġfa ctory
vide os
mk stemp
Vi sible
BU ILD
Ġig nored
screen shot
va ult
DA Y
Dep end
Ġsupp lied
authenti cated
ĠOS Error
WRI TE
' d
' re
; '
B I
C ard
E W
L ambda
e pi
v ated
Ġ ary
Ġ })
de tach
() })
is finite
Ġm gr
Ġt p
red ge
Ġe v
Re quire
local ize
Ex pi
men tion
norm alization
ĠG it
colle cted
ĠV AL
Ġauth enti
Ġauth entication
EX P
An chor
('.') [-
disc rete
Work er
syl lable
SCHE MA
8 3
C n
E val
S CO
_ '+
f ds
Ġ figure
de legate
an si
Ġ' ))
el se
Ġp ys
Ġi r
Ġi v
Ġm enu
Ġo k
ann ed
be ats
ag p
ĠM AV
SE CON
ĠB o
ĠG d
Ġurl join
cor rected
UR ATION
descrip tions
atist ic
overlap s
deriv ative
anno unce
+ +
A tom
F ACT
N ull
T e
m ad
r nn
x m
Ġ verb
in ferred
co arse
ro c
return ed
(" `
(" |
Ġs quare
is sion
Ġr ad
Ġdata frame
{} '
ĠA pi
db g
Ġ3 1
Ġtime d
Un its
Co okie
Ġro om
EX EC
33 33
hy d
operation al
arc sec
Fe atures
Ġseri alize
aut os
! =
' (\
D ump
S aving
x ticklabels
in ality
on set
ri ev
int ro
Ġa m
qu ant
he ights
per sistent
Ġ{} .'.
Ġde cimal
comp uted
Ġg lyph
Ġname spaces
Ġpar s
IN PUT
IN VALID
work sheet
tra jectory
St at
ĠR O
Ġcomp le
Ar ch
DI CT
tab lename
Ġtemp erature
FILE S
hy sical
From String
Valid ate
play list
Pa yload
Ġbl ank
effect s
Ġsamp ling
Ra di
H ub
H AND
P ush
R ot
X ml
a j
c ds
n args
p Lvl
t ml
Ġ lab
Ġ enter
ne ar
Ġfor ward
Ġw orld
Ġh g
Ġh mac
rep s
Ġbe ing
RE SPON
Ġl d
mi c
ĠD is
with in
cent ral
Ġat oms
Ver tex
mk time
roll ers
FILE NAME
Ġlevel s
ship ping
RA Y
asc time
('" ',
taxon omy
Site Rec
decla re
stan za
riev ing
D T
G amma
a es
a max
f v
f atal
w rong
y d
å Ĳ
re connect
re rs
or n
or tion
mp s
Ġp df
(" ~
set Current
Ġf act
Ġth ing
RE T
tra iling
ĠM at
En v
position al
oc us
State ment
indent ation
mk dtemp
exclude s
19 2
Al ready
Ġconst ant
Ġdete ct
~~ ~~
bon ds
Ġalle le
B A
F ROM
G ra
I V
L ong
] |
k p
w m
Ġ ser
Ġ meth
() ],
Ġp as
(" ",
mo id
Ġf alse
time line
Ġa a
rep lay
IN SERT
ĠP open
api key
ĠD ATA
fn s
No te
Ar ti
Ġ& &
speci fied
ĠRe ad
obser v
ĠPro ject
Ġmon itor
FIEL DS
pur ge
RES ULT
Ġbind ing
SETTING S
ĠOperation Class
" })
E num
k not
l um
n cols
p aper
{ :
se m
in active
de crypted
ti mal
an im
id f
th in
Ġ" |
Ġc d
out going
no wait
Ġd ensity
ba re
Ġde vices
gro w
ĠB ea
Ġsub mission
De cimal
av ail
fore ground
FA ILED
Ġspeci fication
DO C
segment ation
ĠSt atus
wal ker
sph inx
occur rences
Ġhand lers
adap ters
Zip File
bright ness
A ni
D K
P hi
_ {}".
c bar
f ts
g tf
i re
w or
{ /
Ġ terms
in cr
Ġ' ).
Ġp db
Ġc i
Ġ{ :.
Ġd m
pa st
sub tract
Re pository
lic er
pri m
Ġen c
LOG IN
cho ose
Ġcomp ression
ĠY ou
SO CK
condition al
App end
END ING
Ġgo ogle
Back ground
Seri alize
estim ated
OFF SET
åı ĸ
Mer ge
cim als
E ditor
L anguage
T mp
f und
i co
æ Ī
re main
er ry
st acked
en g
get argspec
Ġin f
') ])
pro filer
Ġm n
Ġpar allel
=" \
color map
RE Q
ĠD ist
ĠO K
mon om
Ġ"% (
ĠRe cord
atom ic
clip board
201 5
sat el
asse mble
Ġreplace ment
Ġman age
MODE L
ATTR I
distribu tions
ĠAr ray
Ġparen ts
gri ty
getElementsBy TagName
) ][
F C
G G
J obs
] [:-
_ ',
i k
n ml
Ġ URI
ad m
'] ],
mp ro
Ġin correct
Ġs lot
mo m
Ġc x
qu ar
Ġt un
ĠS ession
loc ate
local time
gra in
cor o
Ġcomp at
speci e
place holders
Ġsu c
Ġbo ok
Ġcall ing
Ġnet loc
sol ar
Ġ"{} .
lig and
Tran sport
authori ze
Internal Error
Ġhelper s
Ġjc vi
' (
= .
J OB
N U
S UP
S hell
Y our
_ ')
h u
j ection
l al
r partition
en queue
ar ound
ke h
Ġd ummy
00 01
node list
In vocation
Ġ2 01
son gs
ĠD oc
ST DOUT
auth ority
Ġ[' --
Ġon ce
olu tions
oper and
LA ST
tx id
([' --
Ġper c
off line
dc m
lst m
201 7
Qt Gui
Ġspa cing
Ne ed
mig rate
Ġdeg rees
Conver ter
pex pect
shif ted
Ġtopo logy
L V
c ash
x a
x pos
re write
in complete
[' $
Ġp ointer
Ġf inish
ub class
code d
00 000
Ġh alf
Ġ2 3
Ġv min
Ġdi rect
Ġl l
ST OR
lamb d
Ġco res
ther net
down loaded
train er
Me an
Ġapp s
updat er
web socket
Ġtrans fer
SU CCESS
Ġsur face
Pr inter
direc ted
Pmag SpecRec
Ġcandid ates
Ġinterpol ation
Indi ces
CONSTAN T
? )\
K er
P c
Y ear
Ġ }}
Ġ ...")
de velo
un defined
sp ot
Ġa g
vi te
Ġr m
inter mediate
tra ces
ĠA b
vari ate
OR TED
select ors
part ner
Ch unk
LI C
sw agger
Ġspeci men
cb c
(', ')]
nor th
panel s
Qt Core
Ġclas si
SY M
dur ations
Ġrepe at
mach ines
quadr atic
RESPON SE
ĠBea utifulSoup
" )),
4 1
F RA
P M
c j
h n
m ro
n grams
p ids
t arg
in ode
con c
Ġp ut
log g
log out
Ġc ss
lin ter
bu dget
vi p
Ġt c
config urations
request er
pri ces
Ġ{' $
EN ABLE
TI VE
wh ile
Ġcl one
IP v
Ġ') '
ĠJ son
acti vations
web hook
sock opt
track ing
Ġip v
free ze
Parse Error
cipher text
ĠEn vironment
Ġflu sh
pagin ator
Scal ar
dead line
decla red
havi or
Ġansw er
L C
L ow
O bs
T C
p bar
t len
at ts
de cess
un do
'] ='
Ġp ull
ty pename
Ġd uplicate
Ġt k
Ġw cs
our s
am era
et ched
pre set
Val s
Ġel apsed
ĠM eta
peri odic
LA GS
FA IL
Ġspeci al
Up load
alle st
dic ator
Ro ute
Const ant
fici ency
Ġgen es
gue st
residue s
Ġrequire ments
vox el
) (*
) [::-
6 9
M ass
R D
R V
R ST
S ent
a way
b z
g ca
k de
l apping
t u
v R
Ġ members
re wards
re visions
er ase
de que
di es
di com
ap is
(' (
pe ar
ke s
Ġf lo
Ġc ross
Ġ{} }
temp file
old s
ĠC ode
trans formation
Ġpa y
Pro gram
Ġ4 00
Ġas c
Ġj s
Ġcomp s
Ġlog s
sm art
expr s
lap sed
delay ed
scri be
Trans fer
transi ent
conti gs
hdu list
tim ing
Li ke
cu da
Comm it
Ġasy nc
! \
8 1
A ML
L ight
S cope
_ \
r aries
y ticklabels
Ġ tax
dat at
Ġp ie
Ġi con
Ġ" "))
ne ut
Ġre ce
no aa
add Child
Ġt we
Ġ2 8
Ġo auth
ls m
ĠS imple
da e
Ġex posure
Ġu i
inter cept
ST OP
Ġen crypted
ĠO n
pha ses
place ment
Ġlength s
diag ram
Ġtrans late
car tesian
Top ic
Ġtar file
hd rs
REGI STR
CAS RN
ĠNet work
convers ation
B i
L a
N a
S pect
W in
b v
b ur
d ut
d path
r nd
x f
â ĸ
re call
ro ids
dat al
Ġin p
Ġi x
op tim
Ġc f
Ġc id
sp read
all ery
lit tle
Ġth umb
Ġo mega
tp s
ĠM on
record ing
De leted
AD DR
CON TEXT
:// '
Ġ"\ \
Ġspeci es
DO T
feed back
Ġthread s
Obj ective
quanti les
Down load
alloc ate
ĠVari able
æķ °
. '))
] ()
n bytes
Ġ adding
Ġ collect
st rength
an o
Ġp in
to ut
ex if
op acity
Ġt urn
max val
per t
split ter
om ic
Ġname dtuple
ĠS im
Ġpro x
ĠT er
ĠN ew
Ġal tern
bi x
ĠO P
Ġid ent
Ġsi tes
Ġ'{} _
dl g
Process or
Ġpub lish
MENT S
disco ver
Annot ation
/ *
9 1
A p
F lu
H and
L B
d end
g te
q p
s ms
è ¿
se mbly
in crease
en sions
an ony
co ol
id ity
() ")
tr c
bu mp
col li
Ġa ut
is lice
text ure
am i
lit let
Ġth en
ds n
Pro blem
av ailability
... ',
rol lout
Ġro ll
PO S
MP C
rest rict
cr l
PRO JECT
break point
zen ith
('. //
fire wall
Ġba sis
Updat ed
Ġhy per
Pi pe
Ġassign ment
Clas sifier
LOB AL
alibr ation
ANN EL
MET ADATA
) ["
C redentials
D uplicate
M ake
U AGE
i fic
Ġ team
co vered
ro bot
di f
si tivity
un supported
url join
Ġde finitions
ho use
fe rer
** -
lace ment
run as
AN CE
queue d
MA G
CE P
slice d
Ġcan vas
Ġchar s
mar sh
aliz able
Si zer
ĠMo dule
ĠSe quence
Ġdecode d
embedding s
Uni que
BY TES
pep tide
moti fs
S creen
b irth
x d
Ġ ub
Ġ visible
er ts
le ap
an tile
di ter
un zip
as sis
ex periments
Ġb ra
Ġb utton
Ġm v
do ck
pre sen
start Time
Ġy y
ĠC reating
ly ing
item size
Ġl v
replace ments
ĠM O
find text
ME DI
ĠF il
ĠF ound
(* (
AL LOW
dist rict
of s
12 5
"]) .
fit ted
io loop
Ġgr p
Ġcall er
Ġfe at
ATI VE
Ġpage s
flux es
sensor s
Ġkeep dims
rece ipt
XY Z
FUN CTION
A I
F D
H igh
J oin
M ER
S Z
Y PE
f ps
i table
m z
p ca
q dm
} $
st ory
ct g
un expected
[' @
mp fr
ex ons
Ġa ctor
bo w
sub parser
sub missions
ĠS chema
Ġcon sumer
mt x
open ed
FI ER
Ke ep
CON ST
Ġma cro
Vi si
catalog ue
NE W
Ġvi a
CF G
Ġconver ter
sam tools
Attemp ting
Sa ved
dbs Exception
ĠParse Error
ĠBytes IO
ATTRI BU
H ook
R aster
Z a
f info
q d
ti ps
an a
Ġ' ?
si p
(' &
ma cs
arg er
]) **
read me
In correct
und ers
ho mo
Ġbe am
ĠT ABLE
ĠP AR
Ġl atitude
ST O
Ġmin ion
man ual
ĠG tk
Ġ\ '{
xml ns
ari ze
Ġread y
PI O
('/ ')[
Ġma jor
TO P
User s
sl ider
gp us
disk s
Ġnote book
nat ural
Ġacti vation
Ali as
+ ='
1 99
B AD
C ALL
H ASH
V ol
g andi
r type
Ġ vertices
Ġ urlopen
en i
an om
ce du
dat ory
con sistent
op le
log ged
Ġc ard
pa ger
Ġg reen
sig ne
ĠE N
AT H
ab br
ast ime
SI TE
("\ \
Request ed
calc ulated
clu sion
RA W
trip s
Ġmag nitude
Ġps util
chanis m
>{} </
Invocation Error
0 10
F R
G C
L ear
S heet
h mac
i pa
s os
å ħ
Ġ article
on ts
en rollment
ti ght
un register
file size
Ġf oo
ed u
no st
comp lement
sub nets
ĠS ource
pop up
vel y
EN CODING
Ġ[' ']
AC CESS
Ġreturn ing
16 0
Ġlog ical
Config Parser
Ġoffset s
depend s
Ġext ent
Ġ': '.
coef ficient
Build ing
mor ph
xffff ffff
astime zone
+ "\
: {}'.
M W
S ta
T imer
U Int
n ice
s name
v box
å ¤
Ġ ot
at tack
on ame
id ata
ret s
(' </
get root
to bj
ex er
set Attribute
Ġc ategories
col on
Ġw arn
Ġe ffect
label size
Ġpar a
tran spa
Ġdi sco
db name
Lo aded
De st
CH ANGE
TER S
Ġdown loaded
Ġconst raint
redirect s
bal ancer
cog n
glyph s
lar gest
moment um
chron ous
ADD RESS
DIRECT ORY
migr ations
, :,
< =
A ggreg
R S
T ip
h po
h line
j k
t ty
co ind
co dename
di vision
Ġi face
Ġs olver
set sockopt
]) ])
Ġre cognized
vi le
add er
com ma
Ġr up
quest ions
Ġx path
pre sence
Ġ: -
tri als
Ġdi alect
ĠT est
ĠP Y
ĠP o
ĠD O
so ckets
are r
12 34
Ġbase d
oc tet
Ġinter vals
byte code
ach ine
sid er
fact s
sist ency
Ġcontain ing
Ġsuccess ful
HEADER S
confir mation
Stop ping
ĠSy mbol
Ax es
SES SION
modul us
propa gate
G A
M es
c time
l max
n pix
ã Ĥ
Ġ adj
Ġ dates
en ing
ro gram
Ġp ress
Ġa void
add Action
Ġh a
pre order
ĠC reate
ĠC annot
reg ulari
Ġch i
AR G
oper ands
fra gs
ATI C
stage s
Ġ... ,
Ġvi m
ĠStr uct
Ġar row
relationship s
trust ed
C irc
D J
I MP
R en
S napshot
] ==
c wl
Ã °
re sized
al ance
ri ft
ul k
Ġs heet
Ġ( ?
fo lio
cal ar
cl f
Ġr x
Ġr y
comp act
In formation
In dent
ĠS H
Ġpro g
sta ff
Ġl ater
Un ion
su f
SE D
gra b
av atar
Ġformat ting
Ġmo ment
ĠCon text
Per cent
ĠDe vice
+' /
break s
adjust ment
Ġfra c
Match es
Hel p
macro s
Ġwri ting
Align ment
C LE
D st
D ROP
E AR
Z ero
g df
m jd
o q
} [
ad apt
si ms
(' *
to bytes
par ty
Ġb isect
Ġd ag
Ġst ill
coun tries
sub st
sub class
sub command
debug ger
sig mas
msg id
rep lication
ĠC H
object info
ĠP RO
ĠM ark
Ġline ar
SE ARCH
test ing
Ġon es
face ts
ud p
]+ )\
US R
progress bar
SC A
nu c
BO L
trigger s
conj u
pur pose
Predi cted
Ġdecor ator
1 50
D b
F Y
H i
S ensor
d raft
j pg
l ut
v in
Ġ mail
Ġ transcript
Ġ extended
re z
ar di
id i
ch isq
get Id
'] ()
(" __
Ġc riteria
Ġ{} .".
spe ech
ĠD ep
10 1
build ing
Ġas array
pk s
12 0
mon ic
ĠV ector
radi o
cre ating
success or
qual name
Ġdist s
pw m
Over lay
manage ment
smooth ed
instrument s
bill ing
C KET
F it
O rg
T ile
d op
e led
p format
v ow
w ell
Ġ variance
Ġ annotations
Ġ measurement
in sertion
at tached
te le
te ch
for k
Ġp ick
Ġs x
up d
Ġ( {}
Ġb ed
Ġc sr
out liers
Ġw riter
od d
ĠS to
md l
Con n
gin es
block chain
ĠM ap
DE L
File Handler
Ġpre pare
Ġ'% (
iti ze
Ġrange s
iv ing
Ġac cepted
categ orical
tab ular
extract all
iso tope
any array
Ġconst raints
Const raint
Ġtr un
Ġren derer
LD ER
Option al
fu zzy
tur b
represent ative
produ ction
reach able
Ġcre ation
friend ly
STOR AGE
conju gate
! ",
M dl
R s
V S
e os
l te
p list
v rn
x z
Ġ (),
Ġ legend
Ġ quality
an te
id p
ent a
as ing
Ġp ts
Ġp alette
') :
app ers
col name
Ġd w
art ment
Ġde cla
Ġh ard
Re view
temp orary
-- -
Ġop code
inter action
ĠP ub
Lo cator
ĠF unction
DE VICE
ori z
Col lector
ker as
CH UNK
updat ing
orith ms
cla im
ĠPar ser
Tran sition
comple tions
accept ance
Ġpredi ction
Iter ator
Rel ation
CUR RENT
propos al
REGISTR Y
' ',
F LO
F ill
L M
[ ]
s ls
è ®
Ġ combine
en ant
ut ting
as anyarray
sp line
Ġr pc
Ġde t
min imize
start time
ĠS QL
gr and
inter actions
ab und
last ic
func name
ID ENTI
ump tion
Ġco verage
]] ))
])) .
Set Input
SI S
Ġread DataInstance
}, {
CH ANNEL
Ġsu do
mesh grid
Ġsalt env
pan e
contract s
Ġtor nado
Be gin
confir med
Ġmime type
Exist s
contiguous array
LANG UAGE
Ġposix path
QUI SH
A ctor
b isect
e type
f re
Ġ combined
Ġ updates
st ra
de fin
ret ain
li k
') }
ul us
Ġf q
Ġf ft
one y
sp c
ub y
he m
Ġm m
py c
py plot
min e
cont rollers
ali c
ĠS QUISH
Ġlist s
ĠA WS
Ġk now
we ak
ST Y
Data Type
hash lib
cent re
ĠG o
orig ins
Ġcomp ar
dis count
User name
Ġnon ce
fasta file
Ġdat atype
soft ware
Ġsq lite
Ġsepar ators
who le
dem and
ĠBu ild
vehic le
ĠFil ter
' m
7 1
7 00
D id
O mega
R U
T X
g reater
i y
l xc
q os
x FFFFFFFF
Ġ transport
Ġ filt
Ġin crement
log dir
out line
vi a
Ġd p
Ġto t
Ġe very
ac celer
tri angle
ok u
Ġl ng
ST EM
ĠN D
float ing
Ġout er
ker n
Ġmo l
Ġcl usters
calc ulation
('- ')[
cd n
posit ories
virtual env
So ft
Ġda emon
good logging
stri pe
Ġsyn tax
Sig ma
" >
= ".
P ot
S upported
v T
v n
w ill
x e
ç Ķ
Ġ ann
in cl
en te
al titude
ur andom
() ["
ch own
ct s
pe ek
[' -
(" :",
Ġs z
Ġs cr
up time
Ġa bove
del attr
Ġto day
am in
cs rf
Ġthe me
ĠP age
sta b
war p
Ġas pect
Se cond
Ġsp in
ĠW indow
Ġro les
Ġdire ctories
rot tle
termin ator
ie i
rf c
conver ters
utc fromtimestamp
As set
Ġpattern s
classi fy
USER NAME
nick name
Ġass ume
associ ation
imple mentation
olid ay
ĠSign al
Ġcapt ure
! ',
! '.
C OR
D uration
M id
T LS
g if
j upy
y p
} ;
å ®
æ Ĺ
un ked
get pid
ra dec
as contiguousarray
Ġp lain
Ġin struction
(" !
um i
um an
ta iled
fo s
qu at
Ġw he
var names
Ġe cho
string To
ĠS c
sen se
ĠT OP
RE SOURCE
lat er
exp ansion
alt t
Ġconfig s
dist ro
Ġcomp are
Ġcomp ressed
ĠEx ec
Ġro uter
Log ging
Text Cursor
Config ured
Ġper form
ĠCon st
Ġcal endar
anti ate
Ġsc ene
ĠNot Found
pm n
dete ction
Ġspa ces
Ġab out
direc tives
) '.
M s
N ORM
S pa
S PI
f ro
h ue
k in
p q
u a
} ))
} })
Ġ extend
in ux
ti g
an iso
di visor
ma j
es sian
app en
Ġb ases
Ġc mp
pro vided
xt ure
Ġm i
ba k
__ ).
ci ties
ĠC lass
ph ot
copy right
Ġkey id
ĠF a
cor outine
... ",
pol ar
pid file
Ġcode s
nu cle
Ġmod name
subscri ber
ĠIP v
---------------- ----------------
PL ACE
VAR I
summ aries
Ġproces ses
Mark er
Ġsen ding
ĠUp date
Ġattach ment
Ġeig en
Named TemporaryFile
punct uation
Radi us
F ree
F uture
G IT
R ANGE
S pin
e ol
f to
h am
i q
p layers
r ss
} -
Ġ KEY
on ed
de o
de fn
Ġp layer
Ġp ragma
Ġin strument
(" $
path sep
Ġf t
Ġst ation
sc rap
Ġde ep
Ġde lim
Ġh du
sa ver
print f
In te
Ġ2 1
Re place
om im
cess ary
parse String
copy tree
uti lities
plot ter
Ġun til
RO W
cp d
rect angle
cryp tor
gy ro
Ġrel path
ĠPro tocol
Al gorithm
present ation
rup ted
Ġplugin s
sli de
asc ending
Ġiss ubclass
OB JECT
Pub lish
dele tion
('; ')
marg inal
. ]
2 34
? ?
K ind
M ed
S ING
T OR
_ ("
p lo
t as
v line
å Ń
se titem
de posit
fi sh
mp p
Ġp rep
key file
Ġb lack
Ġd ry
__ ",
pre fetch
tri angles
ax s
temp oral
ĠC om
Ġcon sole
Ġfile obj
form set
LO CATION
Ġpath lib
DE P
seri alizers
Ġz lib
change log
total s
En tries
Get Row
Ġat trib
ĠV ER
nd x
Ġne ur
arc cos
Ġresp on
}{ /
MAT CH
trun cated
Ġla m
saniti zed
Ġexpi red
ĠFI LE
Ġty ping
æĸ ĩ
precation Warning
asa fe
B reak
I SS
M ac
i id
s ids
è İ
re con
de part
el m
Ġp m
ke pt
Ġs pi
ta ken
file Path
cal ib
ci j
du pe
Ġ2 2
Ġor b
ype redge
Ġel t
np ts
remo tes
wa iter
Lo c
lower case
Ġcur ses
List ener
proto cols
CE S
ĠRe move
Ġmo unt
amp aign
Ser vices
Ġexp onent
Sh ift
conv olve
proj ected
break points
Ġconne ctions
oth ers
Ġxml ns
cod ers
appro val
CONT RO
scr atch
gau ss
FRA ME
èİ ·
) //
A RE
A SS
O c
R SA
S can
S croll
g at
l ator
u name
Ġ geom
en force
en rich
ge vent
ro unded
di ameter
Ġs nap
mo b
no ts
rip ts
Ġx r
Re st
Ġg f
cep table
meta bo
ĠT op
Ġse ss
call point
Ex periment
job Store
Ġdo uble
glob altt
cor re
Col ors
environ ments
rs lt
na ke
imp orter
ĠĠĠĠĠĠĠĠĠĠĠĠĠĠĠĠ ĠĠ
modi fication
cel ery
)+ "
Ġ"_ ")
icon s
ĠUn ion
Ġ'* .
interpol ated
Ġpix els
fab ric
ĠClo ud
Ġlar ge
+ ",
+ ':
5 1
= ')
F ac
M is
Z ER
d K
e i
g ai
o site
Ġ artifact
se verity
on oi
an imation
name list
Ġp run
ke eper
', )
ty ping
(" ^
ig ure
py xb
pre fs
pre decess
low est
ĠC or
ĠT ree
Ġse ctions
Ġch ro
ĠM E
ĠM y
ĠB in
Di ag
sys log
stop ping
Ġ5 12
iss on
At tach
bro kers
month ly
ater n
mas ses
rout ine
Ġti mer
86 01
ĠLo cal
ĠLo cation
ĠSe curity
LD AP
zi er
gau ge
Ġresid ue
Ġspect rum
snip pet
+ )',
A verage
C AP
E E
J S
N ON
O VER
P ickle
T L
V ec
b one
c ators
h ang
k d
p il
è ¡
st uff
al ts
si o
ct xt
(' )
un lock
ri se
Ġp v
Ġp ag
to s
str ong
Ġb am
append Child
Ġre ached
no ti
sh o
qu ent
Ġr t
var type
Ġg id
Ġch rom
ĠM atch
DE N
mag n
Ġco lour
man tic
Ġas cii
change set
indi vid
sha res
Ġ'- ',
wh m
spect ra
suffix es
alle li
QU O
Number Of
nl p
she ets
Ġker as
built ins
(.* )
mix ed
Ġsamp ler
Rep ly
ĠHttpResponse Redirect
Ġpr in
Ġ({}) ".
ĠGe o
inser ted
Ġdeploy ment
onto logy
ĠSalt InvocationError
REQUI RED
ĠMAV Link
erry py
B C
D at
D ensity
L n
U TE
V eri
c ub
r q
s atis
Ġ ON
Ġ https
Ġ checked
de rers
te ar
lo p
un able
to ps
ke gg
la ve
Ġs leep
arg parse
Ġ" )"
Ġ[ {}]
Ġ( \
Ġf old
and box
Ġa mb
Ġa ws
Ġde cl
du al
ls b
fin diter
su me
Ġpa ired
frame work
cat alogs
Ġ\ \
Ġurl s
identi ties
Ġun quote
pol ler
dot ted
transform ers
The ta
ĠIn st
Ġle af
cut out
prob es
conver ged
Ġtrans pose
Auth enti
plan es
Exec uting
Dis position
Bound s
Ġca use
Fetch ing
EMP TY
: {}".
M Y
S ys
V o
a bu
e u
m im
n es
n gram
u f
Ġ ve
co conut
li seconds
Ġ' ~
ad b
Ġn cols
Ġin s
Ġ[ ]),
bu y
qu ot
Ġd om
Ġt m
Ġw a
ax on
md a
Ġlist ener
Ġnew line
OR IG
ĠN S
ĠB it
ĠW ord
Ġsi lent
iv es
dev null
mut ate
anti ty
clip ped
Ġtest s
ev en
Line ar
sto res
Argument s
Iter ation
Dist ribution
front end
ĠCh annel
stri ke
elect ro
Ġneighb or
A ES
G LOBAL
O W
W atch
d ue
f rm
m type
n id
t re
} ={
â Ķ
re comm
re aded
ar b
for war
Ġn ick
as dict
Ġf f
po res
lin enum
col names
il led
fa bs
Ġm t
Ġd r
config file
comp any
Ġth rough
sig s
write ln
ĠM ax
Ġline style
EN TER
Di ctionary
De tail
Ġan other
Ġj ump
Ġsh ard
Ġun used
sort ing
Ġat t
Ġq ry
au c
au di
nt l
analy zer
fetch er
ĠSt art
9999 9999
spac er
Ġvo x
Syn ap
wind ll
substit utions
occur rence
twe ets
heat map
REMO TE
ĠMat rix
Serialize ToString
> ".
C ase
F P
F LOW
G PS
P anel
V L
c ise
h id
s moothing
} ),
Ġ reshape
lo st
get mtime
Ġn i
Ġin file
Ġs ink
set Checked
key board
Ġre start
Ġt tl
Ġh s
Ġe ight
ac cn
Ġget pass
ĠC al
ĠC an
IN E
ĠE ditor
ĠD X
block stack
DE SC
AL IGN
64 00
Ġno tes
(** {
post gres
Ġout side
the sis
inst ant
MA V
Path s
ster day
Ġ'_ '.
cut s
Ġadd resses
dete cted
Ġimp orted
thick ness
xls x
èİ· åıĸ
B S
H y
L ER
M apper
R IGHT
_ ),
i ble
i sis
i ki
ä º
Ġ linalg
Ġ ...')
ap ache
as sist
(" '%
Ġs ky
ot t
Ġw atch
us b
=' <
mb da
md b
ry pt
Con vert
conne ctivity
iter keys
SE CTION
De v
Ġformat s
Me dia
PRO XY
ATION S
pen alty
xx x
imat ors
ĠID s
vocab ulary
Sele ctor
Sele cted
gu ild
Ġest imator
utter ance
Ġcoeff s
Ig noring
Ġappro x
Sur face
( ~
3 60
A GER
A lt
C lick
E l
H as
M achine
P ass
k u
w g
y m
} ).
æ ĺ
Ġ ;
Ġ ur
an sible
() ._
un install
con cept
'] [:,
Ġp ref
Ġp itch
file paths
ser ted
tr s
Ġfor mu
il ls
he t
line style
du ction
resp ond
cont ribution
Ġo wn
Re try
([ _
np s
Ġdi c
spe ction
ic er
ĠN AME
DE V
Ġ\ "
... '.
PE M
go ids
over view
pt c
11 1
TR ACT
sur ro
NT U
COM MENT
Resource s
Ġmp l
Min imum
ĠSe arch
CR Y
atter y
gui de
COL UM
Over lap
Ġpop ulation
ske w
Modi fied
ĠDoc ument
GetRow Value
Ġformu la
) ".
A ctions
B IT
C ert
I ssue
P ointer
R atio
S ome
_ ()
g file
Ġ 99
Ġ utc
or a
de b
ur ing
di mage
pe ting
th ird
Ġin side
ma st
up loaded
sp ider
Ġm apper
Ġd l
Ġd ash
per p
Ġr d
new lines
Ġe ven
od b
sy ms
ĠS M
{} -
']) ]
lic enses
lib raries
ĠM ag
tmp file
Ġsub list
vo ke
cer n
Ġres olver
ĠL ay
ATE D
Ġcheck ing
Ġtemp orary
sym bolic
Ġloc ations
aff inity
Si de
Ġpoly gon
Ġla unch
EXT EN
ALI AS
COMP LETE
Ġembed ding
Dst n
A mount
F lat
G ithub
b h
b k
h dfs
i map
o ser
p laces
Ġ median
in ce
in verted
ar ri
ro te
di ver
(' +
[' <
'] *
Ġp orts
Ġ" ?
pro vide
Ġre pl
it ations
it ors
ub i
), (
Ġst atistics
cur dir
sub path
group ing
tra js
link age
bi os
Ġpre dict
Ġ4 2
scal ars
glob s
ĠI SO
25 0
ai ve
connect ing
Ġcheck point
OP TION
Ġtemplate s
Ġiniti alize
grade book
Child ren
Ġpredi ctions
("' ",
Char P
restri ction
GRE EN
Ġalph abet
Arch ive
RET URN
âĸ Ī
) [:-
C ancel
M ARY
S G
U ri
h ape
h sv
i pe
t max
re et
re ls
me tal
name server
li de
res cale
th r
to gen
(" ".
par m
log ic
Ġre m
Ġd ct
Ġr l
Ġh p
lab or
ca o
ca ch
Re al
sig moid
write lines
if ti
ĠP ost
ree ment
work book
tra it
Ġal so
DE LI
Ġsub scription
diff use
go ti
*( \
ĠĠĠĠĠĠĠĠĠĠĠĠĠĠĠĠ Ġ
(', '.
success ful
hy p
201 4
Ġinteger s
36 00
SIG TERM
255 19
Ġsm art
'^ \
Ġpredi cted
lear ner
Return s
Mon itor
restri cted
ĠVi ew
refer red
Acti vation
wit ness
DESCRIP TION
bund les
ORIG IN
C TYPE
F MT
F ONT
G reen
X s
d al
e ck
f data
j b
n able
s aml
v k
x o
Ġ ray
re lax
de cision
Ġ' +'
)) ).
Ġn ullable
Ġp hoto
Ġi b
ms b
Ġw ay
sc f
sc aff
Ġde ps
Ġstr and
ac le
be a
ĠA ction
ĠF rame
stack s
PE D
Se conds
Element Tree
down loads
anch ore
bl ur
au ght
Ġtra iling
Ġ'- '.
Ġinter pret
vm ware
Ġ"/ ".
Qu o
sur vi
rer ror
Ġcoord inate
Ġpk t
CODE S
Ġscal ing
alloc ated
Ġxy z
Ġbro ker
('\\ ',
Cho ice
replic as
Ġdyn amic
stringTo CharP
atern ion
B and
O k
P G
P ID
f light
h px
i or
j p
r ts
v gp
z order
å Ľ
in heri
te ct
ri ve
Ġp wd
ex cept
(" @
Ġa gg
), ))
qu ared
Ġm c
Ġt pl
join path
read ers
=' '
ite cture
pre ferences
Ġe m
ax y
Ġv lan
.. ")
RE SO
ir p
su cc
SE EK
man ence
ĠI Python
ĠEx p
ĠU cs
]+ )',
Ġfa ke
Op timi
TA IL
ĠĠĠĠĠĠĠĠĠĠĠĠĠĠĠĠ ĠĠĠ
geo json
Che cker
FO UND
blob s
Dis k
cnt l
monitor ing
Ġstar ts
rh ol
WA IT
(":") [
UNI CODE
________ ________
ĠOne Login
, _
/ ",
C TED
H DU
P rf
T B
a si
h pars
k id
k ms
n xt
v P
se e
in ess
me ts
de mo
de serialized
ch assis
Ġs lope
and roid
sp s
'. ")
py tz
lab s
ho o
write s
ĠS SL
** (-
Ġdi rec
ress or
Ġl r
Ġ3 00
St atic
mag enta
mod path
ĠB Y
rt l
cent roids
eri al
Ġbu g
sing ular
loop s
]+ ',
Ġinst it
## #
DO MAIN
OP ER
Ġph one
decor ated
watch er
INTER N
digit al
Syn tax
Bind ing
Meas ure
Ab stract
Ġneighb ors
organis m
/ ")
; ')
C N
C tx
E mbed
F o
F requency
k f
n col
n bins
p len
s outh
v name
z o
æ į
Ġ ck
Ġ OR
Ġ vectors
Ġ observed
at exit
de ck
ti led
time steps
Ġre ach
sh lex
is ing
code Error
sc ape
read only
Ġis n
Ġr g
Ġde fine
min max
Ġg ui
ĠS eq
gen us
ĠP ackage
ĠA N
ĠA ES
Ġch art
ĠD I
plot ting
graph ics
EN TRY
Ġcomp ound
Ġun wrap
Get Output
ear ly
Ġat ol
PI X
=[ ])
Ġrun as
Ġcan onical
Vi deo
Group Name
("- ",
SIG INT
MAP PING
Ġra ster
Bad Request
need le
ĠIN TO
SY STEM
Ġsupp ly
POSI TION
abbre viation
anony mous
" ")
A K
E AD
H tml
N u
P lain
T ON
T ools
^ {
a ce
b ol
f ed
h dl
i ra
o file
p mid
s licer
t min
v ap
z k
re new
re map
re build
co bian
te ams
th an
data dir
key ring
Ġf m
format ters
qu id
fa mi
ig ner
Ġw c
Ġw t
Ġ2 6
([ ('
base url
Ġthe m
dy namo
iter values
Ġan no
Ġuser id
Se ts
Ġspe cs
ele ction
(- (
bit map
TR M
Ġcheck s
Event Data
Ġad v
}. ".
Ġ<< =
rand range
enum erate
tar ball
Instance s
Ġregion s
Sign als
Ġmodi fy
.... ....
pagin ation
ORI Z
life time
Ġaggreg ate
{}" '.
Br anch
WH ITE
Ġevalu ate
Ġeight Bit
? [
D M
N v
O wner
P mt
P LU
d ts
f lex
i ff
m w
w kt
Ġ terminal
in vite
st p
en gines
ti tion
ch ord
Ġ' ('
Ġp ot
Ġin verse
Ġs ong
Ġf cntl
Re q
ile s
ĠP ool
ĠA R
wn d
ĠF LAGS
mag col
datetime s
AL Y
dist rib
De g
ĠI mpro
TI T
TI ES
ear th
multi line
sym metric
nn z
sur name
Ġabs path
contin uation
ateg orical
Ġvi su
Ġsecond ary
("_ ",
Pmag ResRec
WOR DS
jav ascript
Ġocc ured
" ".
) },
+ '\
8 85
B AR
D L
D a
P ORTED
T K
e li
h yperedge
o ffer
r ink
y ou
} %
ce an
ap du
si z
ra b
Ġp at
th row
Ġin line
Ġi mple
Ġs g
Ġs ing
Ġs cheduler
arg parser
mo vie
Ġf ld
Ġf requencies
pro m
no tice
vi ol
Ġd uplic
ite s
Ġe ar
ho uld
sy stems
ĠS u
ĠS SH
=" "
ĠM an
ĠM ake
ĠM IME
AN Y
Ġ"% .
Cont in
edi table
Ġdoc string
ribu tions
Ġprocess or
combin ation
Ġgener al
Ġextra s
Ġloc ator
End Of
MI S
MI SS
Fe ed
sb j
Ġconf lict
Ġfra g
Pri mary
Hel lo
artist s
sess ment
Sample s
priv key
Struct ure
Coord inate
Pix map
Global File
produ cer
Ġfast q
ĠFI X
stddev s
Edge s
Ġattemp t
Fra gment
CER T
Ġrecipi ent
Expect ing
STY LE
' /
4 01
I E
P latform
S ort
i min
å Ĭ
Ġ literal
in y
un hexlify
get text
Ġp w
Ġp sd
Ġp oll
Ġp erson
Ġin ds
mo bj
Ġ[ {"
Ġf path
") ;
il s
var args
In c
Ġ: ].
ca ble
sy mb
ĠS p
Ġbe low
ĠP h
pop en
tra versal
Ġk appa
Data Array
Ġsub parsers
Ġ\ "%
RO LE
go id
Sub net
ĠL iteral
Ġ6 55
Ġblock size
US H
sym m
obser ve
cla zz
syn set
Ġloc ate
RI TICAL
Stream Handler
duplic ated
Ġtx n
prun ed
ĠFor mat
datap ath
simp lify
determin e
fron tier
ĠHe ader
Obs Track
STO RE
H G
L H
P lan
S cores
V m
Z ONE
c amel
Ġ light
ar ded
al one
con crete
ri tical
data file
to pk
') ;
um ing
mo ved
file handle
app lications
Ġc ancel
vi gation
ba z
url safe
am ing
Ġst udy
sc en
Ġe ff
Ġy i
tag ger
sen sitivity
IN ST
reg ression
ok ies
ST ATIC
ded ent
ic ense
bi tr
src dir
Ġsh utit
ĠRe mote
access or
book s
cr val
Ġauth ors
Ġexp anded
Ġle ading
quali ties
Fil ters
Ġti p
Ġ[[ ]
sb ml
CI M
rx n
Dire ction
GR AM
Ġsim ulation
BE GIN
Ġzone file
Ste ps
Ġexpi res
warm up
SCRIP T
PyCdlib InternalError
Ġwal k
Ġden om
PyCdlibInvalid ISO
Train ing
" [
: ]),
F inal
P AN
b fd
c w
d log
l id
n h
p ho
w el
y t
ç »
Ġ ter
Ġ Unable
Ġ aliases
in dep
st ime
st rerror
li q
ra s
'] [-
mp i
mp state
Ġp ast
arg types
append left
pro duce
sp on
fo x
Ġm asked
Ġw ell
'. "
Ġde tail
ep ub
ĠS top
Ġv pc
sen ding
Con tact
ten s
ori zed
cy c
ĠI t
eri odic
Key word
ĠEx it
16 8
thread ing
bind s
Ġwork s
quali fiers
clu ding
actor s
Auth or
multip licity
Ġmeta var
("/ ",
rap id
trip les
Clo sed
Be fore
Ter min
mil lis
Ġrelation ship
RUN NING
shif ts
Ġ`` _
inherit ance
Ġspli ts
Wal let
desk top
Ker nel
Review ing
sbj ct
- "
? ",
C p
_ ='
c tive
g mtime
m peg
n ro
re raise
on sets
al location
le a
ro ck
() ')
li ghts
ch g
ct ree
'] /
Ġp ur
th en
Ġ" ;
op timal
Ġf u
format ting
Ġre ward
Ġm time
size of
sc m
do g
sub title
Ġ: :
ces ses
cli m
ĠT ri
tra cked
Ġsub mit
Ġ[' %
post fix
fla v
tor rent
Key Error
Ar r
mis match
bar code
Ġrun ner
est imators
TR L
nan max
Ġiter ator
ĠIn stance
pkg name
redu ction
Ġwork ers
Ġstd dev
Message Box
band width
ĠCo uld
VI EW
dimension al
SA MPLE
Ġdisp atch
sf tp
Ġscal ed
Seri al
ane ous
ĠInter val
GEN ER
ama zon
Ġqub its
HIG H
Require ment
Spect rum
unders core
suf ficient
( .+
) ==
. /(
^ \
_ {}_
b as
k nn
l us
r in
w ant
æ ģ
re covery
re jected
in ations
st ress
ti al
an alog
get ting
to csr
Ġs olve
os c
Ġd n
per mutations
index ing
Ġ# #
do ts
user info
gr an
Ġdi alog
ĠT YPE
uni prot
call ing
ĠM ust
Lo ss
Ġal ert
Par a
ĠB ack
Ġsub class
Ġsub stit
De stro
FI RST
Get Value
top t
upper case
sent inel
Ġret ries
Text ure
ld p
Ġdate util
Ac tivity
Ġup grade
samp s
fc ntl
communi ties
Ġkw s
Gener ic
Do es
REC ORD
Ph ase
resample d
Ġreci pe
Ġstride s
Pe er
MULTI LINE
Cre ation
Cat alog
fami lies
Destro y
" (?
F G
M i
O ther
P lace
P DF
S elf
d sa
h box
n tp
Ġ question
re qui
le e
co pt
ro ke
() ].
ap ert
(' ['
[' %
Ġp x
um bs
set Results
Ġ% =
ot onic
time period
ob ao
Ġw f
In clude
sub system
Ġe qui
ho urly
base path
ĠC l
-- ')
ĠE nd
ĠE ND
spe ll
ĠA LL
Ġch at
root dir
ĠD own
trans f
ll dp
exp orts
Ġal g
edge color
const rained
:// {
Ġapp lied
TH READ
expand vars
EX CEP
mut ually
Ġlon ger
Bo th
Table Name
Ġcor r
Ġcor pus
('_ ')[
Connection Error
car rier
STR U
\' ',
CONFIG URATION
Ġstyle s
Ġseri alized
buff ered
Work flow
integr ate
criter ion
ellip se
Ġhg nc
individ uals
æģ ¯
setResults Name
* _
B H
G UI
L on
M X
P ay
U D
V a
V ect
c rt
p vals
s warm
Ġ variants
ret ention
Ġ' ']
Ġs un
Ġ" </
path way
Ġf lip
Ġc rc
out path
Ġre name
Ġre action
sh ear
add on
Ġd eno
pa int
Ġ/ *
ca ches
fil ing
ĠC LI
lock file
Ġset s
St andard
seri e
AR GS
Ġas signed
AC ES
parti cles
ĠL e
manager s
fra ctions
Ġ-- >
cr d
.* )
side s
bad ge
56 78
MI C
Sc ene
Ġdistance s
predicate s
Conver ting
Ġcla use
modul ename
Ġexact ly
ales ce
descend ants
perly Configured
synony ms
Ġperc enti
Ġasc ending
! <
$ ")
> [
A ge
B ed
E poch
H int
K B
a h
c rash
e igh
g ss
h ess
n ans
s ma
v b
re ed
li gh
as ser
data bases
to py
str y
Ġb ond
out files
]) -
sp lice
sp ines
bu st
add Item
__ ('
Ġde fer
cur ie
comp artment
Ġ2 000
Ġe dit
Re ce
temp s
ĠS pe
Ġdi git
ph inx
uni verse
sta ging
ST AMP
auth n
ĠF loat
pri ori
ĠI s
Res olver
Ġcomp iler
Ġout dir
indi cators
PE G
upp ress
Mo use
Ġopen ed
alg orithms
Ġblock chain
sym links
Ġclass name
Ġextra cted
ĠCo mple
card inality
Ġskip ped
separ ators
("{} :
Ġhist ogram
Ġ'# '
Ġmime types
('| ')
ĠContent Type
ambig uous
Sw itch
ĠFe ature
knot vector
B ATCH
M alformed
O LD
P rd
T MP
f str
g allery
p data
p sa
z max
Ġ quantity
Ġ letter
Ġ ],[
in ed
de an
id y
Ġ' ..
el ts
Ġs v
um mary
Ġ" '"
mo s
Ġb el
pro ws
sh ap
il ation
qu als
am ble
Ġ2 7
Ġg u
Ġg pg
Ġg andi
md s
Ġcon fidence
cli dean
Ġse ason
current Index
ID X
qui z
ĠR el
Co lour
De ferred
open ssl
Ġsh apes
Get Point
Ġpy cbc
pair wise
'\ \
Ġgroup by
Ġso ft
By Id
sol r
roll ing
VAL UES
aggreg ations
va grant
Method s
integr al
alph as
swap axes
Ġcap acity
Rule s
Ġgate way
Ġboot strap
quar ter
tlen eck
Ġprox ies
Dest ination
FLO AT
ĠImpro perlyConfigured
( ...
* ",
; ',
= {})
B ro
C ent
E FF
N I
P atch
V is
_ .__
b log
d vs
d theta
d bus
u k
x v
x fer
y thon
ä ¿
Ġ ht
Ġ Try
re lay
in dependent
or ph
() *
to array
ma de
Ġb rowser
Ġm ult
Ġt enant
pr s
[" __
ac s
row se
om it
IN F
ph ys
sq s
Res id
Ġobj ective
hist o
bit coind
Not Set
cei vers
Ġwork space
Ġgener ation
Dir s
rho g
We ek
sat rec
subscri bers
Ġraise d
chro me
Ġreal m
Dyn amic
outcome s
Ġba sic
Comple ted
Pix el
STAN CE
######## ########
gre y
BIN ARY
Bl ue
ĠOut put
RDF Datetime
PACK AGE
epi log
ĠVAL UES
ĠTOP Request
! ='
" $
+ ")
+ (\
; ",
= ("
= ")
C SS
G uest
L iteral
b qm
d name
k ron
s lit
v pn
Ġ å
Ġ fil
re positories
ur o
li x
Ġ' ['
ut ors
(' //
con da
Ġin fer
um in
op atch
key name
out side
Ġ* /
he app
Ġd h
Ġd store
ren derers
per turb
pre amble
). "
In dx
from buffer
Ġth resh
Re pe
Ġg p
Ġg radient
ĠS O
im ate
ab ridge
mi b
tp m
ĠM em
iter ate
SE P
SE NT
dire ctions
Ġen countered
man ent
seq res
TI FI
Time s
Ġsi mp
desc s
Ġ(' %
Ġreg istration
sm allest
TA IN
Ġexp licit
)" %(
BO X
lig ol
MI ME
Ġcalc ulation
Ġclean ed
Ġsim il
adv ance
IST S
("/") [-
CONNE CT
NET WORK
Assign ment
wor st
" <
? %
C ti
E LE
G u
M G
M ARK
S lice
V ED
W M
Z ED
m ile
p type
Ġ che
Ġ UN
in ame
st u
en h
di co
si cs
get Name
con solid
as signe
Ġin ventory
ma y
ul ing
ta obao
mo other
app lied
op ub
Ġf ut
tr ading
ne monic
sp rint
qu antile
is digit
Ġ_ )
ext re
Re dis
ac quisition
ĠS N
ĠC ustom
RE SH
ĠE mail
ĠE mpty
ab b
lat lon
OR S
ys cale
err back
ĠG ot
AN ALY
Ġtext wrap
fini ty
train able
af fi
au gment
LI G
Ġne ver
Ġinter faces
Ġcol l
Ġspeci fic
({' _
reference d
40 3
Ġ9 5
cla uses
ĠQt Widgets
pat t
('" ')
Dep loy
dh cp
Ġacc um
neur on
Sa fe
Man age
MAN AGER
Connect ing
undat ions
inten ance
ENABLE D
gat k
* "
8 00
D ays
J Link
P hoto
R ON
c gi
d scp
h oriz
p fp
v args
x or
z ers
z ij
Ġ ent
Ġ loads
Ġ license
se mantic
re act
al ong
Ġ' >
[' {
Ġp lane
Ġ" /%
key space
Ġb ench
ss a
Ġre ferences
il x
Ġa ck
Ġw d
max iter
__ '
min val
from file
from keys
cs u
Ġcon struct
ab bix
Ġl ats
Ġl arger
ang ent
remo val
ĠM in
Ex ternal
Pro b
Res p
br id
Ġmatch er
ud ents
CH O
Ġsy mpy
ng l
Ġcall s
drop ped
40 96
Py Funceble
PRO PER
ĠInvalid Argument
("- ")
Token s
DATA BASE
evalu ated
Ġcho sen
CP U
under line
+" /
Ġdx py
Call ing
/" +
Ġexit ing
follow ing
Ġderi v
Ġorient ation
La unch
cedu re
Mes h
gai a
Pmt Inf
PLU GIN
ĠFIX ME
B P
C r
F ocus
N x
R ad
T F
c delt
e y
f us
f min
h essian
p cs
r conf
u ing
Ġ our
Ġ tran
Ġ utf
Ġ adjust
re cover
at ol
al lax
ti a
lo ver
ro oms
name dtuple
ch irp
Ġ' "%
un packed
un certainty
get Object
con sum
]) +
sp w
qu ants
fa i
is at
ig ar
Ġ{} ),
new name
Ġdata store
Ġg ain
fun ctools
sen try
check ing
AT T
sign s
Ġse qs
Ġk ill
ĠD el
Ġ3 65
ĠR a
child Nodes
AR I
sq r
cat ter
open ing
cor ners
Ġj ava
Set Value
Ġun able
mon g
Ġret val
sv m
cr pix
Qu antity
Ġsc enario
ket ch
IL L
Ġfull name
Ġclo sing
Ġtri al
Ġti cket
Ġkw arg
Ret rieving
INTER VAL
Com bo
ĠTime out
CLA S
Ġreduce d
Ġcorrect ly
altern ate
Coord inates
transl ator
sibl ings
vox els
ske leton
******** ********
phan tom
ific ant
vow el
tear down
A rc
C V
C RITICAL
H idden
J O
Q T
f pr
j object
k max
u ds
y in
z ure
Ġ radians
in asafe
at m
ti ds
() +
li ation
si vely
con fs
ul ly
ul ong
Ġs vc
mo f
Ġ[ ("
log like
log ies
Ġre load
Ġa io
), '
Ġt l
Ġto lerance
ho ver
Ġ[] ;
ax vline
gr ids
ĠC all
sen ts
im mediate
=" /
ĠT arget
rec order
ĠN X
prefix ed
cent ration
ĠO ver
Ġcur rency
AC TIVE
pub sub
Sub scription
Ġsp atial
sing leton
Ġret rieved
Ġtra j
Ġma de
sym metry
Ġ"{ :
(', '))
Le g
Input s
Message s
Reg istration
bg color
Range s
dete ctions
Ġeval uation
Gener ate
chro ms
IF T
Ġalign ed
tun ing
contour s
Ġbro adcast
Initi al
Diff e
ĠParameter Error
conflict s
declar ations
ĠPO ST
SetInput Data
ligol w
$ "
1 30
= (',',
C a
C la
D on
H EL
\ -
] [:]
b locked
k dims
m ma
n max
o h
p ly
s se
Ã ©
at an
st atistic
de cls
ro ster
'] )))
Ġn rows
Ġp tr
op j
Ġf ri
Ġc n
Ġc alibration
Ġre served
Ġfor ms
Ġa ir
add Cons
pr ints
Ġto ks
Ġx x
pre ce
user data
Re ason
Ġg s
ali b
Ġex cluded
Ġpro tein
ĠT IME
gen s
der ive
Ġ3 3
net mask
Ġal bum
AR RAY
Ġco erce
Ġ'% .
Ġ4 5
De coder
ĠG amma
Ġend s
Ġsh utdown
Ġun supported
Ġindex ing
led ger
over flow
ĠL abel
non local
*( -
CE L
Ġbo ard
flu ent
]* \
Ġ", "
writer s
ach er
Ġhash es
Ġexec utor
('. /
Ġwindow s
Clo sing
cip ant
Ġpe p
('= ')[
estim ates
Char acter
compound s
ado op
blank s
Ġclose st
km ip
gu ard
TRA IN
ĠApp lication
ĠAc count
Ġmultip lier
+ ]
? :
B inds
H ex
K D
M ath
S tri
V ID
Z IP
b etas
c lin
e of
g lo
h b
w ks
å ½
å į
æ ł
re use
de cimals
dat ed
un mapped
as numpy
Ġp si
') (
arg list
Ġ" ="
path To
ms h
ol dest
ob ox
list ed
Ġd fs
kw only
max s
Ġst reams
py lint
pre cip
sub menu
Ġ2 04
lab eled
Ġth ree
Ġv c
cli que
ĠP ID
ĠP lugin
ĠA S
hand shake
replace d
gin x
exp num
Ġ< !<
lu a
number Of
Ġsub j
Ġ4 04
Res olution
Ġj id
go v
tool tip
encoding s
Ġac curacy
Ġma v
Ġcode c
TH E
meas ured
book mark
termin ation
keep alive
Ġmap s
PRO FILE
syn ap
Ġnd min
27 3
mar ked
ye sterday
Ġregex p
Del ay
hum idity
summ arize
Ġplace holder
spl unk
ä» ¶
Br ush
Ġfore ign
SECON DS
SYM BOL
Github Object
# %
( {}
A W
B F
C ross
E st
L icense
O ld
P N
P adding
X i
[ {
d sp
g nore
g loss
h sm
j ax
s ns
x id
x sl
å º
Ġ entities
Ġ live
or row
ra mp
ra ction
el b
la ci
arg name
set Name
Ġc nt
fo ur
add str
fig ures
Ġr sp
sub classes
Ġe tag
Ġg pu
Ġg aussian
by pass
Ġcon fir
inter rupt
ĠP arti
ĠP IL
Con version
ID S
Ġ3 6
exp lain
Ġal go
ĠF ore
Un handled
ĠR andom
[:, "
gra ce
Ġsub dir
stream ing
pk cs
AC H
unique s
ical ly
Ġ"{} ".
grad ing
Bo ot
dic titem
Ġproject s
plan ation
201 6
separ ate
contain ing
Ġcalc ulated
Ġtz info
orth o
Parti tions
([^ \
Ġinte rest
quick sum
ĠMe thod
Predi ction
Ġpercent age
acces sion
Ġsk learn
Ġoptimi ze
marg ins
wavelength s
Perm Shk
QUE UE
ĠND Array
E DI
G iven
M ol
P F
T ick
T XT
T REE
b read
f an
f inger
f onts
j unction
k ra
l cs
l ations
n ullable
p ressed
t te
x r
Ġ fid
al erts
de viation
return ing
get attribute
get boolean
', ))
arg count
set timeout
Ġc ron
sp lay
qu ential
kw d
ass ume
__ ())
am t
red o
py psa
ust ed
im era
Ġl hs
ST ACK
so cial
mt f
10 5
open id
Ġcomp iled
CO OK
Key board
the re
cp p
Ġ'/ ',
PI C
Ch at
cord ance
Ġac tivity
Ġ'_ ',
cos mo
Ġso mething
force d
skip ping
acti vities
Ġpri v
AP H
diag nost
Sy m
Per form
Ġig noring
Ġchunk size
Al pha
reason s
repe ats
Exec ute
Exec utor
Ġindi vidual
Ġct ype
CI I
theme s
CA ST
Sp atial
Conne ctions
dup s
BY TE
equi valent
equ als
ĠDo cker
ĠNO QA
Ġspli text
Ġmig ration
Depend ency
ĠVER SION
* ((
C Z
C DR
F amily
T COD
U AL
a cion
f max
g rep
g pio
k al
l un
n aive
o gen
u fact
w anted
y ak
y aw
} |
é Ģ
Ġ Trans
Ġ quad
Ġ grouped
se topt
al ancer
co ffset
con currency
ri ghts
data Type
(" ""
Ġ" ).
ol ated
ob o
Ġm ight
Ġw ild
bo ts
sub key
Ġname db
ĠS ite
ph p
']) [
mi cal
hand ling
ĠD esc
call sign
Ġ3 5
bin count
ir sb
ant en
ĠB atch
Ġj wt
mer ger
over lapping
ĠL ink
bl ing
Ġreg ular
hex sha
pp f
cluster ing
Ġ'_ %
amp ling
ĠIn t
ĠIn teger
('- '
DO M
Ver ify
sol vers
mm ar
Ġtrans formation
Ġmark ers
Source s
ĠNo te
ĠLo ok
Ġme mo
Do cker
Ne g
thro ats
Ġsw ap
Ġcap tion
uu ids
UNI X
Sec ret
tan h
cen tered
chromosome s
WI TH
Ġkm ip
Star ted
FACT ORY
Ġpress ure
çĶ ¨
CONTRO L
ĠBin ary
TAIL S
MISS ING
' $
+ (?
. "))
A Y
E p
E qual
N L
P lay
P otential
b lit
c ms
c Func
c ands
d ss
j itter
l pd
n ational
p map
p tp
s andbox
u ght
w args
x range
z ations
ä ½
Ġ Tr
re boot
in gest
er ation
or ry
or test
ro s
)) ;
un parse
un subscribe
'] [:
Ġn axis
(" :
ul ty
set Data
par alleli
Ġb ank
]) /(
Ġ- .
sp er
Ġ# %
Ġ{} "
sa v
sa ving
du cer
od s
ca ff
Ġor bit
Ġg ive
ph en
meth s
ĠP DF
ĠP ATH
AT AL
ĠA ll
Ġch ip
uti ve
exp orted
ĠN aN
make dir
post process
AN NOT
Se par
Ġat las
Ġpy tz
Ġ5 9
zip ped
ĠU P
pix map
dis position
byte order
spect ral
ach ing
poly nomial
Ġ>> >
SO L
Bo olean
Ġover lay
ĠPro gram
Ġcontain ers
cm c
Ġunicode data
course id
ven tion
ĠPy Funceble
Ġab ort
Ġcho ose
backup s
CI J
submit ted
CF UN
AUT O
Over ride
ĠHTTP Error
fu sion
SR C
dele tions
Extra ctor
Ġcent ers
through put
("= ")
satel lite
Ġflo or
Ġtwe et
Ġinstit ute
ufact ure
B est
C DF
E ither
F inder
M C
N F
R NA
S l
S DR
U sed
b ble
b attery
d fa
f pars
h or
i ver
l ask
o le
x FFFF
z ap
Ġ artist
in er
in validate
sel ections
me chanism
di vider
get frame
get pass
ra ck
'] ][
Ġi mt
end a
up Error
Ġf ront
Ġc art
pro mo
sp rite
Ġre main
no data
no minal
vi ations
Ġd j
Ġw p
Ġst ick
Ġde scribe
Ġh op
var y
Ġname op
ĠS ET
ĠC ache
ĠT ensor
RE ST
check points
lib c
host ed
LE ASE
Ġmax len
child s
SE ND
No thing
Invalid Argument
hi ve
Ġtoken ize
ele v
TT ER
own ed
User Error
ES C
Ġ"{} :
}\ '
rv a
Ġoper ations
PAR AME
marker size
intern als
chr one
200 4
ste md
switch es
Match er
ln k
Ġct rl
Fa ult
dynam ics
Ġqu it
geno types
Component s
ä¸ Ģ
Ġob tain
Double Vector
Public Key
UST OM
ĠSkip ping
Ġestim ate
Ġassoci ated
observ able
Pipe line
ĠWindow s
( ([
/ _
A vg
D ER
H I
H older
M any
O G
P ur
T x
V ars
] ]),
b file
f all
j c
k le
l z
r mag
t rend
w ts
Ġ union
an ame
() /
ad r
un escape
pe ff
Ġs b
Ġs aving
Ġ" ?"
up sert
key pair
key stone
ati me
out name
sp ent
is y
Ġd dof
], '
ba bel
rom an
Ġr p
Ġde le
Ġde ad
Ġh appen
Ġe f
ho les
cs m
if s
Ġpro d
ĠT uple
ĠP I
Con sumer
ber os
ĠA uto
St ates
ron s
extra ction
posi tives
AR N
lu on
av oid
ĠI S
sk i
Ġj inja
... ".
Me ter
PO L
:// ',
ĠU sing
Ġac ces
bit stream
imp ro
meas ures
commit ted
'} }
PAT CH
acti vated
Ver bo
AS CII
diffe rent
stand ardi
Ġdat as
basic Config
Ġbranch es
ĠEn try
Ġla zy
ä¸ ª
Speci fy
Ġpred s
Comple te
RGB A
sector s
Ġ({}) '.
Attemp t
ĠObject Id
Allow ed
ĠRo le
Cy cle
PyCdlibInvalid Input
Ġestim ated
Illegal State
setCurrent Index
æĪ Ĳ
transpa rent
Ren derer
D NS
E OF
E ffect
H ome
M a
M icro
R outer
_ ")
_ ",
i sh
i object
m h
s olutions
x is
x form
in bound
ar ms
de coding
ti tions
)) +
(" &
Ġi py
ter o
log it
Ġc ube
Ġm ir
fig s
"] }
Ġh int
print c
ist ed
Ġg c
Ġget ter
Ġel lip
Ġcon ditions
ĠP DB
mi togen
lob ject
Ġpath name
view port
Ġ{' _
arr s
... ]
Ġres ample
Ġwe ighted
DI ST
est ed
plu g
lt k
Ġvar args
rm dir
kind s
Ġidx s
}} }
}} ",
plat forms
Can vas
green let
Ġclean up
decor ators
article s
Parse FromString
fold s
crop ped
Ġuni form
Com mon
Ġsql alchemy
hyper visor
mil liseconds
colour s
suggest ions
Wh en
Ġexpect s
uest ion
Ġarc name
lick r
craw ler
objec tid
SCA LE
nucle o
fto ver
LIG HT
* )
- {}'.
2 11
G ATE
N B
S alt
X R
a head
c sc
d rain
e o
f le
g db
g hi
i max
j un
j am
j peg
n ight
n io
o red
p nl
s low
v host
x scale
ã ĥ
å ¼
æ ī
Ġ observation
Ġ velocity
re li
re servation
st retch
li ance
ch unked
Ġ' }'
get parent
pe ople
ra c
con current
'] [:]
Ġn orth
Ġp rec
(" (
Ġs am
op name
ot u
Ġ( ((
log x
out f
sp anning
no s
no va
Ġd P
ff s
[" %
us able
00 5
Ġr id
Re ci
om l
ĠS tri
ĠS Frame
da cl
Ġcon tour
Ġse cs
Ġl al
sor ter
Lo cations
ĠR ate
hash able
Ġconfig ure
ĠI tem
ime d
Ch ro
UN T
loop back
cc d
ele c
exist ent
fer mi
super class
adj oint
ĠIn iti
digest s
itch en
ĠĠĠĠĠĠĠĠĠĠĠĠĠĠĠĠ ĠĠĠĠ
short name
sur vey
bed s
AM S
rank ing
Ġorder ing
+' _
Tran Shk
ĠFile NotFoundError
Dis abled
Ġscope s
bridge s
AG ENT
Ġpl ural
mf cc
Ġrdf value
ĠCON FIG
BACK END
Ġorg anization
Ġcre ator
Ġwal let
CLO SE
Analy ses
foot print
WIN DO
Ġqub it
spar ql
undat ion
Ġcred s
SCO PE
Ġpas sphrase
develo per
Attach ment
QUO TE
æį ®
dynamo db
EndOf Prd
C ar
C trl
F s
K it
R DD
X t
Y EAR
b cc
i fft
n live
p ure
y z
Ġ xt
Ġ lag
or acle
ret o
di e
ut t
get list
ri city
th ers
th rottle
Ġin cluded
Ġs ps
out dict
pro posed
sp ring
Ġre ceiver
Ġm l
Ġm il
pa id
ci lity
In d
Ġg am
np z
Ġv el
ml st
IN IT
Ġthe y
gen cy
Con tract
war c
Ġargs pec
send all
32 0
Ġz order
ĠI ter
coord inator
identi fy
Ġsh uffle
Se g
not ation
rol led
TR UE
." ""
Sh ared
az y
win ner
Ġcmd s
Content Type
CK ER
tar info
Ġtrans formed
separ ation
SA ME
Ġkw ds
Task s
Su ch
aut ob
lb ls
ĠCol lection
Ġpass wd
adv anced
REF ER
Ġrequire ment
Ġdiffe rence
Ġexample s
SPE C
suc ceeded
Mid dle
ufacture r
B UT
D f
F igure
L AN
M ig
P NG
T Z
T ot
T ari
U V
V ATE
b cf
f rozenset
h ort
i at
k nowledge
n row
r ans
v f
y um
Ġ etc
re ceivers
or o
fi ce
() (
un read
'] +
val u
Ġs ke
arg names
Ġ" @
Ġ" ))
app id
Ġb io
tr n
sp hi
Ġre size
Ġre store
__ "]
bo keh
"] *
sc oring
Ġh uman
cur se
sub fields
params dict
ĠS ample
{} {}'.
RE TRY
ĠP lot
)] ['
trans mit
ĠM et
pack er
ĠF uture
DE C
Ġfrom list
Par ts
ĠG en
xml str
ĠH ost
not null
disp er
ĠQ gs
cre asing
11 11
LI BR
bro ken
bro ks
align ments
ĠĠĠĠĠĠĠĠĠĠĠĠĠĠĠĠ ĠĠĠĠĠ
EX TRACT
Ġle arning
Sh are
gt k
setup tools
FO LDER
cn f
ĠPro gress
Inter active
ĠDe precationWarning
CS V
classi cal
aa a
recur sion
average s
Ref resh
kv store
cancel led
ĠTime Series
Ġlanguage s
charge s
pas ses
altern atives
WE B
nex us
SIGN ATURE
ĠLine ar
revo ke
Conf lict
Ġ'| '.
Extract ing
ĠOn ly
ANALY SIS
B lob
L R
L c
R ATE
T wo
U r
W CS
c ust
k afka
l h
m va
r k
r data
s fr
y o
y out
Ġ ce
Ġ LOG
Ġ },
Ġ ("%
on nx
st h
ti po
un ge
un compressed
ra ses
con cern
Ġp n
Ġp illar
to Python
ex tern
end Time
mat ically
path spec
ts h
par c
log z
log log
Ġf b
ne igh
ve to
pro grams
is ation
he mer
pa ging
am ber
Ġde sign
Ġh l
min imal
load ers
sub dirs
Ġe vidence
ac ct
rep lies
da mp
port folio
mi tives
ang ing
ĠN ull
ĠR ow
seri alizable
build s
fn match
Ġsub type
cat ing
01 6
Di Graph
stream er
Ġj av
den s
go to
AD MIN
speci fier
Ġmsg s
Ġinter active
edi ted
]* )
HE ST
Ġremo ving
scheme s
driver s
Ġconst s
scri ber
Ġcallback s
nam ing
Ġpad ded
Ġme t
Work ing
respon ding
Ġfreq s
vor onoi
Poly Data
Tool Tip
Ġrdf lib
Lvl Now
ju icer
ATTRIBU TE
ĠSto re
NORM AL
Inte gr
EXTEN SION
laci an
CFUN CTYPE
, :
, :])
2 24
B RO
C amera
N t
O TH
R AD
W rap
a str
j df
k df
l name
m us
r index
r rup
s we
t name
é Ĺ
Ġ qual
in come
de e
di lation
ch astic
mp c
Ġp acked
Ġin vert
Ġs ue
Ġ" "),
set Style
ck pt
key code
log p
sp f
Ġm en
Ġw ind
Ġw hole
Ġto pics
bo ards
Ġst rain
read D
ip address
ax hline
write line
md f
version ed
Ġint ensity
fix es
ĠC omm
ml t
ĠT CP
color ize
ĠE C
pop item
tra vis
call ers
so mething
Data Base
ĠF ast
ĠR GB
task id
Ġpre order
Ġon to
ĠG O
cor n
Set up
act s
Ġpy game
---- -
Ġ8 6400
io u
cap ability
tab ulate
mu sic
Ġblock stack
OP T
Ġ"{} /
Comp uting
Ġgener ic
FO RE
App let
nor med
ptr m
Check sum
sd ss
Ġnetwork x
asy m
ĠRE T
ĠAPI Error
expect ation
invo cation
CR C
JSON Encoder
Be arer
capt cha
Copy ing
ĠAs set
photo s
mil ler
CHAR S
Initi alizing
Ġoptimi zer
coup ling
bri ef
ja cobian
anom aly
IDENTI FIER
defin es
æĸĩ ä»¶
* ")
. ),
4 32
C alled
D H
D r
E Q
F ATAL
L ater
M r
O AUTH
P V
W r
c ti
f etched
i ko
l xml
n th
o sh
p ants
r z
t one
v ld
x dr
z r
å ľ
Ġ vari
Ġ tex
Ġ lexer
at um
st al
or f
me l
de al
ge ted
un stack
Ġp en
to ml
Ġ" )[
ser vo
and oc
ve al
ren ts
Ġt bl
ba ms
Ġw ho
Ġ{} '
do e
In ference
ca ve
ac cel
ali ased
valid ity
map reduce
ĠS tor
ĠS Array
Ġv x
Ġcon texts
Ġcon sensus
loc ated
ly rics
gen v
ĠE l
token ized
work s
be aring
ĠD yn
host ing
create Element
Ġmax val
ĠN ULL
ĠF low
10 6
ns map
Ġat tached
img ur
bar rier
('% (
Ġ'{} /
MO DI
Up per
Fun ctions
DEFAULT S
PAR SE
syn chron
TIME STAMP
Ġmark up
separ ated
play ing
sat uration
Match ing
mx net
predict or
checksum s
ĠName Error
supp orts
Norm alize
Ġdid n
SUB JECT
Ġstrip ped
substit ution
sampler ate
simil ar
Look ing
distribu te
inser tions
Ġproba bly
Fra ction
Private Key
PUB LIC
Ġauthenti cate
Ġpie ce
DOT ALL
predecess ors
Ġvox el
ĠMem ory
Tari ff
. *(
1 12
C ls
D ONE
G ro
J o
J ava
J WT
R ank
S upport
X IS
a q
a cls
c ance
f val
f list
i an
j ars
m Nrm
o ids
s po
s dist
y x
Ġ vertical
Ġ verification
in list
ar o
le ases
get Text
for tran
Ġn v
Ġn ic
ex trap
') ['
Ġ" .")
ser vations
Ġb id
it alic
ub er
add Row
"] ])
00 4
new path
ci a
cur s
logger s
Ġg al
write to
ĠC ore
IN TE
RE DIS
ĠE dge
ST D
job ID
ĠF OR
ĠR PC
Ġco pied
Ġco okies
LOG INFO
Ġsub s
Di ms
ĠO Auth
FI ED
== =
metri es
... \
style sheet
disp lacement
25 4
ill ing
16 9
let ons
ĠU SER
dev s
For ce
nan min
nan mean
Ġcheck er
ni cs
NO TE
.* ?
Up dates
(', ')[
Ġ7 0
Ġ>> =
Or d
Ġlon gest
PRO P
Comp ound
cn v
feed s
Meta Data
Ġrest ri
eq area
sr id
ĠDE BUG
So mething
Ġdocument s
("_ ")
Ġep isode
SK IP
Ġap pear
Pmag SiteRec
pas sive
SN R
uv w
Ph one
Clas ses
SPE CI
Ġamp litude
Ġnative string
Ġfasta file
Ġrecipi ents
Ġsan itize
Ġclassi fication
mob ile
inheri ted
RESO LU
apert ure
3 84
A udio
D AT
F in
M ar
S OR
S Frame
U BLE
d B
d store
g cs
k c
k pc
n ul
p sy
s ar
y lab
é ĩ
Ġ radi
Ġ entropy
Ġ updating
ar ation
me ster
ti ze
id om
ch root
un matched
ing o
ra ce
el ded
Ġs lices
Ġ" '%
set Window
mo e
out bound
time d
pro cal
he mi
ff mpeg
Ġde m
=' #
cur ses
ca us
ĠC R
sen ger
enti als
RE DIRECT
inter sections
ĠA sync
Ġch k
Ġk s
length scale
link ing
ĠM er
exp orter
su ma
use c
cent ricity
cor s
Ġcomp atible
hi er
ak ing
ĠL at
Ġro uting
CE PT
ĠRe port
ĠRe dis
lex icon
cr umbs
org ani
Ġvar name
high er
round s
web site
SP ACES
Ġ12 7
pen g
pm f
wi de
'' '
ĠSe e
Ġsign als
Ġtransform er
Glob als
Dim ensions
adjac ent
Ori ent
Wh ite
Trace back
Ġproba bility
Ġintegr ation
HIG HEST
ĠConfiguration Error
Ġcomple tion
Ġrece ive
Ġthumb nail
cogn ised
Synap ses
surro gate
EXCEP TION
consum ers
) #
B IG
B ITS
C ENTER
R b
[ __
a ment
c si
k min
n ump
n iter
q n
q ty
v card
x mpp
z ard
Ġ measure
st y
st udents
or te
le sky
di ts
di vid
di angle
return Value
ing ress
get source
get hostname
get members
val ence
th at
ex pl
(" )
Ġs olid
no dename
Ġa go
add Var
Ġh df
sub str
Ġ2 9
attr name
Ġe vt
ca x
Ġv endor
Ġex ceeded
shape file
Ġlist en
ec g
IN D
filter ing
Ġl max
ĠA ccess
Ġtime series
block Signals
Un defined
tain s
su sp
File System
ĠB e
br and
Se ed
cp ts
top level
ĠH ist
Ġobj s
sec utive
Ġwe ak
multi color
fore ver
DI FF
")) .
Index es
Config ure
own ers
tax id
TO DO
sim ulated
mid point
invalid ation
Ġsplit ted
ĠPro file
Ġbyte order
Ext ended
Ġ... "
Ġmark down
inte grity
disc ord
Ġposition al
play book
Ġren dered
Spe ed
Ġpe x
Ġbox es
Ġass oc
SM TP
para graphs
percenti les
hyper parameters
SOURCE S
WA RE
ĠComp onent
SN Ps
materi als
Tri gger
CONNE CTION
lambd as
cool ing
MEDI A
Sta mp
æĹ ¶
885 9
Ġdeno minator
4 14
D G
G ame
L ON
L ower
T rip
b ids
d ra
d ms
f cs
g mt
h v
n sp
n samples
q sl
s al
z appa
} &
Ġ ì
Ġ UTC
re order
lo an
id d
'] },
Ġp val
Ġp print
Ġp sf
th ook
ex tr
ex cep
mo der
Ġf x
Ġ1 50
sp dx
Ġ_ :
"] ='%
Ġst em
Ġst uff
=' +
=' _
ci te
Ġo id
fun ct
Ġy label
Ġv t
table Name
=" #
ĠT R
gen omic
Ġl p
LO C
bin ning
bi ases
Pro c
clo uds
Ġindex ed
ĠW arning
move Position
def ect
Ġmo ck
KE D
imp ute
Ġper ms
): \
calc size
EL L
sim ulate
Ġlib crypto
conv ex
conv olution
Comp ute
19 70
ĠData base
pick led
HTTP Error
emit ter
201 3
her oku
hdr gos
Ġph rase
Argument Error
diffe rences
bbox es
stand ing
rename d
xi li
docker file
WAR N
PS D
Mag ic
}] '.
ĠCommand Error
Ġconnect ing
ĠCON F
ITE BV
Ab ort
accum ulator
Ġtake s
Ġsee ms
agen cy
ĠUni code
CLU DE
presen ter
ALLOW ED
Lear ning
VARI ABLE
arri val
ĠDesc rip
BUT TON
readD word
' -
* ?
/ <
B ank
C U
D N
D t
G PIO
H oliday
M R
S Q
S parse
b ut
d Q
e ma
f get
h all
h rv
i file
t fi
t aper
æ Ŀ
Ġ LE
Ġ lim
Ġ annot
Ġ visited
at ypes
ar range
al ter
ti dy
ro o
() )),
li ef
Ġ' ]'
un ing
as p
mp ars
Ġin dicator
Ġs lave
set Icon
ser ving
par ing
Ġf ew
ne goti
he art
Ġd u
cal lee
ig uous
Ġt ur
our se
Ġh ide
node id
comp atibility
In to
ip ment
om i
ep hem
gr ph
Ġfile type
RE LEASE
ref und
arch ives
ĠA v
lob ber
local es
doc id
St atistics
ĠF A
ĠF requency
DE FIN
entry point
Pro jection
Ġ4 8
Ġas sembly
Ġan s
Ġj ar
right ness
Ġsh ap
mon itors
ĠH EAD
inst antiate
bl end
FF T
tool kit
Ġlog file
multi processing
lang s
tx index
Po se
mu ted
Request s
rot ated
Ġprefix es
Ġserver s
rout ers
VI RON
Code s
aggreg ated
ste re
certificate s
+" _
(", ",
Parse Action
Spe cs
Ġhead ing
tim ers
READ ME
Ġhe ap
ĠSub Element
Speci fied
compar ator
blacklist ed
olid ays
TRAN S
hed ral
à¯ į
Sm art
Ġtermin ated
Short cut
~~~~ ~~~~
Gra de
SUP PORTED
neut ron
ĠStruct ure
IMP ORT
Ġchro mosome
æĺ ¯
Plain Text
spon sor
Ġaio http
) ']
= \"
B rowser
C AT
C andid
C apt
G ORI
H P
H unt
P ick
P LAY
T D
b orders
f whm
h x
m name
p cap
x vals
å ĩ
re ferer
er ator
me ters
de w
de co
ch ol
)) }
Ġp an
Ġp ct
th ings
th reat
data block
ts k
log pdf
Ġc as
Ġc and
po ses
pro gen
os sible
bo ss
Ġh orizontal
Ġstr ategy
sub script
sub reddit
attr getter
mb i
Ġg ps
string ify
by name
][ _
ator y
IN I
IN S
RE PLACE
ĠP ASS
rec id
pop s
ĠD on
LO T
Ex ceeded
ĠN on
DE ST
SE Q
build ers
ps util
Di gest
Ġz mq
ĠG rid
ĠI F
Ġun idata
Str ategy
ĠV olume
Ġlog its
Ġrun s
proto buf
fmt str
fra cs
bit mq
20 4
Ġsu ggest
Ġso ap
this bin
Ġcl r
ĠY AML
ef ficiency
geo ms
patch ed
kernel s
ĠOr dered
Ġloc ked
variance s
Ġjoin ed
36 5
ND Array
Ġ$ {
decor ate
fq n
dri ft
Cal lable
Ġsupp orts
ero ot
associ ated
ĠDate Time
('~ /.
don or
Ġfo ot
Ġ'{}. {}'.
Ass oci
Eval u
Ani Rec
uby te
scrap er
depart ure
corre ctions
Da emon
LIBR ARY
" }}
0 40
9 27
B N
C lip
E le
M z
O Frame
S ol
e ve
m arc
o xi
p ump
v network
z min
} }'.
Ã ¶
å °
Ġ Transaction
Ġ visitor
Ġ ORDER
sel l
fi fo
ad verti
Ġp referred
Ġin sertion
app name
ot f
Ġb z
Ġre call
Ġt cp
url retrieve
Ġst and
sc si
Ġr f
Ġde serialize
ci f
In line
Ġe gg
group er
om ial
Ġex clusive
ĠC SV
(( _
Ġcon tig
Ġpro duce
meta class
ject ories
inter act
ĠP a
ĠP RI
tra its
ME TRI
Ġ< /
pri vile
Ġco lored
Ġ'. ',
ĠB ound
Ġz s
AN CH
xml doc
En cryption
Ġj o
function al
cp c
mon otonic
ĠEx pected
Ġ'' }
Ġlog ged
LI CATION
For ward
Ġtra de
TR ACE
Ġcol lapse
:]) .
Ġfa ces
TA GS
mid i
cert file
Ġhash er
(? <
Ġgener ators
conver gence
Reg istered
neg ated
classi fied
Ġbr idge
ĠDi re
wave form
prin table
Ġrecur se
COMM IT
BR IGHT
equ ation
Ġ'{: >
FE ATURE
Ġwi re
Install ing
coup on
DEP TH
Ġrespon ses
STRU CT
HEL P
xili ary
" >%
' (?:
) %
, :],
5 000
: /
= (),
> ']
? ,
A to
D ense
J PEG
N ER
U i
U cs
V A
a des
b il
b ps
d X
d phi
n me
q emu
r vs
t file
ç Ľ
ï ¼
re ver
at ely
di ffic
si zing
Ġp ing
Ġp config
th readed
Ġin str
ma f
um ask
file info
par dir
par allax
Ġ( ~
Ġb ulk
po isson
ve ta
Ġa id
Ġa bi
os a
Ġd v
Ġd bus
date Time
Ġw ent
art z
Ġst roke
node Value
cur v
sub node
Ġth ick
sig num
tri l
fil ler
im m
Ġpro bs
RE PORT
gen re
back ing
Ġse ctor
arch itecture
be havior
Ġl m
Ġl xml
raw dir
ag ain
ĠM A
exp on
job Graph
ĠR DF
pri mer
with draw
bi ka
men tions
build root
]] ['
Pro ba
step size
Ġpre serve
AL SE
Ġsub domain
Ġ[' .
cho oser
Ġun available
ĠH DF
ĠL I
ĠL ambda
Ch art
UN ITS
Ġret code
Ġmo lecule
('/ '))
TT L
dis connected
gene sis
sql alchemy
limi ters
ĠCon v
pipe s
EX IT
Ġwidth s
Qu ali
install ation
Client Error
SO CKET
bed tools
clu sions
UP LOAD
Ġcor rected
Ġfn match
cn tr
syn the
sto i
Ġti les
Ġtree Error
nap alm
Exp and
Ġsm tp
Ġmonth s
Ġfactor s
('# ')
Ġsym bolic
LATE D
Ġmarker size
sage maker
deli ms
pep tides
Ġcom ma
particip ants
Ġhi erarchy
stick y
Ġwarning s
Ġwhite space
colli sion
Percent age
yak u
( {},
* [
B ig
E PS
H ard
K S
O O
P J
P ut
a ward
c ad
c log
c print
c nn
f ct
f ence
h ts
i tr
k pars
l gc
r ations
r ings
x es
Ġ AT
Ġ radii
se quent
in direct
er ated
st reet
me ms
le ad
de ath
ce eds
di ffer
Ġ' >'
Ġ' ...'
(' ..
un recognized
get int
get tempdir
con ta
Ġp lat
um s
set Color
Ġb n
Ġf r
Ġc lock
]) }
is bn
ord ot
Ġm ix
Ġm ysql
pr m
pa uli
ass calar
read ings
Ġr an
Ġh azard
ist ics
sub sets
sy mpy
ĠS Y
match ers
Ġdi visor
IN C
ĠE OF
sign up
Con fidence
ref lect
work unit
)] ]
trans posed
lat ents
lat ency
em is
ME NU
ĠF ail
ĠR aw
ĠB ed
De cl
ĠG ET
Ġend points
Ġout come
Ġun signed
fs m
NA XIS
CON TAIN
Log ical
sha de
Ġvalid ated
ws dl
CT L
leg is
mount point
Class Name
Ġauth orization
ĠĠĠĠĠĠĠĠĠĠĠĠĠĠĠĠ ĠĠĠĠĠĠĠĠĠ
14 7
HE D
Ġup stream
draw ing
Input Error
Ġgener ating
('-- -
ĠOr der
201 2
ĠOp tions
Ġele ct
repe ated
Sign ed
Link s
Validation Exception
Form Record
CP P
Function Name
sci ence
bc bio
Ġbl k
Ġlo st
spi ci
Ġqu eries
Copy From
att name
ĠSet ting
ĠSet tings
Ġexpi re
ITE M
ĠST AT
perform ance
explo rer
../ ../
MON TH
SECON D
datal ab
scaff old
ĠStor age
RESOLU TION
% .
- .
. )*
@ %
A re
C ut
J LINK
L ONG
P ep
P ack
R B
U DE
U DF
c z
g is
g ids
h ap
p gp
r idden
r fft
y c
Ġ ticks
re run
in spector
de compose
an ime
di sa
di graph
for t
Ġp rt
to il
ul se
ul um
Ġs nr
arg where
Ġ- --
ction aries
sh op
il de
is close
Ġd L
Ġw av
Ġr sa
do es
coun ted
ac ted
ac ceptable
ĠS tyle
ĠC irc
ref ine
ab sc
ĠA SC
mi os
tp lot
db c
doc str
Ġal titude
Co verage
DE TAILS
Ġnum s
dest inations
SI BLE
pol arity
Ġopen ing
can on
Ġinter sect
document ation
Ġ"/ ")
mesh es
Up loading
Qu ality
curr ing
}\ ''.
neighb our
sock s
dl c
Reg ression
Inter pol
HTTP S
Ġexec uting
lig ible
quanti ties
Ġrec v
play s
Ġdat ap
('[ %
Ġstack level
Ġpair wise
bra ckets
Ġdocument ation
Ġdete ction
(".") [-
Ġhex lify
Ġexpi ration
STATE S
occ u
Bit map
episode s
gas us
Word s
ifo s
åĪ Ĺ
gal axy
Ġderi ved
occup ied
à¯ ģ
ĠCur rent
Ġld ap
dbsException Handler
exer cise
Hi erarchy
metabo lites
Ġprun e
survi val
priori ties
consolid ated
Ġstick y
METRI CS
" /
" ",
0 25
B eta
D TYPE
F ront
M AR
O pt
O LS
Q TextCursor
Q uestion
S ky
_ :
a de
b len
g rip
h az
h adoop
j t
m nemonic
o cs
s db
s bin
v w
x refs
â ķ
æ İ
Ġ linked
se a
se ter
re x
st or
st ds
an za
co vs
co bra
ap k
ap y
'] (**
'] ]['
for bidden
Ġp hy
to String
') ]),
mo ms
type code
Ġf ar
]) ',
Ġ{ \
sh rink
vi r
is olation
Ġt qdm
code cs
Ġ{} ;
Ġ{} ",
py file
ure g
group name
cont rast
ca v
ca ught
wri table
ac q
tri u
json schema
write GlobalFile
gr r
Ġy es
query string
Ġcon s
ly r
ph on
RE AL
cmd args
pop ulations
ag o
doc graph
Co mb
ten ess
De faults
Ġon nx
Ġan ch
ĠG L
pk i
To Python
Ġpy lab
mis matches
ĠW AR
vector ize
:// "
io ctl
factor ies
For bidden
Ġne ither
bit wise
flu ence
off s
EX TRA
Array s
MO VE
DO CKER
DO UBLE
draw s
Ġstop ping
cla mp
PAR T
Process Id
HTTP Request
Box Layout
velo cities
200 1
simple x
Change s
bra ce
appro ved
DATE TIME
chro ma
Ġiss uer
Ter minal
Uni form
Ġmodi fier
Hist ogram
Cor rect
Menu Item
pied ades
Dec or
ĠParameter s
REGI ON
ĠAuth entication
Ġslug ify
Ġinterpol ate
rating s
Gate way
æľ ī
grow th
ĠMeta data
oq param
Ġtrun cate
Ġdecla red
Ġvisu al
Vect ors
' _
' ([
B T
C AN
C ached
D n
D ot
H o
P hysical
W rote
Y es
b ls
h ack
h dd
i qr
k ick
m map
r sync
s om
y pos
| %
ĉ ĉ
Ġ angles
Ġ identifiers
in correct
en coders
ar ma
de tailed
te p
li est
ad am
si t
un e
ra ke
con sistency
for get
Ġin ference
ex pert
ma intenance
Ġi opts
Ġs outh
set Visible
Ġb on
Ġf ingerprint
time str
col labor
il legal
ub dag
Ġd k
], )
red raw
Ġde cay
Ġh old
var Num
Ġth ird
mb ic
ip ap
ip addr
tri ed
json s
json ify
Ġ** {'
Ġpro pa
ab ling
pos ures
ĠA L
ag gr
wa iters
ĠN orm
Ġen dian
norm alizer
EN VIRON
Ġz f
spec file
Ġcomp atibility
AC L
mon o
ĠQ U
ĠQ Action
iv ot
na vigation
ĠU UID
pool ing
Ġsample d
install er
)** -
Ġit self
BU F
lap lacian
sock name
Ġany thing
As sert
BO LD
Job Fn
ĠUn expected
asse mb
xi ed
Ġsign ing
expect ations
Ne ighb
sky dir
Ġweb socket
Ġlo sses
zz le
tun e
prin ted
lica ble
!! !!
MQ TT
Ġconcat enate
Ip Address
oct ave
agp file
datat ypes
MAG IC
Ġcompar ison
ĠProtocol Error
mast ers
excep thook
' |
, ',
> .*
A u
E di
F ACE
M N
P si
Q Icon
W he
a just
b ang
b rowse
i er
k x
k ine
t ld
u ce
u time
x link
z fs
} ({
Ġ med
se mbl
at r
at able
de crease
li ze
li fied
(' ...
un ary
get her
con sent
Ġn at
Ġ+ "
to mo
Ġin ject
ex cl
Ġi fo
set p
Ġ% -
Ġb ag
Ġf type
it al
sh ader
Ġd up
Ġ_ (
url split
Ġw all
ind u
Ġst m
ray ons
). ")
ho re
temp l
ĠC I
ĠC IM
spe aker
Ġl t
ĠA C
Ġ3 4
so red
wa ke
ĠR ect
ĠR ange
ĠR SA
man datory
AL LED
Ġurl split
En ergy
TI AL
Ġend ing
Ġcomp uted
mon s
struct s
zip file
radi ance
---- --
PO P
:% (
20 8
Ġ'{} /{}'.
csv file
bot tleneck
HE IGHT
Model s
round ing
neighb ours
Pre vious
Ġbuild ing
('{ :
DS A
aggreg ates
contain ed
Ġtr unc
Oper ators
optimi zed
PC A
ĠLo ader
Search ing
appro ve
Ġsur f
Ġuni x
ose Version
Ġsym link
Ġyear s
pitch ing
AA AA
deli ver
Ġsat el
ĠST ATE
sla ves
Scal ing
comb obox
Ġcoef ficients
Ġvirtual env
Ġattemp ts
Ġfore cast
LABEL S
Wal ker
ran ked
Ġsmall er
ĠSystem Exit
TRI ES
osp f
EXEC UT
satel lites
develo p
Flu sh
Circ uit
ĠGo ogle
ĠSc ript
ZER O
electro des
ä¿ ¡
Separ ator
iner tia
Middle ware
ĠDire ctory
8 000
A cc
C nt
C USTOM
D UP
M u
P tr
P alette
V C
V R
V PC
W ill
X Path
a res
b x
b nd
b ene
d ask
e ager
f lt
h orizon
k el
l no
l lable
n q
n lines
o dict
u med
v ts
v ac
v rt
v center
x g
z abbix
ç ¬
Ġ ul
Ġ arange
re label
er as
or ters
ur able
co alesce
te acher
li et
Ġ' }
ad f
si b
un safe
ra id
Ġp q
Ġp hysical
Ġin crease
Ġin herit
(" ./
Ġs ch
type def
Ġf our
Ġc df
out string
one t
int ra
sp am
Ġre fs
col lapsed
ble u
sh allow
sh aring
Ġa f
Ġm f
Ġnp ix
url parts
Ġto ok
red und
Ġr ms
Ġr ates
Ġh c
sub string
sub module
Ġg au
Ġy c
Ġv y
ĠP RE
ĠP assword
arch ived
cmd list
pl g
Ġk b
ag reement
lot ter
LE CTION
bin ascii
doc name
find All
Ġ< -
:] ])
ĠR ule
Ġdict s
sq la
Ġan si
ĠG lob
Ġun defined
hi bit
down stream
pol ling
Ġtuple s
DI s
move ment
score r
Ġ8 5
String s
Ġne cessary
merge s
KE GG
nan o
sw h
sv n
24 0
Ġport al
ĠIn te
ĠĠĠĠĠĠĠĠĠĠĠĠĠĠĠĠ ĠĠĠĠĠĠĠ
14 0
Ver b
gt fs
(? :\
Format Error
web browser
Comp osition
Ġsc ripts
home page
ĠData Calculating
delay s
loy d
VI RT
Ġexec uted
aggreg ator
bam file
([" -
dp si
trip let
Ġab sent
Ġdat um
Dis able
PA Y
("[ %
Su ffix
IM UM
ĠName space
kit Error
Track ing
Comple tion
Ġmut ation
trap z
MESSAGE S
ĠArgument Parser
restri ctions
plate s
instit ution
PRI MARY
Ġsn ip
persist ence
Ġaggreg ation
Dete ct
explo re
Cap acity
SCHE ME
Bot tom
tel net
Ġpie ces
ĠMon go
jupy text
rab bitmq
(... )
Sl ider
Orient ation
- ",
- {}".
B G
F ULL
I TH
J AV
L AT
N p
N ative
S ender
a ware
b df
c itations
c igar
j wks
l se
n ine
p value
s nake
y l
z h
è ´
Ġ ang
Ġ visit
de serializer
ti t
ti dx
lo s
ce f
li con
ch errypy
get Data
ra iden
con cepts
as yn
to xml
') ],
key store
Ġ( .
Ġb last
Ġf obj
Ġc redential
Ġ{ **
ob servers
bu sy
Ġre cent
no thing
Ġa ble
Ġm or
red shift
Ġde leting
py der
Ġo ct
ac quired
Ġel l
ĠS ER
ĠS IG
Ġy lim
Ġv rf
Ġu g
ref seq
copy fileobj
ĠD ec
ST EP
host group
ic c
ic mp
AL PH
Ġsub key
01 4
])) ]
De codeError
sys call
AN DS
En t
sk ill
Ġcomp ose
Ġat tn
ĠL C
mis sed
Ġro utes
11 5
LA BLE
0000 000
20 7
Ġmode s
bind er
fail s
predi ctive
download er
Widget Item
ssh a
Ġip address
Ġparti tions
Ġtri g
gl fw
BO OK
reci procal
mar ke
Ġast roid
Ġinclude s
ANG O
Ġ$ _
CR RA
IF Y
ĠEn tity
GR APH
fire fox
balance d
disco vered
Ġperiod s
Ġrelative delta
follow ers
Ġbind ings
Inst alled
Ġ40 96
Ġagain st
gd al
spl ash
acces sible
Ġjust ify
Ġ'; '.
Ġ"* "
ĠConnection Error
FUN C
Dete cted
Ġcum ulative
ĠBo olean
Ġpay ment
bur st
Ġaltern ative
åŃ Ĺ
Measure ment
Nv rs
MIS SION
tens ordot
ĠCl uster
affi liation
ĠDel ta
/ ".
: {}
D rag
E B
F ollow
H F
K ER
M ID
N EXT
R MS
S tage
e asy
h la
k nots
m se
n def
n ni
p bs
t red
t qdm
z p
z oo
{ \
å ¯
me g
co inc
te cted
name op
di um
ut s
ut coffset
get url
con centration
for ces
Ġn lp
Ġp od
th s
Ġin et
Ġi y
Ġf am
ss id
ss uer
fa vor
he ta
Ġd q
cl us
ba sel
Ġw eld
bo dies
"] +
Ġst ub
sc ans
Ġr type
Ġde crypt
Ġh r
Ġh ighest
do y
pre fer
min x
sub sample
Ġo gr
msg pack
tag name
Ġex e
ĠC A
ec p
Ġpro per
color ing
Ġthe ir
input file
tra cing
ĠA P
ST AR
ĠM B
10 2
10 4
lu gs
}) '
Ġmin i
ĠB U
ĠB l
AN TI
Ġj ac
wr apping
fit ting
struct ured
ĠQ Label
16 7
UN IT
Ġ(' ',
initi alizers
tx s
Po sitions
super cell
Ġiter items
rot ations
auto matic
Op ts
IP ython
Field Name
cd na
cd pp
mut ated
Ġ9 6
Ġrel ations
stru cted
Ad v
cla imed
Line Edit
Command s
sr cs
SA VE
ĠUn supported
relative Path
quanti zed
compress or
ste am
Variable s
Ġinstall ation
Ġmapping s
fastq c
Ġcy cles
Ġhigh light
Open ing
BE M
OB J
ä¸ Ń
enari os
Ġsupp ress
Ġmodi fiers
ĠCh ange
ĠCO MP
phone tic
Ġfetch ing
Ġdetermin ation
ĠBad Request
vx vv
datap oints
distribu ted
({}) '.
wild cards
ĠRo ute
Ġlin enum
arcs in
æķ° æį®
marsh all
Visi tor
isotope s
ĠCom ment
Scroll Bar
Ġprin cipal
âĸĪ âĸĪ
Prf Tc
Ġduplic ates
Does Not
5678 9
Ġpercenti le
ĠLook upError
swh lab
" (\
C li
D eri
E ig
G D
G F
M F
P orts
R X
S olver
S ince
W a
e opatch
f con
l ti
l bam
n op
n points
n ginx
s max
s ds
} ?
á ¸
æ Ł
Ġ taxon
Ġ transactions
Ġ legacy
on gs
st ale
en ed
en io
ar ith
ret rieved
un changed
Ġin complete
Ġ" *.
mat lab
set tle
file Object
Ġc ity
Ġc delt
ob ar
pro piedades
no d
is a
Ġw r
__ ':
Ġst udent
read out
Ġde coding
Ġh d
pre processed
In ten
sub seq
Ġe ast
Ġe mit
Re v
sy stemd
pi es
np m
ĠS I
Ġv v
Ġex change
df t
if d
Ġpro perly
IN STANCE
RE N
back bone
ĠP K
ĠP ipe
ĠE q
ab sor
Ġset ter
Ġkey ring
LO OP
Ġnew node
job id
bi om
Pro vided
ori to
send line
Ġsub mitted
cy thon
])) [
xy gen
xml rpc
sk learn
save txt
To Graph
12 6
stats mgr
sort by
Ġat ten
Ġpy mongo
ĠW ill
bar codes
Ġstate ments
quo ti
20 10
([' %
ĠCon ne
termin als
ĠIn ternal
Ġexp lo
IT ATION
nb sp
ES CA
inv enio
Or More
Ġchar ge
Ġlon s
conv ention
Bo ok
SH ORT
plan ar
Inter p
Ro les
pret rained
wi zard
SER I
Ġpub lished
SA BLE
SA FE
quanti ze
We ights
Ġdepth s
iterable s
enc il
pay er
experiment al
Ġcustom er
Ġcould n
/{} .
Param File
contrib utor
whe res
pagin ate
Ġob server
ĠCont rol
ĠMe mber
gos ubdag
Ġ'; '
Ġrand int
BL ACK
Ġtw ice
catch ment
revo ked
Ġshare x
Relation ship
Ġprep end
nes ses
Pay ment
Resid ue
tsh ift
* +
2 32
3 55
E F
E q
E lastic
F old
F ALSE
W ave
W iki
b name
c is
c rayons
i to
j it
n ac
o cean
p arg
q variant
s mi
x do
Ġ lease
Ġ ceil
al so
de ci
an ger
ro b
si stance
(' *',
Ġn ex
th ous
to dict
(" ***
set ParseAction
app y
ol ate
lin ed
ne o
list ify
sh ortest
Ġa es
Ġm b
ext n
che m
ht m
"] /
Ġst im
Ġh dfs
Ġ2 50
Ġlen s
Ġe u
Ġg ray
json ld
pi cture
comm ission
write str
ĠS K
ĠS i
Ġv z
ĠC RE
Ġcon versions
im read
=" +
ĠT c
Ġop ener
check ers
ĠP e
run nable
root name
ĠF AST
Co st
10 8
Ġ\ "{
Ġj j
Ġcomp osite
ost er
site map
GE O
ai ro
ay stack
speci fy
nd k
Ġmo ving
prop ortion
lookup s
has attr
Num bers
US B
ĠCon vert
TO T
Ġdest roy
pipe lines
33 7
Ġnorm alization
Ġle ave
Sh adow
Bo ard
AP PS
anti c
release d
mal ink
Per missions
Ġcor rection
Ġindent ation
ĠPro duct
34 5
tw is
xx xx
Desc ribe
Query ing
BO UND
classi fications
LIN ES
Ġlat tice
Ġpub key
NotFound Exception
Ġrep lica
cod ons
Ġuni v
Module s
supp lement
AF TER
Rel ative
Speci fic
Ġ'[ %
ĠMessage Type
WE IGHT
Ġcoef ficient
Ġvol tage
BIN D
ĠAl ready
ĠSh ape
Cn st
dop ing
Ġsnap shots
Ġpag inator
Hy per
åĽ ŀ
viol ations
assigne e
COOK IE
setStyle Sheet
) >
2 20
6 55
@ {
C ipher
H ORIZ
I m
I TER
L W
N ested
O ST
P t
Q MessageBox
S LA
T or
T EN
W ER
[ {'
a con
b wa
c py
c make
d ap
d ont
f size
f cn
g ist
h unk
l mbda
m nt
r name
r file
w ins
x iv
y err
¾ ç
á ¹
Ġ od
Ġ ask
Ġ texts
Ġ quotes
ret ype
un split
get user
get host
get sockname
el lier
Ġp seudo
Ġp eriodic
data frames
(" +
(" ...
(" ;")
ate way
Ġs he
Ġs pl
set Fixed
file Info
tr g
Ġre present
no vel
ba ud
max es
ind b
"] ].
Ġh ub
Ġx l
In strument
head ings
Ġe qu
Re cur
ac qu
sig hts
ep w
ĠS UB
ĠS ummary
by e
Ġy p
ĠC PU
Ġcon structor
cli c
Ġfile Name
ĠT H
RE PO
ĠP op
ĠP ort
ref ined
lic ing
Ġl int
ĠA D
ĠA gent
we red
remo ving
ĠD jango
ĠD uplicate
ag i
ag enda
ĠM edi
em ma
ĠN T
ant um
norm case
gra des
extend s
Ġ[' /
ĠI Py
}'. ".
Ġsh util
Get Name
dt tm
ĠV PC
Time d
Ġtoken izer
URL S
sin ks
cursor s
super user
cos ine
commit ter
Object Name
book marks
VER BO
Ver tical
Bu ff
QU AL
sched uling
Image s
Ġextra ctor
fl g
cn txt
Ġparti cle
Lay ers
+' /'+
SET S
Ġ[[ ]]
hdr go
recur rence
circ ular
Si zes
Ġman ually
mq tt
ĠTime stamp
likelihood s
Ġ'" ')
Ġhand led
equi v
air mass
Ġgra b
ĠMulti ple
Ġhook s
shortcut s
molecule s
GRE SS
Ig nore
Origin al
ĠEX ISTS
nvml Device
Te am
neut ral
ĠPo licy
ĠTop ic
è¡ ¨
COLUM NS
INTERN AL
TIT LE
prom ise
amazon aws
gloss ary
) ]),
3 75
A Z
A bs
B GP
C rypto
D es
E scape
F ix
G radient
K i
M IL
P g
P ull
R ound
S pan
U CM
] (*
b an
b wt
d F
d dof
e mo
k ls
m j
m ers
m grid
m cmc
p wn
q args
v j
y a
y stems
Ġ vecs
Ġ measurements
re search
me sg
ti s
co ut
si bilities
un squeeze
get header
con form
Ġs vg
Ġ" '{
set Font
mo c
Ġb alance
Ġc le
Ġc data
Ġ{ :,
Ġre pos
Ġre ports
Ġa se
fa ker
Ġd na
Ġd ense
pa red
Ġw or
line To
com peting
bo unded
am qp
sc anned
ci ones
comp utation
num obj
head line
sub field
from array
[: ])
Ġ[] ]
ĠS ig
ĠC ase
cli mate
Ġpro files
Ġpro blems
ĠT I
ĠT EXT
check box
ase q
work bench
ĠA lign
ler t
client ID
ĠM lbam
Type Id
(_ ,
su med
Ġconfig parser
man ufacturer
ĠB a
ĠB ro
rt c
Ġas sets
cho lesky
Ġj oint
To uch
den sities
import ance
ĠL IM
Ġbu ckets
Ġret ain
ĠRe po
Ġac counts
]+ \
display Name
amp s
=% .
cr ud
gg le
ĠĠĠĠĠĠĠĠĠĠĠĠĠĠĠĠ ĠĠĠĠĠĠ
Ac curacy
redu cer
AS N
win reg
Ġtmp l
Ġerr s
)+ ')
bg zip
ĠPro xy
Ġ"_ ".
Temp erature
Ġ"- ")
sd p
Ġmon go
Oper and
prote ct
workflow s
Ġct xt
pay off
aut op
Coun try
Ġrot ate
Ġhe at
AB C
Ġthreshold s
Lim its
SY NC
Timeout Error
Err back
Rep orter
Ġss bio
Ġproduct s
Ġhand ling
Coord s
togg led
LEVEL S
slash es
Custom er
Ġ'@ '
Ti er
Ġaz ure
interest s
occup ancy
Ġidenti fy
Clean ing
inten sities
MEM ORY
ĠRO OT
ATTRIBU TES
Ġdecla re
jupy ter
SING LE
sume xp
ĠInst all
diver gence
Est imator
Ġmir ror
ĠIter able
Gro Fac
+ ="
A ff
D en
E ach
F allback
I VE
I ssuer
P k
P DB
R H
S ID
S ql
S park
S cheduler
W HERE
_ ).
a fi
b la
b etter
f ol
f lickr
f loyd
g pkg
g ssha
i h
j sn
j ws
k points
n ms
n sigma
n fft
o si
o do
p ty
p ins
q reg
q part
s min
s rt
v print
w info
x F
x out
z lib
ä ¼
Ġ let
re bin
re loader
re views
re fid
in veta
at tn
er atures
en ode
or ange
or gs
al ist
ti gs
fi es
ame s
id ents
ut m
ad a
ex planation
') [-
up loads
mo v
es p
key Name
Ġb gp
Ġb rightness
Ġf ac
Ġf ully
out str
and b
int c
sh ells
add Errback
os m
is olated
Ġm ul
Ġd um
Ġw id
index ers
Ġr nd
Ġr tol
Ġde velo
Ġo thers
Ġg h
fe cha
Ġy data
Ġv type
Ġex ited
im ing
im crs
=" %(
ĠT otal
uni ty
reg ist
ref obj
current frame
local ized
LE T
Ġmax split
ore lse
mod ality
exec uted
ĠB i
EN O
scal er
ĠG P
tor nado
ures ystems
TE X
ign Key
Key Id
the ses
go obj
Ġbase integer
wr appers
ĠV ar
ĠV irtual
ĠL ength
ĠW S
ĠType d
Ġro ut
password s
Ġmo use
oc tets
Ġ{" $
buf size
pu shed
Ġfe e
pass age
Ġext mod
Ġback ward
OP TS
Comp iler
Table s
13 5
SC AN
pal eo
vers ation
Ġph enotype
fr mt
Server Error
Match ed
Ġker n
Ġda ily
Ġweb driver
Ġpe m
character istic
Cal endar
rh p
Api Id
mix ing
Ġsat uration
CL Var
scr ub
Ġsto ck
Seq IO
suggest ion
ĠPO INTER
membership s
Red shift
Go od
abc def
EXP AND
HAND LER
eni um
Diag ram
Ġwa velength
ĠLay er
Optimi zer
Fo undation
heapp ush
TIFI CATE
abb rev
PROPER TY
CLAS SES
uresystems lib
, '.
. {}'.
C ampaign
F ast
G d
G am
J s
N r
S id
S hould
S orry
U C
] [::-
_ {}.
c te
h eld
i u
k ins
p Num
t st
u ers
v ex
z file
á »
ï ¾
Ġ ground
Ġ variation
se mester
re fe
in ction
in let
in sic
() .__
di ce
dat os
mp h
Ġp atient
(" =",
Ġs up
Ġ" ["
set ta
set Position
app able
Ġf ocus
Ġ1 20
and ra
ne tes
pro filing
no tif
qu il
is os
Ġd types
del u
pa used
Ġw v
Ġto do
Ġto uch
per ts
ass andra
all close
Ġr ing
new node
print Debug
output file
ip Address
ac f
Ġg dal
ĠC D
ph rases
ĠE V
ĠE lastic
copy to
ĠA udio
mi es
ĠD ummy
ag gs
wn ess
ic reate
exp t
OR G
10 3
Ġco o
Ġen cryption
char m
annot ator
ĠO UT
try ing
AC CEPT
Ġindex er
pt on
dis ambig
]+ ",
eff s
analy zed
cr umb
ĠCon tainer
termin ated
Ver sions
Qu it
Ġle mma
Ġdb name
Ġ9 7
SP LI
SP LAY
Ġapi key
Ad just
execut ing
Ġti d
ĠUn it
stand alone
Ġab stract
just ify
Gener ated
pay ments
Ġsec ure
ĠSe gment
pf m
Ġchain s
bul let
SY S
Ġproj ex
contrib utors
WA Y
Ġdis connected
increment al
One Login
mes Type
COLOR S
Import ing
Ġwidget s
lax is
neur ons
Ġ`{}` .'.
ĠReg ion
Ġcirc uit
ĠTra ce
6666 6666
Ġmanage d
satis fied
Ok ay
ĠSu ccess
JO IN
prece dence
anten na
REFER ENCE
uber netes
quoti ent
' *
A sc
A ns
D V
H orizontal
L st
O Auth
T max
W F
W P
] /(
c set
c Vector
g cd
l ash
m cs
n best
n bits
o vs
p up
r ds
r tol
r Inv
s data
s cl
t pr
t angent
{ %
Ġ peaks
Ġ quick
in a
de composition
ch n
ad c
un bind
un certain
pe ts
(" </
la ser
op a
len ce
Ġb w
Ġf tp
Ġc rs
po i
ve ment
no op
age d
Ġm alformed
Ġd g
Ġd os
Ġd ask
ig ab
Ġt n
Ġw ater
per s
__ )),
Ġst e
join s
read link
Ġde crypted
user names
sub token
Ġe cc
ip ix
Ġg enotype
tri e
json rpc
ep h
map hore
ĠC DF
Ġfile system
ĠT EMP
Ġu ses
uni parc
ĠP c
Ġse d
ab sent
pl as
ĠA B
ĠD ATE
LO OK
St ation
St retch
ĠF lat
ĠF lask
[:, :
DE M
(_ )
send mail
uri er
use cols
List s
sk el
eri cs
Ġsh if
dest dir
pub med
emp ha
the ir
unt u
ari py
random ize
rol laxis
ĠW ri
Ch ars
ĠQ TextCursor
16 6
pp ing
ĠU rl
NAME SPACES
Ġac cepts
('/ '),
flu ents
:]) ]
regex es
Ġattr name
layout s
Ġexp orted
Ġexp ressions
tom orrow
33 3
IP V
Ac ces
sur faces
Ġad ap
hy brid
SH UT
SH OW
SH IFT
Ad ditional
13 7
Ġcor relation
execut ors
PAR SER
Base Check
classi fiers
Read s
ven io
('. '))
game s
Ġimp orter
Pri ority
Ġtrain able
Fa ce
URI TY
Ġns map
Mag nitude
ATOR S
Sp line
Ġpoly nomial
Ġshort cut
Ġfl ash
authenti cator
Transform er
launch er
Attr s
Ġbro ken
Pattern s
ale mbic
associ ations
GIN E
Ab out
suggest ed
anc ers
stick er
ĠPoly gon
craw l
Ġfoo ter
,:, :]
Ġamb ry
recomm ended
CRY P
Ġequi valent
isat ty
Ur ls
ä¿¡ æģ¯
ĠIPy rad
ĠLIM IT
cVector ToPython
" --
" \\
' &
+ [
/ ?
1 999
: >
A z
C ron
C TRL
D ST
D RI
D WORD
H it
I ON
K nown
K WH
P at
Q Application
R z
S orted
U MENT
W ould
_ ["
b is
b ary
c mt
d ni
f fill
f ancy
h sp
h dx
h olidays
l cf
l cd
m st
n det
r cs
s node
s lip
t body
Ġ ke
Ġ um
Ġ filled
re veal
in fra
en kins
me ch
al ge
al igner
an or
an cing
fi ve
() [:-
un ched
as ses
res name
th etas
', ),
(" ;
Ġs lide
Ġ" >
Ġ" `
Ġ[ ['
Ġb ands
Ġc g
Ġc amera
out let
time gm
ne ti
Ġfor k
vi es
fa cility
max x
Ġ{} )[
Ġh m
Ġh ad
new s
sa x
sa ic
pre condition
node Name
sub domains
ĠS a
md p
tag Name
Ġv env
Ġex on
ĠC ard
ĠC las
Ġfile util
be red
tra jectories
db lock
func info
ID To
sco ut
ĠF ir
mt u
Ġdo copt
10 9
gra ded
man ti
make file
Ġas n
ns ure
face book
pk m
En coded
TI C
Ġstart up
To Master
AC KET
Se e
Get Property
cp f
payload s
ĠW al
ĠW ait
16 5
PO LL
tifi c
bit depth
55 55
variant caller
ĠCon sole
EX PI
AS C
Ġhash ed
He alth
Ġparser s
home dir
begin ning
ED GE
Ġcor ner
syn chronous
ĠPro perty
Process Error
Ġdiff s
VI S
As sessment
BO TT
Job Store
communi cation
evalu ator
Ġview s
play lists
perm ute
manifest s
native string
interpol ator
ĠName d
neighbor hood
Ġvolume s
AB I
walk ers
Mon go
ĠCO L
LENGTH S
Ġba seline
Raw Data
associ ate
lem mat
Disp atch
spike s
ĠInter face
REGI STER
PRI VATE
Ġattach ments
Pe ak
Indi vidual
ĠGraph QL
sch d
aug mented
pul se
Pop up
descend ant
por a
marsh al
("\\ ",
DJ ANGO
ĠPub lic
Mis match
noti fier
assist ant
Ġeff ective
ĠExit ing
!=' ':
paralleli sm
progen itor
ĠWAR NING
! ]
" >'
2 12
3 15
: \\
= (-
> [^
B undle
C lock
F TP
H MAC
M ut
S olution
W here
_ (*
a cos
b end
b son
b Sizer
c dict
c group
e fs
e life
g sim
h f
h get
l cm
m file
m ip
n rm
p lease
p andoc
s mp
s bo
s rf
t data
t ns
u y
v rr
w if
w itch
z n
Â °
ë ĭ
Ġ ._
Ġ vert
Ġ contin
Ġ annotate
re ached
in secure
at on
en roll
me f
ur alize
name servers
ch imera
ch amber
urn s
ad y
ad dition
si dered
si fication
un masked
get Value
get Num
pe ars
ra i
con cordance
to wer
Ġin come
ex posed
end time
Ġs atis
key chain
Ġc atch
Ġc ases
lin fo
is om
text Cursor
ext name
Ġt rees
Tr ap
__ ")
__ (*
Ġst ri
Ġr dd
Ġx label
py curl
pre load
min im
sub tra
Ġor m
Ġor th
Re size
np red
ĠS AS
ĠS tack
tran sp
ĠC LA
Ġcon j
im mutable
ec dsa
Ġpro pos
ject or
default Value
ber t
tra iler
ĠA A
ĠA tom
ĠD b
so lete
ĠM IN
em ission
ĠN E
ĠN UM
ĠF rom
10 7
}) "
Ġpre vent
man ip
rt m
01 234
Ġ[' \
cent ric
open flow
Set Color
CO RE
CO EFF
vo ked
Key Sequence
down sample
Get Function
seg m
Ġ5 2
Ġ5 5
Sub mit
ĠV o
ĠW rite
Dict Reader
DI M
ud nn
ker beros
PO CH
CE LL
fra mer
Ġinter section
FA ST
fp tr
bro ad
Ġgroup ing
TER MIN
Num eric
font Size
tax a
rg os
VER IFY
Ġvar type
Ġ{}) '.
Ġfilter ing
)" %
18 5
plan et
Inter rupt
34 32
Ġfull path
normal ise
FOR TRAN
ĠCo conut
pointer s
SA MP
ĠZ ero
Ġpad y
Ġab orted
Ġimp l
Ġimp act
Ġimp orts
Ġdat al
lr n
Ġ~ (
Ġuni q
inj ection
pip file
DA O
READ Y
filen g
callable s
Active State
qq qq
mr na
Channel s
SD L
aN rm
Ġgra ins
Ġissue s
Ġembed ded
"^ \
Ġlc dict
kn ob
ĠGener ic
elastic search
synony m
pheno types
aj ax
Arti fact
transformation s
ĠTer m
Visi bility
ĠPAR AMS
DEL TA
CRY PT
ĠSM TP
Ġdirec tive
INST ALLED
Bed Tool
ligh ter
mong odb
Ġfri end
WINDO W
disper sion
VIRT UAL
anor oll
4 40
A g
C riteria
D ut
G H
I X
J ar
K s
L exer
N AN
P B
P ENDING
R ename
S ame
T ech
V e
b ing
c sp
d time
d map
d ang
d align
e V
g si
k mer
l ds
n par
o led
o ai
p inv
r rule
t ally
t mux
v Nvrs
x tick
z info
Ġ assert
Ġ Info
in set
in ted
al arms
de limited
ti ers
ti ls
() \
li ts
li min
ch op
Ġ' {'
Ġ' ../
(' ?
)) /(
Ġn br
ex cess
ex posures
(" ..
Ġi map
la cing
up g
log name
log Type
log vol
Ġb urn
Ġc u
Ġc ampaign
Ġ* (
ss m
il ton
Ġ0 0
Ġd er
Ġd end
bo ots
am end
am ino
sc lient
Ġh unt
In dicator
sub modules
Ġe e
from hex
Ġo q
Ġdata center
ac ke
Ġg tk
Ġg aps
ĠS pace
Ġlist ify
sign ificant
Ġl u
Ġch allenge
Ġch errypy
ag ue
ST AGE
ded up
ĠM apping
Ġfloat ing
ir ing
Ġal ong
pri mitives
search es
Ġco bj
File Entry
ĠB O
ĠB ASE
ĠO b
sys meta
ĠI AM
Set Name
full argspec
No ise
nc pus
SI C
site col
ĠEx periment
Ġ'/ %
ai o
Ġpo licies
est imation
eno types
ĠRe ference
ĠRe ceived
Ġ[" %
Ġne arest
fd r
Ġvalid ators
20 48
nan os
Ġma gs
Ġper mutation
Add resses
.* )\
rl zs
modi fications
acti v
Ġ7 2
Ġ7 5
Ġle arn
mass f
geo metries
PRO GRESS
upload er
Ġcor responding
App ly
App lying
17 6
17 7
Ġloc us
Ġsort ing
Graph ics
Ġpub lication
oint ment
instr s
ĠRE AD
("{} \
ĠLo ad
Ġreplace d
Page s
ĠConfig Parser
Ġman datory
Seri alized
Ġdete ctor
dri z
Ġhe alth
pv d
mix in
(?: [
wall time
Samp ling
XX XX
dry run
Ġepoch s
Ġhy d
CHAR AC
Plot ting
Uti lity
Ġflatten ed
Ġface t
Ġface color
Ġaff ected
Perm GroFac
dV a
nvml GetFunction
PK CS
Ġdirect ly
ĠAb orting
Ġcid r
å® ļ
Ġwhe el
è¡ Į
forwar ding
ira f
dico ms
ĠSTAT US
DoesNot Exist
ESCA PE
nvmlGetFunction Pointer
+ -
C XX
H B
H C
H W
L atitude
P USH
S pi
S uper
T ax
W hat
d R
e uler
e quality
g an
g ml
j r
k ur
k ely
l rs
n ir
q x
u ffix
v switch
w file
æ ŀ
Ġ ol
Ġ art
Ġ esc
Ġ lex
Ġ qualifier
Ġ escaped
Ġ annotated
Ġ Transition
re current
re member
in ge
at o
en di
ar a
() '
si bility
(' "%
(' +',
(' ?')
(' (')
)) :
ing Box
Ġn col
to dos
Ġin j
Ġin voke
ex emp
ex clusion
Ġi c
Ġ" ("
path list
path lib
Ġ% #
op p
ot ing
log ToMaster
Ġf rozen
") '
tr t
po ds
ne al
Ġre lev
Ġa i
Ġa cl
config Obj
Ġde cimals
Ġh ue
py game
pre emp
). ')
Ġe mp
': [
". '
ac ross
ĠS A
ĠS eri
ĠS uppress
gr d
ann ess
ml perf
ĠE num
Ġk p
tp u
ĠD ESC
env var
Ġtime step
em antic
Data Calculating
Ġdo i
first lineno
Pro j
Ġ'. /
fn c
cy g
Ġon set
open api
ĠI g
ĠI llegal
En code
ari ties
Col lect
vid ia
Ġfield names
Ġsize of
unit ary
zip kin
ĠX XX
PO OL
MP T
MP Y
Ġtra jectory
real time
Ġ'{} {}'.
Ġ"\ \\\
display ed
analy tes
Ġstruct ures
Ġ// =
vs an
\\ .
QU ARE
An is
lip sis
Tree Item
UM B
resol vers
BO OT
Read y
ven ue
zy go
liter als
Sc enario
FIELD NAME
ĠOper ator
yy yy
Return ing
Ġpl us
Ġdefin es
fu zz
Ra dio
Ġrank s
Ġpatch es
Comple x
GP U
Ġ'& '.
Ġgrad s
Ġgra mmar
Ġbegin ning
IGNO RE
Modi fy
ticker Id
Random State
Security Group
Ġta ken
Ġmar ket
eg gs
Main Window
revo c
Ġcar ry
Expi red
ĠGit Hub
regulari zer
ĠNotFound Error
OPTION AL
Ġ655 35
wel come
ĠSpe ci
mile stone
extre ma
Combo Box
Diffe rence
Lc Inv
Mr kv
' $\
, *
8 75
: ][
C ITATION
E m
F oo
G aussian
J K
N umpy
O DS
P IN
R AM
S rc
S LE
S upp
V pc
W W
\ ""
a wait
b q
c idx
d max
e co
e thernet
h ad
h ds
k ml
k Wh
m ang
m fd
o ute
r dict
r max
r dy
t ds
u is
u ow
v ni
w an
w mi
x so
y our
æ ¶
æ Į
è ½
Ġ verified
re pair
re serve
in box
al b
ti ff
ame tri
ro sa
Ġ' !
Ġ' ]
un parsed
un handled
get Json
res sive
Ġp list
Ġp ng
Ġp ivot
th rift
th ellier
Ġin i
Ġs catter
ta us
mo on
key ed
log P
ed f
Ġ* ')
]) :
lin d
ne gate
pro mote
it ched
fo v
vi c
cl ss
max imize
line Edit
per malink
am bi
sc at
et ing
Ġh w
new er
In ts
ac ceptor
ken v
{} /
Ġv cs
Ġex trap
(( ?
uni corn
spe ak
reg istr
be m
be ads
pop t
we et
mi ko
vari ates
ĠD ele
trans Axes
ded Interval
pri ors
men us
err str
Ġco variance
Ġmin s
send to
of fice
cent s
Ġz i
Ġz max
lon lat
Ġfun cs
Ġun certainty
AC C
AC COUNT
emp loy
go ea
Get DataType
import ances
Ġ5 6
Ġ5 000
fit z
zip File
Ob server
chain ed
multi column
DI C
DI SABLE
au li
au xiliary
Log C
ĠRe moving
Ġsum m
Ġtra cker
Ġgr and
nan median
]+ '
edi ting
imp orte
Ġcl c
vl ans
Ġclient s
Ġ{}) ".
Ġother wise
Ġ"{} {}".
PRO GRAM
100 000
web hooks
Ġerr no
Ġerr msg
Ġstop s
mm as
math jax
Ġoper and
Color map
arc name
Graph QL
Vari ance
('{} \
Ġlat ex
cmap s
prote ins
Ġfra gments
Ġreplace ParamFile
CI SION
deploy ed
Width s
nm r
bra ins
subscri bed
Back up
(':') [-
genome s
Ġlo ci
tim ings
Ġfail s
Active Cells
Pmag SampRec
ino topy
Ġcom peting
Plugin s
Ġfi sh
perf ect
rms d
INDE NT
Modi fier
sup title
RF C
Ġoverride s
eigen values
================ ================
Ġva ex
Ġaff ine
REQUI RES
Ġsol ar
SEC URITY
Ġcipher text
ĠExt ension
ipy nb
syllable s
åĲ į
Ġ"{}. {}".
RD WR
Like lihood
arb age
COLUM N
provide s
ĠPh one
MIC RO
ELE MENT
Resp on
diagnost ics
Micro soft
oro Cnst
yout ube
éĹ ´
LOOK UP
" ;
) :])
* /
- ")
2 64
9 00
: `
> .+
A H
C aught
F r
G W
H AS
H DF
L ab
M K
M aking
O ps
R free
S AS
T a
T min
X tra
Y ES
Y AML
] },
a ead
b dry
d ol
e vi
e fermi
f A
g v
g tr
g let
h an
k j
l num
m hc
n dimage
o gr
p names
q f
q size
r min
s us
s rm
s ketch
t dc
u ched
w fs
z c
à ¹
å Į
æ Ń
é Ļ
Ġ ).
Ġ ('\
Ġ vers
Ġ enterprise
Ġ collected
se files
st orm
an other
ro gen
ro bj
di cated
li sion
Ġ' =',
ent rez
un load
pe l
con secutive
Ġp du
data dict
to dense
Ġin serted
') ].
(" //
end ulum
Ġs queeze
Ġs phinx
Ġ" ^
es cal
Ġ( ('
Ġb k
Ġb tc
Ġf resh
Ġc gi
out lier
") ])
po ss
lin comb
pro mp
pro xied
bu sin
Ġre use
sh uff
ig ns
que t
Tr un
config obj
__ =
do ctype
pre processing
du oa
sub category
bug s
Ġg ender
comm ended
ĠS parse
ĠS ensor
ĠS ha
ĠS cope
ĠS DK
rep orted
gr pc
Ġex ceeds
ann on
Ġdi p
RE EN
inter ceptor
ĠP ag
ĠP acket
ĠA ss
ĠA nd
ĠD ID
db snp
lat t
ĠM alformed
ĠN L
Ġal arm
Data Error
DE X
Ġen semble
tmp lt
Ġpre set
cent res
av y
iti gnore
Ġj d
Ġat tack
mem cache
Ġq qq
Ġid le
bl d
ĠQ A
ĠQ Color
ĠX Y
Ġ6 5
DI SPLAY
git lab
rs r
Ġ! "
20 2
Ġhost port
Ġ"{ :.
tensor board
14 4
Or dered
Pre v
Valid ating
Ġcor o
-------- --
Status Code
tw ig
Ro om
66 6
ateg ies
Al tern
SET UP
04 7
("- "
dimension less
optimi zation
ha usted
authori zer
Multi part
Pri or
gue s
(", ".
97 0
Ġ'* ')
Iter able
mn ist
urlencode d
Ġoperation Mode
And roid
Ġclas sifier
ĠSy nc
lec ular
],[ ],[
BR ANCH
mr k
exponent s
who is
+\ .\
jump kind
Ġdump s
vp cs
({}) ".
FIN D
Ġsl ash
ĠDate time
cas cade
Ġattemp ting
eigen vectors
BL UE
Basic Auth
Go ogle
Ġmar sh
Ġmar ked
Drop out
iri cal
yi elded
Ġsmooth ed
Pair s
Pol Res
Ġbuilt ins
DAY S
Ġ"| ".
Chunk s
transpa rency
Spa cing
metabo lite
ĠCor pNum
cach ing
ĠExp ression
Ġimple mentation
HG NC
transf ers
Stri ct
Neg ative
OG LE
ski prows
Verbo se
swe eps
organi zations
Ġweak ref
åĪĹ è¡¨
tific ado
ilton ian
$ {
) (\
* ]*\
3 64
: '.
A FF
B lack
F M
H R
H Y
H IT
P layer
P rb
S ep
S lot
[ ]",
b pars
c lobber
h il
h alt
i fied
j ack
k point
k itchen
l atch
m le
m max
m ind
m oney
n The
r path
s key
s frame
t stamp
t iny
u ate
z illa
Ð °
å ¸
Ġ 9999
Ġ sentences
Ġ terminate
Ġ ancestor
in clusive
st ill
en ated
or um
le y
fi mg
co pg
() :]
Ġ' |'
(' )')
un resolved
get Local
'] ._
for d
Ġn w
Ġn ap
as fortran
', [
Ġs np
Ġs lots
arg raph
set Maximum
op arg
ser s
ser ts
key type
ot us
Ġb etter
Ġc er
Ġc name
out ing
]) ;
int bv
lin dex
list Of
fo urier
is inf
is litlet
he lix
ig i
code page
che bi
ind ented
__ }
sc enarios
Ġde s
Ġh h
=' *',
Ġx p
py l
pre sets
num erical
group id
Ġg rep
row id
row count
fe h
ĠS ome
md sol
{} >
tran sitive
ĠC B
ĠC PE
Ġpro be
ĠT LS
RE PR
Ġu v
inter net
ON ENT
Con fir
Ġse ek
reg ime
Ġl mbda
ĠA ctor
ĠD ot
ĠD im
ĠD NS
uti lity
em ons
')) ]
Lo gs
Un der
ant t
File Type
ĠB E
Ġ'% '
action point
Ġno tify
(** _
AN SI
save z
Ġsh p
SI LON
ear liest
ĠH ex
ĠH ash
import lib
iss ub
MA KE
Ġid f
Ġread line
nd v
exist ence
pad s
.' +
Item Is
US AGE
): ].
calc ulator
Ġtask id
exit code
Ġrecord ing
Ġwh y
skip s
Event Handler
poly fit
Ġup loaded
SO FT
tar geted
Ġtrans lated
Ġoper ators
syn sets
Inter pret
FOR WAR
Check Box
Ġpost erior
Ġconne ctor
Ġenum s
Ġsuccess or
Resource Attr
riter ion
rr set
executable s
pf x
Ġar ound
Ġauto matically
san ity
dash ed
('> >>
With Fallback
deriv atives
Ter ms
ä¸ º
canonical ize
fm ts
SUB MIT
(". //
76 8
Speci fication
Auto mation
Attr WithFallback
ĠAn alysis
Ġ": ".
unce ment
datap oint
à® ¤
PR INT
APP LICATION
inser ts
Member ship
Man ifest
heap q
Ġri sk
suite s
CATE D
DOWN LOAD
CER TIFICATE
ĠPer mission
Ġmiddle ware
FORM ATION
Nrm Now
CLU STER
indel s
("| ")
autos ave
intro spection
CALL BACK
cogn ize
Ġmoment um
CLE AR
ĠExec ution
ĠFa sta
Mac ro
wg ts
Ġsing ular
Rece ive
Guest Lib
927 08
diffic ulty
CONTAIN ER
ajust e
ĠGlob al
æŁ ¥
BOTT OM
asfortran array
# \
$ %
1 33
9 60
= +
A m
A ct
B US
C s
C ANCE
E VAL
I Z
J oint
M asked
Q R
R ID
S CH
S Cons
Y aml
g un
j co
j query
j rdd
k vs
n as
s ap
s val
t lement
t tree
u w
x k
x en
} "]
Ġ urn
Ġ likelihood
Ġ collector
Ġ letters
re construct
er gies
me ente
le le
de ref
ti zed
ur k
ur y
ge mini
lo o
ro is
di scri
ad vice
ct ures
un available
get info
Ġn ib
ri s
Ġp late
to file
Ġin cl
Ġs park
arg ins
Ġ" +"
str m
par nme
ms k
Ġf atal
Ġc rit
Ġc ritical
out dated
ment o
he tero
obj name
pr g
com pe
Ġst able
'. ..
read Group
ance stry
sub d
sub folder
Re vision
pi cal
ep sg
map To
gr anted
Ġy aw
Ġex ts
ĠC ertificate
uni v
check plot
rec tive
be lief
war ded
raw ler
vari ations
ĠD IR
so ma
ĠM L
ir q
ĠF ind
Un authorized
ĠR s
}) \
test ed
Pro ver
ps r
cy to
01 5
En semble
cor ing
addr info
CO LS
Se quences
Ar row
Ġpy emu
Ġ'' '
Ġres ume
Ġ'\ \'
ĠV K
ĠV a
Ġro i
Ġ6 3
sn peff
ĠRe quire
())) .
fd open
Ġgr ant
KE EP
report ing
Ġblock ing
Ġper f
Ġauth ority
IP Address
14 8
Ġcmd args
ATA LOG
mal n
Ġmask s
math rm
Ġ12 3
18 9
66 92708
wi res
API Exception
Ġdown loading
Ġiniti alizer
nl msg
RA BB
Ġele ms
Ġele vation
fici al
rie ver
AND ARD
USER S
Ġdomain s
decor ation
(", ")]
Ġra st
("_ ")[
bul b
Ġsym links
Ġvo ice
Host name
Ġli kely
Rect angle
94 27
WA VE
VALID ATION
Align ments
Ġls b
Ġretry ing
Symbol s
fri ends
ĠVi UInt
USE D
Find ing
ONT AL
Ġdiag onal
Analy zer
Drop ping
Runtime Error
Ġsan iti
FACT OR
Ġtun nel
Ġpara graph
CLE AN
acceler ation
Ġblack list
Vo cab
DELI MI
requi v
Ġinterest s
Holder Prover
Ġdele tion
bcf tools
setWindow Title
caus al
ĠOrdered Set
Ent ropy
TOT AL
3432 9427
Ġqqq q
6692708 34329427
RABB IT
" ><
% ',
) [:]
. )**
9 87
B st
B IO
E stim
G ain
K ILL
M il
N Z
O meg
P lus
V s
V IDE
Z oom
d A
i zing
j link
k ma
k pt
p mt
q pi
r ar
s lugs
t ped
x array
x loc
y ro
ä ¹
Ġ Validation
Ġ Transform
Ġ Err
in cre
ar th
ar ts
ti fied
an tification
Ġ' ])
Ġ' **
ad get
si bly
ct h
un scaled
Ġn z
Ġn ear
Ġp th
Ġp il
Ġp lots
la cp
Ġs name
Ġ" }"
Ġ" ]"
mo du
mo ls
es ri
key val
Ġb boxes
Ġb kg
Ġc aught
out wcs
out standing
int ents
ne cessary
fa se
ren sic
ig s
pr on
pa as
Ġw on
che mas
__ "
Ġh er
Ġh ull
Ġx ref
du ino
In crement
Ġe di
Ġe mb
Re ferences
()) ])
ĠS ection
gr ps
{} {}
ĠC ho
Ġcon sistent
im ls
meta info
=" {}"
-- ',
ĠP r
ĠP df
Ġse mi
tra des
ĠA UT
Ġk l
Ġk not
mi z
lib fn
ST M
last i
trans mission
link ify
block Number
St and
ĠN x
ast i
Ġen rich
EN GINE
ĠG Py
Set Id
Ġuser data
To File
Ġ| |
Se gs
Ġpy hsm
conf usion
pol ys
Ġsp read
',' -
ĠV eri
oper ating
ĠQ is
zip code
Mo ving
99 6
Path Spec
zone files
proto type
ĠU DF
Ġmo tif
factor ial
Ġ'{} :
Ġ'{} _{}'.
nan sum
]+ =
edi ts
ell ar
rest ApiId
mg lo
Ġdire ctions
Ġ[]) ]
Ġauth orized
VER TICAL
Event Type
Ġle ap
Ġstep size
Or bit
==== ==
Ġlib sbml
)+ "\
}/ ".
13 8
tar file
shell widget
ĠDe lete
sg i
Check point
("/ ")[
Tra cked
RA G
BO DY
Ġtree model
SA ML
ĠNo Such
Block s
gz illa
rup tion
bal ancers
Ġgo al
Fa sta
Ġau g
Top ology
Ġtrack s
wp loader
design space
forecast s
Ġoptimi zation
ĠSalt Cloud
+'. '+
Gen ome
ĠWeb Socket
dV m
provision ed
Ti cket
mute x
Lookup Session
CY AN
rast eri
Ġplay list
Ġmicro second
Ġ'{}'. ".
Soft ware
Ġscr aper
stab lished
ISS UE
jobStore ID
ĠME SSAGE
postgres ql
Ġur wid
ĠAN SI
Ġbench mark
dss p
lobject s
nucleo tides
åľ ¨
arrange ment
Capt ure
spici ous
Ġstm ts
bene fit
æ¶ Ī
ĠSha red
*]*\ *+
' [\
) }"
, )))
- ]+
. :
. )/
= ="
> ,
> /
A ir
B ED
B oroCnst
C redential
J P
M PI
N at
O C
P LE
P Bar
R pc
T N
Y ellow
c val
c uit
d W
d min
f set
g ator
g cf
q out
q rs
s list
t win
v able
x ray
x dist
} ']
Ġ very
Ġ community
Ġ quoted
Ġ deltas
ar ams
le mmas
de leg
de precation
co hp
ro bust
ce dent
() "
ch name
ct y
(' .'.
'] ["
Ġn max
Ġp format
to y
to DoubleVector
Ġin structions
ath on
la cer
Ġs ms
Ġs lc
str atum
ati lity
Ġ[ {}
par ity
Ġb ump
Ġc cd
]) ],
ne tic
sp m
is class
is ns
Ġt ries
che ap
Ġto gether
our c
us rgos
bo o
00 2
Ġde li
new val
new value
ist art
In spector
sub titles
output dir
Re ceiver
fe es
pi anoroll
ec centricity
enti d
Ġpro of
ĠT ab
back slash
source code
ĠA ng
LO A
ll ing
ĠM AC
ĠM ay
')) [
DE LAY
http d
err Msg
Ġpre ference
ĠB ot
graph ql
Ġax s
cy l
01 1
01 2
De finitions
List ing
xml node
xml XPath
Ġsh utting
dump er
mail box
den y
cell py
Ġsp line
Time Series
radi ation
sing letons
Ġ6 00
Ġ6 37
DI T
medi atype
CH A
cfg str
pp m
clean er
Ġ[" "]
Ġuti lities
11 9
LI P
bit mask
Ġtra il
sw ig
prop name
Ġper sist
EL LOW
ĠCon tract
custom ization
.* \
TA X
EX IST
IP S
segment list
He at
On to
)+ (
Per c
mm mm
SC AL
ĠCo unt
Ext ensions
Ġiniti alization
paren s
Ġbound aries
her on
HO UR
Read Only
27 0
ven ess
ĠPy rtl
ĠNo tification
det uning
Ġpad x
ĠFile s
77 7
Ġgo ing
Offset s
dri fts
person al
Ġsepar ate
Ġap du
Cl one
vmin i
Ġdrop out
flip ped
rupt ures
ide o
ĠMe as
Mark up
neur oml
ĠBy te
azure arm
ĠVM ware
Dete ction
Ġproba bilities
Ġdisc rete
Ġschedule d
silent ly
ĠWork flow
PK G
Ġsuc ceeded
Ġbra cket
Ġdisco very
Ġdecl aration
audi ence
Para graph
Lon gitude
å½ ķ
åį ķ
synap se
ĠStri dedInterval
Ġjav abridge
stere sis
absc iss
lno tab
Ġug ali
gethost byname
empha sis
SLE EP
GetDataType Map
, ]
- {}-
6 25
B alancer
C um
F reqs
H our
K IND
L z
M U
R SP
R TS
S ti
S weep
T V
V D
c params
c ql
d data
f stat
g bc
g mf
h name
i req
k ype
m fa
m line
p args
u its
u retype
v ul
w dir
x api
y ang
Ġ Î
Ġ observations
Ġ medium
se ud
re de
in visible
st ories
sel ess
co co
id ad
di hedral
li quid
ch s
Ġ' `
ct d
un processed
get Service
get fullargspec
ra form
Ġn av
mp ot
Ġp ret
') "
Ġi ma
Ġs ki
set Graph
set Focus
up link
log prob
Ġf y
Ġf min
Ġf names
Ġc lon
ne ver
sp ents
Ġre actor
col lation
it m
qu aternion
Ġm data
Ġd set
ig raph
code point
ba i
Tr ust
Ġw anted
Ġto c
read fp
new ick
Ġx array
min y
sub group
Ġ2 73
". ')
Ġo y
start Date
[: ],
ac cepts
Ġg as
Ġg old
Ġg ather
Ġg uest
()) }
ĠS park
ĠS ky
Ġy r
ĠC G
Ġcon sider
df lt
if name
Ġdi rected
ĠT oo
sum med
Ġu int
ĠP ol
ĠP attern
reg ress
lic ked
Ġl bl
tra fo
ĠD rop
local path
so il
Ġmax iter
ME D
ĠN ipap
ast ro
float Value
Ġpa use
build dir
Ġco don
gra vity
Pro t
Pro vide
Pro tein
Ġpre process
ĠB B
ĠB ool
ori zer
send Command
EN SE
rel name
Ġcomp utation
nc bi
SI TY
ack s
site dir
Se cs
the st
ĠH yd
parti als
ĠV ideo
Ġread able
ĠW idget
ĠW rong
peri ence
day of
Ġro ots
Mo ck
Ġmsg pack
region al
11 4
common prefix
nan opub
CT X
Ġper mitted
Request Error
cr v
align ak
dx py
User Role
off ered
Qu artz
Response Error
SO AP
Ġ"{} _
Ġ"{} /{}".
Vi Session
QU ALI
PRO DU
PRO MPT
win types
quali map
Comp ar
proj ections
mal e
"" ")
Ad ap
Ġover all
Map s
bus b
pick ler
22 2
sto chastic
ĠRes ults
Trans lation
Ġ'< '
Ġ': ',
Ġtr uth
come Dstn
big query
Ġspa wn
Ġast ropy
ĠRE ST
sat osh
Ġseri alizers
Ġimp licit
Si bling
cutoff s
complex ity
ĠUser ID
ĠConfig Error
Ġhigh er
Conne ctor
Ġhe artbeat
person s
LOW ER
cons umption
Stop ped
notebook s
ĠCh ar
rem inder
Parti al
Ġvtk i
=', ',
=', ')
vx lan
Web Socket
Initi alize
ADD ING
dele ting
TRA VIS
Ġvirtual chain
SIGN AL
Dete ctor
leader board
CLO UD
ĠSign ature
Progress Bar
mute ct
organis ation
propos als
Press Event
DESCRIP TOR
RESULT S
æĪ ·
ĠURI Ref
tele gram
retain ed
ĠStart ing
perp lex
COMPLETE D
Flat ten
bea cons
pho logy
ĠNX M
ĠParti tion
GORI TH
Ele vation
JLINK ARM
ĠCirc uit
VERBO SE
01234 56789
dalign bed
LOA DED
setGraph Val
* ]
+ ([
/ *.
1 32
1 16
= ?
> &
> `
B LOB
C ategorical
H DR
H vap
I CON
M ime
P reference
P itch
P rm
P erson
Q Color
R t
S r
T IN
W O
c file
e cef
f handle
g ree
h mat
h key
h ms
h tilde
j z
k ube
m md
o di
p set
q tt
q tl
r ti
s Error
s line
t db
u cs
x lab
x html
z label
} -\
Ã ¦
Ġ fir
in finity
st rom
en dat
or phan
me so
an on
co sphi
lo ge
name cheap
di am
return ers
(' .'
get default
ra ms
con du
con sider
as f
res nums
Ġp im
to x
ex ceed
ate st
Ġi ms
Ġs lack
Ġs weep
Ġ" ]
set diff
str ata
app let
type id
Ġ[ %(
po on
sp ir
fo undations
Ġa min
fa v
Ġm iss
"] -
sc a
Ġx c
comp ut
sub grid
mb ers
start pos
ac ron
Ġg n
Ġg df
tri angular
pi le
ali ties
Ġ** _
ĠS U
ĠS ingle
gr ants
Ġint ent
ĠC F
cep h
shape lets
object Name
ec ti
Ġfile size
ĠT i
RE CE
ĠP mag
ĠP hi
Ġch ao
Ġtype d
host names
ll ation
ĠM ac
pack ing
net cdf
St reams
sco red
mag moms
plot rec
bi ased
File Dialog
AL TER
Ġnode list
send spec
En crypted
CO LO
ĠL i
ĠL azy
Ġwe ather
Ch nk
radi an
CON FI
ĠRe pository
Ġmo ds
Ġne ut
TR IC
]+ [
dr v
analy te
auto commit
\\ \\
IO Loop
Up grade
acti c
poly data
30 4
Sh utting
Ġ9 3
}\ "
Ġdist utils
Ġdist ributions
Pre cision
utc timetuple
transaction al
13 6
syn th
34 7
feed er
cells Per
Ġtri angle
Ġti er
HO OK
aff e
Ġlat ent
Ġxml sec
Ġindi cate
Warning Exit
aliz ations
ural Network
("[ #
ĠUser Warning
LU ME
FORMAT S
Be havior
GR ID
Char ge
capt ured
Ġap pears
Ġnu c
ĠCO LOR
ĠCO MM
Ġsubject s
visu alizer
priv acy
GRO UND
Fore ignKey
Ġver ts
spy der
åĪ Ĩ
ĠId entity
WR AP
Ġcut out
Ġdisc ard
jav abridge
Ġfin ite
ĠSo ft
Ġlar gest
{}' ".
Ġaltern ate
è¿ Ķ
district s
AI LABLE
Vol tage
Org anization
weak ref
acceler ator
Ġfold ers
Ġdash board
Ġimple ment
Ġcancel led
Ġ204 8
PARAME TERS
ĠAv ailable
ĠFail ure
Ġeu clidean
COEFF S
RABBIT MQ
* $',
+ ":
6 39
9 80
= [-
C os
C ategories
E Tag
E thernet
F W
G U
G Y
G tk
H K
I mple
L p
P RAG
T iming
X PATH
Y s
] ?
b mi
e item
g name
g cm
m bu
n il
o type
o ob
p ls
p ill
y vals
| (
| [
} .")
½ ®
å ¾
é ¡
Ġ zeta
Ġ odd
ĺ ì
se mit
in h
in hibit
st ones
ar xiv
ti ties
lo ud
(' ('
get data
for ks
el ine
Ġin voice
ex changes
ath ered
Ġs croll
mat a
set Default
log space
Ġf etched
Ġc j
Ġc itation
Ġc rash
Ġc Pickle
Ġc airo
out fp
") :
po sta
ne tid
sp k
col num
ub ic
qu ake
Ġd rive
obj type
Ġnp ts
cl ub
cl oned
ff f
che mical
per manent
am ips
Ġst anza
Ġr val
Ġde viation
Ġh id
new est
ci ph
pre cursor
pre release
sub data
output File
Ġth row
cont ributions
()) :
fe a
sy ns
cs um
map file
ĠS TR
Ġex if
ĠC at
Ġbe g
Ġbe zier
object Id
IN K
ĠT imer
Ġu df
ĠE MP
ĠA NT
lib input
current Text
ĠD C
ĠD AG
lat trib
Ġ3 7
link name
so id
aph as
exp lored
find ing
main tainer
parent Node
Data Source
resh aped
remove Handler
su res
(* _
Ġen sembl
Ġen ergies
mod al
Ġpre pared
clo udf
Ġsub str
Ġsub command
use ful
Di v
De fined
Ġon line
Ġan ti
open File
ns rc
ĠG ame
sys ctl
cor ded
CO VER
vo c
sec group
Sub stit
over ridden
part name
tool box
cord ing
multi cast
DI TION
medi ans
ker ning
ele gram
sn me
Ġmo tor
('/ ').
Ġinter action
Ġinter mediate
20 5
obs m
Config Error
Ġma king
TH RESH
super visor
wrap s
([' ',
wh ence
): ],
sym metri
TO PIC
)]) .
.* ',
Ġinfo s
14 5
ĠJ ID
ĠJ ava
ene as
Ġwork sheet
ribu te
Sh utdown
He ading
high lights
iso topic
PRO VID
win repo
19 1
enum ber
13 4
17 0
17 8
66 7
pm ids
xs d
SER VED
umb nail
lig ands
repe ating
Job Graph
Ġtr ust
squ ash
recur sively
disc r
ĠLo oseVersion
CRE AT
IS HED
ĠAt tr
CA LE
mul ator
Ġact ually
Mag IC
integer s
erarch ical
EV P
Ġep hem
anis m
Ġdot ted
orth and
COMM ANDS
AX IS
Ġdrop ped
rupt ure
Ġ'$ '
magnitude s
SN P
Admin Session
recipe s
Bound ary
ipher al
Ġprogress bar
accum ulated
cen sored
utter ances
Exist ing
ĠTemplate SyntaxError
MAC H
Cho ose
explo de
ji ra
upy ter
Ġcirc ular
ĠPoly nomial
Cre ator
REL ATION
REL ATIVE
ĠPri vate
announce ment
Ġ"| "
monom ial
ĠJson Response
Aggreg ate
Circ le
ĠDep end
interpolated ObsTrack
+': '+
ĠLay out
Ġter mios
ĠComple te
Manage ment
zij dblock
phantom js
Ġwild card
hemer al
cave at
nvmlDevice Get
ĠIPyrad WarningExit
ĠNamed TemporaryFile
ĠQis kitError
PRAG MA
ĠEMP TY
" >\
' >
+ "'
2 10
< !
< %
C UT
C alibration
D et
D uplic
E U
H ave
H SM
L ING
O ValueError
S un
S AT
X S
_ *
` ')
b im
d M
f at
f li
f dict
g itignore
j an
l data
m ash
m Lvl
p fam
r list
r pt
s j
s now
u str
v ors
x dg
y md
Ï ī
Ġ combination
re b
re als
er k
ar win
ur st
ro me
ro red
ro bots
si er
un ravel
Ġn g
Ġn ice
Ġn side
Ġn bins
Ġp ul
to uched
Ġin dep
Ġin coming
ma zon
Ġs ched
Ġs moothing
arg val
up to
key points
type str
ot p
Ġb al
Ġb are
Ġc ds
Ġc riterion
ed x
ver key
tr x
po a
ob snme
ne b
sp p
Ġre jected
sh el
os d
Ġm z
], ))
ren v
max y
bo unce
join er
=' %(
Ġx b
Ġx m
sa c
num bered
gro macs
In voice
Ġ: :-
Ġth in
[: (
Ġg b
row idx
ER T
ĠS election
mess aging
stat name
Ġv id
Ġv ms
Ġpro venance
Ġdi vide
Ġdi vision
IN FORMATION
Ġop tim
RE V
ĠP E
ĠP otential
ab orn
arch iver
ok ay
source path
ĠA MQ
Ġkey file
mi ts
lib name
current ly
ĠD ir
LO S
so on
LE AN
bin size
ĠM ar
ĠM es
ump tions
point ing
ir rad
ME TRIC
St rip
ĠN c
ĠF O
ĠR ed
cls name
Ġdo f
SE ED
Ġen crypt
test case
Par s
File List
AL GORITH
64 4
32 5
Ġ[' ',
post al
ĠG aussian
ĠG PU
batch ed
batch Size
12 1
cp t
my file
ĠH o
ĠH el
dt u
network x
Ġfield name
ĠW CS
*( ?
=[ ('
99 5
insert Text
Log Handler
initi ator
oc sp
0000 01
20 9
visi o
]+ "
Ġfunc name
CT OR
vm x
mu c
Item Data
Ġtag ged
EL S
Ġinst antiate
33 39
Ġnet mask
tz name
Ġclass path
ground ing
Ġpri me
(? !
FILE TYPE
Ġfla vor
PATH S
18 6
Ġtest ing
admin s
Ġparti cipant
neg atives
ĠSt rip
vol s
Ġtri ed
Ġdir ty
gl w
lan es
HO LDER
car ry
([" %
issue d
det rend
pg id
Ġedge color
Ġspa cer
Tran script
dig itize
cv t
PER MISSION
Ġdisp atcher
deploy ments
sli des
Ġvi ol
Ġtimestamp s
Ġscal es
Ġmat erial
Ġlower case
Ġraise s
Ġweb site
MODE LS
Ġexclude s
STAT S
tun er
dw ProcessId
Ġli fe
todo list
Ġ"' ")
Ġdetermin ed
TEMPLATE S
ide al
equi pa
jump s
Ġgra ce
>> >>
season al
ĠAr ch
nony mous
Ġwal ker
Ġdecor ated
Ġsn mp
Cloud Command
METH ODS
Ġanaly ze
bid i
ellip sis
CONNE CTED
migr ated
fwd l
Ġfo undations
Ġaz imuth
Ġmicro seconds
ĠSo cket
SCO RE
HAND LE
Ġtun ing
Flu x
cedu res
Ġplain text
Veri fication
electro de
âĶ Ģ
vP func
OPER ATION
splice d
Ġsimil ar
Ġsimil arity
CHO I
Perform ing
ĠProgress Bar
damp ing
Mar ket
Associ ation
assemb ler
Ġsatel lite
ĠBl ue
ANTI ALIAS
ito red
ĠMlbam Util
manti ssa
Ġnap alm
ĠAMQ P
' ;
' [^
. {}".
1 64
4 000
: '+
A lert
B alance
D LE
D jango
D ummy
E ff
G AM
I B
Q Q
Q KeySequence
R i
S q
S en
T b
T ol
W orld
X F
X new
b lo
b et
b fs
c ript
d E
d db
d stack
g ated
g luon
h kl
i info
j kl
l q
n vals
n ifti
o str
q v
r tr
r idx
r jb
u ge
u short
z score
Ġ artifacts
Ġ continuous
re vs
in data
on error
st encil
or tions
de pre
co h
() ]))
di go
(' {}'.
(' *')
(' +')
ing ui
get module
get ters
get All
ri me
to oth
Ġin active
ex perts
Ġs pyder
arg d
up ling
op c
Ġb locked
Ġb argraph
ob fus
ne trc
ve ga
pro cedure
Ġa w
is land
Ġm type
Ġd max
Ġt an
Ġt reat
rom ise
ind ents
per mitted
__ (**
am z
Ġr b
Ġr w
Ġde mo
Ġh po
Ġh sp
do ctree
py py
field Name
pre defined
pre processor
user Data
min v
cur ren
num Columns
sub commands
Ġe type
Ġo x
ca cert
Ġg i
tri ts
temp eratures
ĠS tar
ĠS hould
Ġy o
Ġlist ing
Ġdi sease
ph id
=" '
Ġop timal
uni chr
inter ior
ĠP ower
ĠP SD
ĠE P
ĠE nc
Con cept
lic an
be e
command line
ĠA PP
port group
lib ref
so a
exp ress
net stat
ME N
cle ared
:] +
mag lim
clo ser
ĠB L
dist utils
ps m
Ġsub title
Ġ4 6
De vices
ĠG am
ĠG PIO
Ġ\ (
ĠI MAGE
En countered
sk u
stop words
down time
import ant
Ġtext ure
99 8
Ġcolor bar
Ġcolor ama
eno ugh
("% (
Ġmo ved
Frame s
Ġsu itable
Ġfind er
TH UMB
Ġlabel pad
commit tee
amp ler
TO OL
drop let
off spring
ĠRuntime Warning
secret hash
14 3
ĠJ WT
inv itation
mut ant
19 5
Ġsc anner
Pre paring
Per manence
Ġover flow
Ġover lapping
Ġtrans forms
Ġtitle s
Line String
Ġforce d
sto od
Level Name
Ġpost s
scri bed
Ġdir path
PRE SS
PRE CISION
Ġplot ting
adjust ments
ĠZ ip
Qt Widgets
stand by
numer o
cross over
Ġbit stream
Down loaded
expect ing
micro s
Ġfit ted
Ġfit ting
TP L
Ġhead s
COL LECTION
Ġsym metric
rh os
jo liet
Cor r
bre w
Fi re
åı ĳ
Exit ing
Disp atcher
Ġsecret s
Factor s
à® ±
accum ulate
Tri ed
ORI TY
Wh ile
CREATE D
Ġdigest mod
SIGN ED
Ġge vent
GT F
Runtime Configuration
Http Response
illa renv
DEF LATED
Clear ing
Cn fg
Push Button
fund ing
ĠEnvironment Error
FAIL URE
Sent ence
ipa m
Ġdisco ver
Break point
ĠCal lable
ĠDX HTTPRequest
Ġinterpret er
bitr ary
('[' )
ĠUP DATE
INTE GER
ĠFA IL
ĠFrequency Series
åĩ º
Ġthick ness
disa gg
æİ ¥
Ġsnip pet
regist ries
ABI LI
Ġrelev ant
Anis Rec
Ġchao spy
è¿Ķ åĽŀ
ciph ers
" (
/ [
1 000000
2 25
9 25
A live
D ag
F atal
G s
H ID
I TY
I ES
J I
K WAR
L u
R P
S uppress
T y
T ex
[ ["
` "
a vi
a oi
a Xtra
b ass
b dist
c vals
c core
c ensor
f al
f mags
g x
h ance
h ls
i cao
j ail
l k
n to
n ob
n fo
n Error
p color
p link
p pars
q type
r Id
r src
r sem
s lim
t ube
v si
v nic
w ap
w wn
x si
x size
} '))
} '\
é Ķ
Ġ Valid
Ġ linspace
Ġ alive
in files
st on
en closed
or bits
me state
al pix
le cted
le ak
le ftover
co or
co sh
te es
di ction
li an
ch apter
(' }')
)) )]
un es
un bound
con struction
[' /
Ġn dimage
res ampling
Ġp name
Ġp ch
Ġin ferred
ma ble
Ġi l
Ġs hel
set Column
set ToolTip
par sity
log File
Ġb rain
Ġb anner
Ġf ps
ol t
ver lap
") }
Ġ{ (
ne q
Ġre ally
Ġre covery
Ġre presentation
qu ist
add Layout
Ġd lg
], ),
ren a
ren tial
Ġt v
Ġt as
che str
ind ers
Ġr st
Ġh ot
do min
new obj
new shape
py twis
). '
comp uter
In Rec
sub cmd
sub graphs
Ġe y
od ag
mb ad
ip tables
Re presentation
ces sed
Ġel astic
ĠS lack
da o
Ġint f
Ġcon current
idx es
Ġdi com
ĠT s
ĠT w
ĠT ile
RE CTION
']) ['
uni fied
inter im
ĠP i
rec or
rec fracs
reg ressor
input hook
arch s
ash ape
source file
source Time
be zier
Ġl z
ĠA zure
Ġk de
local ization
ĠM S
ĠM V
ĠM i
gs m
ir radiance
Lo cs
Lo cked
auth s
ĠF raction
gra v
Par allel
quen ess
graph viz
rt t
uri ty
cent r
AN A
sk ills
cor relations
br ush
src path
RO LL
RO UTE
ĠH ead
Ġpy pi
ari zation
mark ov
dt start
SS P
PI P
tf mt
bl r
radi ents
Ġ', \
16 3
medi ately
star ter
:// {}:
pp id
Ġcolor map
Ġmo un
real name
Ġ'{} :{}'.
display name
Ġbo keh
csv s
TH UB
vm config
NO TI
Th an
Ġdep ends
Ġ100 000
success fully
15 2
mut ual
QU ENCE
BU CKET
Ġ9 1
19 6
Ġdist inct
way points
Ġav ail
ev p
ev olution
('{ %
ASE S
phase d
Ġ"- ",
Ġcontain ed
nl ri
Instance Id
Record Set
201 9
Ġtri angles
compo sed
week ly
200 8
sat osa
acc u
ĠLo ck
ĠLo gin
Dis covery
('[ ^
simple filter
Ġtrain er
Sc anner
watch ers
System Exit
Exp lo
Ġtx id
eig vals
GI THUB
BE FORE
delt at
ĠIN DEX
Ġlow est
POINT S
small er
Speci al
overlay s
Ġsent inel
Usage Error
equi ty
wire vector
VM ware
turn s
Ġsen se
capit al
Ġdecor ate
Ġrepe ated
Ġden ied
Ġresid ual
=\ "%
('@ ')
{}] ".
refer rer
Ġvocab ulary
sas l
Datetime Index
ĠTra ck
Ġalle les
MOD ATTR
ĠForm Bool
PYTHON PATH
Ġauthenti cated
Ani mation
fund s
monom ers
datat able
ĠTest Ctx
ĠSH A
cub es
eu clidean
instant aneous
________________ ________________
Ġ655 36
produce d
ĠDown load
asser tions
ĠRel ation
Ġmav util
ä¸Ģ ä¸ª
Reci pi
servo ir
Ġshap ely
curv ature
again st
à¯ģ ',
grip per
Wa velength
thous and
Ans wer
busin ess
Ġski prows
Ġpim ms
' #
* =
+ '"
8 22
C ENT
C MS
D x
D type
D ark
D AC
D NA
E mit
G RA
H OT
I mpl
K W
L s
L in
L ERS
M ail
N IC
P andas
P atient
R sp
S in
S ORT
S cheme
S ens
S REGISTRY
U DP
X L
Y ELLOW
] :]
b pe
c arg
e dition
f arm
f ather
g ta
g mn
h is
k means
m chirp
n P
n seg
p ap
p config
p ong
q b
q i
s mt
s dr
s litlet
t end
t ape
t ure
u q
v at
v lines
v fs
v dev
w get
w space
y range
y tick
} <
¡ ç
Ġ ant
Ġ firmware
re w
in ch
in fd
en ess
al k
de cs
de activate
ur ther
co bj
ro ps
() ][
li cal
li ft
ct ables
un labeled
get col
get children
con e
Ġn f
ri al
th ology
to sis
set Model
set Pen
set Shortcut
ck an
mo ut
Ġ[ ["
Ġc en
Ġc pus
Ġre ject
col type
no res
no isy
Ġa y
Ġa way
ub it
ub ridge
add ons
Ġd bs
ig t
Ġw sgi
line age
=' {}
new Value
py s
py dot
py mux
var arg
error bar
). ..
sub list
Ġe id
od on
Ġo ffer
Re ject
Re stri
om er
state ful
gr ader
ĠC y
ĠC opy
Ġbe at
Ġcon ditional
im tls
word list
inter leave
AT OM
Con tribu
Ġl name
Ġl vm
Ġk k
ĠD ump
)] (
context key
LE SS
em g
Ex pan
auth z
Un available
pri ate
view name
.') ,
Ġdo seq
Ġnum erical
Ġnum erator
Ġco ding
Pro te
ĠB ox
ori ze
EN ER
Ġsub path
Di rective
ĠO ffset
De sired
De precationWarning
En velope
FI T
br k
full text
identi fied
Ġsh ot
12 4
hi bi
Get Field
ĠH y
ĠEx pect
ĠEx ternal
Ġ5 8
MA STER
disp lace
AD DED
bl ame
hist orical
NA MER
Ġlog ic
ĠX i
multi qc
DI G
Ġ'{ {
iv a
ins n
Ġret rieving
dev d
sin phi
flat nonzero
11 7
('/ '.
fra ct
'\ [
dis charge
dec lination
Ġ'_ ').
Ġare as
vm name
wh y
Request ing
cr ds
sm iles
dx s
TA B
'} [
ĠĠĠĠĠĠĠĠĠĠĠĠĠĠĠĠ ĠĠĠĠĠĠĠĠ
sl id
IO D
Ġ7 8
An sible
Ġ9 8
SP Y
19 0
origin ator
Ġframe work
13 9
('.') [:-
cn ts
syn ced
inc ident
pick s
Ġpk gs
wi k
Al location
Ġ"- ".
Code c
slug ify
Ġnetwork s
eq n
dum ped
200 2
rpc cmd
Ġab und
hal o
comple teness
Ġloop s
Ġra fcon
("[ +]
ĠURL s
Ġfill value
Ġhttp lib
GR R
glyph Name
Ġunpack er
Ġconver ge
pur ple
ä¸ ĭ
Ġmis sion
Ġmemory view
Site s
Ġexpi ry
Ġwri table
Ġ'$ {
Ġdis count
Ġtrack ing
Ġbreak point
Ġ'& '
Calc ulation
Ġplace ment
Ġbc bio
Mer ging
('; ',
Ġcont rols
Attemp ted
Ġacti vated
ĠDo main
unct uation
('@ ',
Ġrc Params
ĠAl low
Cap abilities
Ġtw itter
bib tex
filesystem encoding
VO LUME
LF P
Ġcar tesian
provision ing
ĠAd ding
POSI T
ĠRun ning
Render Model
semi logy
Ġ'^ '
Ġtrip le
Expi ration
anim ate
Na T
homo gene
FR ONT
ante cedent
Begin ning
fro g
plo idy
dupe s
Authenti cate
äº ¤
Click Exception
gran ularity
perturb ation
Deploy ment
æł ĩ
bread crumbs
standardi ze
OTH ER
Ġjo urnal
HORIZ ONTAL
Abs olute
ĠTI FF
alge bra
Ġfriend ly
Respon ses
MACH INE
. {}.
0 55
2 80
: :-
B ond
D l
H S
H IST
L ive
N d
P assed
P lane
R Y
S orting
T ail
V DI
_ ][
a sion
c path
c len
c ant
d len
d ac
e h
e key
e ver
e qs
f ly
g ar
h map
h slice
i ties
i faces
j et
k per
k pts
l ct
l vm
n S
n app
o e
p da
t dist
t lv
u um
u funcs
x C
y ms
y lims
} @{
å Ĩ
Ġ ze
Ġ lamb
Ġ transitions
Ġ quadratic
se mb
se ps
re fix
re servations
er m
ar ter
de ts
de comp
de queue
an neal
lo ff
di cs
ap id
li l
li go
si i
si ft
un sorted
un quoted
get Field
get Content
con son
con ference
Ġn ts
Ġn bytes
mp rec
Ġp st
Ġp ty
Ġp sis
Ġin venio
Ġs vd
um ap
Ġ" >"
Ġ" ..."
Ġ% %
Ġc ats
ol tz
Ġ{ _
pro motion
Ġre view
col late
it unes
vi al
he ating
Ġm map
Ġd op
cal ing
cl k
ff tshift
Er SampRec
date fmt
[" $
pa m
Ġ# {
'. ",
Ġx lim
py gments
cur frame
model ID
mb b
Re servation
Ġg w
Ġg tf
state id
ĠS elect
Ġy d
ĠC md
ĠC UR
sen tial
Ġcon sistency
Ġcon vention
im ask
im ped
Ġpro duction
=" {}"'.
ĠT rain
ĠP R
ĠP eriod
spe eds
rec tify
ab ric
be arer
lib cloud
ĠD ouble
bin e
ĠM anager
exp time
Ġfloat s
igh th
Ġal n
ĠR R
Co ver
float s
req Id
posi te
Id List
err ing
lu x
std lib
Ġmin us
Ġmin length
Ġ4 9
Ġas semble
][' _
spec tive
FI CATION
fla ir
Ġun packed
ĠEx ample
iss uers
Ġ'\ \\\
25 7
Ġq t
mis ses
ĠW P
Me mbers
CH R
CH ILD
window size
tick ers
bit string
0000 1
Ġinter rupt
Ġgr an
Ġ'{} ':
gene tic
Ġfind ing
wh it
TER NS
Size Policy
ĠĠĠĠĠĠĠĠĠĠĠĠĠĠĠĠ ĠĠĠĠĠĠĠĠĠĠ
Ġnorm alizers
40 5
30 8
OP S
inv asion
QU EST
pan es
web driver
=_ ("
Comp ile
Start Time
hy steresis
(': '))
Ġframe on
lst sq
17 5
('{ {{
wi lio
Level s
stage d
Tra cker
dn de
Ġgraph s
Ġ[[ ],
BO ARD
hdr info
Ġtr unk
ĠPar am
ĠPar ams
ĠDi splay
Ġreplace ments
URI Ref
Ġsm allest
Ġsur vey
feat uretype
Module Helper
integr ated
inj ections
Ġdete ctions
}] ".
Ġlo cs
sph erical
'^ (\
Target s
EC G
Ġau di
jo urn
tup s
hw addr
Project s
Scal ars
Ġgra de
Fore ground
equ ip
Interface Id
combo Box
Tensor Type
neur ite
nony m
ENDPOINT S
Ġsimple json
Ġunder stood
00000000 00000000
gre ed
Git Hub
Red uce
MODU LES
ĠThread Pool
havi our
CONSTAN TS
("= ")[
fron ts
Ġweek s
every thing
Ġalph as
ĠProcess ing
MON GO
RAN K
ĠDist ribution
Bi as
bow tie
Keep Anchor
Ġcompar ator
Publish er
bea con
eli min
Contin uous
ilation Error
Ġfut ures
sdss r
Hard ware
ENVIRON MENT
ALPH A
å¯ ¹
parg p
ĠMedi a
ĠBa sic
disambig uate
acke ts
ĠIg noring
Tracked Device
ĠCat alog
" #
) (**
* =\
- =
0 20
3 50
C lon
D ash
E A
L N
O pa
P CS
R amp
\ $
] (**
b ic
b ell
d link
d ones
d trajs
e E
f stype
f pkm
g ly
i N
i exact
j boss
j enkins
k z
k illed
m ms
n la
n ltk
p it
p sql
s lop
u o
w andb
x dum
y et
Ð µ
å Ģ
ç §
Ġ ()))
re di
re vert
in fluence
st ypes
or table
or onoi
ti ckets
ge ot
fi p
fi able
id r
li a
ch er
return er
ad os
ad ditions
si l
si lence
ct ag
(' ==
get filesystemencoding
con str
con ll
to ire
Ġin ts
ex ter
ex us
ex clusions
', {})
(" {}".
Ġs lim
file data
str len
op ti
ts pan
Ġ[ ".
par val
Ġb ars
Ġc rypt
ed m
ol ving
time Range
ob tain
pro cedures
Ġre connect
sh as
sh ield
sh unt
ub es
is Checked
Ġm dot
cal ed
cl ang
code gen
dict update
pa ble
Ġto ml
__ ._
__ ["
Ġst rength
all ing
Ġde tailed
min er
num mer
Ġe asy
Ġget AttrWithFallback
ĠS C
ĠS end
Ġy pos
Ġint ro
tag ging
Ġv l
Ġv p
ĠC C
im ant
Ġpro viders
Ġdi ffer
ml p
IN CLUDE
meta file
ĠT here
color scale
Con d
Con cat
Ġse eds
'], '
pl r
pop ped
Ġl ut
ds l
Ġk afka
form data
db path
Ġ3 9
link er
LE X
ĠM D
sco sity
DE S
SE N
plot ters
(* )
Ġpa uli
Ġen ded
Ġen rollment
Pro vision
Ġpre ce
Ġmin imize
ĠB io
ĠB LOCK
Ġsub plot
Ġ4 7
ĠO rg
Ġno tifications
ther mal
Ġj u
Ġcomp act
Ġsh adow
bs d
den ied
Key words
cer pt
Ġbase dir
og onal
ĠV CF
Ġq a
ĠL im
ĠL ast
ĠL inux
hist s
NA IL
=[ [
train ed
est he
na cl
initi alization
place d
sn rs
sn iff
Ġac quire
cap y
The me
ou i
Ġsu cc
bro k
vm r
analy tic
gy ellow
EX PORT
ach es
sol ved
alle lic
AS ON
Sh ader
mac aro
DB S
SH ELL
Ad j
18 4
)} ")
Inter vals
RI BE
Ġbatch es
nl m
Query Set
Query Session
fasta q
201 1
Ġtri mesh
As sembly
break er
lc list
MI R
evalu ations
35 7
Ġsig mas
Multi Index
gain s
PER M
Spe cies
INTER FACE
integr ator
Com ments
('# ',
IF ACE
bank s
GR P
Ġord ers
(.* )\
(.* ?)
rele a
ĠCh unk
Ġmis c
pitch er
Ġtensor s
wf k
ov y
rich ness
ITE MS
SD K
voice d
Ġcla ims
CHECK S
memo ized
OPEN ID
Debug Logger
Extra ction
ske wness
Ġty pename
approx imate
TERN AL
Ġanaly ses
Ġanaly zer
gal actic
Cho ices
Ġwi ki
CLO SED
Ġwhite list
Runtime Globals
)+' /
<< <<
ĠGener ator
spar sity
âĢ ¦
chanis ms
Depend encies
ĠVAL ID
ĠDATA BASE
Background Colour
grity Error
Ġpublish er
dend ro
colli sions
ific ance
sip pr
idi an
LANGUAGE S
lik ely
Ġevery thing
Ġeigen values
åŃ ĺ
fish er
predecess or
Quo te
ĠUcs Utils
Ġear th
THE ME
ortho log
kra us
NF KD
Ġdatas ource
Mig ration
Ġpen alty
Ġrestri ction
Inten sity
ĠPipe line
opa que
ĠWri tten
ĠWal let
ĠDim ension
CANCE L
DELIMI TER
("[# ]
! )
" -
" ></
: </
; %
A ut
B ulk
E lapsed
F ingerprint
H A
I so
J U
M aker
N y
P ers
P ref
P ag
P EN
Q S
Q g
R c
R mag
S ho
S train
S nap
T ar
T eff
W ild
Y B
\ .\
_ ])
` '
a mounts
b val
b unch
b pmn
c ers
d anger
e auth
g var
g lat
i val
i site
i zip
j unk
k ubernetes
m angle
n in
o mp
q regs
s out
s int
s mb
s unset
s ctg
t list
u T
u alization
v dims
w y
Ã ¤
æ Ķ
é ¢
Ġ â
Ġ Logger
Ġ transcripts
re in
re ma
at bat
er ance
de limiters
ti ces
fi city
fi xture
ro setta
Ġ' //
ad di
ad ers
)) (
get gr
get pw
Ġn xt
val str
ex its
Ġs ound
Ġs quared
Ġ" [%
set ObjectName
mo p
mo saic
str un
str ategies
app ended
Ġb und
Ġb ash
Ġb ib
Ġc am
Ġc au
Ġc amel
ol vers
]) [-
tr ate
po es
lin ode
pro gs
sp ine
Ġre leases
col width
sh elf
ub ble
add Class
Error Code
Ġt g
info dict
pr f
pr ange
Ġto ur
line styles
per manence
"] '
"] [:]
am f
Ġst acked
00 3
00 7
Ġr ating
Ġr pm
Ġde ferred
Ġh pars
=' -',
py fits
print d
error msg
ist s
Re m
Re served
Ġg pio
Ġg luon
pi f
ĠS ize
ĠS chedule
ĠS calar
rep oname
Ġv k
Ġv oid
Ġex periments
ĠC re
ĠC FG
sen ti
Ġpro vision
back log
ĠP osition
ĠE val
Con tain
tra vel
ĠA ir
we ixin
event loop
ĠD a
[- (
Ġnew er
net miko
em er
ast types
Ġal ter
ĠF P
ĠF igure
Type Name
01 8
32 4
Ġ4 1
De fn
post ed
ĠG ene
ĠI mp
ĠI ssue
xml New
En tities
dest s
Key Value
Key Name
Get Data
Ġ'' })
dd l
Sub mission
network ing
mem map
rule book
Time delta
clust ered
ĠQ Application
99 7
fore ach
like s
ud ge
PO WER
Log out
active Cells
:// ')
('/ %
pc tid
Ġinter cept
tx ns
fp f
Config urations
Po sitive
Ġtag ger
ĠCon f
custom ize
Th at
drop box
Ġexp ansion
'} ).
PAT TERNS
33 0
15 7
ling u
Ġ7 9
Ġback off
ribu ted
He re
rm se
Or b
mut ator
Ġtmp dir
gp x
Bo ost
19 3
Ġextra ction
Pre sent
NT P
way point
ĠK er
ĠK afka
('.') ]
SC I
Auth Error
Ġsplit ter
Ġcor rupt
Cur r
ĠDe bug
pd m
xs lt
Fil tered
ĠSt andard
phase dlc
Params Error
Level Item
MS B
Ġtri als
Ġti c
Trans late
car ts
pg m
Exec utable
trip lets
numer ation
Ġab bre
Ġab orting
Ġseri alization
Ġ~ /.
Min or
transi ents
Ġrep lic
cod able
submit ter
Ġ'* ',
Back ward
Write Into
dri ves
listen ing
Ġbuf size
Host ed
prin tout
Grid Spec
Ġut ter
scroll bar
Ra ise
ĠSub ject
met as
Skip ped
Ġdis connect
ino sity
Comple ter
ĠHttpResponse BadRequest
ĠAn notation
åı ¯
Float Parameter
Ġmut ations
GO OGLE
UNI QUE
Register ing
Ġoccur rences
Mod al
Ġtrigger s
ĠAc tivity
Imp orter
ĠBu cket
è¯ ·
Ġ([ ],
Ġcomm dct
ĠReg istry
suc ceed
pul ls
har vest
Ġidenti cal
Ġidenti fied
BV V
Ġblue print
Ġassoci ation
MON IT
MEM BER
dend rogram
birth day
slider Rep
Aggreg ation
Ġfq dn
Ġwhe ther
pmn Diagram
relax ation
ĠSeq IO
Ġduplic ated
wel ch
flav ors
ĠLe vel
stu dies
enh ance
Meter Data
jun os
susp end
tfi df
Ġelect ro
Pep tides
ĠASC II
Ġanch ors
emo ji
Ġcle ared
Den ied
vrr p
æ¶Ī æģ¯
WriteInto DebugLogger
pmnDiagram Graph
) }'
* '.
, :].
6 37
: ".
B D
C itation
C ourse
E lem
E POCH
F ri
F inish
G zipFile
H ot
L gc
L rInv
L atest
M ix
N H
O US
P n
P x
R x
S at
T p
T w
T hi
T au
U ne
V c
[ ...]
` .')
b os
b tc
d pt
e min
f cf
f coords
g adget
h un
h set
h min
i ops
l ances
n data
n obs
n blocks
n vidia
p ment
p num
r at
r ater
s bi
t ro
t master
t fam
t gz
u ca
w char
w poly
w bem
x bin
x err
Ã Ń
Ð ¾
Ñ Ĥ
à ¤
Ġ ly
re late
re pack
re factor
re vocation
en os
or ation
al lobjects
de es
ur face
co ff
te tra
id hash
ret riever
ap he
ap pear
li cs
Ġ' (%
(' ?',
)) -
con den
as g
ri or
el li
el asti
Ġp type
th et
th unk
la w
Ġs dist
Ġs ns
ck tail
ts on
key path
par man
log det
Ġf k
Ġf rm
Ġc val
Ġ* ',
time points
sp t
Ġre named
no me
sh i
xt ures
Ġa eneas
ub ar
ub untu
add cols
add Menu
fa ul
Ġm r
Ġd cm
text wrap
ff tw
ba yes
max depth
per toire
__ ("
Ġst atistic
join ts
new key
Ġx data
ci far
In struction
lab field
Ġe vals
from txt
Ġth ings
Ġg si
Ġg uid
ew p
pi cker
ep oll
temp o
{} {}".
Ġv r
ĠC lean
ĠC trl
cep ting
Ġlist ening
enti fic
color space
color ama
RE P
RE NAMER
Ġu d
gen fromtxt
ĠP s
ĠP ER
ĠE XT
AT AR
Ġse rie
work spaces
target path
ĠA mount
sor table
Ġch ord
ds id
Ġ3 8
ĠM u
Data store
iter ators
Ġpa ger
Ġen velope
mod start
Par ty
of ficial
Ġ[' #
Ġ[' <
Ġ4 4
ĠO FF
De legate
Ġan imation
sys id
ĠI I
cf m
tree view
TI CK
coord sys
src file
Ġout line
act u
coding Error
Ġun recognized
CO PY
12 9
tail ment
GE ST
cp ds
ĠH er
ĠH tml
Ġat an
sec uresystemslib
dd g
Ġsp ot
Ġread out
ĠL a
ĠL ibrary
rule set
AD J
ill ary
namespace URI
Ch anging
UN CTION
Ġ(' -
Ġrun nable
system ctl
Ġ8 2
ĠRe p
Ġac quisition
11 3
11 8
Ġtra verse
/% (
analy ser
Ġper manent
best period
cryp ter
Ġfa ult
Ġtemp oral
tile set
rl z
nb x
transa ct
15 4
Qu antification
side bar
short en
Ġle ader
}" '
ful fill
QU IT
cut adapt
Ġcmd line
Per ry
Ġcor outine
17 3
Ġchange set
Ġchange log
Ġbyte code
ĠRes id
pot entials
Const raints
23 5
Ġ': ')
:, :]
ĠZ one
Resource Id
pin ned
Ġqueue s
Ġdat atypes
flo od
Stream ing
IC AL
PA RENT
Ġim gs
LU X
Ne uro
Work ers
respon der
IF EST
ĠEn ter
Ġpredi x
supp ly
supp lied
Ġpoly gons
Ġmember ship
stim ulus
("' {}'
Ġhe ights
Ġass uming
Pr in
Api Call
Ġprevious ly
("> >>
ä¸ į
station ary
Ġut ool
ets peak
(?: [^
Ġfl ds
`` `
ĠSub mission
flip ud
whe els
met aph
Tuple s
ryp ted
collector s
contour f
health check
Ġte le
("# ")
blast file
ĠAuth orization
acces sed
Ġbar code
elect rons
Tab Post
simp lices
simp lified
HTML Parser
{}] '.
è¯ ¢
suc cesses
Ġevalu ated
vest ig
Ġlook ing
emb d
REMO VE
moti cons
Pol ler
OID C
Ġbuilt in
Ġbuff ers
Ġroom Id
Dump er
BA SIC
DK CloudCommand
Ap pro
Ġaut os
CONST S
Ġeffect s
vow els
Med Shk
Ġspi ke
Ġamb iguous
Synap se
ĠCal c
Retry ing
Bro adcast
Repe at
react ants
Ġderiv ative
PARAME TER
impro vement
divid end
æĹ¶ éĹ´
Ġcas cade
synthe tic
hap lo
favor ite
shuff led
SCH ED
Ġsaniti zed
asf array
ĠANT s
) $',
* {
/ -
2 16
= <
B ridge
C ART
G MENT
G UID
L inux
M d
O A
Q Name
S emantic
V J
W X
W hich
] ']
] ?[
_ "+
b node
b tw
b ird
c groups
d tr
d var
e z
e at
e value
e ligible
g li
h ase
i sp
k r
l arger
l mda
m list
n j
n bl
s add
s ans
s flow
s nd
t tf
w rt
x w
x start
y namo
} ],
Ð ½
æ ³
æ Ģ
ç º
è °
è µ
Ġ leg
Ġ apt
Ġ LOCAL
re y
re install
re cognised
in sensitive
st rel
en closure
sel ler
le ague
de tached
de bian
ti o
an um
lo d
ce e
ret ro
ret Dict
ue l
di visions
urn ament
._ __
(' (',
)) ['
)) ],
con sens
con omy
'] "
'] ")
ri tes
Ġp res
Ġp key
Ġin tern
Ġin compatible
Ġin verted
ex pe
ex pose
', '.
Ġi ps
end Date
ul li
um idity
mat s
mat ions
set Option
mo uth
path ways
app lic
op codes
ati m
par quet
ot ation
log Like
Ġf le
Ġf und
Ġf ine
Ġc lim
Ġc pd
ob ile
ob solete
sp inner
bu fs
Ġre member
Ġre duction
fo rensic
sh ar
sh tein
), ),
ze ug
qu orum
Ġd vs
ext ver
Ġt umor
am er
Ġst ory
read Word
Ġr z
Ġh z
=' -
new Text
var dict
pre computed
num Pix
gro ss
du id
Ġe g
from iter
group Id
start Index
Re pr
Re ferer
cs d
Ġ** {
ĠS S
ĠS V
ow l
md ot
ĠC T
ĠC AN
ĠC ell
ĠC ategory
ĠC RC
Ġbe acon
Ġcon sumed
Ġcon tigs
][ ^
ann s
Ġpro t
meta model
ĠT OK
Ġop acity
Ġu fo
gen ic
sign ers
Ġse ct
Ġse em
ab orted
run ners
Ġl f
Ġk d
tp f
rc v
ST ANDARD
lob j
ID M
ID LE
so matic
bin aries
wa ves
job Id
DE CL
Ġco bra
Ġen cryptor
Pro cessed
ĠB us
64 0
of p
ĠO bj
Ġas yn
De code
De sign
Ġan ime
post e
ĠG ithub
Ġj itter
save as
save file
bs r
fs path
mon day
"]) ]
ĠH z
Ġpy bedtools
pol s
ĠEx pr
Ġ5 1
Ġres cale
Ġsp ans
Ġq c
SS M
ĠW ITH
hist ories
NA V
connect s
Ġ', ')
show Name
CON N
star red
Ġ'{ %
Ġ'{ :.
hex a
:// ",
Ġret ention
place ments
look ing
ĠRe f
bit width
20 6
real Path
dis go
dr ated
sw itched
Ġtable Name
rest ored
analy se
mu g
24 5
Object Id
Ġlocal ly
80 211
Th ing
python path
ĠY ubi
VER S
'} ]
IO Wrapper
Ġ') ',
15 9
Bu gzilla
)** (-
30 5
gt Key
az i
==== =
19 7
Ġremo val
sist ant
From Serialized
Ġbin ned
Reg Item
}/ '.
Ġ(% .
dc nm
dic Cnfg
ĠPro ba
xx xxx
sg f
Al arm
VI SIBLE
ĠKey word
paren semble
fast qs
Ġconne ctivity
virtual chain
DIR S
Box Sizer
\' '
Filter ing
dum mies
95 7
ha res
ste ady
ste tson
mime types
Gener al
Ġme chanism
Method Type
Ġrep lication
Sc ripts
Page d
={} &
Ġman ip
fastq files
Ġreal path
Call s
DA V
Sp nbx
29 4
ench mark
Ġpmag plotlib
Ġau c
prime s
ĠCO UNT
Ġmis sed
dur ing
Ġtensor flow
learn ers
],[ ]
occur red
slope s
CB C
Ġatom ic
pow ers
Ġmut agen
Ġblob xfer
ĠMulti Index
cron s
Ġassign ments
alo ader
Ġmem map
FIN ISHED
OPEN JP
Li quid
toc sc
GROUP S
==' ':
Byte Array
ĠTag s
ĠParse Exception
Ġho use
æĸ °
Ġus b
Rot ate
dut y
MEDI UM
åħ ¥
regulari zation
Overlay Handle
Ġhard ware
Ġhdu list
Ġpag ination
DELI M
Contin ue
PAN CTL
Ġ"; ".
Ġsubstit ute
ligh ted
Bro ker
omit ted
ARI TY
explain ed
Ma jor
å¼ ı
æī Ģ
RAD I
ĠDyn amips
Candid ates
cad ence
PAY LOAD
Ġatten tion
ĠFAST A
ENO ENT
ĠWS GI
ĠOUT PUT
SPLI T
discri minator
perplex ity
ALGORITH M
equipa mento
KWAR GS
' ve
. )))
> '])
C oin
C ID
C MP
C licked
D s
D ig
D Type
D URATION
F la
G ORY
I W
M argin
N V
P id
P ending
P ULL
S n
S s
S am
S tem
S quared
V CS
X C
X DG
_ ']
_ ="
a side
a Process
c ame
c ids
g mag
g ive
h len
h space
h aving
h fos
m ann
m ft
n ids
p gen
p ragma
q e
r uby
s file
s value
s ass
s dl
t ms
t df
t reen
t series
y ond
} >'.
å ī
è Ĥ
Ġ usr
Ġ UTF
Ġ visibility
Ġ ancestors
Ġ quota
Ġ transit
Ġ combinations
ł ģ
re sistance
in sights
er cise
en sities
al at
le ms
le ctions
ti ca
an tage
te or
te ss
ro ad
dat adf
Ġ' ::
ut ool
)) )))
un assigned
get Output
con versions
'] -
'] )),
Ġn tp
Ġn ltk
ri l
Ġp u
Ġp sy
Ġp ds
Ġin heri
ex po
ex ac
ex perience
ma mbu
Ġi j
um is
Ġ" ..
mat gen
set Y
file handler
key frame
type Name
Ġ( $
log f
Ġc ance
Ġc affe
]) [:
") (
ation Error
po ts
time scales
ve p
Ġre cover
Ġre cognised
vi olation
), \
is ons
he a
Ġm max
Ġd ont
obj id
ff n
ig a
ext num
Ġt ds
pr ww
pa reto
Ġw o
dir names
line arity
per l
__ '])
Ġst ash
=' ?',
new pos
py obj
pre ci
pre proc
user Id
In sensitive
sub g
sub name
Ġth r
ip lot
Re start
Ġg rain
ĠS ec
ĠS ave
ĠS tep
Ġv b
Ġex ceed
request Id
ĠC TRL
if old
if rame
enti re
Ġfile Path
meta wargs
ĠT RAN
class Name
Ġu k
']) ])
inter s
gen ame
back wards
ĠP retty
Con tour
Ġse gs
Ġl and
ber g
mi otf
form field
vari ogram
ĠD river
last Name
last block
db f
db io
so c
ĠM PI
exp s
net conf
Ex act
order by
Ġal loc
Ġal located
Data Set
ĠF older
Co v
(_ (
Ġdo ing
ten ame
bi j
first Child
search able
mod stop
ori al
make ApiCall
Ġsub tree
])) ))
stream link
stream let
ĠO ri
av or
full Name
Ġun lock
Ġun install
No tify
AC TI
vo uch
Get Cell
ĠH andler
Ġat least
const rain
cell ular
Ġq name
Ġread me
)), (
ai red
AD R
NA P
non null
99 0
cc c
show n
fill ing
fill color
PO LI
CH ROM
Ġreg ulari
Ġsy llable
cre dits
ĠU ID
ĠRe il
20 3
Ġsu ite
dr ug
prop ortions
obs val
Ġma ch
Object Type
): ')
Ġcl f
80 7
80 80
keep dims
Th umbnail
sim ulator
pipe tte
drop down
.* )',
Ġdate fmt
IT UDE
14 6
Ġ') ')
DO I
Ġext ents
Gr r
Ġ7 3
40 9
Ġpri ces
Ġpri mitive
Ġup loading
Ġtmp file
gp d
combin er
AP ID
Group Id
Pre pare
ĠK s
SC REEN
cla de
tt Font
clip se
Inter faces
Ġnon zero
+' _'+
wi pe
Ġpost fix
nu cs
gl ue
Command Error
Ġph ot
Ġcalc ulator
("{ :
ha ir
sat ur
bal ancing
pin yin
ĠDi ctionary
Ġimp ro
NE SS
WS GI
Ġrep orted
Ġvi olation
Ġbit coind
({" _
hg vs
Ġmu ch
vc x
Ġdesc end
Ġmonth ly
CF Release
dash es
nick s
appa rent
Return ed
Ġsepar ated
ĠSy m
PL Y
AUTH ENTI
orth ology
void age
Ġtab lename
Cor relation
anno ts
health y
destroy ed
Ġte e
ĠMulti part
ru g
ru oa
Enter ing
ĠAr ti
comb os
writerow s
orb pop
Extra cted
album s
ĠState ment
('| '.
elect ron
chk sum
Ġcent roid
Ġcent ral
Ġdiag ram
Ġdisc ord
æľ Ł
vest ing
Ġcrop ped
Pop ulation
Ġband width
Ġpol ling
Std out
Press ure
ĠExt ended
Ġvcf utils
("* ",
ĠFe ed
RAN DOM
Ġpys at
autos cale
monom er
assemble d
JOB S
ĠAb stract
spread sheet
ĠTer minal
dock widget
Predicted State
abund ance
fre quent
cub ic
forwar ded
VL X
Ġapprox imate
Overlap s
Ġib miotf
scaff olds
Ġrg ba
ĠMIME Text
scen es
INST ALL
bitr ate
Place holder
Va ult
GetPoint Data
grace ful
FileSystem Loader
ĠDescrip tor
sponsor s
Ġfoot print
Ato ms
çĽ ®
expon ential
Ġsmtp lib
Neighb or
redund ant
JAV A
ĠNT U
amend ment
æŁ¥ è¯¢
ĠHyd ra
PRODU CT
Tol erance
exter ior
MONIT OR
è° ĥ
FromSerialized String
" &
" '.
" $\
) =
* }
- '+
/ ]+
3 11
: [
; '.
A J
B Z
B ob
B io
C pl
C ritical
E s
F SM
G row
G SS
H s
H BoxLayout
K L
K w
M ini
M argins
N ature
N ano
O U
O s
O WN
P as
P ast
P DU
P oll
Q Label
Q ubit
R va
S d
S leep
V el
W GS
Z I
_ ._
a as
b mp
b link
b ns
b cr
c row
c cs
c names
c bs
c def
e str
e be
f var
f pix
g cp
g vc
g aphas
h ba
h Process
i var
i row
i pos
i ous
m X
n arrow
p ga
q id
t loc
t ween
u ite
v len
v ag
v txindex
w vl
} ').
Ñ Ģ
ã Ģ
å ¹
ç łģ
Ġ LENGTHS
se maphore
re ordered
re curring
st l
or ic
ar man
me cab
co he
id cs
id na
() ',
() ",
li f
li sp
si ti
(' ='
(' **
un registered
get line
get doc
get Page
get addrinfo
'] [:-
Ġn row
ri vid
Ġp mid
Ġp lug
Ġp tc
Ġin cr
Ġin dependent
ex cerpt
Ġi oc
ul OverlayHandle
Ġs ma
Ġs os
Ġs ay
Ġs rs
Ġs nps
Ġs caff
Ġs coring
up ic
ms d
Ġ( .+
Ġf ed
Ġc irq
ed a
ve led
sp matrix
list Regex
Ġre lax
Ġfor bidden
Ġa cf
raise s
Ġm ention
max i
per ipheral
index Of
"] (
"] :
Ġst amp
Ġr fc
Ġde fn
Ġde fs
Ġde dent
Ġh ar
Ġh ack
=' "+
do w
error Code
Ġg ff
Ġg pd
om d
np du
ĠS pect
ĠS UP
Ġy t
da gs
base string
base Path
{} \'
tag list
fix er
ann ers
im u
=" -
=" {}
ĠT e
Ġu y
Ġu dp
check list
ĠP andas
Ġse x
ref l
pl d
pl ans
ĠA void
ĠA CL
Ġkey board
Ġof s
raw data
api url
vari ed
ĠD id
last rowid
fin alized
ic ing
ĠM I
ĠM sg
Ġnew name
St oring
ĠF ixed
ĠR i
Co vs
Ġline sep
SE QUENCE
Ġco sts
Pro cesses
File Error
File Writer
Ġpre view
Ġmin im
Ġsub scriber
char ts
extend able
01 7
Di rect
Ġcur ves
open s
sys path
Ġtf p
{' $
TI L
Set Font
delete Later
To Json
Ġun set
cer tificado
Get String
Get Next
ari al
Ġ5 4
dt d
Ġbu dget
ĠW h
tf req
radi al
Ġlog level
ĠX ml
rs vp
esc apes
Ġ! ")
na vi
thread safe
Ġarg in
Ġarg parser
ĠU sed
rect wv
Ġuti lity
Index ed
real ms
Ġ'{} \
dec r
sw i
Ġcopy ing
Ġcheck out
Po licies
Ġbo ost
empty DoubleVector
Ġ'') ]
analy st
Ġlabel size
fetch ing
fetch es
Ser vers
extract file
Ġcl aripy
ĠCon ver
expand er
dx id
Ġuse cols
User Name
spect rogram
ĠY YY
Ġvar kw
Gr ad
Ac cepted
AS Y
Ġback ends
30 7
Ġmake element
PRO TE
win ners
Ġtotal s
}. \
On Image
Ġparam iko
ĠData Error
band pass
]]) .
App lications
tt d
cn st
Ġclo sure
.) *(
owner ship
vol t
nl h
Trans formation
Trans lator
compo ser
car bon
ĠNo thing
come s
Ġme ters
Ġmp i
PA IR
live red
Su ite
Ġsign er
Ġgene sis
mav util
Ġuni versal
Pos sible
Ġwin reg
aut ore
('> ')
ĠCol ors
Ġqu ant
uch db
AB F
Ġconver ged
Ġ'" {}"'.
Pool ing
phone mes
EXT END
Ġpid file
Ġcv x
AUTH ORIZ
CONT IN
Ġhand les
+) ?
who m
Non ce
ko ji
Tensor Shape
Ġcre dit
Predi cate
Mapping s
Ġacti vate
rough ness
Av ailability
nex son
My SQL
{}, {},
Expr Node
boost er
Ġcirc le
REQUI RE
Ġevalu ator
replic ate
amplitude s
objec tids
intr insic
BUILD ERS
announce ments
sem ver
Light Curve
Hand ling
GA IN
abund s
xFFFFFFFF FFFFFFFF
Ġperform ance
ĠConst raint
ĠInst ant
buy er
Issue d
Ġdirec tives
Ġgui de
Ġpast e
Ġsimp lify
JLink Exception
Launch ing
clin var
EDI TOR
kra ken
Verify ing
Ġtransformation s
ANNOT ATION
ĠMet ric
Integr ation
ĠEl lipsis
ĠDescrip tion
Ġplat forms
Decor ator
ç¬ ¦
MID DLE
ASC ENDING
framer ate
registr ations
cellsPer Column
Ġviol ations
THUMB NAIL
recor ded
esthe tics
ĠANTs Image
ĠTOK EN
ĠYYY Y
" [\
* ']
+ )",
, .
0 50
1 55
2 13
= ())
A nom
B ORDER
C txt
C pu
C aching
H ow
L x
L ar
L azy
N ii
P X
P ad
P retty
P LOT
R at
R ti
S ch
S lack
S lope
T m
U X
V T
V X
W el
_ {}
b st
c q
c Pickle
d C
d sc
d port
d mag
e bs
e rer
f tr
f cp
g lu
h q
h oliday
i M
i w
i mb
i als
m A
m ri
m ant
n sites
o data
p ps
p wr
r value
r ub
r peri
s ra
s idx
v data
v dr
z lim
è §
Ġ INFO
Ġ Trying
Ġ vehicle
re la
on o
en cryptor
ar sen
ar duino
al a
de json
de register
ge m
an ion
co hort
co variates
co digo
lo x
ro d
di fy
Ġ' })
ad res
(' ([
(' ''
un ay
un ordered
un locked
get Re
get Info
as in
res net
Ġp refs
Ġp ackets
th em
to f
Ġin clusive
ul ators
ul ename
Ġs lab
Ġs low
Ġ" ~
Ġ" ),
Ġ" **
set Item
app ointment
op f
ms vc
Ġb t
Ġb pmn
out p
out data
Ġ1 01
Ġ* .
tr fs
time scale
lin der
ss o
pro fit
sp d
bu bble
Ġre fer
no un
vi ps
fa x
fa de
he avy
Ġm ixed
Ġd ark
Ġd amp
fig num
cl er
date str
Ġt angent
pr tfmt
pa wn
ass o
ass ay
our ier
__ :
"] })
Ġst u
Ġst ars
Ġst retch
Ġis lice
et f
Ġr atios
Ġde al
new data
print Ln
head less
sub query
und red
mb iguous
son s
Ġget opt
([ ("
Value Ex
count down
md ay
Ġpar ms
da emons
match dict
{} }
Ġv dn
Ġcon cept
enti ally
Ġdi vider
IN EL
ĠT or
']) /
uni versal
sta bility
ode tic
pl uralize
pop size
ĠA DD
we ird
lib crypto
trans mat
ic p
Ġtime period
ĠM ode
dep ot
ĠF qqqq
ĠR T
http lib
hash ing
}) :
Ġco in
Pro d
ĠB G
EN CRYP
Ġsub fields
Ġsub folder
Ġsub sequent
Ġas signe
Ġas sessment
lon gs
change list
ther mo
param iko
ĠI gnore
br ws
Ġout s
tor s
box list
dest path
gener ating
SI MPLE
12 2
mon key
Ġat ype
inst s
Ġobj ec
not ch
Ġ5 7
ĠL D
ĠType s
tf p
Ġlog l
multi variate
cc ube
Me ans
Me dian
PO LY
active Columns
Index er
Ġne gate
bit field
Ġtra cked
Ġ'{} ',
Ġ"/ ",
Ġiter ate
Ġcl ust
off ers
Ġ"{ {
fail ing
Out s
depend ents
(', ')))
Event Loop
Ġwork bench
Ġup sert
Ġshould n
unpack er
Ġ9 4
AP s
Comp ressed
Comp osite
diag s
On line
rank ings
From File
lip d
private key
Ġtrans lator
Ġcor rupted
Ġoper ands
17 9
ĠPro blem
Ġdiff lib
POST AG
Base name
}{ :
free vars
pd n
wi fi
fc m
75 6
Al lele
API Error
Ġ") ")
Graph Keys
Ġ... )
cloud watch
fft n
Ġmy str
23 6
ration ale
Range Params
200 7
ĠRE F
ĠRE S
Int ent
77 4
ij k
Ġct r
Ġemail s
Ġ$ \
ĠAt temp
Ġcli que
Ġar cs
Ġfit ness
Ġsur vi
integr and
Ġpe ople
Var Binds
'^ (
DA G
Ġfail ures
('" {}"
rdf lib
Pr bs
Ġrender ing
(.* ?
pur ch
hold ing
COMM ON
deli tem
visu alization
Samp ler
BB B
Ġcom bo
stroke s
Ġsyn chron
equi valence
ĠClient Exception
air speed
Initi alized
cha indb
Ġorg anism
ĠMe an
Ġenviron ments
ĠNum eric
OUTPUT S
APP DATA
syl labi
Sig ning
Ġunder stand
Ġsk image
water mark
could n
ä» ¥
nomi als
curl y
('~ ')
Authentication Error
coerce d
Ġappro val
Cy cles
migr ator
MB DA
nbr s
Bl ank
rit ory
Ġho mo
ĠWork er
har poon
Ġmig rate
Pol ling
hypo thesis
ĠReturn ing
3333 3333
HAND LERS
Rot ation
("~ /.
Arti cle
Ġrece ipt
Hand lers
Ġtrun cated
grand parent
later al
Ġinstrument s
Oc tets
Authenti cated
flight mode
spell ing
diagnost ic
caff e
fle et
Reci pe
EndOfPrd vP
negoti ation
Candid ate
å° Ĩ
privile ges
rever sible
Proba bility
basel ines
abcdef ghi
ĠCard inality
Dut y
promp ts
SOFT WARE
rede em
ecti veness
ĠSoft Layer
fea sible
ĠArch ive
greed y
Opa city
addClass ToGraph
dbio grid
! --
$ ']
' --
' /'
) $
) ^
2 60
4 80
4 85
: :%
A rt
C X
D LL
E very
F B
F REQ
G as
J a
N M
N W
N CB
P sat
Q C
Q gs
S ke
T UN
W kt
X E
Y U
Z F
_ [:
` :
b gyellow
c dx
d O
f args
g le
g ating
h k
h ops
h aps
i lo
n fa
n mb
n steps
n walkers
o z
o uti
p ch
p fs
p nt
p ene
p illarenv
r sc
r anch
s fn
t ren
v h
v layout
v bm
w ed
x h
| ',
} ."
¦ ģ
æ Ľ
Ġ rol
Ġ ticker
Ġ adjacency
Ġ 999
Ġ quantiles
se quential
re ti
re presenter
at ab
st ellar
en ri
sel inux
me tic
ti ed
ti fier
co se
lo se
() },
di pole
li mage
ad u
ct oo
(' )',
(' ***
)) ?
)) *(
un nel
un less
un paired
get response
get Column
pe s
pe so
pe gasus
[' ']
for c
Ġn la
Ġn par
Ġn od
mp d
el vin
res c
res ids
data Frame
Ġin tr
Ġin sn
ex am
Ġi de
la re
ul ers
Ġs dp
Ġ" (%
Ġ" ;"
set Layout
file time
file types
es xi
Ġb v
Ġc im
Ġc rl
Ġc rval
ed r
out prefix
]) ([
ss c
sp end
col span
sh im
Ġa q
Ġa str
add To
he ater
he alpix
Ġm g
Ġm us
Ġd S
Ġt ty
Ġw b
Ġto pk
com ms
us sion
bo de
"] ]["
Ġst ations
sc c
Ġr u
Ġr max
Ġde compress
do is
py class
py test
py vl
ci ted
pre factor
pre conditions
min size
model Params
ca file
ac id
Ġg ates
tri ang
fil ls
fil eroot
ust ext
Ġget Tool
([ ]),
ĠS ent
ĠS orted
ĠS IGN
Ġv host
Ġv rn
ĠC ar
ĠT ER
Con tains
ab e
work sheets
run Set
ĠA ff
we ka
raw l
current Item
ĠD AY
)] *
db i
func Name
ids file
ĠM ig
doc x
doc strings
wa itable
St ub
fir t
ĠF UNCTION
Un til
ĠR A
DE PRE
]] ])
Pro ps
Par sed
Ġconfig urations
Ġmin idom
Ġ'. %
Ġ[' _
Ġ[' {
De ad
De composition
post script
ĠG PS
spec num
stamp s
FI TS
Set Data
project name
Ġcomp lement
identi fication
SI VE
Se quential
Get Path
unt l
top ts
ĠH andle
Ġpy emma
ari o
Ġ5 3
mark able
Ġ'/ {
Ġ'\ \"
ĠV I
25 8
ĠL anguage
peri odi
ai j
ill umin
Time zone
ĠX s
DI RECTION
CON VER
ng p
rate limit
Ġmo vie
Ġac celer
sin h
At trib
FA MIL
]+ '.
sw ag
bot tle
Not Supported
Ġ", ")
=% (
.* ?)\
cb fun
EX TERNAL
IO C
storage s
Gr ant
verify ing
Ġwork dir
ef fort
iso chrone
Ġlib spice
Ġpack value
19 4
19 8
Start up
origin als
ĠData Array
Ġtrans lations
18 7
multip lex
ĠPro vider
tw isted
Run s
pm ts
HTTP Connection
ĠCo ord
22 8
Ġloc ated
ptr s
CS RF
("- ")[
continue d
Ġ... ",
Ġti lt
23 8
nest ing
200 9
((' ',
Warning s
Ġseri alizable
take s
Fa ke
under lying
Thread Id
(", "))
Su c
Search Result
Ġmx net
Ġpkg name
Ġaccess or
sudo ers
Template s
Ġman ual
lb d
Core Foundation
mn op
balance s
29 3
ename s
TEXT URE
Ġoff line
ĠCO DE
AUTH OR
fraction al
REF RESH
Rel ated
Rel ay
sam file
predicted Field
tur icreate
visu alize
Err Covs
thumbnail s
mor phology
Ġhand shake
ALI ZED
Ġcom b
ĠST D
ĠFor ce
BACK UP
Internal Exception
Mark down
qte Admin
human ize
Protocol Error
persist ed
adap tive
ENTI TY
Ġflux es
WR ONG
Cap tion
Chain s
foot note
Cy an
Ġva ult
Ġmk dtemp
Ġcomm its
Double Matrix
}` ".
}` .".
Full Name
Ġintegr ate
Ġlook s
ĠPre fix
Split ter
Geo Transform
tap ers
convers ations
dyn sp
Ġred und
ĠCur ve
ipy client
Ġcomple tions
Ġser vo
presen ted
ĠMark up
Mdl Params
æĹ ¥
ĠConst ant
kd tree
Ġpref etch
Embed ding
hdl r
lea fs
GENER IC
MARK ER
PROPER TIES
Cla use
Boot strap
ogen ous
promo ted
adverti sed
?, ?,
Whe el
Ġgau ss
igab ite
lcm ad
minim izer
SAMP LES
Ġdatal ab
CHARAC TER
æŀ ľ
getLocal Id
ĠVeri fication
ĠSaltCloud SystemExit
COLO UR
ĠDepend ency
cvt Color
[...]
